#version: 0.2
Ġ t
Ġ a
i n
h e
r e
č Ċ
o n
e r
a t
Ġt he
Ġ s
o r
e n
Ġ c
e s
Ġ w
i t
Ġ o
n d
i s
in g
a l
Ġ p
o u
Ġ f
a n
Ġ b
e d
a r
Ġ in
Ġ m
Ġt o
Ġo f
Ġa nd
Ġ d
i on
i c
l e
o m
a s
e l
Ġ h
Ġt h
en t
Ġ re
s t
c t
e t
r o
Ġ n
Ġ l
i l
Ġ e
i m
u t
Ġ y
v e
Ġ g
i d
a m
u r
Ġ is
c e
o t
Ġ T
s e
i g
Ġy ou
Ġf or
Ġ I
o l
at ion
l y
Ġb e
r a
c h
o w
Ġth at
Ġ u
v er
Ġ A
Ġs t
Ġ on
i f
Ġ S
a d
a y
Ġ =
it h
i r
Ġ C
u l
Ġa s
Ġ it
o d
Ġw ith
er s
Ġc on
es s
at e
Ġ "
Ġp ro
Ġ he
Ġa l
es t
or t
g e
Ġd e
Ġw h
Ġa n
is t
' s
m ent
p e
a b
k e
Ġe x
el f
Ġc om
Ġ M
Ġa re
Ġ or
r i
r om
a c
q u
Ġw e
he r
t er
u s
p p
it y
re s
Ġ B
u m
il l
Ġ v
ĠT he
Ġ P
o p
Ġh a
- -
o re
o c
u n
en d
Ġ (
ig h
e m
Ġ W
t h
Ġs u
l d
i es
a in
Ġ H
o s
an t
u st
Ġ 1
Ġn ot
Ġn e
Ġc an
i ve
n t
i v
im p
Ġ r
Ġs e
Ġa t
i al
a nd
ar t
Ġ D
Ġ F
p t
Ġw as
Ġyou r
Ġ R
Ġ L
e ct
Ġ N
Ġc h
am e
u re
i z
Ġf rom
Ġth is
ou t
Ġb y
igh t
p l
Ġ 2
Ġha ve
Ġ le
Ġs h
Ġ E
ion s
p er
Ġ G
al l
re d
o g
t e
u d
a ge
Ġs elf
Ġ '
Ġ en
a g
u e
ou r
r ou
Ġw or
Ġa b
Ġ imp
on e
ar d
o st
om e
ou ld
c l
Ġ O
Ġthe ir
Ġ if
or m
in e
f f
Ġp l
# #
an ce
ul t
as s
g h
el l
a ct
) :
= =
i p
Ġal l
Ġ k
Ġ j
ab le
a k
Ġa d
id e
al ly
t her
Ġu s
Ġcom p
Ġw he
i e
0 0
a re
Ġre s
an s
ac k
in d
im e
Ġw ill
i le
c c
ation s
s elf
Ġd o
ur n
Ġg o
o k
Ġthe y
ic h
as t
ig n
" "
Ġh as
at ed
x t
ic e
Ġ #
Ġ -
Ġc l
a p
Ġin t
Ġt r
i b
f orm
en ce
ou s
Ġcon t
Ġm e
ĠT h
Ġo ut
on g
T he
a ke
-- --
in t
Ġ J
c on
e p
Ġ U
Ġb ut
s o
d u
Ġm ore
ic al
Ġt e
Ġde f
Ġm an
or y
Ġwh ich
at a
Ġu n
Ġs o
ĠI n
en s
e ar
ver y
Ġa r
ar y
Ġre t
ct ion
Ġh is
i re
' t
at h
Ġwor k
a ch
Ġal so
a ce
Ġab out
r y
o b
as e
v el
Ġwh o
Ġu p
r u
Ġon e
Ġl i
o ok
or d
( )
it ion
Ġo ther
u b
d e
Ġe v
a il
f e
res s
ic t
o se
ou nt
n ow
Ġd is
Ġimp ort
or s
g et
a v
Ġ qu
er v
Ġf e
it e
el y
ar k
i a
Ġo ur
re at
_ _
Ġt ra
er t
Ġt ime
ing s
' ,
Ġp art
Ġp er
Ġ Y
ĠI t
Ġthe m
Ġs p
Ġa pp
t y
nd er
Ġcom m
c k
an g
a u
Ġs c
ent s
c es
n e
Ġret urn
Ġ2 0
Ġp e
Ġ K
b er
ver s
Ġe m
il d
) ,
Ġof f
Ġthe re
Ġg et
Ġbe c
Ġ |
Ġ ro
u al
Ġm y
Ġwh at
ĠTh is
j ect
re n
Ġp re
Ġs ome
re e
Ġli ke
Ġit s
if ic
Ġa g
ay s
Ġwhe n
Ġan y
ment s
Ġne ed
Ġa cc
op le
Ġk now
iz e
Ġo ver
Ġint o
Ġwe re
Ġne w
Ġ V
Ġ" ""
l l
Ġre c
pe c
" ,
## ##
l p
ĠC h
p ut
c ess
Ġu nder
ĠS t
Ġh ow
ou nd
. .
in k
Ġs a
Ġin d
te xt
Ġh ad
o ve
Ġbe en
Ġas s
Ġst r
Ġpro v
rou gh
Ġm ay
Ġhe r
o f
Ġpe ople
it ies
l ic
Ġhe lp
at es
is e
is h
Ġ [
Ġcon s
o v
Ġy ear
od e
Ġa ct
i ous
Ġ ra
Ġp r
re nt
Ġd es
l ow
r it
ou gh
ol d
Ġn o
n ame
Ġw ould
f ul
n ing
et h
Ġre l
ic k
ar g
ro w
Ġthe se
cl ud
o y
oc k
il ity
ri b
am p
pe ct
Ġj ust
Ġs y
i an
ir st
Ġth an
Ġv al
Ġex per
Ġ1 9
Ġin v
pp ort
i ent
Ġc ol
Ġ 3
p h
au se
Ġat t
w e
. "
Ġb et
od el
at ing
Ġb u
I n
c om
at er
an ge
Ġad d
ic es
l o
e x
ers on
a x
Ġu se
Ġin ter
f t
Ġd if
) .
in ess
rou nd
Ġ ke
he d
ĠH e
Ġth rough
en er
i ence
o int
an c
Ġm ake
o ol
Ġon ly
ce pt
f rom
os s
Ġ 0
le ct
h ip
p ar
Ġin clud
f ter
Ġs erv
Ġa m
Ġd ata
p on
Ġre g
w n
g r
c re
ow n
y s
ra ct
Ġpro du
Ġm ost
or k
) )
---- ----
if e
ion al
Ġsu ch
Ġre p
m s
Ġe ff
u res
v al
u p
en c
ol og
us iness
Ġf irst
Ġw ell
Ġre qu
Ġ el
ic s
en se
Ġo b
l es
| >
< |
Ġs et
a w
he n
ur ing
ie w
t ing
m er
Ġwhe re
Ġre m
Ġn um
ul ar
( '
u es
it s
is s
= "
Ġs pec
' re
Ġ im
p ro
ak ing
ĠW e
Ġe very
Ġp erson
ib le
w o
w ard
ate g
Ġc o
Ġin st
Ġsh ould
id ent
ot h
at ch
Ġse e
Ġ +
vel op
Ġtr ans
== ==
e f
i ed
at ive
. _
ation al
st em
Ġman y
al th
Ġb usiness
Ġsu b
Ġs he
Ġt y
t en
Ġ :
Ġm ark
as ed
Ġw ant
an y
Ġc ould
st r
Ġw ay
e c
( "
ĠA nd
Ġf in
p ath
s s
Ġl ook
s c
ad e
Ġ ent
al s
Ġb ack
il y
Ġb l
ow er
Ġdif fe
Ġst ud
Ġr ight
Ġp h
' :
ĠU n
Ġin s
ent ial
Ġp ol
o od
Ġev en
Ġ {
ar s
' ]
ĠY ou
Ġbec ause
Ġa c
g an
rib ut
f ore
de f
end of
ar ch
endof text
Ġo wn
Ġde c
Ġt est
t s
Ġde velop
Ġ20 1
k s
Ġex p
h at
ust om
i x
Ġle ad
' )
Ġwor ld
Ġst art
Ġthe n
Ġc re
Ġh igh
Ġs ign
p s
ch n
t o
Ġyear s
i el
r or
er n
Ġt wo
ĠN one
* *
Ġ 4
st and
u ch
am s
n ess
Ġl ife
Ġa fter
iz ed
Ġpro cess
er m
Ġth ose
Ġcomm un
s h
d er
ty pe
Ġ very
Ġth ink
Ġin te
Ġres ult
" )
re ad
n g
Ġa ut
en g
Ġh im
l ed
f ig
2 0
Ġl ong
Ġpl ay
Ġsu pport
Ġbe ing
Ġ end
Ġmark et
he s
on s
Ġg u
Ġ= =
ot her
it ed
Ġsy stem
Ġv ar
Ġin form
b le
Ġo pt
Ġp res
imp ort
a pp
ĠR e
[ '
Ġ 5
al ity
Ġm ed
iel d
Ġar t
iv es
ol ut
Ġs m
Ġl ist
Ġprov id
ag es
Ġgo od
w ork
Ġf ind
ire ct
v ing
Ġsa id
l ine
Ġdo es
e ver
ĠI f
Ġad v
e w
Ġus ed
Ġo p
at ure
on t
in es
ar n
al e
at t
Ġl oc
Ġex t
i o
Ġd et
f l
re st
p r
Ġc all
t t
] ,
i et
Ġc ustom
Ġdiffe rent
Ġpro f
ter n
Ġg ener
r ue
#### ####
u ally
Ġd on
we en
Ġt ake
Ġte chn
Ġd id
Ġn ame
it t
Ġdis c
v en
Ġc ur
Ġn ow
Ġb el
Ġd ist
Ġg reat
s et
is ion
Ġc he
Ġc are
Ġwh ile
ol low
p y
ĠC om
as h
Ġs oc
a ir
u nd
n ect
Ġres pon
a pe
Ġag ain
Ġf am
d ata
c ed
Ġm odel
Ġbet ween
Ġ ed
Ġhe alth
Ġm uch
Ġf il
n er
ra nd
an k
Ġp ub
r ic
Ġe ach
Ġha nd
ĠThe y
amp le
cl ass
Ġre ad
Ġprodu ct
Ġh ist
Ġb est
Ġs ur
Ġbe fore
Ġm em
it al
e e
in ing
Ġ _
â Ģ
in s
Ġd own
ĠP ro
our ce
Ġsh ow
ru ct
Ġcomp le
at her
Ġc ount
Ġs k
d ay
Ġb oth
Ġm ade
iv id
, "
Ġfor m
Ġm on
Ġunder stand
Ġimport ant
is m
i er
Ġel se
Ġm ain
Ġs er
Ġb r
ra y
v iew
i red
ist s
am es
ĠA s
Ġf act
Ġf un
Ġapp ro
Ġre f
Ġst ate
Ġde p
Ġbu ild
cc ess
w are
im es
Ġfe el
Ġeff ect
a ve
Ġall ow
Ġa v
u g
Ġcont in
Ġdes ign
ĠB ut
an n
rou p
arg s
Ġf ollow
c ent
T h
ur al
olog y
Ġinform ation
al k
Ġp ass
Ġcl ass
Ġm in
Ġc le
od y
Ġa p
Ġval ue
at or
d ition
pl oy
Ġexper ience
u c
Ġre al
Ġex pl
ĠA r
Ġc our
Ġm ust
Ġs om
ul l
v ed
v es
Ġf l
i qu
i vers
ĠF or
o x
id er
ak es
" :
Ġs ame
in ed
Ġp ur
Ġpart ic
Ġf ound
ĠH ow
ad d
Ġ *
g er
Ġp oint
c ur
"" "
ĠA n
if y
l ess
Ġinv est
eth od
Ġp os
as on
et s
o ver
Ġ x
ic ally
f ile
O N
ou n
v ent
Ġch ild
Ġg row
al se
Ġor gan
ri pt
a h
d s
Ġen g
E R
I N
Ġke y
a z
Ġd el
Ġ| |
Ġp ri
ch ool
er g
Ġhe re
ar m
as k
mer ic
in ce
00 0
ab ility
Ġis s
Ġen s
el s
Ġc ar
b s
Ġof ten
iz ation
p ort
ivid ual
Ġle g
Ġg l
a ult
t he
y le
Ġin cre
ar ly
| -
Ġc or
Ġp ower
1 9
us s
Ġop en
w ay
ĠA l
t est
Ġc ent
ra ph
Ġd ay
Ġth ings
Ġl aw
Ġd uring
Ġh um
Ġr un
Ġgo ing
Ġa round
ir on
Ġre ally
Ġp oss
Ġv is
Ġ 6
Ġh ome
ro ss
in it
' ve
Ġ čĊ
Ġp ar
Ġth ough
a red
Ġs ay
t ain
Ġw rit
Ġl og
Ġind ividual
Ġnum ber
Ġd irect
Ġpro gr
Ġwith out
.. .
Ġte am
Ġinte rest
ant s
Ġtr y
Ġm ight
ĠS o
Ġ est
w ays
Ġty pe
s ize
Ġch ar
Ġst ill
Ġp ay
on d
Ġinclud ing
Ġcomp any
Ġar g
Ġus ing
ert ain
Ġm od
] )
le ment
Ġpl ace
Ġsu ccess
Ġqu est
Ġn p
b ack
l and
Ġl o
Ġ20 2
= '
ic ense
Ġb en
er ing
a ut
Ġprov ide
enc y
ou se
p os
Ġpro ject
m in
ĠA meric
Ġe as
Ġch o
b e
Ġde m
Ġf r
ĠW h
ĠA d
Ġgo ver
Ġp at
t ime
ĠD e
Ġpr int
a pt
b ers
s on
Ġo per
Ġl ast
Ġper form
v iron
ĠS h
Ġst and
ort h
Ġ __
Ġc reat
Ġp rom
Ġp ract
ut ure
Ġf ile
g g
E S
Ġke ep
Ġm et
Ġ2 00
Ġp ot
m an
Ġa ff
Ġle vel
Ġ ide
c o
Ġha pp
eth ing
Ġpl an
Ġb re
as es
Ġwith in
ar get
Ġcon nect
is hed
Ġto p
Ġin c
Ġm aking
oc us
ent ion
it ive
Ġperson al
Ġserv ices
p re
Ġsoc ial
end s
Ġc ost
Ġcre ate
Ġpro per
u ment
Ġl ot
ĠThe re
f o
in al
ĠE x
Ġpub lic
/ /
S t
iv ely
s p
c ol
Ġ %
Ġhist ory
iv ing
Ġ $
Ġcon st
Ġprof ess
f or
-------- --------
a j
l i
Ġspec ific
Ġind ust
Ġ i
ra in
y n
r ror
e ad
Ġb ook
ight s
at ely
Ġbet ter
Ġsom ething
Ġpro t
ĠN ew
l ist
Ġ1 0
Ġimp ro
Ġc ult
age ment
1 0
vers ion
Ġp op
Ġre se
Ġpro ble
Ġs it
iv en
Ġbel ie
ĠS e
' ll
l ing
Ġs imp
Ġrep ort
==== ====
Ġch all
l og
Ġsign ific
Ġcom e
it ions
if ied
l ab
ateg ory
Ġserv ice
Ġc ap
ĠC on
ren ce
I t
Ġ )
E rror
d ict
ot e
ĠI nd
ill s
Ġben ef
h or
A T
Ġem ploy
Ġbe h
Ġacc ess
âĢ ĵ
th ing
par am
Ġal ways
en ces
an ces
lo ad
Ġhe ad
Ġfe w
ĠG od
ar ning
iet y
A R
Ġfam ily
Ġr is
op y
Ġrel ations
Ġs pe
i ver
' m
Ġ Q
Ġ 7
ial ly
ĠThe se
Ġgover n
i ents
Ġf ocus
em s
are nt
con d
con om
Ġme an
Ġtr ust
Ġe qu
Ġsm all
Ġcur rent
Ġan other
ĠI s
Ġstr ateg
Ġcont ro
Ġcon f
Ġth ree
olut ion
Ġty p
Ġpot ential
Ġc ase
Ġch ang
et work
Th is
iqu e
ĠA I
m odel
Ġm at
Ġneed s
ke y
p or
Ġto o
Ġr ange
er y
o pe
I T
Ġ 8
Ġagain st
re m
Ġap pe
Ġex ample
Ġ ident
Ġ `
ut il
Ġb o
u le
Ġre ce
n um
Ġor der
Ġfin anc
i or
[ "
" .
it ut
at form
Ġex pect
n ot
Ġ ess
b y
Ġadd ition
r al
m ed
ivers ity
Ġg ra
pl es
ri es
Ġw om
Ġc r
ain s
Ġab le
ne y
Ġche ck
one y
ur y
Ġcons ider
Ġch ange
Ġact iv
Ġs chool
d ate
d ir
viron ment
5 0
Ġbec ome
Ġl ess
r ist
Ġd ri
or n
Ġapp lic
Ġ @
Ġf ac
m b
Ġm us
Ġt er
Ġas k
ĠC l
W e
r ans
Ġcommun ity
Ġinv ol
Ġhum an
Ġacc ount
itt le
Ġl im
Ġsignific ant
Ġre le
at ic
N one
l ish
ent ly
um m
in ation
pport un
Ġf ree
Ġob ject
at ures
E N
ac y
Ġne xt
i k
re am
ĉ ĉ
ĠO n
Ġrelations hip
re qu
Ġp ut
ail able
Ġf uture
Ġen c
Ġp ost
Ġto ol
t ed
at s
Ġle arn
Ġk ind
or ies
Ġp ath
con fig
ang u
Ġ .
Ġex cept
Ġinter n
iss ion
Ġ &
end ing
Ġcont ent
Ġass ert
our ces
Ġb ro
Ġm ethod
Ġoff er
Ġb ig
he re
Ġimp act
s er
Ġde v
Ġan al
Ġ er
Ġ es
le ction
: //
Ġl ine
Ġed uc
ard s
e red
Ġprogr am
Ġrec ord
Ġt urn
c ial
e k
Ġmon th
Ġo pportun
Ġon line
T rue
Ġprofess ional
Ġsu pp
Ġprot ect
A S
ĠS he
Ġl ove
c he
Ġloc al
om m
t on
Ġdevelop ment
Ġj ob
s el
Ġother s
Ġm ind
Ġle t
act ion
Ġ 9
Ġv iew
Ġwork ing
Ġl and
r ation
C ategory
Ġo s
Ġ Z
Ġpartic ular
ĠTh at
Ġne ver
oc i
Ġs ince
ĠL icense
Ġg r
Ġst ep
Ġl ab
ĠHow ever
Ġ1 8
as ter
Ġm ult
is ed
ens or
ic ation
Ġsu re
o in
O R
Ġt ri
č čĊ
Ġo ld
Ġstud ents
Ġm ove
o h
ib ility
Ġrese arch
Ġwh y
c y
Ġvar ious
Ġinclud e
ĠL e
ar ge
an ies
Ġin fl
Ġh ard
Ġre st
em ber
Ġin it
g in
Ġfinanc ial
Ġst yle
a im
Ġb ased
Ġl ittle
og n
id s
" ]
ĠW hen
Ġre du
Ġro le
Ġme ans
Ġex c
ward s
o ot
Ġf ri
ĠA ll
s w
Ġw ater
ĠW hat
Ġpl atform
res ent
Ġe conom
Ġc ertain
ĠW ith
Ġpres ent
iv ed
u se
ic y
Ġg ive
Ġc red
Ġme et
ur ther
Ġindust ry
A N
Ġg roup
id d
__ (
ro p
Ġm ov
R e
ic le
Ġf ield
A s
Ġen vironment
ill ion
Ġg ame
Ġav ailable
Ġdes c
Ġso ft
y pe
Ġchar act
Ġf und
Ġm oney
g ing
Ġse ver
m p
Ġen h
ĠP l
" '
Ġchall eng
Ġrequ ire
f r
Ġb rand
ess age
val ue
Ġb ody
Ġwe bs
ĠB y
ra w
Ġens ure
f il
ĠS c
pl ace
Ġknow n
b r
1 2
cur ity
Ġspec ial
at us
ab ly
Ġexper i
aj or
u ro
il ities
Ġev ent
re t
ĠB e
Ġs ing
Ġw on
Ġf ull
it ing
Ġfun ction
p le
form at
I f
ul ation
Ġt alk
Ġpol it
s y
ĠCom m
Ġt em
f er
ort s
######## ########
Ġcon c
Ġchild ren
ur l
ec ut
Ġposs ible
it her
ob al
Ġt arget
W hat
Ġc rit
Ġo cc
r on
op t
ent al
d ing
Ġproduct s
Ġstr ong
Ġcomp anies
r ite
Ġto day
i ans
ĠR es
angu age
in st
v ious
f ect
in a
Ġor ig
ater ial
end ed
it er
Ġsever al
ne w
ers hip
r ight
i um
ĠC ol
ĠT o
Ġn on
Ġli k
re g
Ġcomm on
g round
Ġt imes
ag ing
Ġcour se
Ġus er
id ence
Ġa ud
al es
ĠCh rist
Ġtechn ology
ir c
Ġs l
Ġra ise
Ġrespon s
ore d
Ġ z
read y
C on
Ġgovern ment
Ġ ĠčĊ
Ġt reat
b l
get her
Ġto gether
Ġg ot
Ġse cond
i od
Ġst ory
Ġ /
m e
Ġth ing
Ġcomp et
Ġha ving
Ġcontro l
iz ing
Ġadd ress
ĠT rue
Ġd ig
Ġiss ues
ch ie
Ġsu per
led ge
ac he
le t
in c
Ġj our
Ġd oc
Ġcall ed
us h
Ġb as
he ad
o id
Ġle arning
Ġwhe ther
w w
Ġg iven
Ġlook ing
Ġin put
Ġrequ est
Ġ >
ĠT e
p oint
app end
Ġare a
at as
s ide
ail s
Ġal ong
Ġmem bers
is ing
or ch
Ġu nt
Ġac ross
c ode
Ġqu ality
Ġp ast
w ord
ver t
Ġs ol
ar ing
ou th
Ġfollow ing
Ġcount ry
u ck
m a
as ing
Ġsh ort
Ġtra ining
od es
] .
Ġs im
ap s
ar r
Ġess ential
Ġout put
Ġcom pl
ĠS p
Ġm akes
ĠAmeric an
Ġun ique
Ġbu y
Ġf ore
Ġcustom ers
ĠO r
Ġpri v
Ġappro ach
du ct
Ġre view
Ġcom es
Ġmed ia
Ġresult s
Ġal ready
Ġact ually
Ġrequ ired
Ġm ajor
Ġa way
Ġ ĠĠčĊ
Ġph ys
ĠU S
Ġd ays
Ġh ig
E x
Ġcustom er
i ate
Ġex ist
Ġimpro ve
or ing
Ġm aterial
ord ing
Ġim age
Ġe lect
Ġt re
sel ves
Ġp ain
ure d
c ing
Ġ <
Ġm om
Ġne cess
Ġte xt
Ġdif f
u ff
Ġaut hor
ĠE ng
Ġqu ick
re en
I C
g o
Ġ X
Ġle ft
Ġdo ing
um p
lo at
th on
our s
is es
Ġe arly
Ġ ĠĠĠčĊ
Ġf ood
I D
b d
Ġ ve
eng th
et er
u ation
ir d
ver age
i res
ĠB l
S T
H ow
Ġl arge
Ġwom en
in fo
Ġa chie
Ġinfl u
A n
Ġv ide
a us
Ġam ong
ĠF r
g ress
f ort
" |
Ġn etwork
Ġcont ribut
w args
Ġunderstand ing
ic ult
ot s
os ed
Ġindividual s
l ished
ac es
Ġm ax
Ġa ction
ct or
Ġt ell
Ġd ue
ific ation
ĠUn ited
i pp
Ġh old
== =
Ġd one
Ġest ab
re c
Ġ19 9
W h
ĠA t
id es
( ):
Ġdisc uss
Ġre ason
h old
Ġdist ribut
Ġp red
erg y
Ġexp ress
Ġsoft ware
Ġse curity
cl us
ĠP h
Ġquest ion
Ġgrow th
og raph
pec ially
sh ape
Ġris k
Ġman agement
Ġmus ic
ay er
Ġf our
Ġrespon se
l er
Ġn at
Ġl ater
Ġf ar
Ġl en
il it
S E
con t
Ġsp ace
ĠT r
fe rence
n ov
Ġrep resent
ĠF alse
if t
Ġrec ogn
Ġl ight
Ġt ax
et ers
ist er
st ate
Ġd r
a ff
e xt
Ġan n
im ate
c hes
Ġ1 2
u ild
Ġper iod
Ġwebs ite
ar i
in put
au gh
u ed
Ġcon fig
an e
m ax
Ġ- >
Ġcl aim
ĠUn iversity
Ġcom b
Ġdef ault
at ors
1 1
Ġp ort
ist ic
Ġc ity
C h
Y ou
c le
Ġl oss
ript ion
it le
Ġopt ions
g s
Ġs ense
Ġs ays
ĠH is
ff ic
j oy
Ġg en
i ke
Ġem b
Ġinte gr
ĠC an
P ro
Ġoff ers
Ġw ays
re ct
Ġsh are
Ġmain tain
Ġproble m
A L
Ġunt il
ot t
l en
Ġfe atures
ou ra
t ra
Ġs ide
Ġp a
Ġc ru
ain ed
ir it
Ġbe gin
o le
Ġhapp en
Ġbuild ing
g ed
Ġde al
Ġ }
Ġe ver
R E
Ġc amp
oh n
et urn
Ġcle ar
W hen
m ost
Ġp y
ul es
Ġval ues
f un
Ġm en
Ġsystem s
Ġknow ledge
Ġl anguage
Ġmarket ing
| |
Ġl ink
ass ert
Ġcons um
Ġoff ic
r un
Ġass oci
Ġem ot
Ġst ruct
s erv
Ġcontin ue
Ġen ergy
Ġdet erm
Ġf urther
Ġyou ng
Ġan t
ar ri
Ġl ow
Ġam ount
F or
Ġs w
ip le
re ed
or ld
Ġde b
Ġperform ance
ou d
ur ance
m et
f act
Ġwe ek
Ġc e
il t
Ġbr ing
F alse
Ġen ough
Ġh tt
em pt
ag s
Ġe ither
c hed
ak en
e es
ict ion
Ġdoes n
a it
Ġdiff icult
Ġbl ock
Ġes pecially
. ,
os p
( [
a i
Ġhe art
Ġ{ }
Ġde ep
atas et
Ġcon d
um n
or g
Ġon ce
Ġdid n
out put
Ġe le
ĠO ne
ra d
Ġp arent
Ġab ility
3 2
Ġne g
Ġstud y
Ġcharact er
Ġp o
Ġf ail
el t
U T
Ġc al
dition al
and s
Ġleg al
ra ft
on es
Ġ **
ĠIn st
s u
Ġen joy
Ġthough t
am ples
Ġpop ular
Ġw in
ess ion
Ġsk ills
Ġl ive
H e
Ġn ature
Ġtr ue
ĠE uro
ĠM an
en n
Ġc ame
cept ion
un e
pl it
le y
Ġto t
Ġh ouse
1 8
pl ay
Ġs ize
Ġtool s
Ġcomple x
ar ray
il ar
Ġcomp ut
Ġsome one
1 6
Ġm ot
ut h
ĠD o
th ough
Ġcomm it
ĠE n
er al
Ġsing le
Ġst ay
f et
b o
Ġget ting
Ġcol lect
Ġreg ard
Ġb it
Ġa ir
Ġbre ak
ful ly
ag er
ĠSt ates
com m
ĠA m
Ġme as
Ġpos ition
Ġse en
Ġcred it
ren ces
Ġeas y
Ġpro b
al ign
Ġchalleng es
p ose
Ġ version
Ġe y
Ġbenef its
Ġl arg
Ġdig ital
Ġeduc ation
Ġd i
Ġtrans form
Ġquest ions
Ġlik ely
Ġenh ance
r ing
z e
ur ch
anc ed
Ġconc ern
ag ed
Ġab s
. """
I ON
Ġwrit ing
Ġeff ic
Ġv ol
Ġf ace
ab les
op s
Ġtra ck
iz er
u ly
Ġfil m
Ġle ast
iv ity
Ġpri or
ir m
Ġbusiness es
L E
Ġstart ed
Ġgl obal
re l
Ġare as
ill ed
Ġs ell
Ġs ource
ub lic
R es
Ġprovid es
Ġd est
ĠEuro pe
ir t
ĠN o
Ġevery thing
f ace
The re
Ġse arch
orm al
m ber
is ions
Ġe ar
le x
Ġ1 5
c ount
Ġ et
Ġus ers
r s
ind ex
Ġcle an
' '
Ġrec omm
O n
al f
olog ical
e y
og le
A M
Ġbelie ve
Ġproper ty
Ġt erm
Ġp ress
Ġvis it
Ġt f
ĠG o
s ub
Ġev ents
T o
ro du
ĠY our
Ġto ok
on y
ren g
Ġbeh av
om s
Ġchang es
Ġwork s
3 0
Ġr ather
inst ance
ĠS u
Ġt aking
ĠV al
Ġ[ ]
Ġter ms
ip s
Ġl a
n p
Ġf ul
Ġc ode
I S
i ance
Ġe p
Ġass ist
Ġm illion
Ġpolit ical
Ġc opy
Ġsu gg
Ġpol icy
Ġsugg est
m at
1 5
Ġs ite
j oin
ur s
Ġres pect
ĠJ ohn
Ġyour self
Ġnat ural
qu al
Ġsub ject
Ġbec ame
Ġdec ision
m ap
ach ing
Ġcare er
ra p
Ġcre ated
Ġres ources
c ast
pr int
A C
u x
g es
Ġser ies
Ġbe aut
Ġwho le
Ġy et
Ġcru cial
Ġp le
ib r
rou ps
Ġaff ect
u ments
b all
Ġ ver
2 5
Ġhig her
Ġc aus
Ġpur ch
in ary
Ġbec om
Ġf ig
Ġp ack
olut ions
Ġs ent
Ġd am
Ġcl ient
ens ive
Ġincre ase
ĠI m
um e
Ġ \
Ġide a
Ġpartic ip
Ġent ire
Ġt orch
Ġeffect ive
Ġw ar
d f
is on
Ġde ath
. __
ĠC ent
Ġwor ds
C l
ĠM ar
Ġeng ine
os ing
her s
Ġin nov
Ġa ge
Ġc oun
Ġaut om
Ġan sw
Ġprovid ed
itt ed
Ġs at
fet y
Ġcan not
en e
ĠWh ile
Ġd om
av ing
Ġcult ure
Ġnecess ary
se qu
t rans
Ġac cept
i able
ĠR ep
Ġper fect
Ġc irc
Ġal ign
Ġvide o
ĠM y
H E
Ġc y
Ġneed ed
m y
Ġatt ention
o ff
Ġab ove
Ġthem selves
ep end
av or
f low
Ġjour ney
ĠM ay
em ic
Ġh ost
Ġimp lement
A nd
Ġopt im
st art
Ġsee k
l ight
i ol
res pon
ct ions
Ġproble ms
' .
w h
ĠA ss
Ġallow s
Ġph ot
Ġtra vel
d d
Ġre v
p ri
b ox
lo od
ĠM ed
Ġs ound
id th
Ġex ecut
Ġprovid ing
Ġb ase
Ġup on
ain ing
res h
Ġh y
ru ction
t ies
Ġpre vent
Ġst reng
ic ated
' d
P I
ĠP ar
Ġc apt
it es
Ġcl ients
Ġmat ter
ind ow
Ġper m
Ġ1 6
Ġb al
Ġin de
ar ies
act ions
f ield
ĠN ot
Ġsa fe
======== ========
E D
Ġhist or
Ġl ives
ĠS ome
k wargs
Ġpos itive
Ġsp irit
Ġ3 0
Ġse em
p es
Ġpar am
Ġmonth s
Ġcond itions
Ġhow ever
Ġset t
at ives
** **
Ġpre vious
Ġanal y
Ġsim ilar
Ġmod ern
Ġmom ent
Ġpr im
Ġgener al
l oc
d es
ens ion
ĠA fter
Ġp ie
Ġst e
Ġse ason
Ġiss ue
ys is
Ġcol or
ag n
Ġcon text
o ad
Ġav oid
Ġ19 8
Ġpr ice
Ġas pect
et imes
Ġb i
Ġu nd
Ġd ict
Ġtyp es
ur ation
l t
Ġsimp ly
Ġright s
cre t
o res
pro per
t rain
Ġevery one
Ġf all
Ġcreat ing
enc ed
Ġsimp le
Ġfor ward
ĠT ra
ro ll
Ġit self
Ġactiv ities
Ġc ases
Ġpract ice
Ġp ers
Ġel if
Ġ+ =
e v
m ark
d om
us er
Ġm essage
is c
ĠA f
ĠW est
Ġfri ends
Ġcont ract
Ġim m
ĠP r
Ġphys ical
op h
Ġo pp
ĠO ur
R O
ĠC ont
ĠA pp
m od
cent er
Ġarg s
Ġ1 00
Ġhelp s
4 0
Ġopportun ities
Ġmed ical
Ġreg ular
it or
Ġreg ul
Ġw ent
ĠC ar
m l
re w
Ġexper t
lab or
Ġl iving
min ist
Ġf ive
mb ol
Ġc ut
c ome
ens es
ul um
Ġext ra
Ġc ou
b ook
im age
D E
() )
[ :
Ġdoc ument
Ġtot al
ok en
Ġm atch
ell ig
Ġn ational
am ed
Ġatt ack
B ut
c er
Ġart icle
Ġquick ly
Ġinst ance
ce ed
it able
Ġfe ature
par ams
Ġlim it
Ġval id
Ġgo als
if f
am ent
ic ate
Ġse c
Ġh on
Ġag ree
le ge
Ġc ause
Ġachie ve
Ġt aken
Ġopportun ity
Ġg round
ĠS y
Ġdesc rib
ĠC o
Ġlo ad
res ult
w ith
iz ations
h ing
Ġd ed
ov ed
1 7
ry pt
Ġse x
Ġfam il
Ġgu id
ap i
Ġs ix
ĠSt ate
Ġpoint s
pp ed
Ġthrough out
er c
ĠW orld
Ġmodel s
util s
o ice
Ġexpect ed
sp an
ud e
i ation
y ond
Ġtry ing
1 4
p art
Ġcost s
b ased
Ġexperi ences
n o
v ant
Ġto wards
Ġd og
Ġd iv
Ġenc oura
en ame
Ġtra in
Ġany thing
ĠP ol
Ġr ate
Ġcont act
ru pt
l s
Ġ id
Ġob tain
Ġal most
ĠCom p
ĠG u
Ġd at
Ġref lect
eturn s
Ġfin al
Ġl at
Ġ1 7
Ġse lect
ĠY ork
Ġbeh ind
Ġins p
Ġro w
Ġcl ose
Ġeconom ic
Ġcour t
Ġlead ing
al ing
Ġinst all
h tt
Ġsa fety
Ġa im
Ġcons ist
Ġf oot
Ġtra ditional
ĠA ct
Ġmean ing
end er
Ġev al
w ise
Ġwor d
Ġlong er
T est
Ġaddition al
Ġcho ose
2 00
ret urn
Ġm or
Ġf low
Ġs ort
O ne
Ġorig inal
IN G
Ġm iss
Ġs olutions
Ġstrateg y
ĠN ational
Ġw alk
pp er
ĠM e
ob ject
art ment
Ġmult iple
pro cess
er ous
ic ro
ĠC al
Ġde g
Ġar ch
Ġover all
Ġbu ilt
Ġins urance
Ġdesign ed
Ġm ach
att r
a f
ĠG ener
Ġh ours
ĠO pt
Ġs ales
Ġp ick
Ġt akes
ly ing
ĠS te
iz es
|> #
Ġt w
Ġj ud
A l
Ġinvest ment
ĠF e
Ġw orth
---------------- ----------------
ĠP res
Ġprodu ction
ĠC he
1 3
Ġfe ed
Ġpriv ate
m ethod
Ġb ank
ie f
Ġtreat ment
at ory
Ġ2 5
ĠP e
n ers
n ode
Ġh ope
S o
Ġre pl
il es
r am
Ġth ird
l ied
ac hed
Ġapplic ation
un ch
Ġspe ak
w here
Ġbe gan
Ġnew s
ĠS ee
Ġpro gress
Ġinvol ved
as ks
ĠP art
k en
Ġb ad
ir ing
Ġis n
Ġinclud es
Ġplay ers
Ġst ri
fe rences
Ġa ware
d im
a ign
idd le
Ġsu st
Ġper cent
Ġp age
c are
Ġ19 7
ord er
com p
Ġint rodu
Ġd ate
Ġsit uation
now n
Ġ !
Ġassoci ated
r ong
Ġsh ape
im um
j ust
T ype
ĠR uss
Ġinst itut
de v
ac ed
Ġcount ries
ann el
Ġwe b
Ġem ail
Ġus ually
st er
h ood
ide red
Ġ ur
Ġg roups
Ġv iol
Ġparticular ly
pp ing
] ]
Ġcho ice
Ġ ill
an ks
6 4
sy ch
Ġrec ent
Ġcol labor
Ġne ar
ac hes
ress ion
Ġem erg
val id
O T
Ġorgan ization
le ep
Ġprogr ams
b atch
ĠS erv
che ck
Ġqu ite
ĠI nt
ove red
Ġst ru
Ġincre asing
ĠA N
Ġfact ors
d o
ĠB rit
le g
p ite
iver se
Ġappe ar
Ġro om
A r
Ġbe yond
Ġpre p
Ġbro ad
it ch
Ġn ight
Ġrece ived
ĠM in
l im
ĠA ust
Ġl ower
u fact
Ġmin ut
as ons
Ġpre c
ĠIn tern
en ing
Ġemploy ees
Ġt im
n a
Ġcons idered
in ter
iv al
ĠQ u
b ody
Ġcomple te
Ġcommun ication
Ġacc ording
Ġst aff
Ġb ox
Ġout side
ĠH er
Ġf it
Ġident ify
Ġsuccess ful
Ġ --
m ing
Ġcon vers
Ġinst ead
Ġintern ational
Ġaud ience
Ġlevel s
Ġl ed
op er
Ġ1 4
g ment
Ġto ld
Ã ©
Ġcom fort
Ġconnect ion
bl ock
Ġproject s
ĠS outh
im ately
ter m
Ġcl os
ĠD es
Ġnot hing
2 4
hen s
Ġa x
ĠG erm
cl ient
ir th
c od
Ġim med
st ep
Ġrel ated
ĠF rom
Ġst ress
li ke
Ġass ess
Ġwant ed
ol l
Ġcent er
Ġmem ber
he t
or por
Ġst atus
Ġopt ion
Ġ ĠĠĠĠčĊ
Ġcom ing
ĠN e
Ġwe ight
Ġcon cept
Ġm ale
f loat
Ġask ed
c ul
im al
Ġra d
Ġdet ails
a ith
Ġd ou
Ġpr inc
Ġis instance
Ġm ass
n et
ic les
Ġr out
y ear
l ib
ĠAf ric
6 0
he ther
iv il
Ġre ach
el ine
Ġhe av
Ġc ell
lab el
C O
Ġrelationship s
() .
Ġdec isions
ĠC O
Ġcrit ical
yn c
Ġrel ig
Ġadv ant
ĠRe g
Ġfri end
att le
d own
Ġev idence
Ġre d
is f
Ġsoc iety
() ,
Ġ ĠĠĠĠĠčĊ
Ġstrateg ies
proper ty
ilit ary
b ase
o ch
z er
ell ing
Ġprob ably
Ġve h
Ġw atch
um b
al y
E O
U n
Ġfr ont
Ġon es
Ġfr ame
ail y
Ġgo al
Ġhe ld
re et
g roup
Ġsc he
Ġinit ial
air s
Ġcap ital
ars er
Ġres ource
ĠA b
W ith
Ġsa ve
r ange
Ġsub st
Ġ1 3
Ġqu al
Ġthink ing
Ġatt empt
Ġexpl ore
ĠF l
ĠE m
v ision
c all
E T
h a
Ġh alf
B y
Ġprom ot
o ke
Ġl if
Ġn ode
Ġdistribut ed
h ib
j son
C om
dition ally
Ġt our
ĠG e
if ul
id ed
Ġloc ation
ĠW ar
ĠA cc
Ġco ver
ay ers
for ce
A G
Ġrece ive
ĠM ark
} }
Ġl ack
Ġn ames
et ime
Ġin j
ĠO R
Ġex act
Ġoff ice
Ġanal ysis
im ent
Ġpart y
Ġer ror
Ġt able
Ġo il
Ġcamp aign
Ġs ens
g en
ribut e
ulum i
Ġdet ail
ĠJ es
Ġg ames
Ġdem and
D ata
Ġdirect ly
Ġatt ract
Ġstud ent
Ġd im
ĠP er
ĠC ity
? "
Ġsu ff
Ġst op
Ġdem on
Ġ ĠĠĠĠĠĠčĊ
Ġshow s
Ġ20 20
Ġ1 1
Ġm ention
ellig ence
T I
ĠW ill
Ġbl ack
re f
Ġvar iety
p red
Ġse par
Ġpower ful
Ġth reat
Ġst ates
Ġcon duct
ar ily
u ge
u able
Ġs um
def ault
Ġ ...
Ġrecomm end
Ġw rite
Ġrun ning
con nect
Ġrequ ires
Ġce le
c s
Ġrequire ments
Ġimport ance
Ġens uring
Ġf ast
ĠD ep
Ġmaterial s
Ġdev ice
Ġcomple t
Ġf avor
un g
Ġpract ices
Ġacc ur
F F
ĠF in
enc ies
ĠAmeric a
Ġt ask
Ġt ou
ĠHe re
Ġh om
n al
ĠA g
Ġa w
Ġcult ural
w rite
Ġtre nd
Ġpur pose
er ror
Ġadd ed
Ġwrit ten
Ġm ental
Ġle ave
Ġcor rect
Ġ ĠĠĠĠĠĠĠčĊ
Ġredu ce
v is
ĠS oc
an ch
Ġad minist
as c
Ġman ufact
Ġbel ow
Ġ âĢĵ
Ġide as
ill ing
Ġorgan izations
Ġmethod s
Ġs olution
S e
Ġad apt
Ġs ong
Ġ5 0
ic a
Ġs al
q a
g y
row n
tern al
Ġpat tern
Ġsa w
Ġf requ
Ġestab lish
Ġh ot
he l
Ġpred ict
Ġfor mer
av ig
Ġ util
Ġlab el
an a
Ġf ire
ĠC ons
l am
Ġansw er
umm ies
Ġf ight
Ġstr ing
ĠO F
Ġinde x
p en
ĠS chool
en ge
Ġstru gg
yn am
Ġso on
ĠB o
ĠJ an
Ġd raw
ww w
ist ics
ch ange
Ġext rem
Ġsy mbol
iss ions
requ est
Ġins ide
us ed
ain t
ad a
ĠCh ina
ĠN orth
Ġm is
en v
( (
Ġde cl
Ġfil es
ĠAr t
olog ies
Ġsh all
Ġwork ed
9 9
ĠGo ogle
Ġrem ember
Ġinclud ed
ĠM on
Ġstand ard
s plit
un k
r ict
av es
2 2
le vel
Ġstreng th
U R
Ġcent ury
ĠC our
Ġeas ily
ar c
idd en
Ġexc ell
Ġag o
Ġb atch
Ġhigh ly
Ġsom etimes
C T
Ġro ad
Ġt al
Ġcomm and
ri x
b uild
Ġit ems
Ġse ems
str ing
ĠJes us
ap an
` `
r ics
ĠR eturns
Ġc ard
ad es
Ġb ud
Ġre ve
am a
l oss
Ġcomp on
Ġf elt
or age
fun ction
Ġhtt ps
m d
Ġeff orts
h aps
'] ,
Ġ eth
Ġwh ite
Ġb lood
I L
Ġsust ain
s pec
Ġpro pos
Ġl ength
Ġc ross
Ġoffic ial
od ing
igh b
Ġser ious
ed eral
Ġl ost
Ġm ob
r ate
Ġstep s
m ain
Ġind epend
Ġparent s
Ġhim self
ĠM c
m ore
Ġoper ations
a ul
Ġpart s
ĠD r
ann els
Ġ ign
Ġf ear
Ġfor ce
Ġc at
Ġno qa
b it
rough t
Ġbehav ior
n odes
u ous
Ġw rong
stand ing
Ġcon v
Ġw ide
Ġc and
A d
le ft
Ġex am
un t
Ġe arn
Ġinflu ence
A t
ec ause
Ġeffect s
a ur
ĠSt ud
Ġact ions
ra el
back ground
Ġplan ning
ĠT est
Ġst ories
act ive
Ġs il
col or
Ġplatform s
ĠJ ust
ĠPres ident
Ġst age
id ents
Ġ2 4
l ier
ĠK ing
Ġ ,
Ġf aith
Ġreg ion
Ġto wn
up le
ĠA p
A B
Ġst ore
ear ch
Ġele ments
r im
Ġl iter
u ary
H O
Ġt itle
Ġdemon str
g ener
ĠInd ia
Ġoff ering
Ġm other
Ġm ess
he nt
ĠL ist
Ġcon dition
Ġsc ience
Ġp sych
Ġemot ional
ĠD on
Ġ Â
Ġm ilitary
Ġlead ers
h and
Ġcommit ment
fl ict
ast ic
ĠN ow
Ġref er
c il
am er
Ġv ict
A D
{ }
ix ed
Ġpl ans
Ġac qu
it ect
id ge
Ġl ate
Ġf air
Ġpe ace
Ġdevelop ed
Ġread y
d b
t arget
Ġgreat er
Ġincre ased
Ġgo es
Ġsat isf
Ġocc ur
ĠC ount
Ġ vers
Ġtr uth
b ed
Ġ" '
Ġup d
0 1
iqu es
Ġsh ared
Ġread ing
Ġinc ome
id x
u el
n n
Ġit em
ĠE d
bo ard
at ter
ect ion
ch an
ell ow
ag ue
Ġsc ient
n ames
Ġsy s
Ġst at
ĠI S
Ġdel iver
Ġst ream
es e
Ġestab lished
Ġman age
ograph y
Ġdown load
st yle
Ġr ates
Ġh arm
Ġal tern
ab ilities
Ġspe ed
Ġpat ients
Ġpre t
Ġte ams
Ġb ound
clus ion
Ġf ra
Ġsy m
Ġbenef it
Ġ ri
i pl
h ost
Ġbeaut iful
ac c
Ġany one
ĠM us
Ġm arri
r c
Ġcons ult
em pl
Ġdiffe rence
Ġg iving
Ġstruct ure
Ġlim ited
h am
i ency
Ġhand s
A P
Ġ ut
Ġcomp re
s um
ĠM r
Ġgrow ing
pect ive
Ġpart ner
l ength
Ġra nd
Ġapp ly
Ġdis e
t es
Ġexp and
Ġf ather
Ġappro pri
Ġallow ed
L O
Ġsay ing
Ġet c
Ġdri ve
' ),
Ġlead ership
ty pes
Ġinvest ig
Ġte le
Ġd aily
ĠR ob
d oc
Ġbo ard
Ġpa per
ph as
S h
it ation
ĠS m
Ġh ol
ist ory
ĠEng lish
Ġ202 1
Ġconst ant
ĠO ct
Ġcommun ities
Ġ202 4
Ġent er
Ġeffic ient
it ude
L ist
Ġn ormal
Ġan c
Ġp ict
Ġt en
is ode
ob j
Ġv irt
Ġ( "
opy right
Ġad m
Ġ! =
Ġs low
ĠJ apan
Ġex erc
l ock
ib ly
Ġbl og
Ġh or
gr am
anc ing
p ol
################ ################
ve y
Ġest ate
Ġte ac
g ra
Ġnot e
Ġgra du
Ġwon der
Ġdam age
ĠIs rael
ro om
up date
g or
Ġbook s
ĠH ol
her n
Ġinter view
Ġc ert
ĠI N
Ġb irth
Ġb rought
con st
ĠA ut
Ġp en
ĠHe alth
Ġim ages
Ġrem ain
a res
Ġv ia
ot al
Ġeffect ively
Ġprocess es
Ġn avig
ist ry
ĠM ore
Ġeff ort
le te
Ġcompl iance
it em
qu e
Ġg old
Ġm ag
ĠAn y
Ġbal ance
oc r
augh t
Ġa verage
1 00
Ġin f
s k
ĠL aw
use um
par se
Ġrele vant
Ġwom an
g u
Ġcele br
Ġsc ript
Ġful ly
Ġval uable
Ġim ag
w idth
Ġac ad
ough t
over n
st atus
Ġus es
Wh ile
ĠAust ral
] [
v est
ob er
E qual
ĠD ef
g l
Ġu lt
Ġre asons
I G
pl ot
val ues
Ġro b
fr ame
Ġmeet ing
ĠA ug
ĠBl ack
Ġey es
Ġb ar
2 1
oy al
ĠD av
Ġr ules
Ġregard ing
Ġexist ing
Ġsc ope
Ġg ives
Ġminut es
N ame
l ines
in o
] :
Ġins ights
t op
Ġst ock
Ġmove ment
ĠM arch
Ġallow ing
pect ed
Ġlo an
Ġlog ging
e ah
p ass
; "|
d at
Ġs old
ĠG et
Ġser ve
Ġsc ale
Ġfeel ing
Ġse ction
er ve
ĠU K
2 3
ur t
Ġpub lished
Ġtyp ically
Ġ201 9
Ġback ground
o very
Ġann oun
b um
ĠS w
d is
Ġset ting
Ġsec ure
ĠCent er
Ġre ality
ad ata
Ġob serv
ĠD ata
Ġplay ed
j ang
ra py
all s
. )
Ġpop ulation
Ġacc om
Ġact ive
ic ies
ak er
Ġsk in
Ġactiv ity
ĠM any
Ġcont ain
c ore
ĠThe ir
Ġd ru
Ġrand om
ĠF irst
ĠW hether
Ġwork ers
ip ment
Ġchall enge
Ġbegin ning
Ġexperi enced
Ġorig in
ri ed
ĠR ed
Ġgu ide
ĠW ork
A ll
Ġcon flict
e ks
er ate
gor ith
Ġcurrent ly
respon se
Ġplay er
p ack
Ġbud get
Ġ202 2
Ġstart ing
Ġs n
Ġpress ure
le ase
Ġf irm
i ra
Ġcor por
Ġl ines
EN T
Ġinterest ing
P T
ire ction
Ġtra de
Ġg ir
ĠOpt ional
Ġpl aces
Ġm er
Ġsc ore
ĠJ ew
Ġ4 0
qu est
ĠL et
ĠVal ue
id ing
} ,
ic ations
c ut
Ġ202 3
ĠG l
Ġg raph
d ist
pr il
r is
t oken
Ġar ray
Ġprotect ion
Ġhand le
Ġcomm er
ic ens
Ġland sc
Ġg ain
Ġ[ '
8 0
Ġcomplet ely
f ix
I M
ĠBrit ish
Ġar ri
ĠSe pt
Ġro ot
I d
Ġrem ains
en ed
Ġhealth care
Ġg e
l in
ruct ure
Ġapplic ations
Ġem p
ac ity
Ġ201 8
Ġconcern s
s es
Ġsh o
ĠCour t
ove mber
ĠR ec
in ct
Ġpres ence
Ġmach ine
: #
Ġp arser
Ġpass ed
Ġg ave
ĠP ark
Ġf loat
Ġabs olut
Ġc ivil
Ġh it
r ig
Ġs end
Ġd en
Ġrele ased
Ġv oice
ĠH ouse
ish ing
m on
Ġspirit ual
Ġw a
ĠL ord
Ġt asks
Ġris ks
Ġchang ed
Ġint elligence
G et
Ġpat ient
l ig
om en
p id
Ġapp rec
{ {
ĠJ une
Ġsur pr
U S
ic ip
d ed
Ġhtt p
bd a
cre ate
ĠH ar
50 1
Ġcompre hens
Ġs us
ver se
er ial
Ġsur round
Ġpay ment
Ġprofessional s
Ġcou ple
Ġbecom es
Ġprim ary
i as
Ġem phas
Ġtrans port
Ġsub m
Ġj son
Ġrespons ible
Ġdep end
Ġne ighb
ĠP y
Ġs leep
Ġadv ice
ĠEurope an
ash ing
it ems
ren ch
o on
C H
ĠChrist ian
ĠComm un
Ġadv ance
Ġmov ing
Ġl ib
Ġs av
Ġtalk ing
Ġst ra
Ġr ound
Ġdeg ree
Ġcol lection
Ġcar ry
ar ant
ĠC ON
Ġfamil ies
Ġaspect s
Ġde ad
Ġnum py
Ġb ur
Ġhelp ing
I m
b an
Ġinit i
Ġsupp ly
i ant
Ġtechn iques
N ot
Ġd ynam
Ġcoun ter
r an
ĠT rans
Ġcand id
e ff
i ar
ĠH igh
Ġt ensor
r ors
Ġd ark
Ġreview s
Ġtr uly
i am
Ġre put
Ġact ual
Ġp and
Ġpa id
Ġpro ced
Ġc ore
ĠOct ober
Ġfig ure
Ġal one
Ġhealth y
I s
V al
ven ue
Ġth ous
Ġwho se
Ġ{ '
ro te
Ġ( '
ĠA re
t a
ex p
Ġbas ic
umm ary
Ġform at
ĠB ro
Ġf lo
al ed
Ġ` `
Ġpro s
d ers
ĠU s
ĠTr ust
E n
Ġn amed
Ġgener ally
Ġrele ase
Ġmy self
Ġtou ch
ce mber
ĠJan uary
Ġfor ms
x y
Ġn ation
Ġnot ice
ord in
ĠC oun
ĠCh ar
Ġk new
Ġph il
e ch
ibr ary
i ately
Ġch ance
Ġsur v
qu ality
k nown
ify ing
Ġpurch ase
N o
Ġan g
Ġass ets
Ġpie ce
Ġb ott
Ġrec ently
m ask
Ġwe eks
ĠThe n
ĠE l
Ġpre m
Ġeas ier
er ies
model s
Ġph one
T R
re ate
Ġstud ies
p arent
ĠAug ust
itut e
Ġhe ard
Ġr ich
Ġv ision
Ġcl oud
f g
ri al
Ġdis play
Ġch urch
b in
t f
ond on
at ively
Ġcontin ues
Ġad vert
ĠD is
Ġstand ards
Ġexpert ise
ool s
u ations
er o
por ary
Ġbas is
y ing
Ġad just
Ġident ity
ĠE ven
Ġhe ar
Ġch arg
u k
Ġop in
Ġenhance ment
Ġnum erous
c ription
Ġrem ind
Ġschool s
Ġf ost
Ġpres ident
Ġm aster
00 00
ef ore
ĠA pril
t x
arg ument
> >
ĠSept ember
Ġg ummies
um ber
Ġj o
" ),
am ing
Ġarch itect
Ġag reed
it iz
Ġinterest ed
ĠJ uly
Ġ' ''
Ġplay ing
Ġme chan
Ġpret ty
ol ve
Ġthere fore
Ġdeterm ine
Ġf em
Ġw indow
Ġup date
ĠC opyright
âĢ Ķ
Ġs ources
Ġpol icies
l ast
ĠN ovember
Ġs qu
jang o
Ġexact ly
Ġhistor ical
ash ion
Ġm ode
Ġt end
Ġh ous
Ġh uge
m essage
Ġm id
Ġc bd
P l
htt ps
Ġappropri ate
we ight
om an
Ġlead er
Ġsignificant ly
Ġdef init
ar a
Ġd ang
z z
F ile
ri end
'] )
= [
ab ase
U L
Ġeconom y
ĠA ng
Ġf lex
ve re
P E
ĠT HE
C ol
oc ol
[: ,
Ġtrans l
ic ing
s ource
he st
Ġwas n
Ġcontin ued
ate ver
te e
Ġr ule
Ġtest ing
s m
3 3
h t
Ġan im
Ġlat est
Ġp an
Ġcirc um
Ġtechn ologies
est art
. '
und red
Ġproper ties
Ġpl ant
ou l
E M
Ġreport ed
Ġequ ipment
ch ol
D e
A fter
ĠI I
ĠD irect
Ġneg ative
Ġey e
Ġnum bers
im g
Ġfind ing
Ġbecom ing
Ġcertain ly
Ġturn ed
Ġexcell ent
Ġsp end
Ġimmed iately
Ġw rote
Ġl ayer
er ia
ĠW ell
Ġd iverse
Ġsc en
al le
Ġsc reen
Ġcommer cial
Ġinterest s
dev ice
Ġ201 7
iven ess
Ġvis ual
assert Equal
Ġass ign
ĠB usiness
Ġdevelop ing
Ġd ataset
Ġc ook
ĠA c
anc y
if orn
Ġpart ies
Ġseek ing
reed om
Ġmay be
Ġhelp ed
ers ion
Ġlaw s
i os
d ataset
ĠL in
be ing
ĠB ar
i ples
Q u
du c
C ont
ĠA ir
Ġadv anced
ub e
e per
Ġhapp y
ed s
Ġes c
ines e
Ġpass ion
al t
Ġlarg er
Ġcomprehens ive
ĠO f
Ġuse ful
f ess
ord s
em y
Ġreg ist
Ġdev ices
Ġadvant age
Ġget s
Ġcharact ers
cod estart
Ġtrans fer
code end
ent y
ĠDe cember
f it
ĠUn ion
Ġp ark
4 5
Ġs on
t ings
Ġcomput er
du le
P O
Ġconst ruction
fe red
9 0
ct ors
ĠInd ian
w ide
ke ys
Ġe lement
ipp ing
.. ..
ĠD em
Ġs un
Ġs ession
Ġ19 6
ĠAr gs
ĠO ther
ust er
ens ions
is l
Ġcol umn
Ġdec ided
Ġk ids
Ġb rain
Ġsit es
Ġv ot
ĠCh urch
iforn ia
i ers
il le
Ġprodu ce
ra ce
Ġh osp
ĠM ost
Ġres il
ut e
Ġbelie f
Ġsp read
Ġ201 6
ĠL ondon
Ġre place
ĠG overn
ĠA tt
n ership
Ġaut hent
Ġpro p
p u
Ġcent ral
Ġha ir
or row
Ġd ra
t able
ĠO ver
O D
go ing
Ġm ar
I R
U N
Ġmeas ure
Ġaff ord
y m
ĠR em
Ġcol l
icens ed
Ġchar ge
ĠO ff
in y
con text
Ġal gorith
ri ef
op en
Ġlab or
Ġlearn ed
F A
b and
S et
Ġsp orts
Ġfund s
Ġ q
Ġb attle
Ġpr ices
Ġc rypt
ĠIntern ational
ur ies
o e
Ġch at
Ġind ic
Ġof fered
is ation
com ing
Ġcomp ared
os ition
Ġse qu
Ġeng age
ĠO pen
i us
g rad
Ġal though
Ġal bum
a e
Ġcl ub
rand om
Ġcreat ive
et a
Ġm ist
o oth
Ġmod ule
Ġloc ated
ĠFe b
ur ity
am b
ĠE very
Ġp et
Ġre str
Ġ2 1
Ġdesc ription
Ġm ount
t ensor
Ġlink s
Ġinnov ation
Ġin fr
app ing
ĠPh il
Ġfield s
V ID
Ġfin ally
Ġse ctor
Ġp ush
ĠB ecause
of t
g est
it ness
w rit
; "
T hat
Ġinvol ves
ĠM ich
ul ate
Ġt ail
ab led
Ġ url
ĠC or
Ġfocus ed
ĠAd ditionally
ri p
Ġn orm
so ft
Ġper haps
Ġcl imate
ĠCon st
F r
ous ly
Ġveh icle
Ġh undred
ar ter
ern el
py thon
Ġclaim s
Ġeng agement
ĠP al
Ġple ase
The se
Ġ ]
Ġgener ate
S c
Ġant i
R AN
Ġdou b
od ay
Ġro ck
fil es
Ġmob ile
)) )
erv ed
Ġpre fer
ĠValue Error
Ġser ver
ap ter
Ġn et
ten ance
ab s
Ġrem ove
Ġinform ed
Ġsh ap
il s
Ġb illion
h y
Ġdisc over
Ġd type
er ation
Ġfeed back
Ġan x
Ġtem per
ru ary
Ġto ward
Ġpo or
Ġl ock
Ġ ir
Ġsol id
Ġconf idence
Ġlook ed
Ġgu arant
Ġm ission
Ġear lier
Ġc ash
ro l
ific ial
Ġcircum st
point s
ĠCal ifornia
Ġeval u
Ġsp ent
ĠS a
Ġun c
Ġc ast
Ġm ap
Ġrecord s
form ation
Ġsp ot
Ġmot iv
Ġlook s
Ġinter pre
ip eline
Ġclass es
ro ot
l ies
ĠTe chn
Ġa head
s l
ĠP aul
Ġd ream
Ġhigh light
Ġf resh
add ress
Ġb us
ĠF rench
Ġb orn
ĠAss oci
Ġw ait
i very
Ġt ree
Ġth us
Ġfun ctions
Ġmention ed
Ġsm art
Ġc raft
Ġpol ice
Ġcol lege
Ġr ise
t ers
if ier
P S
Ġfore ign
Ġintern et
Ġded icated
ĠGener al
O ur
ar ian
ĠK e
Ġexper ts
: `
ĠO ut
T H
it ors
i ences
Ġr ank
Ġstate ment
Ġhappen ed
as te
Ġp ulumi
Ġw ood
Ġc ra
l ink
Ġl ay
me an
C C
in ated
Ġreturn s
mod ule
Ġlandsc ape
Ġserv ed
Ġgr ant
Ġmem ory
Ġw ife
Ġcon sequ
M y
Ġse cret
Ġb and
Ġam az
fil ename
Ġd irection
ĠCh inese
Ġre pe
ĠF ound
Ġche m
P L
Ġad ult
ĠIn c
Ġco verage
os ure
p c
clus ive
Ġtest s
Ġlead s
Ġmeas ures
ĠU nder
Ġapp oint
Ġto ken
Ġtechn ical
Ġwill ing
Ġobject s
Ġtra ding
ribut es
Ġb ool
um an
ab y
Ġex amples
al d
Ġg reen
Ġacad emic
e val
Ġear th
Ġw id
Ġs we
Ġ ing
Ġreturn ed
Ġrelig ious
Ġno vel
Ġwant s
Ġcom ment
Ġn arr
Ġjob s
L e
Ġ201 5
ĠTr ump
C L
Ġrespons ibility
Ġprodu ced
Ġcre ation
d et
ĠS an
or ation
Ġgener ation
b ug
ĠS et
st ream
Ġanc ient
Ġc itiz
ch ang
Ġeffic iency
ast ructure
Ġdo or
**** ****
ĠDe velop
k y
Ġsex ual
augh ter
Ġob vious
pt ion
o o
p at
Ġdise ase
us ion
f ord
Ġf arm
up s
Ġpers pective
b ur
Ġinc orpor
Ġother wise
Ġide al
ĠCount y
f old
u ing
Ġv ital
u id
Ġtri al
ĠG roup
ĠS ec
Ġparam eters
Ġqu ant
g raph
Ġchang ing
2 7
ic on
: :
3 5
ĠAN Y
ov ing
re p
com es
ĠW AR
Ġlimit ations
Ġqu ery
Ġmov ed
f riend
Ġmarket s
Ġconst ruct
E L
oc al
b on
Ġenvironment al
Ġprom ote
~ ~
d ep
Ġf ans
ron ic
ĠRep ublic
k er
Ġs en
Ġd f
ch ain
ĠPe ople
Ġcl in
Ġarg ument
as ure
Ġra pid
l ook
f n
Ġguid ance
Ġent ry
Ġf ederal
M odel
D o
a el
ĠDav id
ib ilities
ick s
Ġstra ight
se e
Ġsym pt
ĠD ist
ĠCan ada
Con fig
le ar
Ġinc red
2 8
ĠP at
ru it
Ġw el
Ġcap acity
Ġfollow ed
Ġchalleng ing
Ġwe alth
p op
Ġdri ving
Ġst uff
Ġte aching
ĠE ast
Ġp ray
re ams
Ġcal cul
Ġapplic able
sc ore
Ġintern al
Ġdef ined
Ġcall s
ĠP ri
Ġreport s
sc ale
Ġrel iable
Ġsh own
Ġstrateg ic
M A
Ġinstitut ions
n y
ĠF ace
hip s
Ġview s
Ġful f
et ic
p ace
Ġf ashion
Ġh ar
ic ed
ĠE ach
m en
Ġra ce
ific ations
az on
est s
Ġfor ces
Ġlaw y
P R
Ġro ll
ĠCol lege
or ge
Ġcle arly
ĠFeb ruary
Ġn n
Ġcaus ed
Ġsupport ed
Ġcr is
Ġs ample
Ġbo ost
A I
ĠDep artment
Ġcompet itive
Ġun it
h ouse
wo od
w in
Ġvar i
id ay
Ġdr ink
ol ving
Ġb all
Ġe c
ĠComp any
Ġdescrib ed
Ġd er
Ġlarg est
s g
t itle
ol ic
Ġres ist
v ar
Ġaff il
Ġro of
b ot
Ġfact or
ren cy
Ġoper ation
Ġpart nership
ac ing
Ġconvers ation
cl ose
Ġconsum ers
ĠD ay
Ġst orage
Ġtal ent
Ġg rand
Ġm iddle
Ġtrend s
Ġare n
param eters
ĠB r
Ġp od
Ġ201 4
Ġb ed
Ġrespon d
Ġk wargs
Ġm ent
c ell
How ever
cl es
F T
Ġm att
Ġcho ices
Ġl icense
Ġw arm
< /
Ġthough ts
Ġcircumst ances
Ġbro ther
ar th
ĠI T
ĠG reat
Ġm ask
Ġwh om
Ġemploy ee
2 6
Ġ6 0
or ough
ĠAl though
Ġlog ger
Ġc ool
ipp ed
Ġhe ight
Ġn ut
Ġsee ing
pon se
qu ery
Ġdeb t
Ġinvest ors
in ition
Ġex hib
Ġl oved
Ġagree ment
Ġcont r
Ġinst ru
ĠB en
Ġhig hest
Ġsur face
Ġmaintain ing
Ġbeaut y
I nd
Ġextrem ely
Ġmajor ity
ĠS en
2 9
Ġd ut
ro y
Ġne arly
7 0
The y
Ġtra ffic
ock et
Ġwh atever
ro s
I nt
Ġcon ven
Ġdirect or
con v
= {
Ġh op
Ġkeep ing
Ġconnect ed
r ust
Ġsett ings
Ġcompet ition
ĠA PI
Ġch annel
Ġj oin
Ġro les
Ġra ised
Ġart ists
Ġinvol ve
ĠWh y
Ġregul ations
Ġdet ect
ĠL a
Ġtri ed
Ġbrand s
l ayer
Ġcont ains
Ġm ill
ffic ient
D es
Ġindepend ent
Ġdep ending
ig r
q l
Ġp ow
Ġour selves
ĠT V
it ter
ashing ton
word s
at ically
m ode
lab els
Ġpy thon
co in
P ar
ust r
ĠChe ck
Ġsh aring
Ġpar ams
Ġjour nal
Ġphil os
Ġhapp ens
Ġaccount s
Ġh ab
l or
d ri
Ġdoc uments
Ġw ild
Ġencoura ge
A pp
Ġ> >>
Ġatt or
a per
ĠGerm an
ĠMark et
vent ion
O S
Ġocc as
Ġexerc ise
Ġdef end
Ġg as
ĠU se
Ġde eper
ic ial
b al
Ġcons c
ul ated
Ġex change
ION S
l a
Ġpract ical
Ġf reedom
de red
ĠR el
Ġdefinit ely
C ON
Ġdes ire
Ġdel ivery
ĠCoun cil
Ġy ield
) ]
s ave
ĠM or
cur rent
Ġsh ift
Ġinst ruct
opt ions
Ġcontribut e
Ġd ro
Ġmain tenance
Ġassist ance
Ġsub sc
Ġw is
ĠServ ice
F rom
g n
p ool
Ġequ al
ĠSoc ial
Ġpart ners
Ġauthor ity
od ies
" ],
el ines
Ġ2 3
Ġinfr astructure
Ġv ill
Ġconsum er
Ġadv oc
ound s
ĠP ort
Ġf ine
am pl
M S
Ġd oll
Ġfail ed
pro ject
f ree
ht ml
B C
b ar
Ġprocess ing
ant ic
con ds
c at
ĠE duc
fun c
Ġeduc ational
Ġcomm itted
are n
Ġsc ene
Ġemot ions
pre ne
ĠAl so
Ġaltern ative
ĠIn ter
Ġpl t
Ġw ish
Ġm icro
ĠWAR RAN
cl s
ra b
Ġmor ning
Ġman ager
col umn
te red
Ġpattern s
ES T
Ġest im
Ġsympt oms
} )
ĠO b
Ġe lection
! "
Ġlist en
4 8
Ġd iet
Ġt rou
amer a
Ġb oy
Ġfeel ings
Ġset s
Ġm ut
re prene
Ġbe g
Ġprovid er
Ġpie ces
Ġrecogn ize
Ġch ain
Ġd rop
ĠB est
clud e
Ġfam ous
ess ions
Ġpl ot
re ly
Ġthe ory
Ġpl ays
Ġr at
Ġleg isl
Ġb ra
Ġv ary
om b
Ġtop ic
ĠD uring
Ġ201 3
Ġown ers
Ġcomple ted
am m
Ġframe work
ĠW IT
Ġass um
Ġfoot ball
7 5
Ġa ward
ĠL ike
F ield
rel ated
ĠIn s
ĠS ince
ic o
el ess
Ġfe es
B e
Ġme ant
ress ed
ak ers
ĠH istory
Ġdep th
Ġlab els
ck now
ro ad
ic ine
t orch
Ġim g
Ġbehav i
pos es
Ġevent ually
Ġcomfort able
Ġs em
Ġag ent
ph a
ĠRes earch
Ġax is
serv ice
Ġrev olution
ĠFace book
Ġrestr ict
A cc
Ġent ertain
Ġsit uations
ĠI D
e le
ĠServ ices
Ġfound ation
Ġ2 8
Ġsum mer
Ġh ack
ul ner
Ġresil ience
Ġw at
class es
In put
Ġthe rapy
Ġt ips
Ġown er
h ol
An other
Ġvirt ual
Ġk n
ms g
put e
k ay
Ġf at
Ġeng aging
d en
cont ent
Ġdistribut ion
ĠPro fess
Ġcl ick
Ġprep ared
enc ing
Ġcour ses
het ic
ĠC ong
Ġadv is
Ġrecogn ized
Ġhon est
Ġ2 2
con f
ĠS im
i pe
IN D
ĠS pec
Ġcontro ll
Ġte ch
ĠAfric a
re es
Ġcris is
ĠW ashington
f ra
I P
Ġult imately
Ġh idden
ann ed
Ġw itness
Ġelect ric
ĠSy stem
Ġens ures
Ġst y
ĠT w
Ġsubst ant
N ow
Ġprovid ers
C E
H T
Ġe ight
Ġcould n
Ġs plit
Ġdes pite
Ġexpect ations
Ġdist ance
ES S
Ġdirect ory
Ġs chol
Ġamaz ing
Ġwrit er
." )
ol f
AM E
l ong
land s
Ġannoun ced
ĠTh rough
! !
p ost
ĠL ife
Ġspecific ally
ĠB el
ol ved
g a
erson al
ag ers
s ign
ĠL ear
Ġreput ation
Ġra w
ĠL ab
ĠB ank
Ġlo ans
EN SE
id a
Ġ19 5
' ):
b re
Ġed ge
oun ter
3 6
K ey
ri e
Ġm ix
Ġfil ms
ĠAfric an
ĠIt s
Ġmov ie
p an
Ġre nt
Ġc oding
Ġprom pt
Ġrem ark
Wh y
Ġ201 2
Ġke pt
ent ure
t ics
Ġfund ing
Ġ201 0
O pt
fe atures
ĠAcc ording
c ase
= (
amp ions
Ġcan cer
ĠG old
Ġsmall er
) ;
Ġun ivers
Ġcompon ents
empl ate
Ġcy ber
Ġatt ribute
Ġob lig
Ġcr im
ĠEng land
M E
ĠLe g
T ensor
[ -
Ġdo ctor
Ġbel ong
Ġdi agn
Ġse ven
ĠOn ce
ul a
ĠRe ad
ĠT ype
ex pected
s ample
h i
ĠP ublic
de bug
Ġpre par
Ġfor t
Ġp ages
Ġlet ter
i xt
Ġs ac
Ġh our
S ome
od er
Ġw idth
Ġpict ure
Ġadminist ration
Ġocc up
Ġprinc iples
i i
Ġserv es
ĠA nt
opt ion
Ġsepar ate
3 4
in ating
Ġpriv acy
Ġarg uments
Ġdef ense
Ġle aving
Ġdec ades
Ġfil ter
Ġp ills
Ġinnov ative
IC ENSE
Ġsm ooth
Ġret ail
Ġte ach
Ġcontin uous
Ġg ather
Ġfavor ite
Ġold er
Ġaware ness
m aking
ĠM ake
Ġapp lied
v ari
Ġsell ing
Ġ[ "
Ġcl s
Ġre venue
Ġdist inct
Ġin fo
ĠAp ache
ĠS ub
ĠAustral ia
f ol
on om
Ġsign s
Ġincreasing ly
fil ter
row s
Ġcomp ar
Ġnavig ate
Ġrow span
Ġman aging
u it
Ġtr ig
aut h
Ġtrans ition
ed ding
Ġcollabor ation
f ind
Ġfail ure
Ġgl ob
c opy
Ġmess ages
Ġvict im
ĠRuss ia
Ġhom es
================ ================
n el
P h
Ġa cknow
Ġen able
B ase
in ate
Ġconf ident
il ing
os en
Ġfe et
b ut
Ġart ist
ĠJ ames
Ġthous ands
Ġf ol
htt p
Ġatt end
He re
st atic
Ġre ference
Ġanx iety
Ġconnect ions
Ġopen ed
Ġprior it
Ġw ind
Ġm ort
Ġmanufact ure
ĠU p
il ed
Ġpur poses
e vent
h us
ir ation
O L
Ġpand emic
ĠBo ard
oc ation
c ript
ĠD an
Ġspec ified
Ġag ency
m es
Ġcol le
ĠInst itute
Ġd ied
s hip
Ġgood s
Ġst ated
port s
Ġgener ated
num ber
it ig
Ġjust ice
Ġk ing
sc he
C omm
Ġp ool
n orm
Ġh us
g ar
Ġbig gest
Ġep isode
Ġcaus es
n s
oth ing
Ġap art
Ġf re
pos ition
Ġrequest s
Ġpro ceed
L og
Ġsl ight
Ġc overed
Ġtri p
Ġon going
' ))
e qual
Ġsustain able
os es
Ġf an
z y
st d
res hold
Ġbre ath
se mb
Ġsk ill
m t
Ġd ial
Ġ2 6
Ġout comes
ĠFound ation
ĠAm azon
hed ul
Ġvide os
Ġdist rict
re al
if ies
ne xt
Ġacc ident
im ize
Ġrest aur
e ed
Ġhe at
et ry
3 8
Ġexpl ain
Ġw all
am ily
Ġoper ating
Ġcomb ination
l ife
Ġprevious ly
Ġv ulner
ĠV ersion
y stem
Ġcrit ic
Ġc old
c or
Ġconsider ing
c an
Ġb urn
ĠRuss ian
Ġproper ly
Ġspec ies
dd en
Ġla unch
em porary
T rans
Ġintrodu ced
un ately
oft ware
ob s
4 4
Ġj oy
Ġman aged
O ut
Ġknow s
Ġre ached
Ġam b
ast s
ic it
Ġmult i
Ġn or
M an
ion ally
Ġst ar
Ġc op
Ġpack age
Ġopin ion
Ġen v
ĠS ing
Ġann ual
Ġbl ue
ĠWh ite
ĠS ch
F L
Ġclean ing
Ġrep air
oss ible
TI ES
ĠA v
sp ace
Ġdetail ed
Ġdiscuss ion
Ġin fect
ar io
Ġdec ide
r at
ĠPl an
Ġp add
Ġcorpor ate
Ġe at
Ġadd ing
ĠP re
Ġf ix
ard en
Ġaccom pl
P C
Ġcon clusion
Ġre ward
trans form
Ġend ed
os is
Ġrem ote
erv ation
Ġmin or
Ġcitiz ens
Ġ201 1
Ġsupport ing
ĠM al
c her
comm and
ĠComm ission
ĠJ ack
Ġleg acy
Ġde ploy
it oring
Ġmatt ers
est ic
est er
Ġscient ific
Ġl oyal
Ġ2 7
Ġheav y
Ġrec overy
ĠY ear
ig ration
Ġknow ing
ĠU k
ĠG ree
Ġpay ments
Ġg one
Ġsu dden
Ġhelp ful
Ġinj ury
ens ity
ser ver
Ġbr ings
et her
Ġpresent ed
s ession
pt y
* -
t ask
g reg
Ġfamil iar
ĠWest ern
Ġauthent ic
Ġgover ning
Ġwe ap
Ġneg ot
Ġpl aced
ĠC B
Ġdru g
Ġj oint
Ġbuy ing
O ver
ER S
i j
Ġc ities
L C
ocr atic
ic ians
ĠWARRAN TIES
i ated
T ra
ĠS k
9 5
em p
Ġd ry
3 7
Ġdep ends
Ġinv ent
ĠCO VID
p age
Ġen um
Ġb on
ĠT ex
Ġaut h
ĠD el
Ġwebs ites
ĠE v
Ġsp ending
uc lear
Ġpos itions
ĠSt reet
Ġpotential ly
Ġwe ather
res ource
âĢ ¢
0 5
Ġsy n
ag o
h ab
urther more
Ġsche dule
ial ize
m as
Ġprof ile
d type
U p
Ġviol ence
ĠAd d
ĠB uild
ĠGerm any
ĠB ook
Ġfeel s
S C
Ġimpro ved
loc al
ĠT ime
M od
ĠJ er
Ġtem pl
y a
Ġl ose
Ġimp lied
Ġask ing
Ġwe ak
Ġman ner
ri an
Ġs pect
Ġtele vision
Ġfrequ ently
Ġconsist ent
Ġth read
ĠH el
se cut
Ġexpress ion
-------- --
Ġappe al
ĠPar am
Ġappe ars
Ġent reprene
m em
ra int
P ol
L icense
par ser
Ġt ick
ed y
U M
icro soft
Ġgir l
Ġopen ing
Ġcap abilities
Ġp d
Ġ- *-
ĠPy thon
ĠG ood
Ġco ff
Ġch annels
l ayers
res ents
ĠEx per
u ct
Ġel im
cl aim
Ġpod cast
Ġaccur ate
ĠR ich
Ġex ternal
Ġconsc ious
e qu
Ġappear ance
ĠInst ead
Ġent hus
ĠB ra
ĠC ustom
d rop
t r
Ġcor respon
ĠS at
t xt
Ġmarri age
v ille
ax is
ĠT ur
input s
Ġd ating
T ime
HO UT
log ger
lic ation
Ġrel ax
or ial
Ġf asc
Ġre act
un ction
ĠC ap
w ell
ch annels
ĠG reen
it age
Ġf uel
ud d
f uture
ĠAssoci ation
pred ict
Res ponse
a o
ic ious
Ġinput s
Ġk it
Ġcon cent
ing u
rib e
ĠS EO
ĠK ey
ĠComm it
lic enses
ential s
Ġun iversity
A A
Ġmom ents
am ental
Ġfac ilit
Ġnot es
Ġaut o
Ġs ale
Cl ass
Ġdat abase
Ġreal ize
ĠS ur
Ġapp s
Ġ200 8
n etwork
Ġcomp ens
Ġpur su
b ert
h ash
Ġrese arc
ĠFr ance
Ġse lection
Ġb ul
Ġredu cing
Ġvar iable
ĠG r
Ġb ill
Ġshow ing
Ġf aster
Ġv ast
M L
ĠRob ert
ang ing
Ġf ill
ing er
Ġadvert ising
Ġart icles
Ġbelie ved
Ġprep are
ĠMan agement
Ġphilos oph
p i
on ly
Ġb rief
Ġer a
Ġneighb or
Ġg od
in ations
R A
Ġre action
in n
v ate
t im
C he
ĠSec urity
Ġhum ans
ir us
ir ms
Ġal le
ĠGovern ment
Ġstand s
Ġext ensive
Ġwor ry
Ġdynam ic
Ġinst ant
Ġc ards
hold ers
ĠP ost
Ġvisit ors
Ġhus band
Ġindust ries
st ore
Ġappe ared
ad y
ĠL icensed
O b
ĠM ary
ĠTh om
ĠC reate
ĠThere fore
Ġperm issions
ild ren
Ġv acc
d raw
Ġnot ed
result s
if est
Ġvol ume
ĠC are
Ġmiss ing
ĠM iss
ĠM od
Ġimpro ving
3 9
Ġres idents
Ġcare fully
ĠEduc ation
Ġdri ver
Ġl am
ag ger
ĠY es
A meric
Ġanim als
n ormal
b u
U s
cs v
Ġ â
ĉĉ ĉ
Ġaccess ible
5 00
Ġart ificial
Ġsatisf action
w orth
ur ally
ĠAmeric ans
Ġst ation
Ġint ended
Ġfe e
ith ub
F I
Ġexp ensive
ĠWIT HOUT
ect ive
Ġm il
Ġcompon ent
0 2
Ġrecogn ition
Ġign ore
Ġteac hers
Ġwe ar
Ġp al
ĠL ead
Ġbott om
P A
ĠM em
mer ce
Ġth orough
ar ity
Ġun its
Ġnetwork s
Ġintegr ity
ĠPart y
Ġg un
ĠAng el
Ġing red
Ġstrugg le
ep och
Ġa id
D A
k ing
Ġf illed
ĠH ome
ud a
Ġmax imum
Ġco ordin
pre fix
6 5
Ġc ateg
Ġsh ot
ov es
ĠM art
Ġw arn
E C
Ġl ived
Ġredu ced
Ġ ..
Ġ} ,
Ġflo or
c hen
Ġover w
Ġla un
S I
ans ion
Ġk ill
Ġp ull
AT E
Ġopt ional
l is
ri ve
ĠO h
ĠS am
st ack
N ew
d irect
Ġtrans actions
ist an
Ġst o
z a
h ow
in ner
Ġinter act
ide o
ĠSu per
Ġseem ed
D F
Ġspe aking
Fr ame
8 8
ĠM et
ĠLin ux
Ġm agn
c el
con s
Ġ{ "
ĠF il
ĠP ay
ex ecut
Ġt it
Ġfem ale
ul ations
id ers
Ġre ject
ĠCong ress
S he
ĠS om
ĠK IND
fr ont
Ġspe ech
Ġm ur
ur b
Ġse vere
Ġsus p
m atch
Re quest
ag ram
Ġint ent
s ys
In st
Ex ception
---- --
r um
Ġinterpre t
E X
D IT
ĠL ook
ĠM useum
Ġr ul
ĠY eah
Ġmin imum
Ġc row
se y
Ġar m
T P
T O
Ġimplement ation
Ġengine ering
Ġaw ait
Ġdou ble
iction ary
Ġgen u
Ġfac ed
Ġconstant ly
m ath
ĠR oman
Ġregular ly
Ġexc iting
Ġsen ior
ĠJew ish
N A
Ġp un
out hern
ĠA lex
Ġ âĢĶ
Ġext ract
Ġ200 9
ĠDirect or
se curity
Ġjo ined
st on
Ġde cre
Ġer rors
Ġcell s
ĠR o
Ġread ers
t ag
ĠV is
friend ly
G ener
Ġwas te
ou nder
Ġsh oot
ot a
at in
ĠF ore
Ġcreat es
out s
S te
Ġrep resents
Ġv s
re place
B A
ĠPro ject
ĠM ex
s ort
r t
ĠB AS
Ġdiffe rences
ĠM ag
s end
Ġexper iment
Ġad op
ĠAc ad
Ġp ra
itut ion
Ġchem ical
ĠD ec
Ġcon ver
Ġw est
if ts
Ġt ag
Ġwa iting
ĠD et
ak ed
Ã ¡
( __
ĠR iver
ĠPro gram
Ġconsequ ences
ĠIs lam
ĠÂ £
Ġn ice
and er
ĠE arth
Ġf ant
ad o
Ġcho osing
O r
ĠGe orge
ĠTex as
m ult
g ent
ĠIn vest
y l
Ġthan k
ĠCl ass
R I
ĠJapan ese
Ġrecomm ended
Ġteac her
u nder
ĠMich ael
Ġfac ilities
Ġdisc overed
Ġperform ed
Ġre in
R ead
un ning
Ġfor get
Ġd ivid
t otal
Ġm ath
ĠM ad
f irst
k a
zer os
Ġa th
Ġaffect ed
Ġpolit ics
w hat
Ġun less
ar p
Ġhold s
Ġdoub t
ĠSc ience
ap ers
Ġtop ics
Ġshow ed
oc ab
Ġdeep ly
Ġ8 0
Ġdog s
Ġdevelop ers
Ġsurround ing
ap ache
s a
ĠN OT
le ments
ĠC all
ed ge
Ġsh ip
Ġsignific ance
ĠLe ague
ĠPro v
ĠH all
Ġcoff ee
Ġdat etime
se arch
Ġimp ress
") ;
Ġyou th
Ġselect ed
Ġcrim inal
Ġass et
un te
Ġs oul
Ġm sg
P ath
g age
S D
Ġdef inition
C an
Ġupd ated
Ġse a
Ġon to
ĠB et
c ache
os it
Ġro t
ex ample
on ial
wh ile
el lect
Val ue
Ġsu c
5 5
4 9
Ġmost ly
Re g
ĠC ath
4 7
ĠM o
Ġtrust ed
Ġdom ain
( -
Ġcol ors
Ġsp aces
Ġfor g
in ent
Ġv ibr
c al
Ġhosp ital
Ġappro x
comm on
cre te
i ary
er r
Ġemploy ment
Ġident ified
Ġsuccess fully
Ġprof it
Ġc atch
est yle
Ġtrans action
n es
Ġhead er
Ġattack s
Ġexp enses
ĠUn less
S u
Ġintegr ation
Ġ icon
ĠL ou
ĠOn ly
st ract
Ġb aby
Ġf alse
Ġfil ename
Ġdesign s
ĠC EO
sc ope
Ġf urn
in i
est ion
O f
ber g
Ġreport ing
Ġattor ney
Ġ2 9
ĠG ra
Ġs an
Ġrel atively
Ġresult ing
ĠDevelop ment
Ġ9 0
Ġtransform ation
Ġ2 000
ĠC ur
Ġcall ing
Ġcom ments
Ġclos ely
Ġex ists
ĠS oftware
wh ich
) ):
ex cept
Ġsp ort
Ġsur vey
Ġveh icles
Ġbring ing
Ġin ner
Ġdest roy
Ġhold ing
L ICENSE
Ġhe aring
Ġcl osed
Ġsuc ceed
3 1
Ġstart s
Ġke ys
Ġparticip ants
Ġas ync
Ġpl ants
Ġdeterm ined
Ġd aughter
M O
ort hern
" ):
Ġfund amental
ĠM ac
if orm
Ġb ag
Ġcont aining
al let
ĠK ore
Ġob j
Ġabsolut e
ol es
Ġgl ass
Ġexcept ion
Ġkind s
pl oad
Ġl ux
Ġinvest ments
M ore
do or
Ġsign ed
Ġrun s
aut hor
est amp
Ġwould n
D on
ra cy
Ġk illed
as y
Ġgreat est
Ġst ake
Ġlot s
Ġf ellow
L et
S S
Ġset up
st ood
Ġgu ess
Ġsh op
set tings
Ġsu itable
N AME
Ġb ond
ĠD iv
ow s
m iss
Ġst reet
Ġcar ried
Ġc v
Ġimprove ment
ĠB u
` .
Ġenter pr
m osp
ĠCommit tee
Ġm ock
Ġmanufact uring
Ġpersonal ized
Ġrem oved
Ġassess ment
ĠQ ue
Ġbuild ings
ĠB re
Ġph ase
Ġch art
Ġc ars
Ġ ),
p g
Ġem pty
Ġso le
Ġexist ence
b b
met adata
Ġfl at
Ġhon or
Ġcommun icate
Ġc ategory
Ġcoun sel
Ġl ibrary
Ġg ift
Ġpur s
6 6
Ġm useum
Ġcy cle
Ġput ting
Ġimp lic
for ward
n am
he ight
Ġadminist r
Ġess ence
oper ation
Ġpre ferences
Ġcreat ivity
Ġcon vert
Ġfin ished
ĠV ir
Ġcomb ined
Ġs umm
Ġrepresent ation
st e
Ġag encies
Ġha ven
b ool
ĠSt r
ĠB ig
Ġres on
ĠEng ine
Ġf ixed
Ġindust rial
Ġt uple
19 9
ind ing
Ġsequ ence
Ġun w
low er
Ġf old
ĠI mp
Ġmet al
Ġm o
Ġentire ly
Ġpro te
omm od
ĠT oday
Ġmon itoring
Ġb atter
Ġthan ks
Ġres ident
Ġimmed iate
Ġexpl oring
, '
Ġeng aged
in te
Ġv ac
Ġdisc ipl
ĠInt e
anc ial
ars h
Ġp air
Ġarchitect ure
Ġworld wide
Ġth r
ĠU N
Ġinvest ing
Ġfor ced
Ġch osen
ĠI d
ĠA ff
ig en
Ġdis s
ce ived
ĠNew s
ail ed
Ġl ies
Ġupd ates
ĠB ible
Ġnarr ative
g ers
Ġdis rupt
K E
ĠS un
Ġra in
Ġb anks
g ithub
ĠB er
ult ure
I I
Ġg ar
b as
Ġent ity
Ġdef e
Ġn uclear
e al
Ġadvant ages
Ġre b
Ġar range
( _
Ġl ayers
Ġpay ing
Ġsub sequ
p et
Ġz ero
p ulumi
Ġfin ance
elt a
ak s
st rip
Ġlist ening
Ġcontr ast
ist or
ot ic
alle l
Ġc amera
4 2
se ed
ĠRe v
ord ers
ot hes
on a
ck s
ĠS er
sh ow
e an
Ġdocument ation
Ġdep art
Ġdeal ing
em bed
R ec
Ġpr ison
ĠRe view
Ġdep artment
Ġb odies
Ġprof ound
Ġmet rics
Ġoverw hel
Ġposs ess
A dd
IT Y
Ġc ry
Ġemerg ency
Ġapprec iate
St ate
w ik
Ġtell s
DIT IONS
Ġmeaning ful
Ġloc ations
os h
Ġtemper ature
force ment
ĠFl or
c md
Ġstruct ures
Ġconcern ed
m ake
i en
om a
Ġ200 7
Ġqu arter
Ġ' /
Ġins ight
Ġre new
Ġwid ely
ig ital
ĠFr anc
Ġaccept ed
ĠS al
Ġt aught
ĠM er
Ġserv ing
ĠB it
ov al
Ġn orth
s rc
Ġfact s
S A
ĠN etwork
Ġstand ing
ĠEx ception
u an
Ġhappen ing
ĠCON DITIONS
l at
Ġcr ime
A ut
p aren
Ġtra d
ĠBAS IS
Ġqu e
ĠM odel
Ġfac ing
ĠDe v
Ġter rit
ĠR ight
ĠDes ign
F orm
Ġtra ined
Ġjud ge
Ġpropos ed
Ġimp ossible
ult ural
ĠG en
b ose
ĠM ain
t rue
ĠA ward
Ġtyp ing
'] .
Ġmarri ed
am il
Ġcontribut ions
des cription
Ġpromot ing
T Y
D ef
Ġat mosp
Ġhy p
] ))
Ġconfig uration
s he
is ms
Ġs in
ĠF orm
ĠSt art
Ġinter face
Ġor d
Ġre form
ĠSm ith
Ġg ender
Ġhouse hold
U nder
l ights
Ġn one
Ġinsp ired
Ġprim arily
Y es
Ġpre v
Ġabsolut ely
ing ly
Ġst ick
z ing
Ġinter actions
Ġorgan ized
a id
rou d
Ġsupport s
ic ian
Ġs essions
Ġp ure
c fg
Ġport fol
Ġhe aling
Ġfra ud
Ġen roll
Ġfollow s
Y our
Ġconvers ations
Ġf le
est ival
Ġiniti atives
Ġpl us
Ġf ish
Ġsound s
6 7
paren cy
Ġv ote
ĠJ our
Ġded ication
Ġsho pping
Ġsh ares
mat rix
ĠOff ice
Ġansw ers
Ġext ent
Ġev olution
ĠD ict
ot es
Ġsol ve
Ġown ership
Ġb orrow
Ġacc ommod
ro c
Ġfin ish
Ġ> =
Ġhous ing
ad ian
ĠB oth
Ġsubstant ial
Ġschol ars
', '
Ġk ernel
Ġrelig ion
Ġrecord ed
ĠC y
us hed
g t
ĠB ill
Ġmass ive
Ġ ĠĠĠĠĠĠĠĠčĊ
Ġthem e
we ights
Ġafford able
Ġle aves
ĠE conom
M any
Ġsuggest s
Ġproced ures
Ġguarant ee
r d
Ġant icip
Ġex cess
s v
Ġint ellect
angu ages
ĠA rab
ĠC ode
t hen
ire ment
Ġfig ures
lam bda
ĠT or
R L
( {
gra de
Ġaccur acy
Americ an
) ),
v an
ĠR un
gy pt
Ġcor ner
ri a
r ical
Ġd ur
Ġperson ality
Ġinv al
Ġform ed
av a
Ġit er
Ġout come
et t
Ġreal ized
Ġlaun ched
Ġdem ands
ĠM icrosoft
oura ge
P e
Ġse conds
Ġ3 2
Ġclos er
sc ript
step s
u a
se q
Ġlawy er
Ġsu it
Ġrefer red
h an
v ol
Ġag ents
fort unately
Ġdest ination
O C
ĠWh o
Ġy es
ass ion
ra ine
ĠCent ral
Ġexp osure
Ġtra dition
Ġsong s
and a
Ġslight ly
Ġab use
Ġj ump
al a
Ġparam eter
ĠP ress
ĠH y
ĠP eter
Ġalgorith ms
ne ver
m m
D S
Ġb ags
Ġm arg
Ġli qu
Ġp ul
Res ult
Ġdisc rim
m ail
Ġlif estyle
num py
Ġinstru ment
ĠP ower
ĠP ath
Ġ3 1
ug in
it ure
Ġpub lish
I V
ĠW here
Ġexpl ained
" ])
Ġt act
Ġs outh
Ġcap able
loc ation
ĠAr ch
se ction
Ġdiv ision
Ġcapt ure
Ġd b
Ġoper ate
Ġn om
A PI
Ġanaly tics
s amples
Ġinvol ving
Ġse ed
Ġunc ertain
Ġdang erous
Ġbound aries
Ġre ly
clud ed
Ġf irms
co hol
ĠParam eters
Ġlam bda
ĠWe b
Ġst ores
y pes
ĠL o
a ver
ĠL ib
opt im
s pe
Ġemp ower
ph one
f in
ĠSe cond
Ġposs ibly
Ġ rom
dep th
Ġaffil iate
ĠT ake
Ġst ability
Ġ ĠĠĠĠĠĠĠĠĠčĊ
ot o
or ig
ro id
Ġco ach
Ġjud gment
C ase
4 6
ger y
oc racy
Ġhy d
Ġpl enty
Ġbeg ins
Ġper man
Ġen viron
Ġf ab
Ġ= ==
oc ur
Ġrec ip
Ġeth ical
Ġrel ative
Ġche ap
head er
\ \
itt est
Ġmed icine
r ich
Ġrecommend ations
Ġcomm ission
ĠSp irit
Ġphot os
h as
ar row
ĠS T
Ġofficial s
Ġpost s
Ġd iversity
Ġsu fficient
Ġstate ments
Ġinde ed
Ġclass ic
g on
ut f
Ġoutput s
( *
ive red
Ġcandid ate
ĠE U
w orld
Ġcont emporary
Ġ7 0
ag ues
ĠM ount
Ġreason able
ĠF ort
Ġ200 6
Ġexecut ive
ĠM att
Ġmat rix
it ting
7 7
Ġor ders
8 5
Ġposs ibility
Ġext ended
ult y
ĠH im
ĠSoc iety
Ġqu iet
less ly
Ġgu y
Ġprotect ed
Ġappro aches
t emplate
Ġmill ions
field s
Ġt ro
Ġrout ine
Ġwonder ful
ĠMin ister
Ġresearc hers
z en
ĠMus lim
Ġflex ibility
Ġcampaign s
ĠCommun ity
Ġauthor ities
ĠIntern et
box es
us ing
al ian
Ġfocus ing
D ict
Ġn ic
Ġ <|
Ġal t
init ial
Ġsh ock
ĠAN D
Ġp u
Ġdef ine
p atch
Ġhe ro
Ġtensor flow
b i
at he
Ġfl ag
Ġtre es
Ġob st
Ġan imal
ĠL og
Ġbr ight
ag on
Ġgener ations
ĠDes pite
Ġmor al
Ġwatch ing
us es
ĠB ay
w est
ĠW il
Ġunder stood
Ġp hen
Ġrout e
Ġbenef icial
ĠL ong
Ġtail ored
n ight
Ġ ĠĠĠĠĠĠĠĠĠĠčĊ
st op
Ġdoll ars
Ġcandid ates
ĠPro t
Ġbig ger
Ġn ative
th at
ĠT im
ĠO ld
Ġrece iving
Ġachie ved
Ġact ively
Ġcon ference
un ting
ĠS l
o ices
Ġrem ained
Ġbro ken
ch annel
gr id
Ġmot or
Ġclin ical
Ġd ie
m ission
red it
Ġb an
ĠE gypt
ĠE p
ur d
ĠIn it
C A
Ġprem ium
Ġvol unte
lic k
ĠI ran
Ġproced ure
ĠP lease
Ġnecess arily
Ġdiscuss ed
0 3
Ġg rew
Ġanaly ze
ĠT re
ĠL u
Ġreve aled
OR T
test s
Ġg ained
clud ing
ĠJ ud
Ġadd s
ĠC reat
Ġrob ust
Ġpro of
b ound
ĠOr gan
Ġleg it
et te
ĠV ol
st s
ĠI r
ir med
] ),
Ġregul atory
Ġb arri
ĠSu pport
n ic
ĠSc ott
Ġrem aining
ĠSe cret
Ġsc hedul
ĠDist rict
ad s
I mp
ĠFlor ida
Ġm al
Ġsens itive
Ġto w
0 4
Ġse am
Ġcommon ly
Ġd ictionary
Ġingred ients
Ġentertain ment
ĠIs land
sy stem
Ġact s
Ġparticip ate
ĠC le
Ġfriend ly
il er
Ġdel ay
Ġs ummary
Ġplan et
ĠSp an
ĠAn other
Ġincre ases
Ġm iles
Ġconduct ed
Ġenum erate
Ġman agers
ĠC amp
f ast
Ġautom atically
Ġexcept ional
Ġm outh
Ġtarget s
Ġgu ard
b a
g ments
Ġen ables
). __
Ġf if
Ġreg ions
ĠS il
Ġlist ed
Ġ' .
ĠR ights
Ġenthus i
i at
Ġcar bon
t d
ĠTh us
Ġm and
Ġas p
Ġ5 00
ĠI P
ĠTe am
Ġd u
Ġhundred s
Ġaud io
am in
Ġfound ed
Ġfulf ill
Ġreg ister
Ġcompens ation
b est
fe ature
Ġlim its
ĠT om
w ater
Ġst im
b orn
Ġevalu ate
R ep
Ġsupp osed
Ġher self
st one
ĠIm port
Ġsc ores
Ġless ons
ĠGl obal
head ers
F in
Ġdec or
P er
Ġsign al
Ġp roud
Ġ ĠĠĠĠĠĠĠĠĠĠĠčĊ
Ġmat ches
ĠCar ol
ĠH uman
|> """
com ple
Ġed itor
A tt
s qu
Ġprot ocol
Ġwalk ing
ĠWill iam
Ġeval uation
tt ers
S ub
P U
Ġcharg es
N et
ĠC orpor
is co
Ġgir ls
Ġ il
Ġcl im
Ġmark ed
Ġus age
ĠAr my
ĠAs ia
Ġmot ion
ic ago
Ġab ilities
Ġdes ired
Ġap i
es h
Ġconsider ation
A re
ig ma
end ers
as p
Ġlarg ely
Ġ ----------
ĠF und
Ġhand ling
ĠCh at
Ġtr uck
Ġdut y
atas ets
Ġd ir
Ġrel ief
d iv
Ġvari ables
F irst
F C
ĠFr ank
ot ed
Ġstr ict
Ġfe at
Ġs amples
W S
Ġn odes
Ġmeet ings
Ġsuff ering
Ġsw itch
by tes
Ġinter action
Ġur ban
T ER
ĠN or
indow s
Ġar ts
Ġ3 5
Ġdel ivered
Ġg aming
Ġgu ys
Ġd reams
ĠH T
ĠTh ose
Ġdisc ount
Ġser ial
S ee
se lect
Ġdescrib e
Ġra re
ĠS ol
z one
um a
ograph ic
ed ia
Ġrad io
Ġcult iv
Ġatmosp here
p erson
ĠAn n
ĠW omen
Ġch ief
um ps
ĠT wo
S P
+ +
B uild
Ġact ing
val s
in et
at ural
ĠO per
Ġis ol
Ġneighbor hood
Ġpen al
ĠF ree
0 8
ĠM aster
ĠS pe
tra ck
ĠB as
Ġe ating
Ġdom estic
Ġimag ine
F e
ĠV er
UL T
Ġdru gs
Ġsh ut
Ġis land
S erv
Ġguid elines
Ġcut ting
Ġapp arent
ĠRe al
Ġamount s
O per
um s
Ġres olution
i ability
Ġmon itor
'' '
Ġs and
0 6
Ġmed ium
re y
. ')
__ __
Ġexpress ed
Ġinvestig ation
Ġf ake
az ine
ony m
Ġel ig
ĠTechn ology
ĠB ase
ĠA R
Ġc os
Ġw ine
Ġd ys
ĠS und
Ġt x
ĠB efore
Ġmus ical
r id
Ġk id
u gh
Ġph r
ell ed
Ġliter ature
Ġshow c
" ).
rem e
ĠCon nect
Ġ< =
Ġturn ing
ant a
Ġun able
Ġdr am
Ġtell ing
Ġs ought
ĠV ict
Ġproduct ivity
Ġoffic er
ĠT imes
Ġpr icing
ĠSt ar
W AR
Ġch apter
Ġtem p
Ġreg ional
P AT
ang le
ĠApp le
Ġover come
ce an
Acc ording
Ġenviron ments
d jango
et es
Ġalong side
Ġbroad er
de c
Ġath let
ĠThom as
os ite
Ġent ered
N ode
A b
r as
Ġconcept s
us r
Ġl uck
Ġincred ible
Ġe ase
Ġresist ance
## #
Ġimplement ed
re q
Ġbl ess
p ress
ĠCath olic
o es
ĠB ur
Ġmonth ly
Ġl anguages
ist ant
n on
Ġhas attr
S p
ĠL LC
Ġpath s
Ġch air
Ġbelief s
pro t
ĠC ert
f aces
Ġfight ing
8 6
Ġgra d
Ġf av
Ġd raft
B l
Ġsustain ability
Ġcaus ing
ib er
Ġsav ed
Ġadult s
ot he
ex ists
Ġw ra
ful l
Ġst one
ang es
Cl ient
ĠT er
Ġste el
D IR
Ġtechn ique
Ġatt ributes
ĠDo es
ĉĉ ĉĉ
Ġexc ited
Ġwrit ers
I A
ent ry
Ġlink ed
Ġbi as
Ġacc el
Ġ200 5
Ġloss es
k l
Ġ iron
Ġpict ures
Ġoffic ers
Ġcharacter istics
Ġinj uries
In ter
Ġt ight
AT ION
ĠSt and
St ring
ĠB ack
ict ed
Ġhistor ic
Ġtre ated
Ġmet adata
de lete
On ce
Ġwor se
ific ate
ĠCl ub
ĠD E
ĠR et
0 7
" ))
Ġwis dom
Ġregard less
Ġdec ade
Ġrespons es
Ġobject ives
Ġter ror
Ġsty les
Ġpros pect
Ġform al
back s
Ġblock s
Ġtransport ation
ask et
Ġ Ã
Ġp il
Ġag ric
Ġthreat s
Ġsh ipping
li ament
Ġpro ve
el i
Ġfor th
t mp
Ġf ell
Ġa est
ixt ure
og rap
Ġiss ued
OD O
'] ['
8 9
Ġtyp ical
ĠH ill
b or
ĠKe ep
ĠVir gin
ĠYou T
ĠN ote
Ġut f
O P
ap es
ist ent
ĠDef ault
r type
R em
Ġaud iences
Ġv it
U P
a fter
con tain
Ġtrans parency
ĠEx ecut
Ġst d
ĠAcad emy
ĠY et
Ġwe ights
Ġtax es
Ġco ast
Ġperson s
D uring
Ġsoc iet
ĠG rand
ĠW ord
Ġinc ident
re r
Ġcare ful
r ition
pro b
ĠA D
Ġemb ra
Ġconf irm
ĠR oad
Ġstri ke
Ġprior ity
ĠRep ort
s or
Ġpar se
Ġwin ning
s im
Ġthem es
um es
path y
Ġportfol io
Ġdiscuss ions
ĠJ ose
Ġcrypt ocur
Ġhot el
is k
semb ly
Ġher itage
Ġlog o
Ġag gress
Ġdial og
Ġappro ved
em ail
Ġdeb ate
t ok
nd array
arr ant
Ġwork sh
Ġregist ered
Ġalgorith m
ĠUk raine
j pg
Ġpow ers
Ġrapid ly
Mod ule
Ġt ough
/ {
ab ling
ĠT op
Ġcomp rom
Che ck
it a
Ġtempl ate
ĠE mp
Ġkeep s
he lp
ĠP et
Ġc as
Ġvibr ant
Ġ' __
Ġp ill
Ġn urs
ĠM ax
Ġsp ring
ir ds
4 1
Ġs ides
T e
it ar
Ġth row
Ġme rely
ĠLou is
Ġdri ven
Ġb order
` ,
Ġstrong er
Ġex ceed
A m
Ġun expected
uff er
j ob
Ġearn ed
Ġesc ape
a ud
an o
Ġ199 0
Ġar rest
ĠE xt
ĠL and
G B
Ġthe rap
ĠSpec ial
Ġprom ise
ual ity
H and
ĠInst agram
Ġorigin ally
Im age
Ġt aste
aw s
Ġaddress ing
Ġmove ments
as ync
off set
Ġemb race
Ġapprox imately
ĠFin ancial
om in
I O
ĠH en
Ġsy nt
AR T
hold er
Ġse gment
Ġsit ting
4 3
ke ep
Ġtrack ing
Q L
Ġ --------------------------------
Ġexp ansion
Ġflex ible
se c
Ġpopular ity
im ages
Ġwin ter
Ġman ifest
ĠM ass
ail ability
Ġgenu ine
Ġ ice
ap pe
Ġremark able
ra ction
ĠAut hor
al og
i y
Ġno ise
Ġbox es
F il
tra ining
Ġal cohol
Ġn ob
Ġpass word
Ġb ow
os ystem
ac cess
Ġcollect ions
Ġbas ically
Ġphilosoph y
ĠC up
M P
ĠCB D
Ġext ension
av y
irc raft
Ġill ness
ne ys
en a
ĠCons ider
Ġsk y
ov iet
ĠAt l
Ġst re
Ġread er
Ġst ack
Ġdirect ed
Ġch ances
Ġsp ons
Ġco vers
ĠH ave
ip al
Ġinsp iration
ĠOn line
Ġg ap
Ġobject ive
Ġinit ially
Ġmy th
pro v
Ġp ipeline
P r
Ġcomp are
ĠAd v
v ation
out e
Ġm el
Ġsuggest ed
__ ,
Ġc aught
ĠMed ia
as tern
ĠS up
Ġid x
pol icy
Ġsac r
aint iff
N E
ĠF ederal
Ġr ig
f s
| "
ĠM iddle
ĠT H
L ine
Ġwel come
Ġturn s
Ġa st
ĠBit coin
Ġprinc iple
ĠCan adian
Ġpain ting
com fort
Ġcomb at
Ġperm ission
Ġpre gn
ĠO ffic
ĠMus ic
igh ter
Ġl osing
output s
ĠL ove
Ġeffect iveness
Ġv eter
imp le
ĠK now
ĠF amily
Ġend s
Ġind icate
ĠN ame
Ġlast ing
Ġunder lying
Ġt un
is odes
ĠN umber
Ġ: :
ful ness
Ġun iverse
Ġcopy right
Ġar my
ĠIn formation
Ġredu ction
Ġextrem e
Ġsudden ly
Ġun known
dict ion
Ġenh ancing
am l
Ġauth ors
ĠW ater
Ġe rect
Ġn ine
Ġgrant ed
ĠS O
ĠS uch
en viron
Ġoccur red
f c
ĠM il
Ġd ance
Ġphen omen
) [
Ġcult ures
reg ister
Ġvill age
Ġhous es
ĠPar is
Ġpass ing
ĠIt alian
ĠCh icago
ĠKing dom
ad ium
ribut ed
ac count
(' --
a a
object s
ĠCh ief
Ġlo op
Ġscient ists
Ġintegr ated
Al though
Ġemb ed
Ġfac ility
pass word
Ġvict ory
ro t
Ġacknow led
Ġcateg ories
Ġoff set
Ġlux ury
Ġgr id
Ġrepe ated
pl an
T ext
Ġsav ings
ill a
all ow
ent ity
in em
Ġarri ved
Ġcollect ive
ĠSpan ish
Ġintellect ual
Ġswe et
Ġpurs ue
Ġt ack
ens us
Ġconven ient
Ġg arden
Ġcomp at
Ġrepl aced
Ġaim s
i h
ĠT O
Ġbu ff
Ġev il
Ġnat urally
Ġemerg ing
ner gy
Ġsp oke
Ġliqu id
Ġwork place
Ġsp ark
ast ers
part y
Ġn ations
Ġgrow n
Ġin qu
Ġyoung er
Ġany where
ĠAustral ian
G roup
Ġaccompl ish
Ġil leg
ĠYouT ube
Ġrem oval
ĠE lect
S pec
an th
------ -
ĠTw itter
c ies
y p
ĠInd ust
R un
t emp
Ġimpress ive
Ġref ers
or al
E very
ĠCh ampions
Ġvers ions
Ġkit chen
anc er
Ġu pper
ĠL ake
Ġoper ational
or a
ole c
ĠR a
Ġst ret
T C
im ents
ind er
Ġ4 5
ĠIt aly
ĠPro duct
Ġprogram ming
ĠS ign
Ġhigh lights
ĠGe org
al ysis
rem ove
Ġj ur
Ġcent uries
Ġconst itut
Ã Ń
fold er
ploy ment
Ġsc al
l ers
v m
Ġb ath
Ġra il
Ġequ ity
Ġs rc
Ġd a
Ġperson ally
p ay
0 9
Ġexpl o
Ġfood s
ob ile
d isc
ĠM el
Ġfost ering
Ġbuy ers
Ġdesign er
Ġdemonstr ate
Ġbe at
Ġtalk ed
s id
Ġ200 4
ĠW ood
ĠUS A
Ġorgan ic
resh ape
ĠMore over
ind ices
ĠTh ank
Ġsqu are
Ġpsych ological
ĠN et
w ing
R eturn
umm y
Ġstay ing
ĠHol y
ollow ing
ĠLear ning
ribut ion
Ġst able
Ġevery day
ad ow
Ġin n
Ġdis able
Ġw alls
ĠL im
ĠH ot
ĠRich ard
S ON
ur i
k es
og a
Ġloyal ty
| }
Ġd il
Ġsc r
ĠE nd
Ġhead ers
Ġrespons ibilities
ĠM ill
Ġout door
Ġto k
Ġfl ight
cl oud
Ġtest im
I ST
Ġimplic ations
d ot
ĠGree k
Ġc ache
od ed
C S
Ġinstall ation
Ġd jango
V ER
CON F
Ġreflect s
8 7
Ġmag ic
Ġphot o
ĠB rown
Ob ject
Ġar ms
Ĥ ¬
path s
Ġc art
Ġcons ent
il arly
Ġweap ons
Ġv end
ex it
ect ed
erv es
Ġbus y
Ġconsist ently
doc s
Ġinstall ed
Ġobserv ed
Ġbe ar
Ġfocus es
Ġautom ation
Ġst ored
et ary
F O
s q
N umber
in ity
D r
re ction
Ġst ars
ĠR ock
Ġhor se
{ |
Ġlegisl ation
Ġsk illed
Ġst ead
fra id
Ġtot ally
Ġlat ter
Ġcal m
Ġrepl ica
og ether
R eturns
Ġs now
ĠL ink
Ġtechn ological
Ġefficient ly
Ġri ver
D ate
dri ven
Ġr ough
: ]
rom e
Ġperiod s
Ġr an
on na
Ġ' _
Ġde als
Ġg ate
Ġec osystem
Ġc fg
Ġminut e
ĠChrist mas
C ons
% .
y ou
Ġa fraid
app ed
config uration
Ġep och
Ġgra ce
Ġcrit eria
Ġinstitut ion
ĠIm age
ro g
ĠL os
Ġprov en
Ġw edding
ann ot
U D
ĠN ig
and on
Ġsent ence
Ġin ject
ind s
Ġinstruct ions
ĠCl oud
Ġs oph
Ġfour th
he rent
ĠT ODO
Ġsto pped
k in
Ġtrig ger
D B
ad ing
Ġmach ines
Ġz ip
Ġenc ounter
~~ ~~
Ġprom inent
G o
Ġpl anned
Ġsur gery
Ġm itig
Ġ //
N N
er ning
Ġo kay
Ġorgan is
Ġpol l
Ġinflu enced
ow ered
Ġg ent
sc ious
an i
bur g
Ġtrou ble
Ġcontro vers
ĠR E
Ġmain ly
Ġun f
ĠS oviet
ist ers
ĠU RL
ct r
Ġins pect
Ġ198 0
ĠF OR
A ss
Ġc ogn
ro py
Ġre actions
ĠJew s
if fe
Ġess ay
it z
Ġr id
Ġh iring
Ġgovern ments
ð Ł
Ġport ion
com pon
ain ts
ĠMex ico
Ġk ick
Ġret irement
Ġwith draw
P Y
av ed
Ġobvious ly
Ġ ],
Ġrepresent ed
ĠVal ley
s ite
Ġhy per
Ġstud io
Ġexpl an
ĠM rs
AL L
25 6
Con nect
Ġtarget ed
cent ury
Ġst ages
w ait
Ġconsum ption
Ġund ert
ĠP ersonal
V iew
Ġun ion
Ġwork er
m o
et ing
Ġpadd ing
ĠBl ue
ĠR ef
gu ard
Ġpercent age
ĠR oyal
ĠC r
Ġbr anch
ĠI re
Ġre nder
Ġstreng then
Ġrepresent ing
Ġexp ort
Ġgu ests
Ġcolle agues
AB LE
ĠCh o
S ince
Ġrec all
Ġexpl ains
Ġqual ified
Q U
ĠD igital
Ġadop ted
Ġhab it
ĠM ont
Ġcompl icated
P art
Ġfr ustr
ĠStr ateg
py test
h ome
ov en
ĠSte p
Ġfeature d
vent ional
est ed
Ġinst ances
call ed
Ġv en
Ġcent ers
le ts
Ġblock chain
Ġl on
log ging
ĠPal est
Ġmount ain
ok ing
H S
v a
Ġsubject s
Ġfl ags
IG HT
Ġcon version
O W
Ġdist ingu
] ):
m aster
ĠD isc
ach ine
et ch
Ġpain t
Ġw ave
l ay
|># !
Ġb ought
Ġro oms
Ġr ing
AG E
Ġa ircraft
M ost
p ub
id en
Ġact ors
Ġex clusive
ĠT ensor
Ġspecial ized
Ġpan el
Ġbr idge
b n
connect ion
ĠM ult
Ġt ags
E d
Ġapp lying
ch mark
Ġint ention
Ġeven ing
Ġincred ibly
ĠM ot
Ġer r
B efore
ĠL ast
ĠU ser
id get
Ġve get
re port
Ġth ick
Ġobtain ed
Ġd ress
Ġfasc inating
man ager
Ġdeg rees
Ġexecut ion
Ġle ver
L oad
m ock
U ser
Ġpurch asing
Ġdom in
go ogle
igen ous
az z
ĠUs ing
Ġgreat ly
Ġclaim ed
Ġp iv
Ġc ab
ĠR ad
Ġcomp assion
ĠPl ay
ly mp
ir s
su pport
Ġdeliver ing
Ġtrad itions
al i
Ġmist akes
Ġdri vers
ĠSund ay
Ġcrypt o
ĠB udd
Ġn arrow
ĠF ather
Ġestim ated
Ġemploy er
D AT
Ġachie ving
ĠAngel es
Ġsub t
Ġass ume
k ind
Ġad s
ĠMarket ing
Ġimplement ing
Ġad equ
Ġbelie ves
Ġst ood
Ġris ing
pr ing
Ġnot able
Ġatt r
Ġh ook
l int
our se
Ġp ed
n ed
Ġrel ation
I B
Ġen abling
Ġman ip
Ġs ister
ĠD en
Ġfol ks
dat etime
Ġappro val
j i
ĠD u
Ġfunction al
ĠF urthermore
Ġf ruit
v ity
Ġcomput e
J ust
Ġcontract s
pect ives
ĠA ud
E ven
Ġimpact s
Ġmort gage
Ġenjoy ed
olog ist
ĠJust ice
ĠC ost
Ġperform ing
cont rib
ĠSup reme
ent h
Ġbut ton
Ġtreat ments
In fo
d el
Ġsurpr ise
l r
Ġsome body
FA ULT
ĠC ast
6 8
Res ource
Ġhard ware
ic an
ĠSh ow
l ass
Ġre aching
d a
column s
Ġpol y
Ġvers at
Ġun s
ĠC am
Ġown ed
Ġm ixed
C all
Ġdys function
Ġcorrect ly
Ġm ine
Ġelect ronic
ert s
Ġbl end
P y
Ġcon crete
p ower
ib l
Ġch arm
it led
ĠB rand
Ġ200 3
Ġexp osed
Ġen forcement
ow nt
Ġrestaur ant
Ġh ire
Ġsett lement
Ġ" .
ĠCol or
ĠJ im
Ġcomplex ity
Ġdra wn
Ġli ability
Ġfac ulty
Ġfost er
met ric
Ġse at
ĠHe ad
on ic
li k
Ġcomput ing
Ġintrodu ction
b eta
c uda
Ġprofess or
Ġadv enture
an ing
Ġd ates
ĠI ll
P RO
******** ********
rec ord
u ate
irt ual
Ġf lood
app oint
Ġbroad cast
z il
b el
Ġne ither
Ġw arrant
com merce
Ġtra ce
Ġsu gar
Ġdisc overy
Ġdep ression
te am
Ġprec ision
ens ors
iz ers
N e
Ġposs ibilities
Ġsimp l
Ġperfect ly
ĠC at
Ġint ric
Ġcur rency
Ġopp on
Ġsold iers
Ġparticip ation
Ġsil ver
he m
C K
ĠS qu
Ġcor rupt
Ġbatter y
Ġby tes
Ġ ):
Ġsupp lement
Ġth reshold
u ce
ĠVict or
Ġvis ible
M e
Ġpriorit ize
ic ul
ep s
Ġz one
ĠChar les
Ġfit ness
Ġentreprene urs
ect or
ĠW all
if act
h o
Ġessential ly
al pha
ĠP enn
eli hood
Ġal ive
ĠIre land
Ġl ie
ĠAb out
u i
Ġnew sp
Ġidentify ing
Ġslow ly
Ġexpl oration
Ġart istic
Ġperman ent
k ins
ur a
or gan
Ġcamp us
Ġcollect ed
Ġcommit tee
Ġtok ens
Ġobst ac
Ġmem ories
t uple
r ank
ĠAd minist
Serv ice
Ġhe l
Ġocc urs
C reate
Ġso il
W ork
Ġ197 0
Ġmov ies
p ng
Ġne uro
Ġinsp ire
ĠProfess ional
Ġtw ice
|>#! /
W ell
Ġh all
m n
Ġt ap
Ġint ense
* "
r m
Ġprodu cing
Ġcons erv
Ġfollow ers
Ġres erved
Ġs ending
ĠJour nal
Ġfac es
Ġbre ed
Ġcolumn s
Ġr ide
ĠV e
Ġun lock
Ġrecord ing
Ġsa f
Qu estion
Ġab andon
Ġvictim s
Ġ' --
ĠLab or
ĠType Error
__ ':
form ance
br id
PAT H
i est
Ġe gg
ig an
ĠC D
ĠEn ter
Ġall erg
Ġ3 00
he w
E xt
g color
o or
Ġexperi encing
Ġmem or
Ġattempt s
c a
Ġar r
Ġext end
Ġst orm
pro fit
th is
Ġres olve
ĠR D
Ġg am
Ġ200 1
tra ined
Ġ' -
writ er
Ġhuman ity
Ġserious ly
m it
Ġmet ric
Ġcontain er
Ġbeh alf
th read
Ġs ad
c p
Ġheav ily
y an
Ġopp osite
ĠJohn son
Ġreal m
Ġdo ors
Ġfind ings
Ġmy st
Ġact or
st ats
sh ot
Ġsol ar
Ġmin imal
Ġs ight
Ġco aching
Ġal ike
Ġsort ed
Ġv an
Ġ ?
ĠJ o
ĠMart in
Ġrat io
Ġmind set
Ġv ent
Ġal pha
E nt
Ġperform ances
' ).
Ġopt s
Ġdiv or
Ġb row
p ie
Ġbu ck
Ġle tters
AG S
Ġgu est
Ġshe l
ol a
Ġacqu is
Ġnot iced
Ġprov ision
L A
Ġqu ote
Ġf ly
ĠR eturn
Ġw ider
AN G
9 6
Ġsh arp
ĠP ract
Ġcompar ison
Ġprote in
wik itable
p m
Ġem ails
TH ER
Ġfunction ality
Ġpy test
ĠC ivil
E m
ĠF ed
Ġ" "
Ġmov es
Ġexpl icit
Ġman ual
or se
Ġenterpr ise
Ġthous and
Ġmer ch
Ġb low
C o
t ree
Ġev olving
v ars
Ġvis iting
Ġevery body
Ġc aut
Ġbre aking
Ġse ctors
c pu
Ġmembers hip
d est
ĠM ur
ĠW rit
st ruct
Ġrec over
ing le
7 8
ĠP C
Ġm ir
Ġabs or
u ction
if ting
Ġdise ases
Ġequ ally
Ġex it
Ġj ew
Ġgu itar
Imp lement
g ame
Ġw arning
Ġacc um
the less
Ġregist ration
ĠAcc ount
ĠFr iday
Ġbank ing
Ġtem porary
Ġopin ions
Ġcontribut ed
R C
fact or
ink ing
Ġdiv ine
St art
Ġcre w
Ġdynam ics
Ġvulner able
Ġs izes
O ther
Ġm ail
ĠL ine
ĠPro cess
Ġemploy ers
ound ed
Ġwor st
ĠMed ical
ĠProfess or
P arser
Ġhab its
Ġfind s
Ġcol span
gl obal
ĠG ame
ut ch
Ġpre fix
Ġy eah
Ġen emy
z ure
Ġ1 000
Ġr ub
Ġult imate
Ġne ut
as er
ĠT own
Ã ¼
Ġdeterm ination
as ant
Ġnear by
ch ar
Ġg all
ne g
Par am
Ġor dered
th rough
es ides
Ġv irus
Test Case
c r
j a
ra q
An y
ĠBrit ain
ul s
Ġattract ive
i ams
ival ent
Ġcheck s
Ġpriv ile
Ġtravel ing
y e
it ical
Ġrequire ment
ĠVirgin ia
M M
pos ed
Ġstat istics
av en
Ġfrequ ency
Ġra c
Ġicon ic
t ical
Ġc ro
Ġs ou
Ġpray er
Ġhapp iness
Ġad option
Re ferences
sche ma
ĠAr ts
con scious
ist ed
pro file
Ġdem ocracy
Ġcl othing
Ġreplace ment
Ġ200 2
Ġconc erning
E vent
ĠL ee
ĠRem ember
ĠS ar
ĠO lymp
ak istan
c ap
Ġdis cl
direct ory
fl ags
in v
ĠC ard
Ġcapt iv
Ġsche me
ĠD ou
Ġsal t
r ated
Ġt one
Ġsome what
Ġstake holders
ĠN on
Ã ³
Ġm ood
Ġdefend ant
L ast
b ing
arg v
D is
b les
proper ties
Ġla id
Ġindepend ence
Ġwhe never
or ous
ia h
Ġs ick
Ġst unning
Ġ" /
ĠT our
Ġce rem
ul ating
Ġcharg ed
Ġjur is
Ġph arm
p x
Ġc ul
ĠYou ng
IN E
Ġalle ged
der r
Ġdeb ut
le arn
set ter
ĠPol icy
tok ens
ĠH aw
Ġcorrespon ding
ĠE st
met rics
Ġemphas is
Ġexpand ed
Ġgovern ance
D ec
se m
Ġcomp an
h idden
Ġro ots
Ġver ify
V E
ĠS eries
Ġmind s
Ġto ler
Ġin her
qu ence
Ġinfl ation
ĠU t
Ġs aving
ac ific
w ar
ust ration
Ġp it
Ġhosp it
ap se
Ġo d
Ġdim ension
ĠF ood
] ['
hel per
d i
Ġmut ual
iss ue
ĠJose ph
ĠS and
ĠSom etimes
Ġcl uster
Ġcontroll ed
Int e
Ġpl astic
Ġpers pectives
E ng
en ess
Ġenc ount
Ġachieve ments
__ )
Ġent ities
Ġaim ed
Ġh urt
Ġn urt
Log ger
P N
Ġb inary
Ġbehavi our
ĠV iet
ok es
Ġfair ly
az ure
av al
ure au
ob by
Ġo vers
s ql
w d
Ġtest ament
Ġlist s
Ġconf irmed
Ġelect ed
Out put
al m
5 9
cre en
Ġimprove ments
ĠB i
ĠFor ce
Ġaddress ed
m akers
Ġtest ed
Ġav ailability
raint s
Ġpl aintiff
Ġsur ve
ĠEx pl
ĠJ ul
Ġte en
Ġdis appe
In f
un it
hand ler
Ġcommun ications
Ġprepar ation
ĠIns urance
ĠL atin
Ġfil ed
ĠJ oe
Ġfab ric
fo ot
Ġte a
in x
K e
Ġleg end
iffe rent
Ste p
Ġtime out
Ġres p
Ġfact ory
Ġremind er
Ġget attr
se ct
ĠP an
7 6
li ers
Ġc md
Ġdevelop ments
Ġdec ent
it an
Ġdis miss
IC E
Ġb att
Ġn u
Ġqual ities
Ġev ident
ĠS on
Ġt on
Ġstre ets
B U
pe ction
Ġorgan isation
ĠA S
ĠS ir
Ġvis ibility
ĠE ff
Ġsubsequ ent
UR L
Ġinvolve ment
D ataset
ul f
Ġcred entials
Ġpres ents
Ġinflu enc
Ġprotect ing
Ġenh anced
D et
ĠP RO
Ġtw enty
ĠL ight
7 9
Ġd uration
Ġencoura ged
du ction
_ {
Ġb read
Ġle verage
de code
Ġiniti ative
time out
Ġver bose
ĠSc ot
Ġp ace
av ors
Ġde lete
it arian
ost on
20 20
ic ode
in f
Ġsw im
un c
Ġshe ll
ha ust
Ġfurn iture
Ġ ~
Ġsign ature
Ġpredict ions
Ġt rib
Ġinvent ory
Ġ6 4
ĠAg ain
Ġin cent
ĠF ire
pro duct
ex per
Ġen abled
k ernel
Ġtr ick
Ġme at
Ġdifficult y
Ġcelebr ate
Ġ utils
Ġresident ial
T able
ion e
ĠH am
ĠMay be
Ġr u
Ġmanufacture rs
Ad ditionally
ĠF ind
D P
Ġep isodes
t ags
ell er
Ġaccount ing
Ġbehavi ors
Ġple asure
ol id
Ġheav en
Ġcontin uing
Ġscen ario
Ġdo ctors
om et
Ġpr ide
Ġopp osition
ĠSecret ary
Ġsearch ing
Ġpy lint
() .__
Ġequ ipped
fl u
Wh o
Ġhol iday
Ġvalid ation
ĠTh anks
Ġmed ication
ud es
met a
KE Y
Ġsubm it
Ġr ust
Ġagree ments
Ġg onna
static method
Ġgent le
Ġgradu ate
Ġcons ists
Ġunivers ities
ĠW ay
ro oms
ĠCon fig
Ġatt itude
Ġmus cle
is hes
G PT
Ġstudy ing
ĠI raq
Ġexcell ence
ock s
ast ype
Ar t
Con v
AS E
ĠUnder standing
Ġheart s
Ġdel ight
Ġwindow s
Ġf ault
f ire
Ġill ustr
Ġaddress es
ĠF uture
Ġrestrict ions
mon th
ĠG ummies
Ġdang er
ign ed
ĠAs k
re nd
ampl ing
Ġphot ograph
br idge
B S
ĠOr der
ĠM IT
Ġr ural
Ġopp osed
ang ed
m g
Ġfant astic
Ġar ise
b uck
Ġacqu ired
Ġeng ines
let ter
ĠM a
Ġilleg al
ĠC R
Ġshould n
b uffer
Ġconflict s
Ġappoint ed
ĠD og
Ġindic ates
ef its
ig m
ĠAs ian
n ce
Th rough
} /
Ġus ual
Ġhor iz
ĠD ra
um in
x x
Ġac id
Ġcon vey
Ġcour ts
ric ulum
) (
Ġjo ining
Ġbo at
Des pite
ĠJ eff
Ġconscious ness
ĠM at
Ġautom ated
ĠCorpor ation
20 19
Ġch a
J ohn
Ġelect ions
Ġp atch
Pe ople
Ġcop ies
Ġemerg ed
set up
ĠT em
ĠM u
Ġinter active
k g
Ġas ide
ir al
Ġcan n
Ġprefer red
Ġme ets
ĠOr ig
Ġestablish ing
g it
D R
Ġaut onom
ĠWith out
Ġnegot i
Ġcompet itors
ĠL ocal
p in
Ġfore ver
Ġwe aring
ĠA wards
c os
ĠH istor
ce ive
Ġdecl ine
Ġoptim ize
add r
d em
Ġdraw ing
Ġpropos al
z ed
Ġreve al
op ol
Ġcontribut ing
5 6
Ġre verse
Ġent itled
ĠExecut ive
Under standing
Ġassoci ation
LO G
ang er
au g
Ġfore cast
ĠL i
ĠCarol ina
Ġsupport ive
Ġse es
Ġrep airs
c ers
Ġm ac
Ġoverwhel ming
cod er
= -
Ġb asket
Ġp ip
Ġform ation
Ġsupp lies
Ġg ear
load er
ĠE X
Ġsuper ior
aw are
ĠEmp ire
5 8
ar l
Ġ' '
ĠStud ies
Ġcheck ing
ent ed
ĠD i
Ġbe ings
Ġdes k
r ick
Ġfinanc ing
Ġoblig ations
B ack
Ġencoura ges
Ġlawy ers
Ġr ating
ell a
Ġdis appoint
__ ()
l aw
ĠH arr
Ġstr ide
ĠP oint
Ġliter ally
" {
Ġhas h
Ġad j
ĠH aving
Ġvis ited
ĠE nt
h ook
act iv
Ġstrugg ling
Ġpresent ation
te en
Ġf ounder
L ook
Ġh ur
W here
ĠM en
Ġreg ulation
d iff
Ġdet ection
Ġpurch ased
ĠE th
S pe
P s
d k
ĠComm on
Ġtrans parent
connect ed
Ġarg ue
Ġmur der
at o
p b
ag ent
Ġbal anced
Ġu pload
Ġret ain
ee ze
Ġgr ass
c ost
ab el
dom ain
Ġfore st
que ue
Ġre wards
ĠChrist ians
Ġ3 6
B lock
Ġport ray
ugh t
ĠEn vironment
i ates
Ġend e
Ġoper ator
Ġc ater
Ġprodu cer
Ġcontrol s
ĠHen ry
################################ ################################
oc ial
ĠDan iel
Ġres id
Ġexecut e
so le
ant ly
oc ument
ĠBra zil
k i
ĠTra ining
Ġch ose
d ated
Ġhard er
ĠBuild ing
Ġs pl
ob ox
Ġannoun ce
Ġsk ip
Ġ vert
Ġve ctor
Ġmin im
Ġshap ing
y al
Ġy e
Ġatt ended
R el
r ide
Ġresult ed
ĠTh ough
zer o
ĠN ever
p ipeline
ĠP ass
M et
Ġsurpr ising
u ity
IN T
he x
Ġdifficult ies
Ġth rive
te ch
Ġto x
ly wood
Ġorganis ations
c ustom
er ver
eng er
ra ys
n ap
Ġan ch
lim it
ĠP akistan
Ġcar ri
ĠPr ime
re ens
E p
over ty
im ental
rib le
Ġpl ain
Ġdivid ed
p ad
su ccess
Ġc ourage
Ġrequest ed
ĠWill iams
ge x
g roups
M ay
ĠBe ing
p ublic
Ġassign ed
b ow
Ġin clusive
ĠR est
Ġnut rition
Ġatt ach
Ġinterview s
IL ITY
Ġconven ience
l anguage
in ator
Ġcomp elling
r ont
Ġwhe el
ĠF ield
Ġintegr al
Ġwalk ed
Ġund ers
Ġencoura ging
Ġchild hood
Ġoptim izer
w an
AS S
Ġemploy ed
ĠC ross
l ined
Ġutil ize
Ġint u
cle ar
Ġrec ruit
Ġ19 60
ĠJ ones
osp el
Ġpartnership s
Ġpro test
sub sc
EN D
Ġweek end
Ġpro hib
Ġexam ine
ast y
Ġout s
Ġ ip
Ġal ter
ĠT ax
AC T
app lication
enc ode
ĠF ile
B I
c ar
pl t
Ġwork force
worth y
L L
g ate
Ġdescrib es
Ġterrit ory
Ġs ke
Ġinter vention
Ġrepresent ative
Ġpro secut
ch o
Ġcl arity
f all
amp ion
B O
H el
Ġanc est
dir name
Ġout standing
ater al
dim s
ĠH and
Ġcarry ing
cy cle
y cl
Ġtransl ation
ur day
ĠW indows
Ġind ices
ser ialize
s ent
ĠH on
b at
Ġg olf
ĠE nergy
Ġthe ater
P re
5 7
Ġord inary
Ġclub s
m ar
Ġm ining
Ġt ur
Ġgra de
Ġpe ak
ov a
ĠCh air
AC K
Ġd ive
Ġsurpr ised
c red
Ġacc ord
art ers
ord inary
az e
Ġor ient
Ġcook ing
Ġwrit es
end a
Ġm igr
Ġco operation
Ġappoint ment
M essage
R S
Ġcount y
Ġdi am
Ġt rem
Ġwor ship
Ġme al
'] :
ĠG al
Ġhead s
du ate
ut ter
ian a
v y
Ġ -------
erm an
ĠPro per
ĠB iden
Ġjew el
Ã ¢
Ġp apers
Ġarg parse
Ġbl ank
Ġpoint ed
sw er
9 8
ĠCol umb
Ġse ctions
ĠSh ould
Ġob ser
Ġd ownt
spec ific
Ġwarn ings
z ip
Ġres c
b ias
Ġnorm ally
Ġpack ages
F OR
Ġcapt ured
p ers
ĠS outhern
Ġcogn itive
Ġdim ensions
Ġt ut
Opt ions
Ġan s
ĠA ccess
ĠRepublic an
ĠE r
Ġoptim al
Ġte eth
Ġt ank
Ġrel iability
per or
S ource
ĠR om
Ġdemonstr ated
ĠL anguage
ĠK en
st ates
ĠSp ain
Ġcrow d
Ġelig ible
ĠM os
Ġfew er
as hed
WAR E
Ġtransform ed
nown ed
Ġsuff er
Ġrestaur ants
ra ises
ĠD id
it ative
Ġmiss ed
Ġsuff ered
sw ith
the re
d ings
Ġsho es
Ġ199 9
Ġ" --
Ġpassion ate
ĠD ub
Ġb ot
Ġex chang
Ġtra uma
L P
Ġco al
Ġcont ained
Ġm olec
h igh
o om
Ġag es
l on
v in
Ġweak ness
ab i
gener ate
Ġpos it
Ġbet ting
Ġev olve
Ġbe ach
ĠDiv ision
Ġb old
ĠInt elligence
ĠKore a
} ")
Ġconf ront
eng ine
in er
Com p
Ġsm ile
ĠIr ish
Ġabs ence
Ġconnect ing
et he
Ġun us
.. /
on to
M C
Ġex haust
Ġvalid ate
pat tern
Ġmaintain ed
Ġreturn ing
Ġl ady
Ġerect ile
Ġlaw su
Ġperson nel
Ġs le
Ġl ights
Ġbon ds
fl at
ren cies
ĠP ut
end ar
Ġsc an
il st
Ġadministr ative
ĠE ll
ĠCon f
g b
'] [
Ġhe s
b our
Ġsubst ance
Ġstrength s
fact ory
Ġexc ite
The n
c rib
Ġfall ing
vent ions
Ġscen es
Ġcontribut ion
Ġwell ness
Ġh ub
Ġ" __
Ġsur ge
Ġcal c
Ġcl othes
ann a
20 18
Ġmet a
ĠA T
olog ists
Ġinst ruction
M ark
Ar g
ix el
ellig ent
Ġper ception
start swith
Ġfun c
c ert
Ġsub process
Ġeth nic
Ġprinc ipal
ĠE qu
ĠS ection
8 4
in ite
T op
Ġstud ied
Ġinstru ments
Ġfrequ ent
Ġref lection
Ġdi pl
Ġ' %
ble m
Ġequ ivalent
Ġenc oding
Ġunivers al
Ġe ast
Ġstrong ly
t elling
Ġpub lis
A ct
ell s
Ġch ronic
ĠH osp
n an
Ġdut ies
ack s
ur se
Ġre nd
ĠB oston
ĠE astern
res et
p air
Ġan ger
ĠGeorg ia
ent er
Ġb at
ĠJ ac
ĠR ole
3 00
ĠJ on
inst all
we et
Ġle ct
Ġad opt
comm un
ever al
pl atform
I F
Ġdecl ared
load s
Ġne ck
Ġexpand ing
Ġtal ks
Ġfil ters
us al
ĠR am
Ġsole ly
p us
ĠB ow
om etry
p read
Ġinter ior
un icip
v as
Ġsubsc ription
Ġprepar ing
ĠChar l
Ġpar allel
ch ild
Ġpen is
Ġdam ages
Ġcomm ands
Ġdis h
Ġstrugg les
Z E
ir y
O G
ĠF our
epend ent
og en
ik ing
ĠAd am
W hether
Ġin ev
Ġ" -
M on
Ġshap ed
ĠSen ate
Ġl y
} "
Ġmist ake
Ġstr ange
S im
Inf obox
ect s
ro gen
ĠG row
Ġpand as
Ġintrodu ce
gener ator
ĠHel p
ĠStud ents
Ġp in
Ġun iform
Ġpro port
Ġadv ent
h ist
Ġw ire
Ġutil izing
Ġfeat uring
ĠFin ally
C P
Ġimm une
build ing
ĠR ome
s ur
S U
Ġed ition
Ġp itch
Ġgradu ally
Ġcyber security
ides pread
ap ed
cl uster
Ġphot ography
Ġsecond ary
ĠF act
ell o
ĠB oy
uff le
T oday
Ġc tx
Ġmotiv ation
Ġenc rypt
Ġra ising
Ġpar ad
ĠAn aly
Ã ¶
Ġm old
Ġele v
Ġun ittest
Ġsp in
Ġassist ant
St atus
ĠAll ah
Ġp ad
Ġc up
j u
Ġprof its
ĠCh ildren
ish ment
Ġaward ed
G e
um mer
Ġfacilit ate
ur ches
Ġcur ious
if ted
Ġinterpret ation
Ġd ivers
Ġpr ime
Ġf ro
Ġle ague
erv ing
Ġdi ab
Ġactiv ation
Ġcont ra
6 9
Ġview ers
istic ated
Ġevery where
Ġent ering
Ġatt ached
Ġmag azine
Ġl ad
R ES
Ġs hed
b ra
Ġinval id
Ġnew ly
ĠC redit
Ġlif etime
op ts
he mat
ĠE V
Ġto m
Ġtrack s
Ġl icensed
frame work
e lement
ĠA ri
ĠD own
Ġsatisf ied
ot ion
ad min
ole an
Ġpublic ation
ĠZ eal
ĠDem ocratic
t w
plot lib
ĠRev olution
Ġprom ises
5 4
ĠE vent
Ġdestroy ed
Ġcount less
ĠK h
X X
re nder
Ġdis order
Ġgen re
it ual
Ġrest ore
n ote
ĠM ah
oc ated
Ġmed itation
Ġreg ime
Ġoffer ings
com pute
Ġb are
Ġfr anch
ult ane
Ġover look
ari os
ic ating
ĠMc C
Ġmechan ism
ĠFil m
Ġsurv ive
A Y
Ġimp ression
Ġt mp
in cluding
Ġexerc ises
ert y
ail ing
ĠSe a
L S
ĠSu pp
In valid
Ġengine ers
5 3
empt y
Ġcon ventional
m ade
L ike
own ers
P oint
Ġch ampions
n ament
Ġcoun cil
ĠCh ris
Ġrepe at
ay lor
pon s
Ġa wards
S ize
Ġbur den
and om
5 2
) "
Ġan not
Ġmil k
Ġaffect s
Ġrob ot
ĠSp ace
Ġsp an
Ġmen u
Ġw idespread
Ġpe er
Ġref uge
cre ts
d y
ĠTe le
Ġbarri ers
Ġc am
Ġlog ic
Ġl augh
ĠP ot
ker as
Ġpres erve
Ġ" ,
ĠN orthern
ou b
B en
Ġd inner
block s
Ġapp lies
ĠJack son
Ġgen etic
ors hip
Ä ģ
Hand ler
ĠL ibrary
x ml
Ġins ert
S H
sc ores
= ['
Ġt iny
Ġacknow ledge
Ġ199 8
ĠEm ploy
Ġtit les
on ies
Ġadvance ments
Ġmat hemat
Ġj u
Ġfl avor
Ġgo ogle
Ġcur riculum
c v
class method
Ġphr ase
Ġmin imize
Data Frame
C ount
er ated
Ġev olved
per m
Ġdeb ug
ĠP op
Ġab und
ans hip
tim estamp
i ors
Ġcl ar
ĠEx p
Ġtro ops
al ks
fo o
ĠZeal and
Ġhost ing
be red
ĠCont act
av ailable
Ġst uck
Ġexcite ment
cept ions
or rect
ĠT ri
Ġcl osing
ok ed
f are
ĠImp act
ap h
optim izer
ant ed
ree ment
vari able
ĠSt an
cle an
Ġnic he
u ated
Ġprocess ed
"] .
P lease
st ar
Ġsome where
Ġp ars
Ġdeterm ining
Ġdifferent ly
Ġlik es
Ġre nowned
Ġfarm ers
Ġf iction
Ġem pathy
ĠPl us
ĠP o
is ely
ĠDem ocr
t ry
ist ing
AN T
Ġcas ual
c raft
ab is
nov ation
con vert
athe red
Ġaltern atives
ath an
Fin ally
w indow
ate ful
our cing
ĠH ind
Ġbl ind
um er
ĠF re
Ġvers us
Ġpred iction
Ġsche ma
ĠRes ource
it ate
ĠA sh
ĠM ike
More over
Ġv ocab
ort ion
Ġre fe
Ġtra il
Ġro yal
Ġprov isions
Ġre ferences
Ġdes erial
Ġwork flow
Ġsp ouse
Ġbr ill
S m
C D
ĠC irc
B ecause
ĠCustom er
ĠOb ama
Ġwe ren
Ġpro active
execut e
Ġv ess
Col or
Ġb ills
er rors
d ig
s ummary
roll er
Ġsurv ival
Ġmod ify
Ġp overty
Ġprec ious
TY PE
ĠBe ach
Ġgr at
", "
b its
Ġentreprene ur
ĠCap ital
Ġb ike
Ġeconom ics
f ont
t ol
or ient
Ġdesc ript
ĠMon day
Ġele g
OR D
Ġg ifts
Ġsoph isticated
Ġdr ama
Ġlay out
Ġ{} ".
ĠL uc
Ġcalcul ate
Ġcryptocur rency
Ġarg ued
Ġenh ances
P ORT
Ġang le
Ġextra ordinary
ĠN Y
ĠAnd rew
ĠCom put
Ġin herent
Ġclass room
Ġstraight forward
s en
H is
eff ective
Ġpre ced
ext end
ĠMan ager
Ġcover ing
em ed
el ly
Ġdro pped
ĠN ext
Ġder ived
ag raph
ir ty
Ġsaf ely
Pro cess
pack age
C ustom
user name
ul pt
except ions
ĠM id
Ġmin ister
Ġbenef ic
ĠC S
Ġbre ast
hand le
Ġestablish ment
s leep
Ġoff ices
Ġfall s
Ġrad ical
Ġsymbol s
F urthermore
Ġperm it
Ġprec ise
Ġend ing
ap ore
Ġ7 5
n amed
F ound
R ed
v ard
" >
ys ical
Ġe ager
Ġcra ck
Ġcert ification
Ġstock s
7 2
sa fe
in ction
Ġrom antic
ĠF estival
V AL
re pr
ad er
Ġup coming
ĠB al
Ġh ass
or ry
Ġha z
ick et
Ġapprec iation
os a
mod ules
Ġathlet es
Ġacquis ition
ch ing
pp ers
Ġpick ed
Ġenthusi asts
ĠWh ich
Implement ed
Ġtri als
P D
g as
ĠP rom
T F
CT ION
Ġfl uid
ra pper
Ġdiagn osis
Ġearn ings
az a
arch y
ab eth
ro ph
ian o
Ġn ull
method s
Ġless on
ĠQue en
Ġb act
Ġob s
Ġany more
ĠP acific
Ġv oices
Ġuncertain ty
Ġag greg
enn is
Ġpush ing
Ġbro ke
tra ce
Ġdiscipl ine
Ġb le
Ġr ational
m ind
ac her
ĠC bd
g i
Ġselect ing
onym ous
E E
ĠV an
Ġmed ications
ĠCl ient
Ġtim ely
Ġdivor ce
ab il
ock er
Ġkey words
ĠS elf
comp ass
pro ps
Ġcritic ism
AB ILITY
il ation
ĠTh ree
In it
Ġfl u
FT WARE
Ġy ellow
Ġdam aged
ick en
ĠT reat
Ġcomp r
Ġelectric ity
Ġd ust
Ġseam less
row span
d m
Ġinv ited
d r
Ġmod ified
Ġconsult ation
ĠChat GPT
Ġar bit
ĠInte gr
Ġval ued
lo om
à ¤
Ġincorpor ate
Ġign ored
h av
ct x
Pol icy
Ġput s
aw ay
Ġal leg
Ġm apping
Ġadd iction
O M
ĠJ e
ĠL y
(' /
ĠQu est
ĠF air
str ong
w a
ĠF ar
ĠN ations
Ġb in
Ġspecial ist
Ġdesign ers
Ġmo ist
Ġimp er
ĠI M
Ġobstac les
f ail
ad or
Ġelect rical
Ġgener ator
Ġprov ed
rel u
Ġsupp liers
a wn
Ġst atic
Ġsign als
h ot
Ġcomp osed
Ġt ip
app y
get ter
sequ ence
ess ages
Ġwhere as
ĠIslam ic
Ġobserv ation
Ġb omb
Ġexplan ation
Ġacqu ire
al o
Ġpl ug
Ġl ic
Ġdevelop er
ĠH R
ot ten
Ġoptim ization
Ġt ang
Ġfl our
F act
Ġcreat ors
f inal
ĠJer sey
_ (
ĠPalest in
Ġanaly zing
Ġwat ers
Ġpract ition
Ġconsider able
Ġdis ag
st ers
ĠG ames
anc he
ĠFranc isco
Ġpiv otal
Ġphot ograp
Ġprevent ing
Ġsubm itted
Ġk ne
ter y
ig ious
Ġconsider ations
Ġinv as
Ġdel ve
5 1
b en
Ġsafe guard
b f
le ted
Ġcert ificate
ro le
O h
l arge
Ġ! !
lt imately
sy mbol
d t
ĠMed ic
ĠRel ations
Ġrem em
il ly
con cat
to o
Ġbank rupt
Ġhe ll
we b
ne cess
Ġ" _
oc o
ĠP rem
ĠIsrael i
em ies
ĠK enn
lo op
Ġh at
th reshold
gh an
Ind ex
Ġ202 5
Ġinfect ion
exp and
ĠG all
cl ick
Ġet ern
Ġed it
g ency
form ed
20 17
Ġad vers
Ġcry st
con n
Ġper ceived
Ġk illing
dist ance
ac cur
ĠE ss
Ġfold er
pt s
W rit
i aries
C ur
w all
Ġlegit imate
Ġcont ents
Ġc odes
Ġ" \
â Ķ
MO DE
T E
ĠG ir
It em
ĠW alk
Ġgra b
ĠSw ed
C R
ĠM ic
ĠSat urday
ra pe
Ġth in
Ġfulfill ment
Val id
Ġmechan isms
f ill
ans as
Ġem issions
F l
ĠMod ern
ĠW at
Ġb irds
Ġdeath s
Ġsp r
ĠConst itution
Ġdest ruction
ĠN O
o il
y ard
ĠN ative
std out
Ġt ension
Ġwest ern
Ġo w
app ly
ic ient
ost er
i ac
Ġjewel ry
Al so
Ġinflu ences
ĠWe ek
"] ["
Ġrep ay
AN D
ri ving
Ġc inem
Ġv enture
Ġse asons
Ġmanufacture r
Ġdet er
Ġobtain ing
Ġdes ires
Ġstream ing
van ia
20 21
Ġcomput ers
ĠA ge
at i
E nd
DE FAULT
ĠEn h
ic ide
Ġtext s
Ġ199 7
Ġimm igr
Ġ-------------------------------- --------------------------------
ov id
ĠCur rent
ĠMich igan
Ġform ula
Ġdecre ase
Ġ1 50
Ġshow case
Ġle ts
le arning
valid ation
ĠD NA
v ocab
ch arge
b ro
Ġstruct ural
Ġcollabor ative
Ġd ental
Ġme re
ip y
Ġent r
9 7
Ġcare ers
Ġpublic ly
g pu
m ic
trans action
ĠT ry
ĠV en
contain er
Ġstr ings
Ġmark s
cont rol
Ġbuy er
Ġphys ically
g al
Ġg ains
c m
Ġtact ics
Ġh ate
ad ed
Ġp ump
end ment
Ġext ends
ious ly
s uch
ĠP ur
( **
Ġload ed
p add
Ġaccount ability
Ġintegr ate
Ġtem ple
cont in
C reat
__ .
Ġt ables
ĠO l
Ġ4 00
ari able
Ġcirc le
Ġr itual
Ġparticip ating
ĠSte ve
b ration
Ġdrink ing
Ġsim ultane
Ġen orm
ous es
ins ert
ĠB ul
Ġlib eral
Ġweap on
st orage
hy th
Ex ternal
in als
S L
Ġt ab
ou red
Ġf ishing
iz ational
Ġ199 6
ĠA ction
u uid
sh ire
Ġra cial
Ġaest hetic
Ġspeak er
Ġt all
check point
Ġ3 3
ĠP sych
med iate
part s
H ead
ad el
8 2
T A
ak a
Ġground s
Ġexam ination
Ġal ert
Ġpass age
R a
Ġdis aster
Ġproduct ive
Ġ' \
M ax
ĠSO FTWARE
ĠGu ide
Ġs outhern
ser ial
ĠS av
Ġaccur ately
ĠA M
ĠCon ference
comp ile
st ra
ĠP en
R ef
Ġab stract
dis play
ĠE arly
om atic
Ġint im
Ġest imate
Ġcomple ment
eng ers
uss ian
Ġplan e
ĠReg ular
Ġpros per
} .
elf are
ĠF L
ĠNot Implemented
Ġde leg
Ġoccas ion
w arn
% ,
Ġed iting
Ġaff airs
ĠE mb
ar se
bu ilt
cl i
Ġdis pl
Ġredu ces
Ġmatch ing
tt p
Ġweek ly
Ġcomplex ities
Ġcred ibility
St r
ĠZ h
ĠW ild
ol ver
G ET
ĠCont rol
C ode
no on
Ġden ied
Ġfem in
Ġshap es
y es
Ġst ats
Ġgold en
sq rt
ĠEn s
is a
Ġst ations
Ġvacc ine
ph inx
Ġbro ker
ĠPer haps
Ġspeak s
Ġharm ful
Ġprofess ion
Ġdis put
un a
Ġcr imes
Con text
Ġemb ark
Ġrequ iring
r pc
Ġcelebr ated
ord an
Ġas c
M ult
Ġadequ ate
ag en
D own
Ġcy cl
i ot
ĠOh io
Ġinsp iring
__ ":
Ġreve als
Ġcompl aint
Ġstory telling
ĠP ers
8 3
Ġpost ed
Ġdef ining
re ll
ĠAm ong
c ounter
Ġview ed
bre ak
ĠSu ccess
spe ed
at om
Ġp ose
ĠOffic er
ĠB ob
es ome
ĠN az
Ġpack aging
inter val
Ġf its
Ġl oving
Ġpurch ases
4 00
Ġper pet
ĠB on
ibr aries
Ġsuggest ions
Ġadvoc ate
ĠCh all
ĠM A
ĠJ un
Ġacc idents
Ġimportant ly
Ġin clusion
Ġw ww
M ar
Ġ_ ,
L ear
â Ĥ¬
1 000
h s
Ġ[ [
Ġmy ster
Ġshoot ing
] ],
Ġf est
ĠProt ection
Ġboy s
ap ing
OR S
ĠSing apore
N etwork
he alth
Ġdo ctr
we red
Ġcomplet ion
ĠD am
ĠL ittle
Ġa ug
il on
Ġbreak s
Ġincorpor ating
Ġpul led
ish op
ĠL I
Ġunus ual
Ġsub sid
Ġcharacter ized
G R
Ġexhib ition
assert True
Ġintric ate
6 3
L M
Ġbrother s
Ġpu zz
Ġas ks
ot ing
ac cept
Ġg aining
f ound
ang el
Ġconf usion
Ġl oves
Ġo ught
Ġf ert
in ely
Ġcou ples
Ġv ice
Ġline ar
Ġ{ {
Ġarri ve
sy l
im s
Ġmax imize
Ġsh ops
iz able
B est
Ġg ut
Ġflow ers
Ġthere by
c f
Ġm erg
Ġnetwork ing
Ġelim inate
Ġbel oved
Ġscen arios
book s
line ar
sk ip
Ġgather ing
Ġb oss
call back
Ġref used
Ġint rig
iz abeth
ush ing
Ġp ushed
Ġg t
Ġcontinuous ly
or ate
ve ctor
D ev
Ġh ide
ve c
Ġint elligent
ĠUn like
Ġdepend ent
ĠP ub
Ġsal ary
Ġenroll ment
et ed
T EST
Ġglob e
7 4
Ġn orthern
k o
ĠGu ard
Ġaccept ance
am ber
Ġf ru
Ġmotiv ated
"" '
mem ory
Ġcert ified
ĠR ay
Ġschedul ed
anc hes
Ġvis its
Ġw allet
Ġro se
ĠCh ange
ĠT urn
j ud
ext ra
Ġrow s
Ġpl ate
Ġra rely
Ġg iant
ĠAdminist ration
st at
Ġrent al
Ġassign ment
Ġre con
Ġmod ules
Ġsc ulpt
Ġprec isely
ĠD ar
ĠA uth
comple te
ĠCont in
ĠEngine ering
Ġworksh ops
fe ed
Ġreal istic
Ġen compass
Ġreput able
Ġexecut ed
ĠLear n
col span
Ġle ather
param eter
ĠTor onto
ĠPar liament
l an
Ġappe aling
ĠE s
Ġregard ed
Ġdem ocratic
Ġme als
Ġcon cluded
op her
P ri
ios ity
Ġspect rum
ch ildren
ĠSt at
Ġw ise
if ice
Ġass ault
comp at
Ġquant ity
ĠK im
est y
Ġin e
Ġun ity
ĠS che
Ġcap ability
C M
Ġstart up
Ar ray
8 1
Ġ' ,
es is
T oken
Ġt ill
Ġind icated
c apt
ĠB ang
ed nes
Ġtra its
ste in
Ġauthentic ity
Ġinvest ed
Ġpromot ion
Ġatt ending
ĠSh ort
Ġr anging
Ġexp ense
A F
il ty
cl ip
Ġrem oving
Ġstri ve
fl ag
u pt
ĠS ales
N S
Ġw ake
Ġrespect ive
Ġland ing
Ch ar
y er
enc oder
Ġhighlight ed
att ribute
Ġcomp ly
Ġaddition ally
st age
M r
ch ron
u is
B M
Ġ199 5
act er
Ġcompet e
Ġo cean
ow ers
Ġf ails
ĠScot land
ut y
ik es
Ġconstruct ed
ĠH ard
ĠTh ink
Ġop ens
Ġreflect ed
ĠBro ok
ins on
Ġlever aging
rat io
Ġbasket ball
ĠP R
Ġtra ders
Ġwant ing
ors es
ĠExper ience
Ġenjoy able
ĠR en
Ġaccom p
Ġembra cing
Ġt ied
ĠF red
requ ired
rie ve
UT H
Ġb ird
Ġassoci ate
syl vania
ĠN ight
j s
Ġc her
Ġoblig ation
A c
D I
Ġany way
Ġcomb ine
c ard
Man ager
Ġelse where
Ġthorough ly
Ġpoll ut
} '
ĠCom ple
el se
G u
ĠPr inc
6 2
Ġdis orders
p ing
he ast
Ġqu otes
Ġab road
Ġche at
ĠO THER
Ġcomp os
ac on
Ġamong st
Ġpe ers
Ġobser ve
Ġbet a
Ġacc used
as hes
j o
at ial
b t
ĠCo ast
ĠII I
Ġsus pect
Ġaggress ive
Ġl oud
ĠMe an
Ġcomp osition
are a
ĠW al
ĠL td
Ġch urches
C I
ĠW el
Ġsp ots
Ġvot ers
Ġkey word
im a
Ġhop es
aut o
Ġdri ves
Ġg ard
Ġdiscuss ing
Ġg ym
ĠJ r
E P
gener ated
if iers
ut en
D irect
ĠBl ock
squ eeze
Ġrespect ively
ues day
ĠTe xt
ĠCont ent
7 3
ĠL ive
op es
Ġreflect ing
Ġstruct ured
ĠB rad
wh ite
Ġconcent ration
Ġaccord ance
Ġmer ge
6 1
Ġexcess ive
ĠSt ill
Ġlight ing
ĠHol lywood
S che
ĠP ack
Ġt ar
Ġf ont
ĠS earch
ĠT aylor
h istory
it udes
Ġimm ers
ex pl
Ġm m
Ġl enders
aw a
lik ely
b et
b one
Ġdoll ar
Ġhas n
iz z
Pro per
en abled
Ġinflu ential
Ġnot ion
ac ies
Ġcirc uit
G ER
iddle ware
Ġmount ains
b ind
ĠUn fortunately
Ġfr ustration
Ġengine er
Ġpat ience
ex ception
urs day
ĠPol ice
ad vant
Over all
ĠS aint
Ġex clus
ol ves
Ġque ue
Ġag enda
pro p
p df
Ġrepresent atives
w arning
v i
Ġhighlight ing
G raph
er ry
Ġdeploy ment
get Logger
O K
t imes
Ġenjoy ing
f its
Ġsupp lements
opt ional
Ġmemor able
are r
Ġres et
Ġb gcolor
Ġdur ability
Ġprob ability
T ok
ar ation
Ġ4 8
arr ing
Ġ4 2
ĠO x
Ġ199 4
C al
FI LE
ust ain
ĠTur key
Ġf lying
Ġexpl os
Ġgener ating
Ġinvest or
h our
ĠM oon
Ġcur ve
B ox
Ġpart ial
Ġhy brid
Ġe arning
ĠH a
pp y
p ick
ĠM ethod
Ġsh ips
ĠNe ed
ort ed
ext ract
ĠPhil ipp
Ġphenomen on
Ġut ility
ag ine
Ġc ats
Ġg athered
Ġattempt ed
Ġrecogn izing
(' \
ĠDef ense
Ġoff ensive
Ġprior ities
Ġint r
Ġreject ed
Ġprospect s
Ġrep rodu
m ac
g am
is er
Ġvot ing
er als
ĠViet nam
Ġtox ic
T V
in clude
â Ħ
Le vel
Ġf inger
work ers
Ġwat ched
ĠL ow
ĠJ SON
Ġsp oken
Ġkn ock
re ated
Ġ Ð
An swer
G O
Ġdis ability
R ob
7 1
Ġbre ach
Ġn erv
Ġend uring
Ġhol y
Ġcre am
Ġd atasets
f ers
ĠC lick
ĠK n
Ġdirect ors
Ġ6 5
: %
ĠNotImplemented Error
ĠO S
in th
Ġfear s
ĠB ern
Ġsil ent
Ġcra zy
Ġed ges
Ġhost s
pos al
osit ory
Ġun necess
Ġdefe at
c d
Ġviol ent
ĠMin istry
Ġw ars
Ġel der
h ar
Ġin hab
Ġmain stream
Ġavoid ing
ann y
Ġdel icious
ĠD O
Ġpark ing
Ġw aves
ĠAg ency
Ġlik elihood
Ġtick et
pro to
er ge
ĠF ord
rou s
f p
Ġthe ore
Ġprom ising
ĠMedic are
% )
---- -
Ġy ards
Ġse ats
Ġbuff er
Ġnavig ating
ang ers
Ġafter noon
Ġrec ru
ĠL ew
Ġtem pt
us ers
ru le
ĠR og
Ġdiab etes
Ġ3 4
Ġh orm
reg ular
int on
b box
ĠT uple
b ury
Ġinj ured
] +
Ġtack le
Ġbrow ser
Ġmoment um
Ġconver ted
ag an
oc ity
ednes day
bal ance
Ġ" %
Ġpursu it
ĠV ideo
Ġcol onial
ĠSt ory
fil ters
Ġf estival
ĠSc ript
Ġgr ateful
ro ke
Ġnut ri
Ġw are
ĠChristian ity
Ġdiscrim ination
ĠF oot
Ġt u
ĠG ar
Ġleg s
ĠH om
Ġw et
test ing
Ġpredict ed
Ġor al
Ġco in
mark et
const ant
Ġaccording ly
Ġmarket place
O pen
i ro
u int
ibl ical
Ġ19 50
ĠB ad
Ġdepart ments
Ġsell er
Ġf ur
he el
Ġj ury
Ġcele bration
pl us
Ġd ash
Ġliter ary
Ġb rown
ĠSa fety
Ġover se
Ġt or
Ġang ry
Ġoper ates
ĠPenn sylvania
orig inal
az y
p owered
D ist
Ġglob ally
ĠComp anies
ri ends
Ġnewsp aper
m ond
Ġco ins
Ġaud it
ĠHosp ital
ing e
Ġcl ock
ens ional
Ġpop ulations
writ ing
ĠAd vis
M ake
er as
Ġy oga
ĠT y
Ġident ification
ĠW atch
op les
Ġrel ating
ĠK ong
id ity
art s
ĠU r
F low
ĠBro ther
qu ant
ino is
ust ers
âĦ ¢
ĠM ind
Ġprop ag
Ġl in
Ġver se
Ġwor ried
ĠLeg al
ĠSystem s
ivers ary
ĠR on
um ph
Ġcheck point
St ud
Ġmat plotlib
Ġking dom
or i
amer as
ĠSm all
Ġres ume
ĠAtt or
ĠB E
Ġun like
Ġfil ing
Ġhand led
d ays
ĠH ong
Ġnurs ing
Ġoffic ially
e en
Ġtrans c
ĠF I
Ġrul ing
ear ing
F R
Ġover l
ampl er
Ġcons ervation
ĠSt ring
Ġbuild s
Ġthe ories
Inst ance
on ts
amp s
. *
Ġdisplay ed
' },
ĠAut o
Ġdist ract
Ġm oon
Ġprint ing
Ġvol at
ĠChampions hip
Ġconsist ency
Ġair port
ĠC ase
Ġres idence
pro of
Ġroad s
re ference
Ġpro c
Ġl unch
M ed
ĠPl ace
Ġcheck ed
lect ed
v ance
Ġtemper atures
Ġdis hes
Ġpsych ology
Ġar med
ĠC apt
Ġmyst ery
Ġinc orrect
Ġse q
Ġsome how
w as
ĠG iven
Ġthink s
ĠInd ex
ĠRec ords
W ill
ĠIm pro
er a
Ġd ump
Ġt ast
ĠB ol
Ġpregn ancy
am i
Ġt um
ĠV ill
b ad
Ġconserv ative
ĠS ports
Ġsett led
D O
c rit
Ġimm igration
RO M
Ġachieve ment
Ġconst raints
vari ables
un n
Ġv ig
ĠEconom ic
ĠTur k
ĠN a
av g
ĠCho ose
S ign
ĠDon ald
Ġadm itted
Ġmir ror
vol ume
Ġcost ly
down load
p o
Ġret ention
Ġm aps
z h
ĠTe ch
Ġf ed
Ġ199 2
ĠB C
vel y
Ġasp ir
ĠR O
Ġend less
S ER
Ġprodu ces
Ġlik ed
M in
e ven
Ġrein for
res ources
ĠR h
Ġprevent ion
Ġpers u
U RE
Ġsens it
Ġs ensor
ĠC ub
ĠC H
Ġoff ense
ĠCons ult
Ġold est
Ġagric ultural
oun ce
(" \
te x
Ġc rop
Ġimm un
Ġcut s
ro at
Ġadvis or
ĠKore an
Ġmon etary
Ġfranch ise
Ġconsult ing
de g
Ġimag ination
Ġlet ting
ĠE mer
se cond
Ġfif th
Ġb unch
Ġphil anth
ĠT ai
og y
reg ion
app ro
M ap
L U
ac le
t ools
Ġc ir
Ġte ar
ĠN ic
uck y
ĠS imp
9 2
Ġwin ner
Ġh ang
Ġinte ger
Ġsurround ed
m aker
u f
ĠL oad
are st
ĠW is
ĠAf ghan
oc ate
Ġdram atic
Ġder iv
Ġpay load
Ġarrange ments
drop out
Ġutil ized
Ġlog istics
Ġguid ed
F i
Ġe ps
ĠK ent
g le
ĠDis ney
Ġap artment
Ġchemical s
Ġsac red
Ġmusic ians
a ire
Ġt ries
ĠConst ruct
Ġaccom pan
Ġperm itted
Ġde ck
Ġshowc asing
Ġpolit icians
B atch
Ġenorm ous
Ġse eds
Ġtestim ony
Ġspecial ists
Ġpresident ial
Ġautom atic
ul ator
20 16
re ach
SI ZE
ĠNig eria
r oute
back end
N O
Ġlist ing
Ġdep osit
Ġb es
Ġart work
O ff
Ġre vers
Ġpo etry
ĠGold en
Ġdur able
const ruct
Ġp up
ĠQuest ions
Ġqual ify
Ġadvert ise
Ġ25 5
B o
Ġcount s
Ġrout es
Ġcann abis
P M
ĠColor ado
Ġhost ed
Ġunderstand s
Ġex empt
ĠS pring
Ġfulf illing
Ġter r
ĠD ie
Ġsociet al
ev in
() ))
Ġam id
G l
Ġdif fer
Ġcom edy
Ġtrust worthy
ist ical
ĠS H
ik i
s uff
Ġdes per
Ġtown s
Ġb ars
ĠF ac
ĠHar ry
ut es
b ell
Ġen emies
Ġs ql
Ġbreath ing
ĠO kay
vious ly
Ġra ises
un its
ĠO il
: .
Ġins pection
ER R
Ġdesign ated
ĠInd eed
Ġtim ing
Ġup grade
Ġ ĠĠĠĠĠĠĠĠĠĠĠĠčĊ
ĠStand ard
Ġdistinct ive
il a
Ġser vers
Ġcap s
ethe less
ĠStud ent
Ġtransfer red
ĠF ull
Ġrest oration
2 000
ĠLink ed
ĠCh ild
Ġbrill iant
bs ite
ĠIn put
Ġstru ck
H istory
ĠHT TP
ĠV iew
Ġb ull
Ġpublish ing
ĠPort ug
Ġcon n
Ġsol o
Ġc ow
Ġfun ny
Ġequ ality
Ġpeace ful
ĠM ove
.. ."
un ct
Ġch ampion
Ġsell ers
valid ate
Ġarri val
Comm and
Ġ( )
Ġlike wise
Ġco at
Ch rist
T S
umb ing
ven ues
arm a
Ġcoordin ates
ot ive
compon ents
ĠN avy
Ġcorpor ations
Ġoper ators
Ġorgan izational
ri ver
ĠH as
m itted
Ġgr asp
Ġaffect ing
S ec
Ġmeas ured
ĠP erson
Ġgu ilty
int s
Ġn od
Ġassum ed
Ġdel ta
ĠAl bert
ig s
des c
Ġcalcul ated
Ġt issue
ou ds
Ġapparent ly
u um
len e
P ER
Ġs ed
ĠD utch
ĠC A
ev ents
Ġrec ur
Rem ember
, )
y aml
ĠA h
wh o
Ġindic ating
gra duate
Ġpursu ing
Ġinc idents
z ona
d ump
Ġprof iles
Ġnerv ous
Ġcal endar
Ġinstitut ional
Ġact ress
Ġcustom ized
Ġproceed ings
el a
ay a
9 4
Ġf u
Ġrel ate
m essages
Ġtrain er
ĠS E
Ġg ray
Ġun likely
o T
ĠR ather
ĠD C
Ġpil ot
ĠS her
Ġso vere
p ens
DAT A
ĠS us
Ġbo ards
Ġconfident ial
ĠPr ince
p resent
Ġwonder ing
Ġf ib
Ġsimultane ously
ĠPl atform
Ġr hyth
Ġexcept ions
Ġeth ics
ĠH or
ĠS ong
Ġalign ment
ĠEl izabeth
ĠArt icle
Ġmin istry
itig ation
Ġcons p
Ġtrans mission
h ard
E ach
Ġmitig ate
ian ces
Ġjuris diction
Ġh ole
Ġf ing
p ed
process ing
arg uments
Ġdes erve
re v
Ġnews letter
ĠT itle
ĠRe qu
y o
Ġ ##
Ġj ack
an es
comm it
ĠX ia
Ġf ought
ain e
Ġhop ing
b ots
Ġinn oc
Ġfr ames
Ġchar ity
ĠTh ings
Ġcons olid
Ġk il
Ġ199 3
con sum
) /
ĠWil son
Ġaccess ibility
b ott
Ġw ins
Ġdis pute
Ġfl ash
fr ames
un ique
Ġback end
rape ut
ar ry
v ideo
Ab out
: -
ĠA lp
Ġfav our
ĠHarr is
Ġorig ins
ĠColumb ia
w er
Ġref resh
Ġpl ugin
Ġ[ ],
() [
ĠF ollowing
ĠK ar
Ġsign ing
Ġco oper
Ġw elfare
Ġh arsh
Ġmil est
Ġaccomp any
Ġshe et
Ġnum er
Ġrec ycl
ĠD ark
Ġcur iosity
Ġtrem end
Ġgu ides
k ers
Ġvend ors
Ġstead y
Ġart ifact
Ġhol istic
Ġcomple ting
ĠBro ad
ĠCar l
Ġover view
it is
Ġben chmark
oub ted
ĠD om
ip her
ĠB a
Ġsh r
Ġh un
ic ism
Ġke en
Ġgl ad
U SE
Ġtem por
w s
Ġ: ,
Ġat om
ĠV ice
Ġhe nce
Ġcapt ion
ache lor
ĠL at
link s
ĠH o
Ġelect ron
adel ph
Ġrespon ded
g ical
Ġcerem ony
ĠC hen
Ġconduct ing
Ġnames pace
Ġwe igh
ĠCh apter
Ġcreat or
W E
ol ly
Ġt ies
Ġv oc
Ġd ining
ĠA P
Ġsee ks
N orm
li est
s ync
doc ument
Ġinstant ly
B ook
Ġl ift
25 5
Ġinval uable
m ates
) }
b inary
ĠC rit
set s
Ġstri king
se x
Ġemot ion
Ġattor neys
Ġbuild er
ĠJ ordan
ĠEx ample
ob e
red uce
log its
claim ed
ĠPri or
Ġacad em
N OT
ĠDe ep
ph ones
Ġcrit ics
Ġadjust ments
l ate
e ous
iz za
Ġspeak ers
Ġse vent
fe at
9 3
Ġp airs
Ġ ĠĠĠĠĠĠĠĠĠĠĠĠĠčĊ
ĠT ik
Ġ199 1
ester day
ter ior
form er
S G
sem ble
Ġsubsc rib
M at
b led
Ġlic enses
Ġland s
Ġsp ir
ĠN ob
el le
od ge
ĠB ox
un ate
Ġsociet ies
am ount
ĠAut om
ĠComm and
g ence
Ġclass ical
Ġ3 7
Ġsec ured
Ġvirt ually
Ġpenal ty
V ar
c hers
Ġdil ig
ĠP M
Ġhar vest
Ġpet ition
ach us
(" --
Ġprom ised
ĠB attle
Ġend point
Ġ( (
F unction
arg o
Ġgot ten
ject ory
ed ges
Ġh its
Ġinnov ations
s ingle
Ġbuck et
Ġri val
ĠR ail
Ġl ens
Ġcan cel
Ġt at
Ġconc ert
t ml
Ġgl ory
Ġunc over
Ġf ut
rop ol
Ġbelong ing
Ġsubt le
Ġg aps
V ersion
ateg y
d on
ĠN ov
Ġra cing
S O
Ġdev ast
Ġwis hes
) ).
Ġagric ulture
ar ange
sh ort
ĠA k
M us
Ġd ensity
Ġhe al
Ġd ent
Ġ3 8
Ġhospit als
ou ri
ĠT al
ĠAr g
Ġinvestig ate
Ġs orts
Ġn urse
oubted ly
Ġans wered
Ġdep os
ig ure
Ġtarget ing
P G
Ġun fold
Ġsh ifts
se cret
Ġsn ap
ĠIll inois
ĠM s
ial s
re le
00 1
ar on
ĠR ose
Ġbankrupt cy
et ts
Ġcorrupt ion
Con st
Ġsc ored
e q
D C
ĠIndust ry
ie ve
Ġm ature
ra ined
adelph ia
Ġman ually
0000 0000
ĠY O
Ġalign ed
de velop
ĠR od
Ġm unicip
Ġb one
Ġneut ral
Ġcred its
ĠTem ple
in ar
' }
Ġc ust
(' -
t an
Ġpass es
Ġod ds
Ġt ort
Ġtransform ative
ĠSen ior
run ning
Ġter rible
Ġqu eries
g reen
Ġent ries
Ġconv in
ĠW in
Ġclass ification
ĠP u
rel ation
ĠM ember
Ġorgan ize
subsc ription
ĠC ulture
Ġuser name
M T
( ['
Ġrough ly
Ġp ione
U t
re ason
Ġinter rupt
ree k
Arg ument
Opt ional
Ġunnecess ary
Ġre ct
Ġh o
Ġb ass
Ġpar agraph
Ġl it
Ġinst inct
p res
ĠFore ign
pie ce
ĠC ore
ĠT uesday
ĠC ra
ĠFin ance
ĠD I
Ġcont est
g ood
Ġtom orrow
l ins
bur gh
b ul
ex c
att ributes
Us ing
Ġmarg in
ĠB ush
Ġstay ed
ft en
s creen
V is
ment ed
h uman
A v
ĠCert ification
target s
Ġsh ots
ĠM L
Ġpropos als
el ve
Ġh unt
Ġinv ite
or ph
- %
ĠEp isode
Ġs word
Ġext ensions
end point
st derr
ĠF ox
it u
Ġtherap ist
Ġbi ological
Ġhad n
Ġle an
Ġre ass
Ġv el
Ġst em
f req
Ġtreat ing
x id
Ġref und
40 1
Ġsepar ated
Ġp p
s ome
Ġo xy
Ġwh ilst
ri ate
] ])
Ep isode
inter face
Ġse ar
N ote
Ġb ol
P ool
Ġmess aging
Ġpromot es
view s
Ġwar fare
serv ices
R IGHT
Ġcontr ary
Ġcr ash
Ġmus cles
Ġ ĠĠĠĠĠĠĠĠĠĠĠĠĠĠčĊ
the y
Ġsh adow
H er
crib ed
Ġs ocket
ĠN ick
Ġoccas ions
Ġlawsu it
ĠMatt hew
Ch o
ost ic
ĠM oney
Ġpre st
Ġtick ets
Ġestim ates
Ġc sv
w alk
A E
Ġb ab
Ġpre val
he nd
he im
ĠM ajor
ĠSh op
Ġversat ile
Ġdirect ions
ĠTh ursday
ĠS ab
Ġvol umes
ĠIn cre
ĠUk rain
Ġr ug
Ġbackground s
Ġseem ingly
Cont ent
ĠTra de
H igh
Ġint ensity
Ġbe er
f ather
Ġch ains
Ġtalent ed
Ġrespect ed
ear s
Ġdemonstr ates
ex port
Ġexper iments
cur ities
ic as
.... ....
P UT
Ġencount ered
Ġh ired
Ġh ier
achus etts
qu arters
Ġrece ives
Ġsem i
A IN
Ġprint ed
own er
Ġcomm od
Ġsing er
Ġdesign ing
Ġbase ball
buck et
Ġgen e
20 15
Ġd ual
/ '
Ġt ired
Ġreward ing
Ġmult ipl
ĠAg reement
he art
Ġc ameras
Ġcar ries
Ġd ad
U se
Add ress
Ġr um
aps ed
c ategory
ĠAr m
ĠM other
Ġu h
Pro v
ĠD ue
Ġm art
sw agger
Ġcompat ible
t ri
ĠK at
inte rest
e conom
ĠTh ird
Ġvar ied
S om
we ek
ĠTra vel
ex amples
p n
ĠQ uality
in formation
ĠEx amples
Ġfund ament
ĠM ess
Ġcreat ures
P at
Ġentr ance
Ġm igration
ist ence
ĠInte rest
Ġbeg un
ĠRep resent
ĠCount ry
Ġs age
ĠSt ock
Ġche st
Ġb box
ĠH an
isc al
u pper
Ġspec ify
Ġt ours
and id
ou ch
Ġpr on
ĠApp ro
âĢ Ļ
Ġprotocol s
Ġcall back
n x
l iter
ĠF arm
) *
ĠW ars
Ġdig est
Ġint imate
ĠBet ter
ro log
ĠOpt ions
z ens
Ġo h
12 8
Ġmet als
Connect ion
s is
Ġcollect ing
Ġsing les
H D
Ġrep ly
Ġoccup ation
Ġdef ensive
Ġir rit
d atasets
ont al
oc a
ĠH u
Ġco ord
Ġphotograph s
Ġcorrespon d
Ġcontribut es
n one
ick ing
L ink
Ġn ose
OL D
au c
Ġposs ession
un ks
Ġal arm
Ġpro x
ĠStep hen
ĠAuth ors
Ġattempt ing
Ġdemand ing
Ġdomin ant
Ġscr atch
ĠCO PY
Ġven ue
bre aking
umn i
P RE
_ ,
Ġfriends hip
Ġtravel ed
ic ates
os ity
Ġrem ed
as ures
Ġse crets
ĠN E
Ġexist ed
i ang
Ġvot es
ĠD ate
Ġ5 5
ĠAnd roid
U B
Ġfail ing
c irc
u v
ĠN atural
Ġprompt ly
Ġam pl
Ġret reat
ĠE state
ĠS anta
ĠW as
Ġharm ony
are t
) -
Ġsacr ifice
Ġcat alog
ĠMem bers
Ġaccompan ied
20 10
D ep
el ing
col n
Ġh orses
Ġm ild
ĠW ednesday
O p
col s
Ġluck y
se en
C B
n ull
cre ated
} \
Ġdist inction
Ġres ur
ul ary
t ool
ĠSt ay
Ġdu pl
Ġm ira
ĠAri zona
Ġoper ated
9 1
Ġdis comfort
ĠAuthor ity
W idget
Ġpl acing
Ġin fer
= _
if er
Ġpick le
A ction
Ġnecess ity
Ġbirth day
ĠJ ob
ĠAlex ander
Ġhealth ier
Ġp ets
Ġsupport ers
s elling
Ġtrou bles
Ġsh a
Ġimp r
on ing
Ġconstitut ional
pl ed
ĠL ater
a fe
ĠDemocr ats
Ġretail ers
Ġun comfort
Ġfunction ing
Ġburn ing
Ġtim estamp
Ġread ily
! )
Ġad min
Ġb id
Ġland mark
Ġobserv ations
Se cond
Ġre vel
Ġt ub
Ġcompl aints
Ġre ar
ab lish
S M
âĶ Ģ
Ġl ake
ĠDav is
Ġnegoti ations
Ġd s
Ġ ĠĠĠĠĠĠĠĠĠĠĠĠĠĠĠčĊ
Ġfail ures
: \
Ġguarant eed
Ġf ier
Ġcontract or
Ġbott le
Ġh am
or ious
Ġrec ipe
ask a
ĠN ature
Ġg ross
ict ions
on der
Ġprodu cers
ĠMuslim s
n atural
ru g
Ġgrow s
m ad
N ext
en able
ic iency
ĠMed icine
A V
Ġrevolution ary
Ġun pre
Ġund et
Ġvac ation
not es
Ġaccommod ate
ĠP age
Ġprotect ive
G E
ĠS ky
Ġ198 9
Ġhome owners
Ġlow est
Ġbl ame
ira ble
au x
Ġarrange ment
ĠHar vard
Ġrestrict ed
b rew
ll ib
Ġhand ler
off s
usal em
M ain
Ġimm ense
it zer
ĠAre a
================================ ================================
ot ype
Ġd t
Ġemphas izes
clud es
ST R
Ġtour nament
ograph ical
ation ally
ĠB ell
Ġorgan izing
p k
Ġmin i
t wo
T wo
Ġcollabor ate
Ġsy nd
Ġdis advant
ĠEd ward
f a
Ġhar ness
ĠPh D
ĠC ook
work er
m i
ge red
sk i
Ġtit led
Ġaff irm
Ġpain tings
ul ent
Ġst om
qu er
Ġbr anches
Ġpra ise
T im
Ġsh ield
Ġmet icul
Ġarchitect ural
ĠC ru
t ail
ĠO K
Ġcon j
Ġaccompl ished
Ġmet ab
Ġloc ally
rep resent
w allet
ĠBer lin
w art
Ġinter section
Ġshould er
M em
ut s
G od
Ġo dd
Ġaccept able
ĠN at
Ġcl ip
Ġh ung
FL AGS
M ethod
Ġt ire
iet ies
Ġdef ines
Ġassess ments
Ġauthor ized
Ġtempl ates
Ġaw esome
pe ople
Ġfre el
L a
ã ģ
st ud
Ġsubsequ ently
Ġret ired
Ġtext ure
Ġimpact ed
Ġco aches
Ġf o
Ġsil ence
d ates
i ology
S w
Ġbatt les
ie val
Ġunder m
Ġd rain
ĠSar ah
ud i
ĠAttor ney
ĠUn ivers
Ġreview ed
b us
Ġvari ations
ul ative
Ġ ))
ob serv
ĠJ enn
Ġp s
ĠLim ited
Ġcorpor ation
ĠS D
Ġadm it
aver ing
or ical
ĠO s
Ġfin ances
Ġcol on
Ġdev oted
ĠPro p
Ġneg lig
Ġcomprom ise
Ġrank ing
MA X
C ar
Ġemot ionally
Ġgrat itude
Ġnob ody
embed ding
Ġre hab
ĠM achine
Ġh unting
Ġmechan ical
ck er
20 22
id ays
ik a
Ġdefe ated
Ġsepar ation
Ġsur faces
Ġk m
co very
ĠS olutions
Ġleg ally
ĠLinked In
Ġscr ut
Ġexplicit ly
a very
Ġen rich
is her
Ġphys ics
Ġre ign
fet ch
Ġres olved
ĠH ay
Ġel ite
ĠW ales
Ġhand b
Ġabandon ed
qu is
L ayer
T ake
Ġbact eria
Ġe co
Ġdec iding
ĠT able
epoch s
ĠMass achusetts
Ġconvin ced
se ason
Ġant ib
Ġreson ate
Ġst rain
pon ent
Id ent
Ġhor ror
Ġdocument ary
H aving
######## ####
ĠI ss
Ġtri ps
ĠC L
pe x
Ġshort er
Ġp m
ĠAv oid
Ġl ender
Ġsumm ar
lic ense
Ġbrand ing
Ġt ends
ĠM arg
Ġadvoc acy
ig e
Ġegg s
ĠN FL
Ġsure ly
dat abase
ĠSqu are
G ets
Ġrat ings
Ġsett le
ĠAs sembly
c over
d umps
ĠS ource
ak h
D av
y r
Ġas sembly
am ine
Ġto ys
Ġun em
Up date
Ġevalu ating
Ġprogress ive
Ġimp l
Ġdistribut e
Ġfost ers
co res
Fil ter
ra ham
Ġwe ird
Ġw alks
IM IT
S y
ĠHe art
ĠUp date
ĠH ou
co pe
Ġ{} '.
ot ional
N ING
ĠBen efits
Ġ' {
Ġbut ter
min ute
Ġg host
Ġgr ants
Ġstart ups
ĠV ar
Ġroof ing
Ex ecut
Ġh ref
i pt
Ġst reams
S ession
ĠOb ject
ĠSt ore
Â °
Ġbo ot
ak i
Ġexpl ores
Ġfl uct
Ġg est
Ġneighb ors
re lease
Ġsu ite
St ream
Ġmax im
Ġlog ical
ocol ate
Ġnorm s
Ġdescrib ing
it o
ĠMount ain
ĠOx ford
Ġany body
Ġcitiz en
Ġsatisf y
s pl
bl ue
per iod
S ummary
ERS ION
Ġl r
pt ions
Ġv ocal
ĠI de
Ġexpl ored
Ġvert ical
l ation
ĠPh ot
dec ay
= %
Ġgod s
P ost
ign ment
ĠA WS
Ġb its
+ '
Ġembed ded
Ġu m
F S
ĠT ok
Ġpan els
sc al
L D
Ġrep et
Ġprof itable
Ġarrest ed
head s
Ġg ro
Ġuncomfort able
ound ing
ĠN ode
S ets
Ġattract ions
Ġroot ed
Th ank
Ġrecommend ation
ĠPhil adelphia
ge vity
Ġsol ving
Ġtour ism
Ġwilling ness
Ġcontract ors
Ġpenal ties
Ġte aches
ĠBr idge
O rig
Line ar
ill er
Ġvolunte ers
Ġcraft sm
m ann
ac lass
____ ____
Ġback up
p a
' {
ĠSt one
Ġpain ful
Ġpe oples
Ġsust ained
W I
Ġhard ly
ĠAp pe
l ang
Ġenterpr ises
un ittest
Ġcond em
ĠH ig
Ġmet ers
Ġunw avering
Ġflow s
Do es
ĠM eta
Â ®
ĠHot el
Ġpublic ations
Ġincorpor ated
ĠB ru
Ġcaptiv ating
ĠPr ice
ĠH old
Y eah
rapeut ic
ĠJer usalem
ĠInd igenous
su per
Ġund oubtedly
Ġvolunte er
amb ling
Ġknowledge able
Ġguid ing
oc c
O ps
amm ation
Ġinher it
U E
ĠB ud
Ġrele ases
Ġcons ensus
Ġem erge
ment al
e fficient
Ġdim in
Ġver ification
P ort
D PR
Ġh tml
ch at
Ġsc oring
b oy
Ġcoll apse
w ill
ff ff
od ox
Ġrecruit ment
Ġde ce
H ave
Ġ% (
E l
w ear
Ġ ðŁ
Ġmand atory
Ġch unk
iat ric
i ating
iss ues
pr ice
G en
Ġg ri
Ġb ust
ra it
Ġb ands
V ol
m apping
Ġyour s
Ġgraph ic
dri ver
Ġout er
Ġplace ment
ĠSim ilarly
col lect
Ġw ages
m k
"] :
Ġsec uring
ĠN orm
ĠA C
Ġple ased
ĠRes erved
url s
Ġrepeated ly
Ġetern al
Ġscreen ing
th ur
l ive
ĠB all
ĠPer formance
pre c
ign ore
Ġs el
ip edia
Ġdisput es
o en
iv a
Ġl ibraries
On ly
ĠLew is
Ġsu its
Ġworld s
Ġexchang es
Ġalign s
Ġwh oles
ĠS em
ĠBu y
t ab
Ġsurv iv
Ġbarri er
Ġinfluenc ers
Ġcaut ion
P ay
Ġins ure
ĠPe ace
Ġm ile
Ġdig it
Ġjournal ists
Ġfound ing
Ġg al
cret ion
lim ited
Ġsw ift
ĠRes ult
Ġpol ling
12 3
Ġbr id
ĠGovern or
Ġsm oke
Se quence
ark s
^ ^
Ġmarket ers
Ġpract icing
att rs
Ġviol ation
trans pose
Ġad verse
and al
ob b
ĠF inal
Ġl iv
ĠStud y
Ġcolle ges
Ã ¨
abs path
m ul
Ġ3 9
ĠN AS
ĠLe vel
d elta
Ġsupp lier
ĠH ub
Ġann iversary
8 00
ĠI V
ĠG raph
ĠGree ce
ial og
ĠB ased
Ġm ilit
ut her
ĠS C
Ġass ured
m u
FF F
Ġhe ating
mind ed
ĠS QL
ĠD ream
gg ed
d ney
Ġdel ays
D isc
Ġphys ician
20 14
Ġ12 8
ĠM ale
lay out
Ġnarr atives
Ġin cur
ĠMar x
clus ions
Ġoccas ionally
ĠL iving
par s
iv als
Ġpo em
Ġmult ip
M B
CO L
Ġpromot ed
Ġcar ing
Ġadapt ed
ĠTik Tok
Ġalbum s
] ["
Ġ4 4
Ġoppon ent
Ġsh ame
ĠA mb
Ġhead ing
Ġple asant
Ġtal ents
ĠWork ing
p and
c ross
ĠPri vate
ro duct
ĠSm art
les h
g ic
Ġadv ised
Ġinter val
Ġconf used
aj abi
P ress
Ġw rest
Ġform ing
ĠLead ership
Ġmodel ing
Ġminor ity
Ġattract ed
ĠE N
Ġmob ility
ĠEvery one
Ġundet ected
Ġb orders
Ġfall en
re pl
ĠO N
Ġdiscount s
Ġsing ing
work ing
ĠD at
Ġinc hes
ĠD un
ra g
Ġmis con
Col umn
Ġadv ances
Ġdoctr ine
ig er
Ġloc als
Ġswim ming
? '
Ġrec re
W orld
ne red
Ġload ing
ne x
cred entials
Ġgl imp
Ġpick ing
ĠF urther
eng es
support ed
Ġc ited
Ġvulner ability
ill ance
Ġmoist ure
Ġwarrant y
r b
| "'
Ġdro ps
k it
Ġfru its
Ġt ale
ĠÂ §
c ow
Ġor g
ĠC ovid
Ġintegr ating
) ])
k m
ut ical
Ġgraph ics
Ġparticip ated
Ġimpro ves
log in
ĠOpen API
Ġ1 20
Ġr anks
ou ter
Ġcha os
Ġperm its
ep ing
pri or
igh th
Ġwild life
t urn
Ġc m
ĠP od
ĠE ric
. ",
ag a
Ġexhib it
mes h
Ã ¤
Ġse gments
Ġdefault s
Ġ ;
Ġal ien
cript or
Ġle ak
id el
Ġche ats
Ġde emed
ä ¸
Ġcor on
ĠAn alysis
ĠThe ater
f ake
Ġwood en
initial izer
Ġworksh op
er b
es see
Ġveget ables
ĠM S
cul ate
oc key
col lection
Ġimp erial
Ġpres erving
Ġvis a
Ġann ually
( \
Ġf n
ĠLin coln
L oss
Ġv ib
mg mt
Ġesc al
E lement
Ġbon us
padd ing
T T
={ '
ĠDe ath
ĠD ur
b efore
t ar
ĠMill er
Ġra ces
bo ards
Ġexp ed
S erver
Ġl apt
ĠJud ge
Ġh ip
pro xy
Ġconsist ing
Ġteach ings
Ġvar iant
Ġsu pre
ĠId ent
as m
Ġacknowled ged
ĠT en
rop ic
ĠPlan ning
Ġch icken
1 50
Ġident ical
Ġtransform s
U I
Ġadvance ment
ĠF all
Ġbo om
Ġprivile ge
ĠH ope
Ġle af
Ġquant um
ĠEns ure
] *
Ġs ons
Ġ âĢ¢
ĠO nt
Ð °
rep o
be at
ser ies
gr ams
Ġnot ing
v ised
Ġwh is
pri vate
Ġvol unt
iam i
Ġdis abled
Ex pl
[: -
bl ack
Ġdist urb
ĠN C
Ġthe at
Ġste re
Ġdark ness
Ġoxy gen
ax es
ĠTest ament
Ġ2 50
ĠInvest ment
ira cy
Ġrend ered
Ġd ot
Ġfant asy
Ġoil s
A ir
Ġoppon ents
Ġre q
ver bose
Ġd ign
Ġproport ion
ĠT alk
ĠO wn
Ġpri est
Ġind irect
ĠAtl antic
l tra
se ver
Ġcan cell
ER E
l u
c am
Ġ: ]
Ġtransl ate
Ġinf inite
Ġconsum e
Load er
Ġisol ation
Ġc rown
form ing
ĠF ocus
Ġcompet ing
Ġindic ators
Ġcon ce
ĠAff airs
ĠDo ctor
Ġsuggest ing
it ations
Ġr iding
ĠPol and
Ġsl avery
ĠEvery thing
N ormal
V I
Ġhum or
count s
M ENT
Ġstream line
Ġhead ed
Ġbut t
Ġauthent ication
Ġfle et
DE F
Ġnurt uring
(" /
ĠSt aff
P ass
Ġs ake
Ġpark s
bl ob
Ġrac ism
inte gr
Ġfund ed
Ph one
Ġph ones
is an
Ġrepl acing
Ġdep rec
Ġw age
ĠS everal
Ġsacr ific
ĠInd ividual
ĠS ummer
ĠR aj
Ġinvas ion
Ġrestr iction
T ask
ab ases
Ġm ad
Ġimp osed
ĠWith in
ass ment
Ġc uis
Ġtransform ing
J ob
AC E
us ive
Ġanticip ated
Ġresil ient
Ġag ed
Ġharm on
Ġisol ated
ĠS chol
em on
Ġst ops
ub ern
Ġvary ing
apt ers
ĠL iter
Ġgener ative
Ġend orse
Ġaccess ories
Ġreg ards
Ġwor n
Ġstret ch
Ġl ending
Ġsc reens
Ġjournal ist
ĠJ ean
Ġ[ -
ON E
h r
Ġdec ay
ou ble
pre v
Ġaest het
Ġf illing
Ġsupp lied
Ġqual ifications
Ġl un
ĠSil ver
Ġup set
Ġth irty
Ġintent ions
Ġear liest
b ig
ber ry
g iving
Ġp ounds
ĠIn flu
se conds
Ġlo vely
Ġpres um
ĠHT ML
o is
Ġbul k
E mb
Ġin hib
" \
Ġpro xy
Ġwat ches
in ternal
Ġcounsel ing
ĠG reg
6 00
Ġintrodu cing
build er
Ġsa fer
Ġadapt ation
Ġarg ues
ow ed
Ġgun s
ĠP arent
Ġ9 5
ĠL ady
ing ing
Ġwitness ed
ĠH it
Ġf ool
ĠGrow th
ĠF A
ï ¼
ĠO p
Ġsent iment
ĠL ess
er ion
the ta
ok er
Ġdes ert
Ġfra ction
ĠH ung
Ex per
ot ton
s olving
Ġfeed ing
Ġinter ventions
Ġr ice
Ġt we
ĠT rain
Ġlad ies
Ġdispl ays
ĠB rian
Ġview ing
w atch
t aking
Ġmeasure ment
, ),
Test s
ro ck
Ġaspir ations
Ġly rics
Ġshort ly
own ed
ig ue
Ġhyp othes
Ġpar liament
Ġf etch
Ġ4 9
ĠR os
ĠFore st
Ġintu itive
pr im
ĠIm m
ater n
P al
Ġrul ed
est im
Ġf ame
ĠCast le
ĠT ogether
w hen
n i
m ove
b ling
Ġattack ed
pay load
last ing
read er
Ġgame play
Ġprov ince
Ġsl ot
Ġdist ress
Ġmag ical
Ġgener ic
ĠD aily
Ġ198 8
ĠCl in
Cl oud
Ġst ating
ĠL OG
Ġmarg inal
rem ote
B oth
m ay
e z
Ġres ort
ĠAl tern
Ġroll ing
qu ote
d epend
Ġlog s
ĠInd ones
Ġpro pri
v ia
Ġben e
ĠH un
Ġtremend ous
s in
ĠR ule
Ġscript s
pl iance
Ġw rap
Ġpre ference
ĠBook s
Ġup grad
Ġne ural
A g
ĠOrgan ization
Ġsu icide
Ġforg otten
ĠR ub
Ġtr im
ĠOther s
Ġdel icate
o ir
pl aces
ĠT ony
m id
ĠEx change
un iform
ir ts
Ġapprec iated
H A
og ram
Ġlisten ers
ĠSc ient
our ing
~~~~ ~~~~
per cent
Ġtrust s
Ġbr ut
BU G
ĠSc iences
de ep
Ġclaim ing
Ġpros pective
Ġd ies
ĠS ud
ly n
Not Found
place ment
b ec
ĠPr im
Ġv oid
Ġinfect ions
Ġeduc ators
Ġlo ose
Ġenc oder
Ġmis under
at ar
Ġaccount able
Ġn am
`` .
Ġwithdraw al
mer cial
Ġv et
Ġstim ul
Ġstd out
ĠMex ican
oun ced
Ġlandsc apes
A ccess
ĠG arden
Ġt ons
Ġcontrovers ial
Ġkn ife
Ġb io
ĠRun time
ch arg
Ġs orry
requ ently
Ġtend ency
S earch
Ġm s
P ack
ced ented
' \
Ġinfl ammation
ĠRad io
ĠUkrain ian
Ġcontin ually
ĠB BC
Ġun icode
ĠD a
ĠC orn
orient ed
ĠScott ish
Ġtail or
Ġfre ely
ĠM oh
20 12
chang ed
ir k
Ġchalleng ed
ig uous
Ġel ab
ĠB aby
Ġfl avors
ĠC ab
Ġcook ies
Ġtoler ance
Ġmind fulness
Ġsleep ing
Ġpen et
ĠR oss
Ġhistor ically
Ġlon gevity
Ġm asks
Ġprec ip
N um
Ġche ese
ace utical
Ġjud ges
Ġexpress ions
ĠP it
Ġexclus ively
Ġcustom s
Ġpresent ing
ĠK evin
Ġdis k
Ġsh util
Ġs ne
R est
Ġd irt
Ġ 00
Ġtour ist
ĠF ellow
Ġorient ation
Ġf ate
ĠF unction
ĠO tt
AT O
Def ault
Ġe ars
S ocial
log s
= ["
greg ation
} '.
= ""
ĠH ence
= {}
Ġche aper
ĠFoot ball
Ġpractition ers
u y
Ġdra g
return s
Ġvend or
rypt o
t asks
form s
Ġtransl ated
writ ten
Ġur gent
Ġappear ances
ĠF un
ĠHaw ai
Ġ198 6
Ġt ie
ane ous
Ġhot els
ĠProper ty
all as
ĠSe ason
( ?
Ġtre asure
FOR M
20 24
ĠCommun ication
cl ub
hav ior
Ġb ub
N C
ĠAir port
Ġy esterday
Ġstom ach
reg on
Pro gram
Ġl itigation
Ġut ter
Ġc ock
g ov
Ġbene ath
chang ing
Cur rent
ĠVictor ia
ĠM uch
ĠAl ways
ty le
er k
Ġemb edding
ĠS ix
e em
ra ge
Ġres erve
Ġfarm ing
Ġthe rm
ĠN ether
Ġse curities
ter min
Aut hor
Ġm esh
Ġexecut ives
Ġth rown
Ġt ape
Ġa str
ard ing
ias m
ir ies
Ġprop he
ĠCont ract
Ġpregn ant
Ġsent ences
Ar gs
ous ing
Ġanch or
pre p
CL UD
P P
in valid
sign al
Ġaccept ing
Ġwas hing
ĠR yan
ĠPalestin ian
T ypes
umin um
t ic
n ings
Ġremem bered
ĠS ite
Ġscholars hip
Ġp ipe
f name
Ġexper imental
ERR OR
Ġo ps
nt il
Ġmed ic
Ġrank ed
Ð µ
Ġrespons ive
g row
Ġinstrument al
ĠCR M
m outh
v s
Ġsensit ivity
ĠN um
P AR
======== ====
([ [
r ons
Ġindepend ently
Ġbreak fast
pack ages
au ge
Ġ4 1
ĠD ocument
Ġworth y
Ġexam ined
Ġcharg ing
Ġeduc ated
Ġen erg
ynam ic
Pro ject
av irus
Ġpack ed
ĠSt adium
F ore
Ġsubst ances
am ous
Ġdecent ral
b urn
Ġcompan ions
k w
N UM
Ġtim eless
Ġvot ed
Bl ack
Ġtrust ee
Ġexpl aining
t em
Ġsurve ys
Ġcat aly
anche ster
Ð ¾
Ġsurround ings
ern ess
ĠJ ane
Ġform ats
ck ing
m ember
go als
ĠT enn
fig ure
compon ent
D D
Ġle ase
ĠT ree
ential ly
Qu ery
HT TP
ĠTurk ish
Ġrelax ation
ĠAfghan istan
ĠE R
Ġin cl
f ocus
re ward
ĠM ust
ĠBe aut
ile y
Ġg ospel
ph y
ĠG ab
Ġright eous
ix els
erial ize
Ġsh out
20 13
Ġassum ptions
ĠF ROM
the ning
re tt
thon y
Ġread s
Ex ample
Ġassign ments
ĠSim on
% (
Ġre lying
Ġref ine
it ches
ĠY u
G ood
Ġsynt hes
ĠD ifferent
in cess
F E
sk y
Ġoccup ied
ĠS ant
Ġback ed
ĠAnt on
ĠM ars
Ġrespon ding
sequ ently
ĠM O
Ġtri umph
Ġtour ists
ĠNever theless
Ġconsult ant
in ery
Ġr anges
ĠPract ice
an z
} {
Ġto oth
EX T
ch oice
Ġlock ed
Ġrefer ring
Ġsim ulation
Sc ript
Ġposit ively
ĠN FT
Ġg ang
ff f
P age
Ra ises
Ġe cho
Ġemp ire
z es
CONF IG
Ġsuper vis
G L
Ġwra pped
Ġm u
Pro t
ĠM arsh
Ġwhere ver
ĠNe g
Ġcomp aring
ĠCare er
Ġn ick
Ġseam lessly
Form at
v acy
B ased
e enth
col ors
Ġtow er
Ġatt ributed
ĠRes ponse
ĠRe quest
ograph ics
ĠHer itage
" ;
. /
gl ob
lect ing
ĠP a
Ġpun ishment
U ST
cur sor
Ġfavour ite
Ġl ying
Ġdemonstr ating
s pect
Ġthreat ened
ĠSy dney
Ġcontroll ing
P res
Ġcomb ines
20 23
Ġpay day
Ġreson ates
act or
ol en
Ġopen ly
Ġd ying
E qu
ĠB h
Ġan th
ĠI ter
ĠK it
othe rapy
Ġcompan ion
Ġtang ible
ĠMean while
ac ent
Ġn a
IN FO
Ġ4 3
Ġsk learn
Ġfrustr ated
Ġinhab it
Ġunpre cedented
Ġtele phone
Ġweakness es
ou st
pl ayer
Ġdis cretion
. -
Ġ ###
Ġ9 9
get s
Ġst ain
Ġall ies
en ate
ĠArt ificial
T rust
S QL
Ġadv ise
Cons ider
Ġfavor able
Comm on
ĠCy ber
Ġlearn ers
Ġre cept
Ġvar ies
S ystem
Ġind igenous
Ġas semb
Ġsh ifting
p ot
M ix
ing ton
G A
Ġsequ ences
Ġd iver
Ġsens ors
o vers
Ġ198 4
Ġrecip ient
ĠHou ston
Ġcompl ications
Ġin sect
Ġthe ft
Ġempower ing
Ġdrink s
A ug
} ".
p d
Ġdis abilities
el and
ard ed
O UT
Ġ ids
ĠRes ources
Ex pected
u ced
Ġred irect
ĠJac ob
Ġsm ell
Ġint ens
ĠSy ria
f lo
" ',
Ġ198 7
L ife
ĠTrans port
our ced
M IN
Ġpass engers
Ġhack s
cl osure
Ġsyn c
Ġw ing
ĠB ureau
Ġr ush
amil ton
att ed
ĠL ind
Ġrot ation
Ġse al
Ġbehavior al
Ġsat ell
ĠO cean
od a
S l
app rop
ĠP ict
Ġlog in
Ġf lesh
is ons
ĠComp et
fl ix
div ision
Ġor che
Ġcontact s
Ġpo ison
Ġthe rapeutic
Ġeas tern
ĠOther wise
Ġversat ility
ĠG a
p ur
Ġsl ave
file path
Ġ19 30
r ary
Ġscient ist
Ġbu nd
Ġresc ue
am mat
com ment
ance ment
Dav id
M ean
Ġbr ick
e u
10 1
Ã §
is y
Ġm es
Ġdiscl osure
B as
Ġclass ified
Ġappro ached
ĠCON TR
att ention
Ġm ixture
Ġcompat ibility
b order
sc hedul
e re
z o
lat est
pro gress
Ġst ays
es c
Ġr h
con dition
pr ise
Ġapplic ants
ĠB at
Ġ io
Ġconv iction
h ave
Ġwas h
run ner
Config uration
ĠMar c
p rom
ĠLe on
V er
Ġcontroll er
fe e
Ġf oss
Par ams
Ġcon ferences
Ġ[ (
int age
sh a
e cess
ĠF ast
Ġcomb ining
L ong
Ġincent ives
Ġtim eline
ard less
ĠB urn
che my
ra ise
requ ency
ĠStrateg y
ĠIs a
ab lished
rie ved
Ġsp o
pl ugin
d am
Ġst ub
: "
hed ules
Ġsl ice
Ġbur ied
Ġgovern or
Ġj un
j oint
const ruction
sm ith
Ġconsequ ence
ed ed
om ent
Ġex empl
Ġclos est
Ġseason ed
Ġannounce ment
s ized
Ġadm ission
Ġk eras
Ġs au
ar ms
yn asty
We b
Ġbath room
ĠFr ont
Ġmyster ious
ĠW ik
ĠRepublic ans
Ġc s
Ġrep ository
Ġoverwhel med
ĠAust in
âĶĢ âĶĢ
Ġment or
CLUD ING
Ġlect ure
n c
Ġbe am
Ġdisag ree
ĠM D
L abel
ĠW ould
E st
ur u
Ġg rief
Ġimmigr ants
Ġ25 6
ĠJ osh
ĠArch itect
Ġdraw s
mer ge
Ġpartic les
Ġbattle field
Ġjournal ism
ĠS ure
ĠSt ation
ĠBe yond
ĠM obile
Ġsmooth ly
h ack
Ġske pt
Ġfore front
de coder
sh ift
Ġwell being
Ġinev itable
bs olut
Ġj unk
ĠRes erve
iss ance
Ġm aj
rodu ction
Ġar c
im m
s izes
and y
Ġag ing
th an
d ra
pt on
Ġbound ary
Ġassoci ations
Ġdiv ide
Ġc ov
ubern etes
det ails
oper ator
Ġlegisl ative
Ġpo et
d one
Ġpl umbing
S R
ex pr
Ġst ones
ĠOnt ario
Ġenthus iasm
Ġh ug
Ġt ong
Ġg it
r f
Ġcapital ism
Ġbook ing
Ġf ired
ĠK a
Ġbreak down
Ġb ureau
ĠCl inton
Ġanticip ate
Ġdeb ts
Ġc able
Ġd ense
S k
ĠM iami
ĠAll iance
t k
Ġemb arr
v o
ed ing
ĠMin nes
Ġfrustr ating
i ov
an im
omet ric
Ġcharacter istic
Ġpass ive
Ġhousehold s
m other
Ġ198 5
ĠM aking
Ġdep ict
Ġfl aw
ĠE val
ĠA zure
Ġre aches
Ġadop ting
I ter
Ġrele vance
il iate
Ġf iscal
v able
Ġd rew
assert Raises
ĠDe ad
20 11
Ġby te
V ERSION
Ġremind ed
J an
ĠJ ava
ĠEx press
P ersonal
Ġalleg ations
Ġlimit ation
ur able
Ġtw elve
ĠCall able
Ġs ampling
Ġdram atically
ĠOut put
Ġdo se
Ġaffil iates
Ġemphas ize
LO W
op ath
ĠBel g
Ġsc ipy
C RE
Ġland l
AR Y
Ġnurs es
Build ing
met ic
Ġs ink
Ġprov in
ry ing
ĠNether lands
ĠHind u
Ġeduc ate
He alth
ro ve
st an
(' _
N ESS
Ġdeploy ed
T itle
] ).
Ġaffect ion
f ish
Ġdetect ed
ĠGr ant
Ġexpress ing
at tered
H L
2 50
V D
Look ing
E arly
ĠRec ogn
r ative
le ading
Ġrenew able
ĠG h
ab c
c ov
med ia
Gener al
Ġdesc end
Ġgradu ated
Ġf er
Ġnutri ents
ĠVal id
ac ular
Ġreform s
Ġviol ations
asc ular
top ic
or ic
Ġnovel s
B B
eval uate
in ally
ĠCh annel
Ġhol es
m ag
r ules
Ġste am
ĠT a
c ient
br is
F ollowing
Ġguarant ees
Ġprosper ity
Ġsurve illance
Ġth y
look ing
Ġchar itable
ĠP ast
M AP
Ġsal vation
Ġkind ness
names pace
ĠB and
Ġte ars
ĠAss ess
M ode
Ġres h
or ant
Ġprote ins
ĠAl i
L ocal
M I
Ġb ones
Ġtheore tical
Ġam bit
ph an
Ġmechan ics
Ġrest ored
G S
Ġp ocket
Ġex terior
Ġcy cles
def ined
Ġatt itudes
Ġpro tests
Ġt s
Ġpollut ion
iv ities
Ġmuseum s
Ġf p
Ġexp end
roc ade
a ired
Ġframework s
Ġsubm ission
s ocket
is ers
Be ing
no ise
ĠMinnes ota
ĠOlymp ic
ĠV ery
b rocade
/ "
olog ically
ĠO ften
Ġbare ly
ĠIn novation
Ġdistingu ish
Ġun iqu
Comm un
Ġmat ched
} ')
al ities
Wh ich
Ġactiv ists
ĠPri ze
J E
ĠAss istant
ĠImport Error
h u
Ġdo zen
ris k
ĠO regon
ĠAb raham
Ġdescript ions
ĠCl ark
ĠFranc is
Ġdiscrim inator
ĠBet ween
ĠUS E
he ld
ock ets
Ġaccommod ation
B el
m al
ĠCle an
ĠCam bridge
Ġb rows
Ġpain ted
(" %
Ġt une
Ġpres cription
... ,
se gment
Ġcultiv ate
hent ication
ĠS ound
pro gram
Ġterm inal
Param eter
pe at
Ġneed ing
__ ['
Ġpadd le
Ġoverse as
but ton
Ġh oney
Ġis lands
Ġatt ain
ĠR isk
Ġabund ance
Dev ice
ĠMal ays
ĠSh are
Ġcraftsm anship
T r
ab stract
cl osed
ist ance
Ġg reet
Ġin du
Ġrob ots
Ġang el
Ġvis ually
ĠG DPR
Ġimp lies
ab out
ĠK ansas
ĠF le
Ġanaly zed
Ġgenu inely
Ġsc ar
keep ing
ĠF ive
Ġen force
Ġa ver
B ar
com posed
Ġcryptocur rencies
Ġh al
br anch
ol s
Ġflow er
ĠKenn edy
Ġencrypt ion
Ġunt o
Ġb inding
Ġchem istry
se ud
M s
Ġpat ent
ĠEconom ics
V ICE
Ġinqu iry
c ateg
Ġattend ance
c reat
ĠG ive
ade qu
ic ular
us hes
Ġremind s
Ġr ic
LE D
Ġwealth y
Ġfing ers
ow a
ĠH art
ach ment
fun ctions
Ġit eration
Ġb om
ĠTai wan
un ing
Ġcraft ed
Ġen light
: ,
Ġden y
ĠPr int
Ġadvoc ates
ĠUs ers
Ġfoot print
flat ten
r l
p her
empl ates
et ics
Ġeconom ies
Im port
econom ic
Ġpost ing
Ġthread s
Ġg re
ĠDie go
ĠB UT
ĠDu ke
ĠK y
Ġsymbol ic
" -
ĠPol ish
W est
ĠT rib
ĠIn f
em b
Ġun con
ĠT ask
Ġg ambling
ĠN ation
ĠS n
ĠPhilipp ines
US ER
r ane
iv ar
Ġtra jectory
co ordin
Ġdocument ed
Ġb reat
ap ol
Ġcontrovers y
ĠMor gan
Ġp ension
f d
ĠMos cow
Ġtravel ers
AG ES
Ġfinanc ially
ribut ions
V ariable
Ġste pped
is ure
ick ed
Ġpers istent
anc ers
Fe ature
ĠAr gent
Ġregul ated
ĠC ultural
Ġmod erate
om y
enc oding
Ġ> >
ire ments
Ġann oy
ĠJ ay
Ġdis par
cons in
Ġbenefic iaries
in ars
ab a
bour ne
Ġsc iences
ĠEn c
Ġco inc
ut ation
ĠApp lication
j an
ĠC re
P ublic
Ġin cons
Ġ5 2
Ġ6 00
Ġde leted
Ġg ay
Ġ19 20
Ġreason ably
Ġstri p
um atic
* .
Ġadvis ors
ĠChe m
ĠSa udi
he at
Ġ âĢ
en o
ĠS imple
ĠS ustain
Ġspir its
D id
Ġfound ations
Ġnon profit
ĠC ould
Ġp ays
Ġrel ies
col l
Ġautom ate
Ġstat ute
ĠIs lands
ĠOver all
Ġlegend ary
Ġcivil ization
Ġpat ri
Ġen act
at able
Ġfl ip
Ġdistrict s
Ġ4 7
p aced
Ġcommit ments
Ġy ard
inst ances
u pload
l ists
ĠS ave
Ġreason ing
ĠB ry
ĠCol lect
ĠAll en
requ ires
O ct
Ġassess ing
Ġout lined
Ġhand les
Ġbrief ly
Ġcommun icating
Ġcapt uring
B ASE
ING S
Ġ5 1
Ġw r
Ġp izza
up id
ĠSy m
T otal
Ġbelong s
Ġgard ens
Ġrun ner
Ġcomp ound
activ ation
Ġpress ures
Ġcoordin ate
PO ST
Ġex clude
Ġwitness es
A ng
ĠRem ove
ĠA le
Ġsm oking
Ġcall able
Ġattract ing
T ree
Ġcuis ine
ot ypes
Ġmod es
Ġcon sole
Ġrelax ed
ĠEnvironment al
on ia
Ġtou ched
Ġh anging
Ġout line
s n
se a
ampl ed
en ames
Ġimp ressed
ĠP red
ant ry
n ie
Ġcontext s
d uration
P aul
Ġt urb
ur ious
h ire
Ġaim ing
i ative
Q ue
ĠA z
Ġch ocolate
des ign
suff ix
H ub
s igma
Ġen large
ã ĥ
Ġsp ray
Sche ma
ĠS ex
Ġrepl ied
hed ral
ĠE c
tx id
ro se
Ġjud icial
onial s
ĠJ ason
Ġapp ell
as a
Ġtra des
on ed
Ġcelebr ating
Ġarr anged
Ġn ights
__ .__
Ġfin ishing
ain er
ra ising
ĠWe bsite
Ġ" [
od d
Ġstr ides
str ide
ah a
S W
ĠHe brew
Ġfaith ful
Ġatt raction
MODE L
Ġb iblical
q dm
n b
oc on
Ġrig orous
Ġemphas ized
Ġdownt own
em an
ĠB ody
Ġconnect s
P ub
ele ments
ĠCon v
Ġcab in
Ġcryst al
ĠP ope
ĠK ajabi
ĠF reedom
Ġpres ervation
ag le
Ġpart ly
Ġh iking
Ġpro long
ĠMary land
E v
ĠA venue
Ġadapt ability
Å į
u er
Ġ19 40
Acc ount
Ġmed ieval
w ind
Ġsubscrib ers
Ġdist ant
c b
f amily
Ġun predict
Ġill ust
in ance
ĠM anchester
ĠAd vent
Ġl ip
Ġhope fully
for get
Ġp iano
ĠPat rick
ĠL oss
ĠM ap
ĠG il
Ġj e
st ock
Ġam en
ĠO ak
ĠJ am
t z
ĠR ab
ilit ation
Ġn est
roll ed
Ġsc rew
Ġambit ious
ĠBar b
ĠO UT
Ġclin ic
ĠC old
Ġdepart ure
ĠQu ant
Ġport ions
inc ome
Ġ4 6
Ġpublis her
Ġc um
bas ic
Ġv iable
ed elta
Ġmind ful
Ġper ceive
Ġhit ting
Ġcontra dict
e lect
Ġimmers ive
cl ock
ĠT yp
ĠS ri
se g
Ġdisc iples
ĠP ain
Ġth riving
ĠS EC
B E
com b
els on
Ġhonest ly
Ġun fortunately
Ġexam ining
ĠW H
ĠS umm
ĠA L
ĠDub ai
A pi
ĠO bs
Ġnob le
D ir
ĠK han
â ĸ
ener gy
Ġcul inary
Ġco pe
Ġgrad ient
F ree
M R
Ġab ortion
PO SE
Ġsynt hetic
Ġchart s
Ġconnect ivity
icens ing
Ġ- =
Ġv ine
ro it
imp l
ĠE le
Ġalle v
lic ity
Ġdeal t
ĠAg ent
am ination
Ġlo vers
co ords
ie ge
l ibrary
Ġz ones
win ning
Ġ197 9
Ġcert ifications
Ġhol idays
ĠMic hel
Ġ198 3
Ġal umni
Ġfest ivals
Ġass urance
Ġbu g
s phinx
Ġautom otive
ĠUS D
ĠW rite
Ġunder go
capt ion
ĠN ATO
Ġpred ecess
Ġbet ray
Ġpars ed
ĠG ard
RI PT
ur ations
ĠAnd erson
ar ia
ĠB uck
Ġanx ious
mult i
ĠEd ge
C are
ific ates
Ġbreak through
or ia
Ġde bris
Ġgen es
Ġelig ibility
Ġm im
Ġ orth
Ġst adium
ĠAtl anta
ĠE ver
Ġs ess
Ġfol k
Ġgam ma
ens ively
aud io
ĠI ron
Ġg ig
r ates
Ġdel ivers
Ġcompre hend
R et
OR Y
Ġphr ases
w ich
Ġra y
Ã ±
Ġrad iation
Ġcoord ination
in ch
ĠAl ong
Ġm gr
Ġover night
is ible
Ġcomp ounds
Ġgu ilt
Ġpres erved
ĠS ac
ĠMem orial
Ġ} )
Ġmiss ions
Ġem peror
ĠWrit ing
M iss
cor rect
Ġstri kes
ĠL iver
Ġto ile
Ġsh ifted
Ġcarri er
Ġ198 2
Ġdecl ined
c ourse
Ġgar age
Ġref use
PL I
Ġn it
he ll
t age
W arning
sort ed
Ġm ic
ĠT arget
int end
ĠY e
ĠMag ic
Ġcompar able
ĠT erm
ass istant
Ġmeas uring
E num
ch ant
Ġup hold
pol y
ĠF riends
-------------------------------- --------------------------------
g un
Ġb ases
ST AT
am ic
ĠCol labor
ĠP ART
Ġhand y
Ġlif es
Ġautonom y
Ġbr ush
Ġdang ers
ĠC ancer
Ġsc aling
en vironment
Ġvar iation
ĠRuntime Error
Ġcon clusions
Ġfe as
ĠCapt ain
ĠN ear
B ig
ĠDefault s
ax y
Ġhead quarters
Ġvess els
b id
Ġpro to
Ġfin est
ĠA y
ĠCOPY RIGHT
ĠD ave
F P
Ġste ep
ĠH ug
D ay
el ong
ipl inary
Ġwin ners
Ġdepend encies
us cript
Ġ8 5
ad i
ĠMon th
ĠAdd ress
The ir
ys ics
Ġtra ged
ĠAdv anced
t ick
per ature
C HE
Ġg em
B N
Ġpoint ing
Ġmaintain s
Ġ ).
miss ing
Ġstress ed
Ġsupp ress
j obs
c i
at isf
Th ose
Ġdo zens
Ġcharm ing
Ġreview ing
Ġwel coming
pro du
ist ically
Ġload s
Ġblock ed
f ixture
Ġarch ive
ĠNot es
on ds
ĠPal ace
Ġsqu ad
enn a
ĠK elly
out heast
ĠRec ord
AS T
g z
Ġunf air
ot te
er ator
Ġveter ans
Ġsche mes
ĠRa ises
Ġautonom ous
ĠReg ist
Ġs ins
ĠVill age
v ens
Ġhass le
Ġtrans cript
Ġsu ited
ol o
Ġbur st
Ġdiscover ing
Ġre ception
sc ape
Ġsoc cer
"] [
Ġj azz
Ġgener ous
Ġfac ial
ĠAtt ributes
ĠAnaly tics
ĠB alt
Ġthought ful
ver ted
h op
ĠSe attle
Ġb ite
il ot
Ġprev ents
ĠU ltimately
board ing
Ġg rain
comm ands
Ġevalu ated
Ġprest igious
p ersonal
Ġhum ble
ĠIndian a
ĠI oT
ĠN BA
sl ice
ing ham
Ġreve aling
Ġsc hedules
Ġjust ify
ĠL yn
ĠF ollow
Ġsecret ary
Ġnormal ize
n at
Ġglimp se
red ited
Ġsto pping
m atic
Ġintern ationally
aught ers
Ġvac uum
Ġout look
ĠNet flix
Ġnegot iate
ĠB esides
Ġinfluenc er
ĠMc K
b es
pl ug
Ġdro ve
res net
it ably
be an
Ġpre jud
Ġvacc ines
ĠW y
Ġob sc
Ġunder graduate
l st
Ġh ill
Ġa zure
t i
par allel
Ġc ave
Ġst abil
prov ider
Ġqu it
Ġrain bow
itzer land
Ġhistor ian
Ġloc ate
ar ound
Ġrese mb
ĠSp ot
Ġindic ator
Ġpr one
as ury
Ġdead line
w en
N on
Ġblog s
i ants
Ġs isters
Ġdis posal
Ġschedul ing
Ġconst itu
Ġancest ors
Ġli ver
Ġint end
Ġcon vention
ell ers
Ġenjoy s
M en
Ġarch ae
ĠN othing
Ġbo asts
ĠY an
Ġint ake
Ġident ifier
ĠN HS
ĠC a
secut ive
Ġbatter ies
Ġpart ition
Ġen for
Ġa er
" }
Ġdom inated
ĠEm peror
d l
oin ter
Ġc ure
UL AR
Ġvill ages
ĠM and
Ġla wn
ĠBas ic
ĠComput er
sh ared
/ %
accur acy
R ule
N U
Ġdrop out
ol k
() ),
Ġfort ress
s imple
Ġlaunch ing
ov ie
Ġsw ing
Ġhand ed
Ġcon clude
ĠTr uth
id o
L Y
Ġbas ics
Ġgall ery
om ed
ĠA qu
De velop
u z
ĠWis consin
Ġtut orial
Ġthe sis
t le
ĠDe an
ĠL ICENSE
F ind
Ġrom ance
Ġtra ditionally
Ġstrugg led
Ġp orts
? ?
, -
ĠD allas
Ġapplic ant
Ġsucceed ed
b ank
Ġoptim izing
ĠChair man
Ġprofessional ism
AT A
as ive
Ġp ertain
oen ix
count ry
Ġp print
FF FF
os itive
M D
h ass
ĠV irtual
Ġelder ly
ĠCor ps
ĠM ER
Ġl au
Ġbab ies
Ġdisappe ar
work s
oven ant
Ġed ited
S eries
Ġpro l
B usiness
Ġaim bot
ist a
Ġun ited
Ġpow der
h icle
ĠReview s
il ateral
S ur
T HE
Ġshel ter
Ġa pex
ul se
Ġfor ums
ĠHow ard
ĠH amilton
ĠDep ending
T ag
al so
op ing
ee k
Ġs li
Su pport
ĠMult i
M ich
Ġapp l
Ġrecip es
ĠAl ab
ul ates
Ġsever ity
Ġact ed
Ġart ic
ĠH ttp
ĠPol itical
Ġun cle
V ideo
ĠN ev
200 9
Ġspread ing
Ġs igma
ĠAsk ed
ĠB uff
ĠH al
Ġout lets
ĠYear s
Ġpri ze
Ġad here
o z
OR E
Ġj ail
ĠSwed en
Ġcat ast
ĠMar ia
ĠS pr
Ġc ake
Ġsur f
Ġconsum ed
Ġfor um
Ġy aml
Ġphilosoph ical
Ġsh ine
h ind
ĠL IMIT
Ġtrans fers
id ency
Ġnam ely
pro bs
Ġax es
ĠM ort
Ġunem ployment
ĠGener ator
ĠAn thony
em it
Ġpost er
Ġconv ince
Ġs aves
Ġadvent ures
by te
Ġware house
Ġchat bots
uc le
ĠStud io
Ġrel atives
l ining
m ate
Ġhe d
Ġnot ably
Ġunder ground
ĠC ash
Ġf ence
Ġreg ener
aff e
Ġvocab ulary
Ġcir cles
Ã³ n
Ġmob il
ĠOrig inal
ĠAr thur
Py thon
({ '
ch a
ĠP UR
Ġanaly sts
app er
H R
ĠD rive
Ġk iss
Ġcent ered
ass ador
ĠPhil ip
ĠAm endment
Ġsan ct
Ġtax p
Ġoverlook ed
Ġdelay ed
ĠTenn essee
Ġinvestig ations
or p
Ġinstall ment
Ġleg ends
Ġsh uffle
ĠB an
Ġdecre ased
E ff
Ġdel iber
ĠFed eration
enn y
Ġdisc ourse
Ġtrans it
Ġi Phone
ĠMag azine
ĠT otal
gam ma
x ide
Ġs ends
Ġvulner abilities
r idge
Ġattach ment
ĠL ocation
B et
ĠP erm
ĠN ik
allow ed
C ore
Ġs ig
Ġmother s
Ġrem edy
e very
Ġtrig gered
ĠCon vention
V AC
ĠFL AGS
ad ays
ĠSt op
a verage
ĠB ull
Ġsan ctions
ol as
ĠWork s
Ġbelie vers
Ġli able
Ġimpr ison
stand ard
ĠInst all
ĠI RA
ch unk
Ġch apters
Ġby pass
eff ect
Ġw arri
Ġcor ners
author ized
ĠMo ore
m us
Ġdign ity
ĠM un
Ġnavig ation
ĠLu ke
al g
ĠBe gin
f und
aus es
200 8
tain ment
Ġda unting
ĠLaw rence
ac ious
ant e
itut ional
Ġch ip
Ġst olen
Ġpull ing
Ġess ays
Ġapp et
iv ic
Ġbit ter
Ġfat igue
ĠA BC
Ġpress ing
Ġtra ils
arch ive
Hel p
ĠB arn
ĠT R
ĠG ene
ĠL ock
Ġs its
Ġdeserial ized
ri ber
RO OT
Ġdistingu ished
rand int
ĠD or
ĠCon vers
iff s
Ġpol ar
Ġun ions
ĠUn it
Ġsit uated
Ġcons iders
Ġemphas izing
ĠSer ver
St ar
ĠSe quence
Ġb ind
Fact ory
Ġhand ful
et ri
Ġlim iting
sh ould
Ġfirm ly
Ġt ennis
k now
ĠD AM
Ġeleg ant
qu es
Ġdat abases
Ġspeed s
Ġoccur ring
Ġ198 1
fess ional
ress ive
Ġrespond ents
Ġsurv ived
Ġhaz ard
Ġsp atial
Ġinv iting
Argument Parser
Ġr ings
Ġm ales
Ġresearc her
Ġmean ings
Through out
() ]
Ġregul ate
ĠSe lect
Ġ ])
ĠSa fe
is ive
Ġt ens
Ġbirth s
ĠEgypt ian
reg istry
Ġvisit or
ĠCol lection
Ġorder ing
Ġembra ced
ong o
Ġallerg ies
Ġsix th
Ġbless ed
Ġpan ic
fra c
prot ocol
ĠM ilitary
Ġbelie ving
ap hor
Ġrep o
Ġcamp s
met ry
Ġ197 2
ĠH ost
Ġalt ogether
Ġcateg or
Ġlabor atory
Ġfore sts
Ġ196 8
ĠD ick
Ä ĩ
ĠCl imate
Ġcool ing
Ġc ig
B ey
m ount
Ġprogram mes
ends with
ĠH ell
Ġmathemat ics
ĠD omin
R ight
Ġscrut iny
Ġco pper
Ġset Up
er ic
Ġimper ative
Ġ197 5
alle ts
Ġtrib es
id al
pro c
ĠLa ure
Ġwarn ed
ĠAr men
Ġm as
Ġv ivid
ache l
b ins
N ational
u ke
Ġelev ated
ĠT ru
ze ch
TR AIN
op ro
ug g
Ġdiagn osed
ne ighb
Ġcast le
ah oma
Ġnew est
Ġexpect ation
ĠAlab ama
pre t
Ġind oor
Ġep ic
RE AD
predict ions
ĠR oy
Ġcou pled
ĠSchool s
F ailed
B ER
run time
Ġhop ed
Re al
ĠRead ing
ĠC V
Ġbe aches
sm all
Ġb lo
Ġsm iled
Ġsou ls
Ġin adequ
Ġâ Ĥ¬
ĠA th
os oph
Rec ord
EN S
Ġcomp act
Ġrank ings
qu ential
c ook
it ched
Ġn inet
ĠL am
ĠIn v
In tern
ES C
Ġphotograp her
ens itive
at hetic
Ġsp here
Ġwith stand
Ġchampions hip
Ġtreat s
ĠE rror
Ġkne e
Ġdefend ants
In vest
Ġcoast al
Ġpow ered
b g
Ġcomment ary
ph r
Ġ7 2
RE CT
Ġintrig uing
Ġass ass
Ġstrict ly
ord on
ast ing
D an
Ġgra des
e rer
Ġcollabor ations
Ġwe aken
Ġtrig gers
Ġsec ular
Ġcinem a
ĠDel hi
Ġexpect ing
B L
Ġver ified
do ors
? )
ĠCons erv
u h
Ġ= ================================================================
Ġal uminum
|| ||
Ġep id
RE G
Ġdest inations
Ġpres cribed
Creat ing
el come
Ġinitial ize
Ġsuff ix
og s
s om
ĠRe ferences
Ġcur sor
am ins
uro pe
Ġ197 3
ĠQ t
Ġ8 00
Ġchair man
ĠW ind
Ġch ron
she ll
Ġround s
ĠL es
IG N
ĠTechn ologies
old s
ĠM ental
Ġ5 6
Ġwra pper
Ġapproach ing
Ġsim ilarly
s parse
Ġin ch
ĠJ oin
pos itions
Ġn an
Ġf iber
ĠAn imal
Ġele vate
if ference
M ET
ĠHistor ical
ext ension
Ġbel t
Ġconst itute
Ġl aser
ra vel
Ġmult if
Ġmar ine
G C
ĠC reek
Ġperfect ion
200 7
Ġident ities
Ġlack ing
Ġappe aring
f ar
ĠOr th
ident ity
Ġcommer ce
Q t
Ġ197 4
ã Ĥ
d ess
Ġbe ars
sever ance
nap shot
Ġsh ower
Ġas h
ĠKey Error
Ġcom ic
bott om
Ġrel uct
Ġro s
Ġrenew ed
Ġin ference
Ġovers ight
ĠH ad
w rap
ĠG P
Ġexc el
Ġh int
Ġsimp licity
Ġill um
rop ical
str ategy
r ish
function al
ĠEx cell
ag u
M ock
Ġstreng thening
E val
Ġad he
arn er
Ġproject ed
roll ing
Ġmod ifications
ju ana
Ġdom ains
ĠNig er
pl ane
ĠH at
=" #
IT E
Ġ197 8
Ġmac ro
ari juana
Ġfoot age
ĠEnh ancement
Ġdismiss ed
ĠS ay
Ġdiscipl ines
ĠZ ero
PLI ED
Ġcro ps
ed it
Ġrun time
me ga
en um
Ġdisrupt ion
(" -
Ġbal ancing
Ġamen ities
Ġende avors
Ġ" {
Ġy ang
ib les
Mix in
Ġconst itution
onom y
ĠThrough out
ĠP O
ĠF aith
ĠVis it
Ġine quality
f i
erial izer
on al
Ġdra gon
plan es
ruct ive
ĠCurrent ly
Ġsimp ler
T arget
ammat ory
Ġm akers
cur s
te es
ĠImp lement
c ached
ĠPro gress
ĠT aking
G iven
Ġcan vas
al oad
if iable
ather ine
ic ity
um ble
ĠInd ependent
ĠT oy
G reat
Ġp ink
Ġvolat ility
: ',
ĠL aur
Ġdir ty
Ġsubst itute
Ġgener ates
ah u
oy d
r ating
Ġapp end
Ġ197 6
ĠM oses
Ġdeterm ines
Ġjour n
i op
Ġrock s
s ame
Ġmethod ology
Ġrad ius
Ġrev ision
Ġavoid ed
ess ed
Ġdiet ary
Ġartifact s
ond ers
ĠLeg acy
++ ++
ĠI BM
el d
ex isting
ĠB irth
Ġappoint ments
ĠG ospel
Ġri vers
m ir
sy m
s dk
Ġun conscious
ĠAd ditional
ĠI RS
ĠR ow
Ġlib erty
Ġparam ount
Ġanim ation
Ġrefuge es
Ġce iling
Ġ** *
Ġaesthet ics
inal g
Ġsynd rome
Ġmer cy
Ġpure ly
th ink
us age
ĠP ier
pe red
Th anks
Th ough
Ġvirt ue
ĠP ear
cont ract
Ġ5 4
In s
Ġfra gment
Ġsur gical
chn ology
ixt ures
rim inal
ul ous
Ġpart ially
g ly
Ġre im
Ġ ic
kl ahoma
Ġappropri ately
] (
ra c
ĠG aza
Ġmod est
DE BUG
ĠG PT
Ġpuzz le
Ġvit amin
ĠB Y
ĠGall ery
Ġre ck
Ġcalc ulation
Ġencourage ment
Ġco hes
ĠL as
ĠOpt im
Ġlong est
ĠV i
Ġfl ights
C le
approp riate
Ġind ivid
Ġinterpre ted
Ġallerg ic
ĠM ission
ĠC over
enc er
air y
const ants
ĠY ang
Ġdipl om
Ġrhyth m
ol ar
ĠTok yo
un es
Ġprofit ability
Ġste pping
D at
ut ory
Ġcor n
ĠPUR POSE
parent s
L ocation
Ġmid st
ĠÂ «
sh ore
T ech
ĠAr k
Ġstat istical
Ġphys icians
ĠS ide
Ġst roke
l ad
Ġ{} ,
Ġmark er
Ġfast est
cc a
Ġnever theless
Ġdevast ating
dir s
ver ts
Ġelect ro
rane an
Ġfit ting
Ġpromot ions
ĠSw iss
Ġrem ot
. ',
Ġund e
Ġl es
Ġprison ers
Ġcontribut or
ĠSw itzerland
Ġterrit ories
- >
ĠF C
Ġprotect s
f alse
sc en
Ġpra ised
Spe aker
M att
Ġveter an
Ġcustom ize
d ro
P red
Ġp ixel
Ġvoc als
Ġor ange
ĠA gr
Ġresearch ing
Com merce
Ġstress ful
ĠM aterial
Ġle aks
ĠVis ual
Ġhes itate
Ġhonest y
Ġmatt ress
Ġimport ed
ĠSt ream
Ġcle ver
Bey ond
ĠM it
Ġind ication
and ra
Ġind ul
. ]
pl ant
tain ing
ar o
Ġencount ers
Ġmake up
Ġhero es
ĠCo oper
ĠMiss ouri
Ġcon secutive
Ġv iral
Ġhe x
ĠF IT
del ay
ĠCent ury
F IL
ond a
Ġsepar ately
N ames
Ġ197 1
ĠC ertain
Ġnewsp apers
sche dule
Ġf ract
Th read
ĠPrem ier
im ity
ig nt
E V
h alf
Ġal tered
ĠO cc
ipp i
Ġe go
Ke ep
Ġposition ing
ĠPro b
ail and
d c
D em
Ġmod ification
OW N
Ġex cluded
Ð ¸
Ġd ated
ĠC lear
Ġover ride
st able
oth y
ed u
Ġseason al
ĠG ate
) ],
L R
ĠM as
Ġout reach
Ġbu zz
Ġcop ing
Ġcust ody
Ġaccompany ing
ĠBow l
Ġmerg ed
Ġa qu
Ġiniti ated
Ġabs ent
sub ject
Ġaccess ed
Ġconsp iracy
Ġd os
ĠPART IC
uff icient
Ġhoriz on
Ġshare holders
PR ESS
Ġur llib
Ġassum ption
CH ANT
ij ing
tr uth
Ġide ology
Ġfound ers
an alysis
Ġtat too
ĠAn ne
Ġgradu ates
be gin
ch i
Ġsatisf ying
Ġnot ification
Ġall ocation
JE CT
b oth
ĠAnd re
Ġ' {}
Ġrein force
Ġwarm th
Ġreb ell
Ġ196 9
ĠFr ame
st orm
Ġpass enger
ĠD B
Ġacqu iring
Sh ort
Ġdefinit ions
Ġ --------
Ġpip es
ist le
Ġforg iveness
empt ion
ĉ čĊ
re gex
aked irs
Ġwhe els
ĠL ie
ĠC os
Ġfro zen
Ġsusp ension
ps on
Ġw ard
s ig
B ill
ĠMc G
ĠFor um
there um
Ġflo ating
t or
Ġpray ers
Ġman uscript
A uth
ĠB apt
ĠGener ated
Ġdevelop s
il i
Ġsuper vision
Ġm os
ĠC ome
ys es
Ġsupp ose
Ġaccess ing
Ġdes cent
ropol itan
ad ows
ĠUt ah
r ant
Ġrep r
ĠWh it
Ġrout ines
Ġr amp
Ġdec oder
ĠExper t
c op
_ %
Ġr het
ak y
Ġhyd rogen
Ġconfirm ation
Ġjun ior
og ue
Ġanaly tical
ict ional
Ġconsum ing
Ġclim b
ĠA st
**************** ****************
Ġto ll
Ġm ouse
T rain
Ġman ages
ĠThe rapy
ĠQu ick
ĠT ower
Ġasp iring
ĠLIMIT ED
Go ogle
Ġcontain ers
ĠW orth
Ġpredict ive
Ġcompassion ate
Oper ator
={ "
Ġafter wards
az ing
Ġp ic
Ġres erves
it ics
ĠL uther
ĠM P
ĠS in
ac eted
Ġpred omin
A UTH
Ġingred ient
ĠG O
Ġhistor ians
Ġpersonal ities
Ġprem ises
ĠWIT H
ĠProduct s
Ġde ar
Ġdem o
ac hers
Ġall iance
Ġup s
Ġbul let
Ġpharm aceutical
ĠIm per
ĠM ir
ĠMiss iss
Ġs enses
w idget
d ense
Ġfoss il
Ġmon ument
ĠR ol
atch ing
with out
Ġ( -
Ġcook ie
ĠExpl ore
ann ers
Ġret rieve
ĠLook ing
Ġto y
Ġsubstant ially
Ġsl aves
Ġd ancing
ĠI C
itt ers
ĠP rep
( ["
sc an
Ġconcent rate
ĠP ed
forget table
Ġbound s
ĠN ich
Ġle isure
Ġinnoc ent
y our
p ages
ĠV PN
Ġequ ation
le ton
Ġbless ing
ĠP ick
CHANT ABILITY
ĠT el
Ġmin erals
Ġvess el
Ġa rom
ph ase
Som etimes
Ġst derr
Ġsuccess or
Ġshowc ases
ĠS ep
w rapper
ĠM i
amil iar
Ġ196 7
f alls
Ġmeasure ments
HO ST
Rep ort
ĠS el
Ent ity
ĠCol umn
Gener ator
ĠSpec ific
ĠH ur
ĠPARTIC ULAR
() ):
Ġshould ers
Ġtrad em
Ġbe aring
ĠMove ment
g overn
Ġemerg ence
ĠPart icip
ph i
it ime
** *
Ġinqu iries
Ġt ent
Ġbi ology
ĠPut in
Ġap olog
ĠLe ban
ment ion
et o
ĠCON F
Ġadjust ed
Ġfort une
Ġspecial ize
ĠYou th
Ġ' ',
ĠN ep
ct ic
Ġlog its
T uple
Ġ5 3
Ġrecon cil
Ġrel ied
Ġdist ances
focus ed
= __
s chool
gorith m
m ass
ps y
pre hens
l m
ol i
Ġcl ause
bas ename
st ory
ĠE ve
Ġrec oil
ĠOpen AI
C opyright
d it
it ated
r gb
ment ation
Ġpass ions
Ġab ol
Ġs ail
R andom
Ġrel ates
Ġintim id
Ġbed room
Ġm g
ĠHealth care
ĠS ER
Ġritual s
Ġten ant
ĠA bd
Ġst ance
Ġsp ell
ignt y
ĠS i
ĠA G
. \
gener ation
Ġres erv
cy cl
ĠAd ams
Ġin con
Ġliquid ity
Ġaccel erate
Ġsur pass
p al
ĠElect ric
Ġg auge
d irection
Ġb arg
Ġcom ed
ĠCreat ive
MA IN
(' %
Ġt orn
ĠB lood
embed dings
ĠEm ail
ĠC C
Ġvar ieties
ĠJ oy
arri age
un ion
ĠB or
Ġimpact ful
Ġones elf
an aly
LE CT
Ġp sy
Ġneighborhood s
Ġadv ancing
Ġb anned
Ġpre trained
Ġc ous
Ġpreval ent
quest ion
Ġrel ay
ĠB ah
H ome
Ġfem ales
Ġlapt op
Ġwon dered
N ET
Ġg ently
Ġcompet ent
ĠMER CHANTABILITY
W A
last name
on i
ĠReg ister
ĠMot or
Ġchat bot
Ġsoon er
Ġtruck s
dim ensional
Ġown s
ĠK al
Ġtra ins
Ġg rip
Y et
En ter
Ġcapt ain
Ġpodcast s
hen g
Ġpos es
Ġment ally
Ġr ated
Ġdon ations
L ab
ĠG ulf
Ġrail way
Ġenlarge ment
Ġhospit ality
ĠC ape
year s
des erialize
Ġassess ed
ron es
ĠM icro
v id
ĠUs ed
Ġc otton
Ġdes erves
Ġrepay ment
Ġ" )
Ġcirc ulation
Ġh iding
TI ME
ĠIndust rial
Ġcare g
Ġtw in
Ġ18 0
b oot
ann ah
ĠG ray
ĠHe aven
Ġansw ering
'] ))
W H
ĠG DP
Ġ197 7
Ġsusp icious
ĠU pon
Ġtempor arily
ĠT ell
b ian
Inte ger
C ap
am an
Ġgate way
Ġsp okes
Ġfun nel
Ġback ing
Ġinflu encing
C ould
ĠR ap
ic ator
Ġp ending
ĠCh art
f ive
ĠO pportun
we alth
Eng lish
J SON
che ll
Ġimport s
Ġsc am
Ġcommand er
: ",
Ġdisappe ared
w arm
Ġp ause
Ġgen res
process or
Ġmathemat ical
Ġcl oth
Ġinform ative
ĠNaz i
Ġne ur
ĠL ux
exp ression
ĠDet roit
em a
ĠR ick
pre trained
Oper ation
Ġmet aphor
Ġprecip itation
Ġr ally
ĠF BI
dered Dict
Ġconsider ably
Ġt anks
Ġoccas ional
Ġcar pet
b age
Ġdepos its
> `
Ġsen iors
ail ure
Ġadd r
SE T
m any
ĠRo om
ĠB os
ĠTH IS
Ġflo ors
p ip
Ġv intage
Ġposition ed
Ġsear ches
Ġf et
pos it
Ġp ig
Ġdec ides
_ .
Ġs lic
Ġfor cing
w ra
Ġparticip ant
Ġpay roll
Ġbl ur
ĠW i
ĠS now
Ġearth qu
Ġimag ery
Ġ nd
Ġtr icks
Ġd y
Ġrecur ring
* (
Ġen er
V C
Ġliter acy
Ġl ingu
ĠDes cription
get ic
Ġmach inery
Ġsl ide
A K
Ġsoc io
Ġhandb ags
Ġn erve
com put
ĠCour se
Ġpup ils
Ġcapt ures
Ġminim izing
Ġav g
h ouses
ĠK ings
Ġt ribe
l ie
Ġcontin ent
ele br
Build er
ry st
Ġsuccess es
C or
Ġsn ake
Ġw and
Ġprogress ion
com ed
d st
w ick
Set tings
Ġfif ty
ĠM aj
Ġbi ases
ĠDou gl
ĠB ron
pe er
Ġmanufact ured
Ġenroll ed
Ġsuggest ion
Ġsc ales
Ġassum ing
Ġvent ures
Ġindivid ually
ĠS U
ow ing
anc ies
Ġt qdm
f ly
Ġmetab ol
atin um
a S
12 7
Ġbudget s
per t
Ġprot agon
Ġsus cept
Ġcross ed
Ġintent ional
Ġt ile
Ġcol ours
200 6
ĠC as
ĠK am
A nt
ct ools
d p
Ġfr ight
ĠRuss ell
Ġl obby
Ġa ids
ĠGet ting
ĠJour ney
ĠL A
Ġthrow ing
Ġper severance
Ġcontribut ors
Ġhyd ro
r in
ĠAtt ribute
Ġd st
ĠLo an
Ġc c
ĠB ot
Ġrec overed
Cho osing
ap el
z i
al ia
Ġrel ent
Ġac res
Att ribute
Ġupd ating
ĠCom pute
ĠEnter tainment
H ost
i encies
Ġch rom
Ġexhib its
ĠReg ional
Ġreject ion
cent ric
There fore
Ġw ings
Ġb other
Ġcont empl
Ġ[ {
anc ell
part ial
w heel
Ġtrust ing
le e
Ġbre aches
UL L
om es
ĠF DA
Ġg rit
ĠAnn ual
Ġqu oted
pat ient
se par
i ological
ĠG ib
AT CH
A li
Ġpoor ly
Ġfair ness
ĠCommission er
Ġelim inating
1 20
sign ature
Ġdeter ior
vis ited
Ġground ed
ĠLe ft
Ġrepl icas
Ġmart ial
Ġper secut
Ġd are
ĠC PU
]] :
pred iction
Ġless er
j amin
ĠR u
ol ph
Sec urity
Value Error
m akedirs
ĠW inter
est ry
ĠBel ow
D IS
ĠV R
lo pe
Ġso ap
Ġport al
Ġreal izing
ĠS ug
ĠCon c
Ġshe ets
Ġsp are
ĠSt rong
dev ices
Ġ5 7
ĠH ills
ic he
ĠGir l
Ġt vm
ĠAl an
h is
Ġfore most
Ġhe ights
loss es
ĠAn na
Ġ( $
Ġintu ition
ĠF er
ard o
ĠF u
Ġtechn icians
ĠC art
Y ear
Ġdece ased
d ouble
Ġmed ian
Ġburn ed
Ġtestim onials
Ġb esides
Ġprem ie
ĠOper ations
prec ision
ĠHig her
Ġam end
ia o
ĠO P
Ġlif elong
Ġinform al
me asure
ĠKent ucky
Ġterror ist
ĠV ision
k h
Ġinhabit ants
ĠConnect ion
Ġroll ed
v irtual
Ġsty lish
Ġmill enn
Ġw re
Proper ty
Ġd ub
ĠC zech
ĠP T
Ġl icensing
Ġn ost
ĠOlymp ics
Ġplan es
Ġremot ely
Ġev angel
Ġbeautiful ly
Ġcivil ian
L o
ĠG em
Ġdesk top
ĠZ e
ĠP A
ĠI owa
Ġf usion
ĠR oc
Ġde put
Ġtong ue
ur ities
Ġallev iate
Ġven ues
Ġlight weight
u its
ac co
Ġph ases
Ġin just
L ead
ĠSen ator
Ġt ales
log ical
Ġempower ment
che m
Ben efits
ĠPri vacy
Ġar ises
Re qu
ir l
i ator
Oper ations
Ġbow l
Ġreal ities
Ġs iege
Ġdirect ories
Ġo k
Ġg room
Ġun forgettable
Ġlength y
Ġsystem ic
res p
Ġ6 6
ag g
Ġl uc
Ġfun eral
def ine
Ġd aughters
Ġcoal ition
ĠO klahoma
Ġnew er
C ent
ĠMar ine
Ġed itors
Ġ< <
ou p
reg ist
Ġdeb ates
Ġaccomplish ments
ĠScript ure
Ġappe als
IC T
Ġsol ved
H y
Ġswe at
Ġ Î
ĠI R
ĠIndones ia
Ġh ills
Ġob ed
Ġgovern ed
Ġdis close
l arg
Ġcomp iled
IV E
ari us
Ġcross ing
Ġamb ition
Ġland ed
ĠS M
Ġpal ace
ĠD al
Pr ice
Ġind ent
Ġl ips
Ġspect acular
d ag
Ġneglig ence
Ġst oring
Ġst amp
L iving
Ġcomm em
Ġimag ined
Lear n
Ġtra p
Ġc af
Ġperform s
em et
Ġoptim ized
Ġsmart phone
rec ords
Ġhom eless
Ġ19 45
Ġpriorit izing
Ġsp arse
Ġclos ure
re ne
ĠCh an
ĠT ips
Ġmusic ian
c rop
Ġmanip ulation
Ġpra g
Ġdecentral ized
Ġover r
Ġun clear
Ġdown s
Ġcompet itions
r us
m ont
icult ural
Ġtra gic
Ġst ir
Ġbro kers
ĠInd ians
lic ations
ĠJon athan
Ġclean er
ĠIM PLIED
ĠT ar
ĠCustom ers
) \
ĠKnow ledge
ĠTh ailand
Ġcon form
Ġshock ed
Ġdecl aration
Ġcomb inations
t p
B re
Ġu pl
ĠPol y
Ġded uct
But ton
er red
W indow
Ġfor b
ĠC T
ĠPro duction
Ġwrit ings
: ])
Ġare na
Ġcaut ious
D el
Ġfar ms
ĠBre ak
Ġcollect ively
Ġquestion ing
ĠJ ess
im ated
Ġcitizens hip
Ġret ained
ĠM ason
ĠCirc uit
Ġx ml
process ed
Ġterror ism
Ġunw anted
Opt im
soft max
Ġi OS
Ġdecl are
Ġf reed
Ġr if
ĠT ools
Ġsusp ended
ib bean
ĠHit ler
Ġmagn ific
Ġbr on
Ġmerch and
d jang
Ġsystem atic
[ [
ĠIm agine
ĠG it
ibl ings
iter ranean
Ġtr illion
ay out
F requently
u ating
ik h
Ġdead lines
Ġfundament ally
ĠBru ce
ĠPro test
ose x
5 12
Ġl azy
down s
roc ery
T EM
ĠD elta
Ġanim ated
ĠFrank lin
Ġre venues
Ġcr ust
ĠB ed
Ġpath lib
Ġexplo it
Ġwholes ale
Ġcur r
Ġconf using
claim er
F ull
epend ence
igm oid
ĠPod cast
Ġspons ored
se p
Ġrub ber
ĠDe cl
Ġw ound
st ructure
Ġvolunt ary
Ġtr an
Ġ rib
) ',
Ġsimpl ify
Ġcrit ically
Ġquant ities
Ġcont ing
Ġh ards
ol t
Ġsem ester
ĠHe y
Ġreport er
Ġinv itation
mem bers
Ġmagn etic
Ġdiv isions
Ġpropos ition
Ġhe mp
Ġ" ",
Ġschol ar
mat ched
ĠA x
ĠM essage
{} ".
ĠMan ufact
Ġcoron avirus
OR K
ent ropy
ĠSing h
ĠG ram
Ġext ending
Ġtraged y
Ġasync io
ĠH ans
Ġaggreg ate
ĠBe at
ĠE li
Ġtw ist
Ġang les
Ġview er
reng th
ĠF em
f ixed
av ar
ĠIran ian
ĠVe gas
Ġvel ocity
Ġra ge
ĠCommun ist
m iddleware
Ġmass es
ĠR ain
ĠDet erm
Ġspark ed
Se lect
ĠR at
qu et
b gcolor
m ot
ĠNOT E
ĠP S
eal ous
Ġsc ream
ĠArab ia
M eta
Ch annel
+ "
ĠAl bum
iz ard
Ġhuman itarian
o ids
Ġsou p
w ave
Ġfra g
U ltimately
ĠSh an
ĠY ANG
Ġequ itable
Ġm asters
ill ery
ĠS ets
Ġdata frame
ĠPl ayer
as i
Ġinter ven
Ġsurviv ors
Ġnegot iation
Ġabsor b
Ġthe ology
Ġex pon
yn chron
Ġdash board
ĠTra il
ĠU m
ĠH VAC
Ġelectron ics
200 5
Ġm arch
Ġb od
Ġconst ants
Ġath lete
Ġout doors
Ġcreat ure
asc ii
spec ial
Ġremark s
Ġdem ographic
ĠC ow
Ġten ure
Ġteam work
Ġun limited
W rapper
init ely
c amera
Ġenc oded
res ize
Ġsubsc ribe
Ġch ips
Ġwel comed
cont roller
w b
c ity
Ġstr angers
AT TR
unt il
ĠWalk er
A ust
Ġsau ce
Ġin aug
Su per
she et
pt ic
ues e
Ġt ender
Ġcelebr ity
im ation
Ġblock ing
Ġlength s
inn ed
ĠRes pons
Mich ael
Ġreg ret
Ġcru el
... ]
Ġover see
EN CE
alle led
Ġproblem atic
py plot
ft ime
Ġrefe ren
ic ut
Ġcirc ular
sh are
Ġth umb
Ġgr an
ĠBe ijing
bu f
ĠE C
Ġsatell ite
B R
opro ject
Ġpos ed
Ġac ids
at al
Ġter rain
" ?
ĠM agn
nam ents
Ġcl ouds
ĠSte el
Ġshe ep
Ġbar rel
ĠV in
Ġclean ed
IN TER
ast ically
oper ations
ĠMississ ippi
Ġrelig ions
Ġmand ate
Ġm eth
Ġhar assment
Ph il
Ġinter pol
Ġlifes pan
Ġadapt ing
LOG GER
Ġdest ro
Ġbo ats
Ġn ore
j ar
Ġprocess or
Ġap ost
ĠP s
Ġup front
ĠMay or
ven ge
ĠL E
Ġshe er
Ġdilig ence
ĠE thereum
Ġwork out
Ġ196 5
Ġpract ically
Gl obal
Ġrecord ings
ĠCons umer
UT C
Ġ' <
Ġeditor ial
Ġdiam ond
Ġsw agger
Ġcraft ing
Ġd iving
Ġext ensively
} :
ac re
Ġsub set
Ġa uction
Ġval ley
Ġactiv ist
ĠEd itor
Ġprom in
cur y
i u
Ġ{} )
fer rer
Ġsh ore
concat enate
Ġinv ention
Ġfin es
Ġsocial ly
Ġfl av
He y
Ġfl ask
e g
he ro
ĠI gn
Don ald
ĠR andom
ĠSt atus
m el
ĠInit ial
inte ger
Ġmix ing
Ġsymbol ism
Ġmass age
P LE
rap pe
Ġsold ier
Ġ19 64
ĠSam uel
ert o
Ġneg atively
/ ',
ĠT ro
Â »
Ġemb ody
iv ation
djang oproject
er ating
ell i
Ġh ood
Ġlist ened
Ġpromot ional
as array
Ġassist ants
less ness
O B
ĠEx ternal
apol is
Ġgen ius
Ġdam aging
ĠFor ces
help ers
gi ene
f ounder
Ġserial ized
Ġexp ose
per formance
Ġportray ed
Ġ5 8
Ġformer ly
Ġth rust
`` ,
t own
Ġsc ared
Ġun ified
Ġpolit ically
ĠSt orage
Ġdem ographics
U K
Ġrecogn izes
ir atory
M iddleware
ĠK ind
Ġb alls
) ",
Ġillust rate
ĠD oc
) '
b c
Ġex ams
Ġres ign
Ġunders cores
st ation
ĠH E
ass et
Ex p
Ġpremium s
ĠD er
ĠSk ills
Ġtrust ees
Ġprohib ited
Pro duct
Ġst upid
ĠRo of
emet ery
ĠC row
DEF INE
ica id
n of
Ġfirst name
deg ree
Ġsur render
Or der
Ġback ward
Ġinherit ance
ĠArg uments
ĠFIT NESS
iss a
u o
Ġentertain ing
Ġjoint s
it us
ĠC ond
ĠWe ight
Ġrevel ation
ĠEV ENT
le af
ĠT es
Ġembarr ass
Ġtra ded
l inalg
P op
ĠV oice
ver ify
en et
ĠDI Y
Ġunpredict able
Ġdes irable
conf idence
ĠDev Ops
Res earch
Ġdel ib
ĠConfig uration
Ġaw aken
schedul er
Ġsovere ignty
Ġcul min
un squeeze
Ġvig il
ĠH IV
Ġb apt
P H
ĠP ent
Ġ5 12
Ġanaly st
Ġmem orial
ĠW W
Ġnation wide
ĠCar ter
Inst ead
Ġcounter parts
Ġgl ance
Ġinstall ing
ĠI F
ĠMel bourne
ĠPh ysical
Ġex h
I E
ĠRom ans
Ġfulf illed
:` ~
ĠW ang
aload er
C lick
li ance
Ġu ltra
Ġclim bing
Ġan onymous
Ġg low
j e
ĠPl ayers
Ġr ushed
Ġdon ors
HE AD
ĠC rown
Ġl over
ĠQ ur
Ġcr icket
ĠB run
Ġ' #
f our
unk nown
Ġcor relation
Ġar rays
Ġ3 60
Ġl ively
Ġth rew
Ġm arijuana
ĠC ole
Ġsl ip
Pl an
ĠWord Press
Ġconvers ions
Ġprofess ionally
ĠLeg isl
Ġdisappoint ed
n ia
Ġdis cre
Ġbu gs
RE E
ĠInt el
em en
Ġelab orate
Ġoverl ap
ĠO d
ĠCh anges
En v
ĠK ath
ud ge
Ġsc rap
Ġcontin uity
st ick
ĠPh ill
ĠImpro ve
Ġpo ems
ĠCon vert
az ines
d ensity
Ġbre w
Ġcon gress
ĠM es
ĠDra gon
Ġbad ly
ĠTele vision
best os
ĠG ets
St ore
Ġref ined
St and
Ġreg ression
Ġcompl ain
add ed
Ġt ensions
d ale
ĠReg ion
Ġeleg ance
Ġsurv iving
ĠR ules
ast ed
ĠE asy
Ġproc ure
Ġprov ing
Ġbill ions
Ġrece iver
Ġprox imity
ĠN ut
act ivity
Ġbet s
c nt
S outh
Ġinject ion
ĠLab el
ul in
Ad am
v et
Ġbas eline
Ġconv icted
Ġdepend ency
Ġhold er
ĠS port
all ing
Ġ5 9
Ġcert ificates
Ġtast es
config s
ĠChrist opher
Ġh urd
ur g
L im
Ġneg lect
Ġimp ose
ip v
ĠD ataset
Ġc raw
Ġvit amins
Ġp est
ro cess
Ent ry
west ern
Ġinspect ions
Ġthr illing
b ounds
consum ing
Ġhel per
ĠMed iterranean
ĠBusiness es
S everal
Ġpropag anda
Ġborrow ing
pl ots
Ġt ensors
pl ess
Ġshort age
Ġspot light
Ġcomp ression
ĠF low
ĠWh atever
ĠTra ditional
Fe b
om ing
Ġhypothes is
Ġgra ve
fin ished
Ġreg istry
ĠTre nd
Ġinv isible
Ġcelebr ities
le ans
m os
bl ank
Ġf onts
Ġgra vity
II I
c amp
UN D
param etri
Ġg orge
ĠLI ABILITY
Ġboost ing
h ill
Ġun ve
ĠW right
Ġinev itably
se ek
ath on
Ġast rolog
V P
c ale
Ġur ge
Ġw onders
ĠB eng
ĠV eter
ĠPart ner
Ġslow er
max imum
Un ited
Ġre gex
C hat
ĠYO U
not ch
Ġinstruct or
Ġoptim istic
CL ASS
Ġhaz ards
Ġre nov
K now
ĠG PU
hat tan
Ġtri ple
App lication
ac erb
Ġemp owered
Ġne at
Ġcompl iment
Ġper ceptions
Ġb icy
ident ial
Ġthe ta
E duc
Ġad oles
rele vant
Ġparad igm
Ġcolor ful
ank a
Ġattack ing
ĠLouis iana
Inte gr
ĠEff ective
Ġin ability
Ġquick er
ĠH erm
ĠD J
Ġsk i
> =
Ġstrong est
Ġmal icious
Ġrevers ed
new s
Ġencompass es
Ġun h
Com ple
r ator
Ġatt rs
. ]]
bsolut ely
s ensor
Ġtherap ists
Ġprec aut
ĠCar ibbean
Ġh orn
Trans form
Ġanal yses
ver b
Ġclar ify
Ġm ol
ent ries
F loat
Ġborrow ers
U C
Ġannot ations
ĠP and
ident ifier
select ed
Ġhome work
Ġhier archy
Ġextra ction
im ore
Ġne arest
Ġstat utory
Ġfor ty
Ġremed ies
ele m
Cont rol
os ph
ater nal
Ġar ising
Ġf ires
Ġt ube
Ġb ay
ĠC oin
rel ations
Ġthread ing
Ġsu cc
Ġresid ual
ĠS olution
ĠConst ruction
squ are
Re LU
Ġelim inated
m ol
up dated
ĠC ro
Ġaff air
in ja
uss ion
Ġener getic
sv g
scal ar
ĠConst ant
Ġcell ular
Ġdep icted
Ġmin eral
m ut
Ġden ial
ile m
ins ic
Ġj oke
ĠB io
Ġgu ards
Ġsc ary
ĠS end
ĠB ishop
p aid
Ġnow here
xy z
un s
Ġaltern ate
Ġang els
ĠFe atures
Un ion
Ġconstruct ive
he never
Ġre build
CHE CK
ass ign
Ġcent res
Ġserv ant
ĠE lement
Ġac ute
Ġaccept s
Ġauthor ization
Ġspecific ations
Ġnu ances
) ?
200 1
Ġsp ite
Ġsol ic
Ġinterpret ations
ĠD est
Ġc argo
Ġass ists
Cont act
ĠMus k
Ġjour neys
m ble
A gent
Ġd in
ĠP DF
Ġp unch
f an
Ġintim acy
Ġenvironment ally
Ġacknowled ging
T erm
Ġoff line
Ġinteract ing
Ġcritic ized
Ġtrick y
Ġrefer ral
200 4
-- -
request s
ffic iency
Ġpl ag
ĠH um
Ġlook up
Ġpolit ician
ham mad
Ġp ert
R ange
Ġmar ry
ĠThom pson
r als
Ġpre lim
Inter face
ĠR y
ĠGener ally
Ġfig ured
Ġt ribute
Ġbegin ners
ĠA ra
Ġaggress ion
ĠG ordon
'] ),
ĠG race
sub process
Ġdiagn ostic
str ings
Ġment ions
o pping
ĠG ary
Ġcur rencies
Ġadvis ory
ĠC ut
Ġqu ad
key word
Ġl ighter
ul atory
C red
ĠSchol ars
Ġperman ently
Ġmolec ules
ert ools
default s
er os
ĠJ oh
ĠP L
Ġex acerb
bel ie
Ġcredit ors
Ġdis charge
Ġrel iance
r out
Ġins ufficient
S pace
Ġpresent ations
Ġspecial izes
ĠM ut
Ġlux urious
t ables
ĠThe ory
t alk
Ġestablish ments
Ġemb od
ĠSimp ly
orig in
Ġadjust ment
g reat
Ġcan on
ĠPalest ine
Ġhon ored
ĠCreat ing
ĠPro f
i eth
ex ec
Ġcru ise
Ġiter ations
is en
Ġver b
Ġover ly
ins p
ĠAff iliate
Mult i
Ġge ographical
ĠJ en
h ub
ĠM ade
Ġbroad ly
par alleled
ĠF igure
Ġ6 3
Ġregul ators
d al
Ġfacilit ating
Ġrid icul
ĠBudd h
ĠC P
Ġjust ified
ĠT ib
Ġch amber
ĠPart nership
l ades
ĠProv ide
ĠUnivers al
ent ities
tol ist
m asks
Ġpaper work
ra h
A IL
ĠM om
Read er
7 00
ĠCommun ications
ĠAs ync
Ġgrand father
us c
ĠQue ens
ell ar
ĠA chie
GB T
p kg
Ġhome assistant
R ole
oot ing
l iness
Ġform ally
Ġathlet ic
FI X
Ġadm ire
ĠBudd hist
Ġdis asters
Ġresist ant
is file
Ġv on
ĠSing le
Ġhoriz ontal
an ne
ĠGu id
ĠCert ified
ir ical
on ce
Ġprob ate
Ġvalid ity
Ġfact ories
m c
cont ents
V M
akes pe
Ġproceed s
Ġrisk y
op ed
ĠOr leans
Ġnot ify
ĠSa aS
E urope
Ġparent ing
Ġrenew al
Ġdef ending
ĠP aper
Ġeffic acy
en ment
Ġover coming
normal ize
Ġexecut or
Ġcalcul ations
St orage
ĠA part
Ġdemand ed
oll ar
Ġpublis hers
Ġentrepreneur ial
l av
is o
ĠCl aim
idel ity
Last ly
ĠGener ate
Ġj et
ĠWik ipedia
Ġcar p
Ġcolle ague
ĠS ad
ĠB ag
idd ing
pos itive
ĠC ass
Ġsurprising ly
Ġassist ed
ĠLead er
Ident ifier
Ġe uro
Ġmilest ones
obb ies
ĠW u
Ġmark ing
Ġinfect ed
add y
Ġappet ite
Ġvers es
ĠS P
On line
t ile
Ġeas iest
Ġsun light
zz le
Ġpath ways
Ġaw a
Ġrele asing
Ġpurs ued
à ¸
ĠCom b
ĠMalays ia
ĠB art
Ġfut ures
Ġemploy ing
level and
w t
Ġrehab ilitation
AS H
p aper
ĠO k
Ġmerch ants
Ġfu els
Ġhabit at
ĠSat an
ĠB us
! ")
Ġprevent ed
Ġbo olean
Ġmigr ations
Am ong
Ġinher ited
Ġdipl omatic
ĠChall enges
ĠN ort
ĠAn cient
ĠI O
Ġbreat he
ĠAust ria
Ġdesper ate
Ġint ensive
nof ollow
Ã¡ n
Ġadvers ity
ĠCoun sel
r ams
Ġmon et
ss l
comp et
ef ined
Ġamid st
T emplate
TI M
S oftware
Ġwork space
Ġimpact ing
ne ath
ĠAnt i
Ġve ctors
set ting
Ġinter faces
Per haps
parametri ze
ĠEnter prise
Ġbe ans
ĠH op
Ġcustom ization
dist ribution
Fil ms
Ġd ressed
Ġsyn chron
Ġadj acent
Ġche er
Ġgradu ation
Ġf s
Ġarg uing
ĠL ower
Ġconcent rated
Ġrecycl ing
oca ust
ĠRO I
Ġelect oral
Ñ Ģ
ĠV A
Ð ²
Ġdoub ts
Ġappl iances
Ġflow ing
ĠCom mercial
ĠC ann
ĠCorpor ate
Ġbutt ons
Ġimp art
ĠEv ents
co ord
Ġproject ion
list ed
Ġ6 2
Ġinter mediate
Ġclick ing
ĠInvest ig
h al
Ġorche str
EM ENT
Ġexpect s
Ġlabel ed
in fl
g el
Ġnon etheless
Ġepoch s
Ġm a
go al
Ġw ines
Ġec ological
re peat
su pp
ĠIn come
ik o
Ġpl ates
be am
Ġdownload ed
Ġcar b
Ġbi ography
rad ius
ĠL ED
Ġsing ular
dis able
Ġadministr ators
=" '
Ġconcept ual
Ġvol can
LO C
ĠUr ban
Ġouts ourcing
Ġback bone
x s
ĠCol omb
ĠPro grams
ĠMed icaid
ener y
sign ed
rig ger
Get ting
ĠG len
Ġadvis able
h d
b row
ou ver
Ġkey board
Ġcomment ed
Ġrespect ful
IL L
ĠSc ore
ĠBrook lyn
ĠT ang
Ġsubject ive
'] ]
Ġge ometry
Ġyield s
ĠK nown
Ġmagn itude
Ġbes ide
p ush
ĠTensor Flow
ob i
eral d
ĠB loom
Ġbeh ave
rec ogn
akespe are
ert ion
Ġcle ans
Ġinvent ed
ĠCharl ie
Ġpost ure
Ġav iation
Ġphilanth ropic
G old
project s
Ġb aking
Ġnore ferrer
pie ces
Ġdeprec ated
S N
D ocument
ĠF ra
Ġal ias
Ġsnap shot
% %
ã Ģ
sent ence
ĠSwed ish
Ġb illing
Ġag ile
ĠShe l
n els
Ġhist ories
Ġpack et
Ġwor ries
Ġste al
G ate
D T
' "
Ġrecip ients
Ġbre eds
arc el
n aming
Ġl ag
Or gan
transform s
Ġdiscuss es
ĠN elson
ĠAnd y
ĠT am
[ ...,
Ġchar ter
M OD
part ition
olut e
g old
Ġdeliber ately
ĠR ot
un ge
ĠTo o
ĠN ash
Ġprompt ed
Ġben ch
ĠS leep
Ġac oust
Ġfra gr
iny l
ĠU I
Ġ} }
le m
ex ternal
Ġsett lements
Ġopp osing
ben chmark
Des cription
heart ed
RE QU
ĠProp het
ĠH OLD
est ablished
end ant
Ġlif ting
Ġcab inet
all close
Ġg rocery
. ),
ĠC itiz
Ġquiet ly
B al
ĠMad am
Ġgra pp
ĠH us
Ġcondition ing
Ġpract iced
Ġch ol
Ġinterview ed
Ġt weet
// //
Ġtu ition
Ġun paralleled
os ures
Â ·
ĠR ound
Cont in
ĠK az
ext ensions
ĠDen ver
f requency
exper iment
C F
ĠN urs
Ġdomin ance
ru b
L ength
ĠG NU
ren a
ĠWal ter
Ġexplo itation
Ġbenefic iary
Ġund en
Ġspons ors
ĠAnton io
Ġ196 6
Ġimm ort
ĠOrth odox
Ġconsult ants
Ġen vision
ĠT an
r ations
ĠCh amber
Ġinter connected
ĠP H
Ġnom inated
Ġpot ent
Ġc er
ĠD jango
W ORD
Ġv o
ĠConnect icut
ĠU ntil
Ġsolid arity
Ġm ant
Ġenerg ies
Resource Options
Ġcor rection
ĠPortug al
Ġsp ont
ĠCo ach
Pl ay
LO CK
Ġdis p
Ġbl ade
ĠPortug uese
f red
M c
AR D
Ġincent ive
ĠD ak
Ġcompl iant
Ġreported ly
Ġn ov
W elcome
Ġ" #
Ġim aging
ĠJ u
Ġâ Ĩ
ĠM ach
ĠImper ial
Ġf ancy
ĠPh oenix
Ġtact ical
ĠAPI s
Ġind is
y ers
Ġc ub
Ġphenomen a
n or
de cor
ĠJ O
Ġch i
Ġam endment
Ġc ord
ĠCon sequently
Ġspiritual ity
ĠSur vey
ĠD ays
ĠPer iod
f ight
Ġport rait
Ñ Ĥ
Ġret ro
th ird
Ġfort unate
d x
ĠK ids
Ġanth rop
Ġexc use
Ġju ice
Ġpat ches
lis her
Ġsh irt
ĠBudd ha
h um
Ġsurge on
pt r
ĠP i
ĠAssoci ate
det erm
Ġfund raising
est eem
Ġsort able
b rand
Ġwind s
Ġce ase
Ġval uation
ĠDep uty
ĠHon or
Ġconj unction
ĠStan ford
ĠP ray
ĠOper ation
c andid
200 3
ĠS hip
Ġport able
ĠTreat ment
Ġin coming
B rit
ĠBen jamin
in cre
H z
old er
ĠF lo
ĠPRO VID
ĠCle aning
Un fortunately
ĠF ab
bat ches
ĠP in
e in
Ġmat urity
.. .")
ĠD iam
Se quential
ir ates
Ġn our
Ġp ier
hy per
Ġexplos ion
H ttp
ĠRob inson
ĠAp i
Ġnutrition al
Ġbrid ges
Ġhum idity
ĠDE FAULT
ĠJe rem
Ġstain less
Ġcr ises
Ġtoile t
() ;
ĠHistor ic
man agement
Ġpu pp
Ġthreat ening
Ġany time
bur se
Su ccess
im acy
Ġextract ed
S ection
NotFound Error
ey e
Ġh ind
ĠW oman
ĠC e
Ġapp le
Ġorg ans
/ .
health y
Ġent ers
Ġcast ing
ĠSt ri
ĠDougl as
ĠAD HD
ĠW a
" },
pl ain
ĠE ld
Ð ½
Writ er
A lex
ĠB rig
ĠCr ime
sh op
ĠQ ual
Ġbe ef
ĠAl t
Ġbit coin
Ġassist ing
Ġspec ulation
ĠN ag
Ġhe y
Ġh ockey
Ġs q
host name
ĠT s
Ġle ap
Ġk ings
Ġterm ination
ĠP ow
ĠDiv ine
Ġsevere ly
li ver
Ġfil tered
se min
ĠCont ents
Ġlack s
ĠZ ion
ĠG ent
m ers
Ġlog os
Ġutil ities
c ases
ĠC ou
Ġafter math
Ġcapital ist
ke eper
ain ted
Ġprelim inary
Ġ" {}
ĠL ot
ĠPl ant
ĠSh ipping
e ing
sh aped
Ġtravel s
ĠArab ic
um ing
Ġmultif aceted
grad ient
Ġintern ally
ul er
I Z
ĠF ame
ĠDisc over
Ġconv inc
Ġc od
m ill
Ġmolec ular
F ort
Ġrep ublic
Ġtruth s
Ġprint s
Ġten ants
ĠSt ories
Ġbless ings
Ġstrateg ically
Ġbott les
Ġf name
Ġhold ers
ver ter
Ġtra ces
place holder
L ove
Ġjump ing
ĠGra ham
B it
ĠR ace
Ġsmall est
Ġrel ie
Ġsh y
Pri or
oc ide
Cl ose
) ')
Ġconfig ure
m ajor
ĠC op
ĠS R
Ġver bal
Ġorigin ated
Ġqu ot
anc ouver
ĠL isa
iz on
N ever
AR S
ĠJ oint
ĉĉ ĉĉĉ
ĠTechn ical
Ġident ifies
En coder
ĠDirect ors
ĠC ir
Ġdon ation
Ġpress ed
ĠHawai i
Ġx y
L in
Ġ10 1
ĠPay ment
Ġcor ros
Ġro d
Ġback drop
Ġam ple
Ġd well
U ID
Ġret ire
ĠN ap
Ġtherap ies
Ġst er
ĠP ap
ĠResult s
Ġsevent h
Ġour s
Ġhun ger
Ġadjust ing
c wd
Ġquestion ed
Ġtra ction
J ames
ĠChall enge
Ġmerch ant
ig rate
Type Error
add le
B T
Ġemp owers
. ).
anc el
Ġton ight
Ġprosecut ion
g one
neg ative
ploy ed
open api
Ġpro w
ĠSpe ed
Ġdon or
Ġinadequ ate
n ational
Ġspecial ty
Ġcollect ors
uten ant
rell a
sec ure
am med
Ġm aker
{} '.
ĠQ ing
Ġundert aken
Ġacc us
Th ree
) +
b ecause
ĠKnow ing
CO M
Ġcompos er
Ġsub ur
thread s
nd ash
icult ure
200 2
Ġcrow ded
Ġ= ===
Ġag rees
Ġst rand
Ġs iblings
Ġ196 3
Ġsus pected
iov ascular
ĠCamp aign
Ġmag azines
ffic ial
ĠD ise
cre ation
ĠCon duct
Ġp seud
ĠF if
Ġcoll ateral
ep isode
f mt
ĠUs ually
Ġw ip
ĠR ust
ĠPart ners
ĠNor way
s ources
Ġbo ots
um en
Ġsc andal
Ġn b
Ġworry ing
r r
Ġterm in
Ġfat al
Ġfier ce
ĠK night
ĠCh i
ĠT ed
Ġp ixels
ig a
Ġrecre ational
ĠSt ra
AN CE
th ree
lish ing
ĠG round
al chemy
p airs
Ġcorner stone
Ġcontact ed
Ġwire less
Ġg ast
Ġgrand mother
Ġanal og
Ġautom obile
Ġair flow
ĠLe o
Ġ' ')
Ġwar zone
Ġrelax ing
Ġdr ill
ĠRe venue
Ġfert il
S imple
amm ar
par ing
om eters
Ġan ime
Ġarbit rary
Ġthr one
} _
Ġtransc end
ĠD im
t ensors
heim er
oc y
Ġtran qu
ĠG er
Ġhigh way
Ġhung ry
Ġdeterm in
int o
end or
Ġenjoy ment
ic ion
Ġexhib itions
Ġmerchand ise
ph ab
v oc
il ience
Ġbegin nings
ĠRe le
ĠAl aska
ĠDown load
Ġte ens
Ġlif ted
Ġlandl ord
ĠMan hattan
ĠM ail
ang ular
Ġfle w
Valid ator
vers ions
ri k
c odes
Ġtrib al
Ġch airs
k ward
G T
W rite
ĠWar ren
ĠReg ulation
mention ed
sc ar
ĠS oph
ĠL en
Ġper f
Ġpun ct
op ard
Ġpath way
H uman
Ġattend ees
ĠN ormal
be it
Ġur gency
ur ated
look up
Ġpur ple
dri ve
Ġrail road
Ġjump ed
Ġutil ization
D om
Ġundert ake
ri um
ĠR s
Ġdest ructive
ri ad
or us
it i
des igned
Ġinvestig ating
Th us
Ġc attle
ĠBe ck
Ġag ility
unn els
W in
Ġtra pped
ri el
Ġdev otion
Ġ6 7
Ġv ir
Ġtouch ing
I X
ĠC amer
ĠImport ance
er ance
Ġgood ness
ĠKen ya
ric ane
Tra ining
ĠStrateg ies
pred s
ĠMu hammad
ĠConf ed
Ġobserv ing
or o
ĠJust in
Ġoccur rence
A p
Ġserial izer
Ġlay ing
ĠSh a
Ġ6 8
ĠDef ine
Ġvisual ization
Ġsle e
---------------- --------
Ġfr ank
Ġob ey
Ġu uid
Ġrecru iting
Ġannot ation
ac o
ĠCor p
Ġdec ode
Ġl aughter
Ġb oring
ĠU lt
Ġcelebr ations
Ġtechn ically
Ġimplic it
Ġlect ures
Ġsh ook
Ġm amm
bor ne
ĠEng agement
Ġaut ism
= |
Ġrender ing
Ġglass es
Ġd amp
prov iders
ĠFe ed
Ġbreed ing
Ġw ounded
ĠWork ers
ĠBrazil ian
t emplates
Ġlist ings
dem and
ĠB achelor
Ġsport ing
ĠBang lades
Vol ume
Ġbreath taking
dist ributed
Ġmus h
g ender
ĠL oc
n ut
al in
ud ed
Ġmay or
abstract method
Ġrac ist
ĠSom ething
uls ion
ĠInit ialize
pick le
Ġwhe at
ĠF lex
Ġmilest one
Ġvari ants
Ġa ux
Ġcarri ers
ip h
Ġu pt
Ġfix ing
Ġbrut al
j ava
P ad
^ {
ĠG re
c aps
ĠC li
ans om
Ġfound ational
ĠM ath
Ġstat ue
ĠNAS A
umb led
Ġhy giene
annot ations
Mus ic
Ġb out
ĠUn iverse
Ġdead ly
s pring
ĠC E
ical s
Ġplaintiff s
ĠT ian
ol y
ut c
IS ING
F inding
R aw
Ġcl usters
Ġsecure ly
by e
Re ference
Ġdigest ive
Ġth roat
d ens
Ġsens ation
Ġf itted
Ġsens ory
C ost
cal c
ĠAlp ha
b irth
WI SE
C rit
Ġsafeguard ing
ĠMor ris
Ġnot ifications
e ur
Ġair line
Ġintention ally
Ġo ven
ra cing
Con f
R PC
Ġdro pping
Mat rix
tensor flow
re view
Equ als
v it
Ġcycl ing
s hips
." .
Ġsal aries
observ ation
ĠL ane
Ġtra ff
Ġ* ,
Ġman kind
Ġmon ster
Ġcount ing
ĠEx pect
Ġpick s
ĠT ag
ĠD ig
H ello
al one
ĠW olf
Ġground breaking
Ġmer it
M icrosoft
Ġb ip
ĠH appy
un ted
pro j
Ġcivil ians
c ro
UN T
Ġd ough
Ġout dated
Ġent rust
ĠL P
Ġmon opol
ĠRog er
ĠTre asury
ag ents
Ġfeas ible
Ġrest art
off ee
ĠB ond
Ġdifferent iate
Ġ* =
leg end
Ġremain der
ĠL ang
Ġra ck
mark s
Ġ6 1
es pecially
aware ness
Ġt iles
ĠBrother s
Ġst arring
ĠPit ts
Ġmed al
ĠPat ri
Ġar che
Ġcomprom ised
ĠApp ly
Ġfluct uations
L INE
Ġunder neath
ĠOr ange
im en
ĠM C
Ġresp iratory
Ġlast ed
urd y
Ġmotor cycle
Ġspons or
ĠEX PRESS
Ġco h
Ġcap ac
c pp
Ġcommit ting
Ġtemp file
ĠS N
ĠRec overy
ĠG as
ke ley
al ias
Ġb ell
Ġsl im
ĠSy mbol
ĠCoun ter
Ġacadem ics
ene z
Ġele vation
ĠE TF
ĠEth iop
D ATE
R ad
token izer
Ġpack ing
Ġp ools
Ġheight ened
Ġtw ent
Ġc ares
################################################################ ############
> <
ĠTest ing
Ġall ergy
ul u
ĠSte ven
Ġrepet itive
Ġcomprom ising
ĠK ate
ĠIntern al
ram a
Ġc ached
Ġall ocated
Ġpredecess or
length s
n ative
ĠMan aging
Ġrece ipt
Ġfraud ulent
Ġtreat y
ĠShop ify
Ġmyth ology
ĠF ried
Ġ ĠĠĠĠĠĠĠĠĠĠĠĠĠĠĠĠčĊ
Ġw ore
Ġ9 6
ĠCom merce
ĠW ait
ĠR and
19 90
ĠDe al
Ġadequ ately
f illed
om ic
ĠAth let
ĠG olf
ĠB ab
A ff
Ġg ates
M aster
Ġnod ded
Ġp orn
y label
ĠCharl otte
Ġpri ests
": "
VAL ID
ĠS A
Ġre per
Ġjuris dict
Ġdisc ern
det ect
Ġproceed ing
Ġfun ctools
ĠMarsh all
ĠTH C
d og
Ġnurt ure
ĠPROVID ED
script ions
Ġmagnific ent
Ġpu ppy
ĠIN CLUDING
Ġrad ar
G reen
Ġsimilar ities
ĠC leveland
Ġun authorized
r nn
Ġsumm it
let ion
assert Is
Ġgorge ous
ĠEs pecially
at on
process ors
Ġflat ten
Ġcommission ed
Ġpur ity
0000 00
om on
Ġb achelor
({ "
ĠGen esis
load ed
it ol
c ss
R ich
ĠGir ls
ĠA LL
ĠW HE
Ġprolong ed
ĠCONTR ACT
ed a
ĠD raw
Param eters
ĠB atch
ĠHun ter
RE D
Ġa ston
am ation
Ġped est
ĠF an
Ġcl icks
Ġf led
Ġut most
Ñ ģ
En vironment
Ġw ounds
Ġin ception
ĠSe ven
Ġarri ves
Ġentrepreneurs hip
Ġuns ure
Ġpre y
Ġserv ants
Ġl ap
se lection
atern ity
ĠB aker
Ġmor ality
cent ered
r ices
Ġmark ers
Ġfl aws
Ġf ictional
R T
Lear ning
aur us
im ag
Ġcop ied
vis it
re vision
Ġecosystem s
Ġrev ised
Ġcompet itor
ĠFe ature
Program ming
â ķ
Ġex clusion
B ody
om er
V ector
ĠP un
ram id
ĠPer fect
O kay
ate ur
ĠTra ding
gr pc
t ake
Ġc ensus
l as
Ġ' )
Ġtherm al
n ite
ĠV iol
Ġsp am
des criptor
Ġderiv ative
Ġros py
Ob j
C y
ĠC F
i ations
Ġtoken izer
Ġf t
Ġmarg ins
ĠDet ails
tem perature
m aps
ĠL ad
B ay
Ġt ires
N G
ĠMain e
Ġt el
Ġcoll aps
Ġb eds
Ġinter ference
Ġ10 24
as is
Ġpers ist
ĠBapt ist
Ġc a
res olution
ĠD ance
Eng ine
min imum
ĠR ank
ena issance
ins ula
Ġtrans itions
Ġsp ans
Ġdepth s
Result s
ĠMe eting
Ch ina
ix on
Ġbra ve
ĠTyp ically
Ġkill er
et on
Ġin k
Ġs ch
Ġsub division
Ġbra ins
Ġout break
ra cle
': '
Ġcred ible
cc i
ĠBud get
Ġqual ifying
Ġsuscept ible
ĠStrateg ic
ĠH ousing
ĠSh akespeare
m q
Ġment ors
Ġrec ession
ext methods
ch air
CO MM
ight y
') ),
u ctions
Ġadvoc ating
ĠM ock
ĠArgent ina
le ad
ĠLiver pool
ĠDAM AGES
ĠAcad emic
arcel ona
ĠH D
Ġend urance
am bo
el iness
Ġillness es
arc iss
Ġun pack
Ġcl ay
') [
Ġinter fe
Ġd ilem
Ġworkflow s
ĠC rypto
b usiness
Ġin accur
ĠRe pl
Ġan onym
s ocial
U G
Ġshowc ased
ĠMad rid
om ial
Ġprofess ors
Ġ196 2
ĠMe et
Ġal i
Ġin complete
ĠSH ALL
Ġterr ifying
ĠF el
Ġimp air
Ġp ants
ĠTra ck
ĠAd apt
itch ing
ĠD rug
comple x
Ġmyth s
ĠStud ios
ut o
ours es
Met adata
ĠBalt imore
D i
Ġdev il
Ġsubm itting
Ġalleged ly
\ "
ĠWARRAN TY
ed e
V A
Ġprov es
Ġconc at
Ġmeticul ous
Ġexp ans
ris is
Ġ7 6
ĠS tyle
Ġg reed
ĠGl ass
Th ink
Ġtun nel
Mean while
M AN
Ġb ail
ĠD iet
Ġscal ar
ĠV ent
uck er
ĉ Ġ
Ġfif teen
ig o
ĠI ce
Ġvacc ination
ĠQu estion
Ġn ail
Ġhed ge
ri ved
ĠC IA
Ġrig id
Ġaw kward
ph ony
Ġcrit erion
und le
Ġsho e
sh apes
Init ial
Ġconver ting
Ġrecall ed
det ection
i Äĩ
Ġpast or
Ġenthusi astic
Ġin appropriate
io xid
ĠY ellow
Ġpro st
Ġtable ts
ab ad
S uch
Ġsovere ign
Ġover head
Ġintrodu ces
ĠAct ive
in is
it ored
Ġaction able
ine e
Ġc el
o ons
Ġra b
Ġad ul
compat ible
Ġst ip
it ary
ĠC NN
Ġg ad
Ġcomput ation
Ġcook ed
Ġend ure
Ch ange
Sh ould
Ġhorm one
Ġcol ored
Ġb ored
ord ered
disc rim
Ġperform ers
Ġexplan ations
Ġlock s
zh ou
Ġs ourcing
Ã £
Ġres ent
ĠE T
Ġre de
dis covery
disc iplinary
. :
Ġreact or
pand as
ĠJ os
ĠL arge
Ġbe ating
Ġur ged
Ġ" (
ĠFort unately
Ġinit iate
ĠE ither
r int
ĠCamp bell
Ġmedic ines
Ġinsect s
Ġconst raint
an ium
Ġjourn als
worth iness
M arch
Ġ Å
Ġcontin uation
T w
or ance
Ġcollabor ating
ĠEst ablish
Ġher bs
Ġow ning
Y PE
sh uffle
ash i
ĠEmer gency
Ġdemonstr ation
Ġout let
act ual
at oes
Ġp el
Ġabund ant
ĠT ool
Ġp kg
l it
lene ck
ĠW ard
Ġimmun ity
âĤ¬ âĦ¢
o pp
le tters
ĠStan ley
Ġopp ression
Un known
ĠLo ans
Ġf ighter
Ġliter al
Ġswitch ing
th a
ĠP rec
F urther
ĠData Frame
ĠIn j
CL A
Ġw ed
V irtual
Ġmin isters
IT S
class ifier
Ġmort ality
ĠP resent
ĠB eth
Ġarri ving
ĠS alt
Ġrepresent ations
Ġlight ly
im b
t ax
Ġ---------------------------------------------------------------- --------
cont act
ĠLI ABLE
Ġide ological
' +
Ġfe ver
ĠWHE THER
Ġf a
Ġg aze
sc ription
Ġsh ake
ĠB illy
Ġver dict
gg ing
Ġinvestig ated
Ġswift ly
C ross
Ġfree ze
osoph y
Ġ[ ])
Ġconsist ed
ĠAttribute Error
Ġpar ish
ke e
With out
ĠJeff erson
Ġwarm ing
å ı
vis ual
ĠR ing
Ġj ealous
Ġmy riad
M aking
Reg ular
Ġcoll ision
w at
Ġ19 48
Ġlist ener
EN G
om eter
Ġce ment
Ġr am
a que
Ġassoci ates
th ood
ĠNev ada
Ġconfig ured
ĠD VD
J o
of er
get env
ĠChe l
Ġcommod ity
ĠCommon wealth
ĠComple x
Ġs id
the me
rit is
ib ration
Ġf id
Us ers
I ES
S core
Ġcrow ds
Ġout lines
Ġmotiv ate
ĠV it
ĠOff er
Ġst iff
ĠPl ot
Ġdecor ated
ig ion
Ġdelight ed
Ġ ĠĠĠĠĠĠĠĠĠĠĠĠĠĠĠĠĠčĊ
uk i
flo or
mk dir
Ġreal ization
Reg ister
Ġdelib erate
Ġdeput y
Ġdelight ful
Ġhe m
urch ase
L ayout
ĠVol ume
ĠSh ah
ĠTh ai
ĠS oul
Ġassum es
list dir
ĠAR ISING
ru p
estim ator
= #
ble ms
ĠOr deredDict
Ġsh ade
Ġcle ared
ĠSte wart
Ġhere by
ĠTib et
ĠA ctor
Ġhost ile
T om
ĠBe havior
m ix
ol ine
atter y
} ",
Ġwh ites
ĠIS O
ĠM athe
Ġrec urs
Ġ7 7
Ġgirl friend
ĠEvent ually
Ġrandom ly
ograp her
Ġsell s
ĠC her
Ġn x
Ġfight ers
Ġdest iny
Batch Norm
pro port
ĠB ott
ESC RIPT
Ġat oms
Ġpro pose
ap le
Ġupgrad es
Ġus eless
ĠAl ice
Ġdem ol
ĠP il
f ailed
Ġ4 01
Ġfriends hips
ĠNe ither
x label
T ele
Ġcount ies
t c
ĠS ession
Ġa pt
ĠPalestin ians
ĠBelg ium
e lection
Ġinv ites
rel ative
ĠZ one
Ġc ort
Ġim pe
ĠCreat or
Ġa f
Ġan om
Ar ch
N orth
ĠCh oice
Ġo xid
ĠGu y
Ġl ane
omm y
app s
Ġse af
Ġdef ects
ĠK u
\ '
Col lection
Ġinter tw
Set ting
Ġforg ive
Ġh obby
art ifact
ĠL GBT
ĠM is
Ġtrans m
ĠM asters
Ġf are
ĠS ent
act ively
Ġt issues
ï ¸
Ġas bestos
Ġide als
g ian
Ġhead lines
Ġun common
ĠP ositive
Ġt ropical
Ġra pe
ific ant
Ġp ale
ĠV ariable
Ġun int
: "'
in p
Ġg a
ĠL LM
rocess ing
ĠL ag
i ou
Ġset backs
Ġuniqu ely
Ġnut s
Ġhum ility
Ġmeticul ously
ĠE dition
PI PE
ĠS ize
Ġcra cks
Ġres olving
ĠK ra
ĠM E
ĠEm ily
Ġcater ing
H istor
Ġhat red
re posit
C irc
W R
Ġch unks
Ġgr ammar
Ġmanip ulate
om i
ĠLead ers
sp ot
cl one
ang les
Ġcry ing
ĠH ab
Ġste ering
ĠPr incess
M apping
Ġsufficient ly
Ext ract
ĠT F
ĠOTHER WISE
Ġinherent ly
ĠPop ular
ĠAv ailable
Ġexecut ing
Ġgather ings
Ġd read
ĠS ams
ĠJim my
ĠDub lin
Ġwid get
Ġ196 1
el if
Ġn ucle
prehens ive
ocon ut
agon al
H ook
ĠLaur a
Ġmount ed
Ġprow ess
Ġtra iler
B u
ph p
R oute
ĠInit iative
Ġl ung
m achine
load ing
ob uf
Ġc ovenant
ĠA aron
u ably
ĠHol ocaust
pop ulation
Ġcomp ile
Ġ7 8
Pro file
Ġmunicip al
Ġshel f
def inition
ed uc
Ġmar vel
tmp dir
ĠGuard ian
J es
Ġinter vals
Ġw it
UP PORT
ĠG ot
ex pect
S at
AS K
ĠC riminal
ĠG ill
Ġelement ary
Ġlink ing
Q s
ĠAb u
18 0
99 99
ro ots
D oc
Ġsmart phones
Ġref rig
Ġcrim inals
Ġbub ble
Ġamb itions
ĠMod ule
ç ļ
ĠP ra
Ġtap estry
k ill
Ġbal ances
s r
- "
py torch
k n
S Y
Ġpat ron
Ġcataly st
P ower
Ġsupre me
Ġex agger
Ġfar mer
Ġconfidential ity
ĠH end
es y
Ġpal m
ĠJ a
Ġrelent less
ĠStand ards
ang a
ĠR achel
Ġh ike
Ġ1 10
id y
ĠSus an
Ġpractition er
ym ph
Ġlearn s
Ġdom inate
Ġmult itude
ĠS pect
and o
IL D
up y
ĠF inding
s ix
ad ditional
Ġopen ness
Ġappro ve
ex clude
upt ools
ĠV ancouver
Ġtem ples
i ably
ĠG host
B ad
h ma
C V
F igure
Ġende avor
ĠO t
Ġins ulation
Ġd w
Ġdupl icate
ĠDat abase
ĠF ight
Ġprompt s
Ġn ested
Ġto ss
ĠCon text
ĠStat istics
Ġconstitut es
Un like
Ġsp ine
IB UT
ĠB log
pro blem
Ġpropri etary
Ġtou ches
ĠGener ation
inst ein
re z
fort unate
ĠIn sp
es ian
Ġb ree
Ġdiscl osed
trans port
ra de
Ġcher ished
ĠCub a
ĠReg ardless
Ġnegoti ating
L ib
Ġdes pair
ĠP OS
phr ase
ĠAm y
ĠSumm it
Ġactiv ate
aug hed
enc rypt
Ġge opol
ĠJ obs
ap or
In v
Ġse g
ĠWay ne
ĠCo al
ĠD rop
K EN
Ġpa ired
Ġvisual s
ĠAgain st
Ġtra umatic
Ġcomp ress
Ġinc ap
Ġbuild ers
Ġbr ide
J une
Ġpl ots
ator ies
t l
ĠSt age
Ġmet er
execut ion
local host
ĠT un
Ġfreel ance
Ġsc attered
ĠLib erty
Ġrese ar
aste red
c n
Tra ck
ĠPark er
t ier
Ġm apped
Ã Ĺ
J ul
Ġstim ulate
Ġprotect ions
ĠRob in
Ġto b
ĠMar ie
j ac
Ġdeg rad
ĠM atch
Ġment orship
ĠB att
ĠZ oom
Ġchar ism
plug ins
vel t
ĠR enaissance
Ġperson a
ĠS outheast
A f
ĠIndividual s
C AR
à ¥
Ġlib eration
Ġ20 30
[ (
ĠF riend
Ġimpro per
I AL
Ġdisappoint ment
Ġcomm issions
Ġfr iction
ĠN ar
H ar
ĠSol ar
F ace
Sc ale
Ġun m
Ġque en
G RO
Ġins isted
tern s
Ac cept
ĠDen mark
iv an
Ġal erts
ro tt
Ġdeal er
Ġfair y
Ġdisrupt ions
ĠT oken
ĠGreat er
ĠCh ile
Ġadministr ator
Ġhon ors
alm art
Ġdr um
sl ot
ĠÃ ¢
Ġnormal ized
ĠR ange
Ġcomput ed
Ġ ĠĠĠĠĠĠĠĠĠĠĠĠĠĠĠĠĠĠčĊ
Ġlawsu its
Se pt
ĠB M
Ġ6 9
ĠRep air
Wh ite
bet ween
Ġc ivic
ass y
Ġo mn
ĠTes la
Pl ot
avig ating
Ġp c
Ġrhet oric
ĠT ORT
ancell or
o j
ĠMe aning
success ful
or ne
çļ Ħ
Å ¡
ash a
b boxes
ĠFac ulty
Ġturn over
Ġrefresh ing
pher d
Ã º
Ġread ings
ĠAd vant
ĠCom pliance
us ions
ĠA round
Ġsub conscious
Ġl aughed
ĠEngine er
ĠC I
ĠD h
v iol
ĠO ri
Ġcard iovascular
ne eded
Ġstr anger
Ġaccum ulated
Ġ19 44
Ġign oring
F ans
Ġcentral ized
ĠR ate
util ities
Ġill usion
S PE
ĠIss ues
ĠSet ting
Ġstream lined
ĠF ant
Ġunde rest
Ġstand out
ĠA B
ar us
P erm
it ers
Ġins ured
Ġtra ct
Ġp ole
sc ience
ri er
ST ART
Ġd airy
ĠH amp
Ġharmon ious
Ġpun ish
Ġsm o
R Y
Ġcal ories
ĠDec imal
Ġst ems
Ġderiv atives
Ġwrest ling
Ġphotograp hers
12 5
Ġemerg encies
Start ing
Ġpres idency
Ġcred ited
S elf
E lect
Ġanticip ation
ĠM apping
B ro
Ġout fit
ĠL amb
Ġun used
Ġcertain ty
ĠU AE
Ġpertain ing
un icode
ens ation
19 99
all ed
ĠSee ing
p ract
r ise
ĠK rist
Ġ8 8
Pres ident
Ġprotagon ist
Ġfert ility
Ġsexual ity
Ġplant ed
Ġbrow se
ĠMount ains
op ens
Ġluc rative
ast ics
ĠClass ic
t rial
Ġd uck
id able
Ġtax ation
sc ene
Ġadminist ered
ĠMit chell
Ġcar ved
act ic
rop ract
Ġret aining
ĠC ars
Ġinsight ful
Ġnotice able
our t
Ġqu o
ĠBarb ara
Ġobstac le
Ã© s
S F
Ġele ph
= ('
Ġadapt ive
Ġfre ight
L ight
o a
nd im
Ġint act
ĠG ro
Ġmer ger
Ġarchitect s
ĠSche dule
sh ine
ĠP ad
train er
Ġfurn ished
Ġev ac
Ġimper fect
Ġdis semin
Ġthick ness
ĠMarg aret
ĠK el
ĠInd ependence
Ġhe ter
Ġtra ced
Ġred ist
ĠJenn ifer
ĠY oga
Ġst ark
Ġcos metic
Ġas leep
Ġ19 00
Ġhapp ier
Ġf el
ĠSo on
Ġnu anced
Ġcle arer
Bl ue
Ġattract s
back ward
om as
ĠMur ray
Ġeval uations
C at
fl ush
arri ed
ĠGerm ans
Ġadvertise ments
Ġinstruct ors
p ark
te in
Ġret ry
Ġit ertools
000 1
Ġapp ra
vis ible
Ġman eu
.' "
L aw
Ġeps ilon
ĠR oot
att ack
st rap
Ġen ric
ĠB rain
J apan
Ġdr one
g ray
Ġab st
Ġactiv ated
re verse
liter als
ĠC red
ĠK l
Bas ic
ĠF alls
Ġlandmark s
Ġspec ially
ĠT u
Det ails
Ġrighteous ness
# ----------------------------------------------------------------
ĠUt il
iot ics
M o
Ġsc ams
Ġa we
Ġafford ability
hy d
Ġmis leading
A pril
Ġcy l
Te am
Ġun re
iod iversity
ĠSD K
Ġtradem ark
Ġcheck out
ĠF ish
Ġu mb
ad v
Ġinjust ice
coordin ates
Ġge ographic
ĠParent s
Le g
Custom er
Ġdef icit
Ġremind ing
ĠCh a
Ġbust ling
ĠOb viously
G ame
Ġplan ets
Ġportray al
Ġrespect s
Ġb ins
Ġfo am
Ġesc aped
ĠAd m
Ä ±
ir i
Ġcatch ing
ð Ŀ
Ch all
IC ES
S am
ĠChar acter
ĠI l
ĠB rew
Ġaccel erated
dis k
as ia
Ġtest ified
Ġl ing
Ġkid ney
Ġ7 00
Ġabs urd
er ick
Ġrel ieve
over l
Ġ7 3
ment ia
comm end
Ġ" <
ĠRes pon
ĠMil an
ose velt
ĠF al
ĠG un
her ing
ĠMar vel
Form atter
Ġthere of
Ġscal able
Ġdri ed
Ġbund le
D igital
ĠK an
Ġ( [
Ġf ights
St ack
ĠG T
Ġr ides
Ġc ms
s yn
ĠStart ing
Head er
t rust
Ġrecomm ends
Ġins ult
ut er
Ġmet aph
Ġant it
I ENT
ĠPot ential
Ġresur rection
ĠB ert
Ġst raw
Ġp i
Ġli abilities
ryst al
ĠF ly
ĠH ud
id ual
read ing
er able
Ġvict ories
Ġlight ning
ans wer
ĠMe chan
Ġconvinc ing
Ġoper a
Ġload er
Ġsubject ed
St op
mult ip
c ribe
Ġdiam eter
Ġbod ily
ĠE M
Ġpop ul
cess ion
St ill
ĠIn side
P osition
ĠSw ift
Ġpartner ing
Ġn aval
Ġcultiv ation
A ud
s ince
ĠHOLD ERS
ĠB SD
ĠSpe aker
il ib
ĠV erm
Inte rest
S erializer
Ġbrows ing
it ize
] }
b road
F inal
P ASS
vent ory
ĠF ro
ĠV ers
ĠR aw
Ġrep roduct
rou ter
phab et
ie ce
> .
im iter
Ġworth while
ogen ic
ĠEm otional
Ġhe lic
occ up
St ay
ap is
E mail
Ġbe ast
ĠEmploy ee
St at
ĠAssess ment
ĠLeban on
ĠBanglades h
ĠC raft
F amily
ĠT ol
ĠP ant
Ġinstall ations
ĠT ob
iter items
config ure
sen al
Ġbra ck
Im agine
ink s
s ol
Ġunderm ine
st ated
ĠC ell
_ )
Ġc ad
Ġ1 30
Ġw allets
Ġprocure ment
gu ards
k t
Ġw ished
act ly
ĠDevelop ers
s ell
Not es
ĠP eters
Ġman if
d n
Hel per
co eff
Ġsho ppers
irm ingham
Ġdel ves
Ġsocial ist
ĠZh ang
ĠZ en
Ġpol ls
Ġqual ification
Ġ8 4
amil ies
Ġ7 4
Ġ ĠĠĠĠĠĠĠĠĠĠĠĠĠĠĠĠĠĠĠčĊ
Ġa unt
Ġl akes
Ġatt ent
un ed
| +
ĠAd vert
Ġthe ological
sh ots
Ġbron ze
Ġh obbies
Ġm ud
Ġdon ated
Ġfin ishes
Ġtun ed
ĠHam as
In c
Ġactiv ism
n est
ĠThe at
ĠRelations hip
Ġyoung est
ĠR oth
Ġmut ually
G I
M ag
Ġun fortunate
ĠPort land
Def inition
ĠF O
Char Field
Ġse ct
y ll
mod ified
Ġillustr ated
B ACK
... )
Sy mbol
ĠG PS
Ġcrit ique
ĠA w
Ī Ĵ
ĠI an
Intern ational
ĠS MS
loc ations
Ġj er
ĠL uck
Ġg ly
aw ays
M al
con sole
ex ist
Ġtr ash
str ftime
di ag
n ell
De lete
m oment
ĠS S
G P
Ġdent ist
Ġfl ame
Ġr pc
Ġrefer rals
ĠSim ilar
ĠCl ar
Christ ian
ĠP el
Ġass ure
umb ling
Ġn aming
av an
' ^
Ġcur ated
Ġembed dings
Ġdis reg
Ġwork load
ty p
ĠAdvis ory
Ġmist aken
Ġquant itative
our ge
s il
ĠB right
Ġwood s
el ist
roph ic
@ @
Ġant ioxid
O ption
Ġm erc
Ġb ump
in ates
Com put
Ġp ist
ĠCol lins
pr ising
chang es
bb ing
ot on
og g
Aut o
Ġvot er
1 10
PO INT
ĠNot ice
b ie
Ġe Commerce
pon ents
ĠR oute
FC FFF
ad ir
ĠPsych ology
g res
Ġarg uably
ĠS yn
ĠR acing
Ġ---------------------------------------------------------------- ----------
ĠM BA
Ġobed ience
Ġdiss atisf
n u
ĠN am
Ġwa ited
arg max
Ġset attr
us p
Ġre named
ĠL ost
names e
Ġdescend ants
Ġm l
Ġclin ics
ĠId entity
Ġ ib
Ġinter med
Ġpub g
st ub
ĠH unt
Ġkick ed
Ġpr iced
ĠPers ian
Ġl od
D rop
ex e
Ġburn out
ĠCh ron
F our
m arg
ĠE sc
un al
ĠMor oc
Ġviol ated
Ġcommit tees
es ity
Ġ9 8
nd ry
m eth
J oin
ĠH O
Ġstandard ized
Ġexhaust ed
ĠG and
ĠBuddh ism
Ġru ins
Ġd ag
Pl us
Ġt a
cur r
Ġto mat
Ġtob acco
Ġsuccess ion
Ġcut e
Ġplay ful
B r
Ã© e
Ġcount ed
Ġtransl ates
Ġform idable
ĠK ay
Ġpartic le
ĠLi u
Ġflood ing
Ġincl ined
Ġ ._
Ġconfig urations
ĠPu erto
Ġun e
Ġ( @
depend encies
á ¹
An aly
ĠC roat
ĠMad ison
Ġscholars hips
Ġmotiv ations
Ġrebell ion
ĠH i
Aug ust
Ġn ons
Ġ[ ...]
Ġdec isive
ĠU V
Ġsk etch
Ġm our
Ag ain
p f
s aved
Ġreconcil iation
ĠTreat y
Ġign orance
ĠN ord
ĠEmploy ees
is dir
te enth
Rob ert
ĠB orn
Ġf ond
Ġunf amiliar
ĠH arm
Ġbat ches
orth y
ĠB arcelona
Ġ% .
Ġcle aring
p od
Ġal ly
Ġsculpt ure
Ġjurisdict ions
s olution
Ġred emption
back ends
ĠSy rian
ĠSpr ings
ĠDist ributed
t m
Ġtable t
su ite
Ġscen ic
Ġab normal
Ġcorros ion
Ġenc ode
pens able
Ġsmo other
B P
Ġnom ination
AP P
ĠJ in
ah o
ple asant
Ġatom ic
Ġsp ends
Ġball ot
F unnels
Ġoptim ism
Ġundert aking
cont rolled
Ġrock et
Des ign
ĠNe eds
Ġenc aps
IM E
eps ilon
Ġ8 2
Ġor bit
F oot
h istor
Ġf iring
ĠY ale
ĠAd ult
Ġc types
ĠPitts burgh
ĠF ashion
P ES
Ġcamp ing
Ġall ure
ĠSome one
Ġpredict able
Orig inal
r st
ĠA ds
Ġlot tery
lins pace
in burgh
ĠH app
Ġscal ability
b orough
Ġd ummy
ĠHy per
Ġinf ant
Ġc ared
ĉĠ Ġ
AR CH
AC C
Ġexp orts
ĠVictor ian
ĠRail way
Oct ober
Ġvolat ile
Ġtrace back
ĠHttp Response
Ġappell ant
ĠR oll
Ġprem ier
charg ed
ĠE ye
Ġre novation
Ġc iting
ĠHigh way
ĠFl ore
mer se
ĠS W
E A
S an
Ġadd ict
Ġemb odies
e ffic
Ġstri ving
Ġlegit imacy
O PT
p ixel
ĠBer keley
ar ians
init ialize
ĠJer ry
ĠFil ip
y y
Ġdos age
Ġcompet ence
ĠTrust ees
tim er
ĠM ine
Ġiter ator
ĠC elebr
ĠOffic ial
Ġam ended
fr astructure
Ġo we
Ġst aple
M art
Ġprop het
Ġconc erts
ĠN GO
inc are
Ġvit ality
Ġrest oring
d ynamic
ĠRe ally
prot ected
P rom
Ġd ynasty
Ġsc aled
ge ometry
Ġth ou
Ġsc arc
Ġwh it
Ġh params
ĠSec urities
est one
Ġhe ated
ĠF at
ĠA UTH
Ġprem ise
Ġflo oring
Ġre use
Ġyear ly
Ġqu arters
ĠH ack
Ġsuper natural
Ġcol our
Ġpain ter
Ġris es
Ġmanage able
play ing
is factory
Ġ19 41
Ġpar as
Ġo live
mat mul
Ġsign ifies
ï¼ Į
ĠO pp
enez uel
th inking
ĠG am
ĠH il
ĠD ictionary
Ġbegin ner
o i
ari ance
Cont roller
Ġre active
Work ing
mult iple
ĠComm ons
Ġconfident ly
Ġco zy
Ġinnov ate
Ġmem br
M ac
j our
erc ise
ai ro
mod ern
Ġtour naments
Cl uster
UR CE
sg i
Ġborrow er
Ø §
Ġsh ipped
fe ats
Ġdiscover ies
assert All
ĠBe hind
ĠDog s
ĠEv ans
Ġgar nered
Ġcous in
ch art
Ġcru c
Ġcerem onies
ĠComple te
Ġarch ives
fl ip
Ġoff shore
Ġaccident ally
f u
in os
AM ES
Ġbl ues
c orn
Disc over
re fe
Group Name
ĠA verage
Ġst urdy
Ġext methods
Pl ace
ĠNiger ian
Ġpul se
Ġconsc ience
as ma
x i
Ġclass ifier
Spec ial
ĠHim self
is al
ĠO liver
ro bot
b ird
Ġ================================================================= ============
og ene
cel and
ĠRo osevelt
sequ ences
Ġfather s
Ġwild erness
Ġrespons ibly
N Y
V R
Ġrev is
Ġmiss ile
ĠDou ble
Ġ7 1
p ow
er ie
ĠT rad
Ġa venues
AR K
Ġvisual ize
SC HE
Ġk g
J ack
ĠL arry
ug s
writ ers
Ġg el
D ue
Ġl av
Ġover write
ill o
Ġmon itored
1 30
am bers
sw itch
g ather
Qu ant
Ġcultiv ating
c ence
Par se
ĠMat rix
Ġa rose
pan ic
ĠQ in
Ġdefault dict
ĠJun ior
Ġopen api
ear ly
ist ency
P od
ĠL O
Ġthr ill
are l
Ġretail er
PO S
Ġadm iration
h params
ĠB anks
Com ponent
ĠEnt reprene
Ġsc ent
P arent
im edia
Ġr iders
ff t
D M
Ġ19 47
Ġco ating
ĠS SL
ĠIn n
Ġrec alls
k le
Ġgl uc
Ġabsor bed
in formed
next gen
Ġsegment ation
Ġalign ing
Ġse aled
proport ion
Ġaud its
Ġpil ots
Ġtu ples
Ġb ots
Ġmur dered
Ġconf ined
ĠTr inity
Ġpictures que
> </
Ġpossess es
May be
ol ics
ĠF ern
} /{
Ġp or
e b
Ġsw ap
F iles
ĠM oving
Ġpredomin antly
Ġdeep en
Ġcommod ities
Ġdraw ings
Ġadapt able
ĠCl ay
f elt
Ġpersonal ization
Th ird
Ġb ark
Ġrec ount
ĠM all
Ġse p
Ġall ocate
Ġphilos opher
Ġhor r
Ġdisadvant ages
ĠCho osing
e a
C apt
ĠM ix
Ġsw elling
Ġb ikes
av ier
im gs
Ġher bal
ĠFin n
pe g
Ġdec imal
Ġteen agers
re k
Ġl oses
ob il
Ġge ography
ĠW ant
âĢ Ŀ
! '
ĠJ uan
ĠS ummary
B F
diction ary
Ġconf ess
ish a
ĠMon te
ĠNon etheless
ĠCol l
Ali as
Ġwh olly
un ny
ĠIn valid
get attr
Ġre construction
Ġnic ely
Ġsurpr ises
Ġtort ure
AT ED
Ġreprodu ce
oster one
Ġinsure rs
AR M
Ġhorm ones
Un iversity
ester ol
Ġm ism
ĠPh ys
Sh ape
ï¸ ı
ĠK os
Ġplug ins
ĠWel come
Ġmar itime
d ummy
Ġpursu its
O ld
Ġgall eries
ĠNew ton
Ġs log
ret ry
C ell
Ġstead ily
Ġ19 42
dra wn
Ġcon gregation
ĠDec ision
Ġb race
ĠEn joy
ĠAl most
ĠPro du
Ġsimilar ity
ĠP rad
Ġcon ception
Ġvol tage
Ġde ed
Ġreinfor ced
ere rs
ĠBar ry
B Y
uss ions
Ġshock ing
Ġaccum ulation
Ġth c
Ġlast s
ĠFin land
Un it
Ġb ounce
ov o
Ġw ax
Ġreg ain
Ġtransport ed
Ġincons istent
ĠW ol
head ed
Ġplant ing
Ġn aked
St ation
Val ues
ĠU C
Is rael
Ġspecific ation
Ġche ss
u ator
Ġden ying
Ġvar iance
, ))
H C
Ġ195 6
b ai
ster dam
S hip
ĠWe alth
ĠAr n
NE CTION
Ġmal ware
Ġde eds
u et
g p
par ison
cur rency
Ġliv est
ĠP ic
warn ings
s napshot
iter ator
h ole
Ġprecaut ions
Ġbe acon
oc ating
Ġint ra
ĠL anka
gener al
ĠL l
m are
Ġinterfe re
Ġu gly
Ġprejud ice
Ġun le
ĠE ar
te chn
Ġapp rent
Ġtax i
Ġm isc
on aut
ĠSh i
ĠCra ig
end ance
Ġsad ness
K ing
Ġacc redited
ĠE aster
C ache
Ġ ččĊ
Ġdiff ers
ĠC offee
In cre
ĠIsa ac
O FF
is p
O F
Ġimp ly
Ġins ur
categ ories
be y
ĠDak ota
Ġsm arter
t u
m icro
om o
Ġexam ines
ens ely
le tt
Ġex ec
Ġbase ment
Ġe rection
Ġaut umn
ĠBeaut iful
Ġrep ent
Ġfl ush
Ġir regular
ĠRed ist
ec hes
Ġre venge
ĠSt orm
ĠClin ical
mat ches
W C
Ã£ o
ST M
Ġsynt ax
Ġhor rible
Ġes p
b ath
Ġg ummy
Ġrein forcement
round ed
Ġdestro ying
ĠR av
s ess
Ġlaugh ing
Ġblog ging
G G
ĠP as
ount ain
iz ar
Ġve gan
ĠRobert s
co ins
Ġconfront ed
cod ing
Ġ19 39
Ġm p
fe it
annot ation
ĠB ear
yl um
it als
ĠS PD
ĠF ine
O wn
T urn
al er
ĠR ise
ĠW onder
Ġ` ``
Ġencrypt ed
Ġaccommod ations
det ach
Ġtight ly
N ovember
ĠU pper
set default
Ġst un
Ġfeed s
Ġri vals
Ġinstinct s
ĠCo ordin
99 9
Ġw anna
Ġfuel ed
Ġincorpor ates
oc hem
ĠC amb
Ġfre q
W omen
men u
Ġsupervis or
Ġgl uten
Ġse ized
vel ope
ad just
ĠExt ract
s an
Ġemploy s
w oman
cell s
Ġeconom ically
Ġgradu al
hand lers
s ampler
Ġdr ums
respon s
Ġs ab
Ġrel atable
reposit ory
Ġevolution ary
Ġindis pensable
Ġjack et
G rid
ĠTest s
ĠM T
Ġpil gr
ĠD IS
Ġexc av
Ġrepl icate
im mer
at ivity
op ic
ĠInit ially
l n
Ġparent al
m anship
Ġsyn onymous
Ġsc roll
Ġh inder
ref resh
Ġch ase
M achine
ak u
Ġv ic
ĠJohn ny
ĠN ad
S ample
ĠU ber
Ġen semble
Pro fessional
ar ine
ĠOtt oman
Ġexceed ed
Ġmeant ime
Ġinst ability
Ġlegisl ature
Ġ( :
Ġdisplay ing
Ġful fil
Miss ing
connect ions
Ġtrans mitted
ah n
att n
c um
ĠIter able
ĠProv ince
Ġnumer ical
Ġintric acies
Ġback wards
../ ../
Ġassemb led
s alt
ĠArt icles
Ġpol ished
Ġillustr ates
ĠEff ect
ĠRequ ired
^^ ^^
ĠPh arm
) ")
Ġt ier
ĠMult iple
class ification
Ġdr astically
Ġarm or
Ġthr illed
J uly
ĠK ur
Ġguard ian
ĠProtest ant
art icle
ĠDem on
ĠAt hens
Ġp ockets
Ġsymbol ize
ĠGr iff
ĠR PC
Ġgl oves
Ġpe cul
ĠU nd
cl usters
ĠChampions hips
Ġgam ers
Ġvib e
ĉĠĠ Ġ
arri er
Ġbu f
Ġ7 9
Ġacc ent
pro duction
det ail
Ġself ish
ĠB R
Ġnow adays
Ġcon qu
Ġreport ers
Prov ider
Ġcomp iler
G rad
} ',
un used
wik i
Ke ys
Ġsub s
Ġ195 9
v out
C ert
Ġin clus
im show
u pp
Ġdevelopment al
i otic
N D
Ġtra it
Ġexempt ion
Ġearthqu ake
Ġcon cludes
ot ics
circ uit
row ing
Ġfilm ing
Ġhome page
ĠEduc ational
it ives
Al most
r ality
Ġg iants
ipp er
J ew
Ġshall ow
ĠDe g
Ġu b
Ġsymbol izes
ow ski
ĠD ATA
sc atter
Ġsle ek
Ġgreen house
ĠO racle
ĠPro blem
Ġment oring
qu ire
Ġincur red
Ġ ndarray
Ġlower ing
Ġstret ched
ĠB ird
Ġ9 2
Run ner
Ġindirect ly
Ġ9 7
F ast
we i
Ġp ine
P os
let te
Aust ral
Ġsh adows
Ġincon ven
ĠL ion
Ġtroubles h
ach t
od ium
Ġcareg ivers
Ġab dom
ĠTrend s
trans fer
Ġ1 40
Ġimag in
ing les
Ġprof iciency
Ġda wn
Ġtim er
Ġbus es
Ġpass port
ĠSt ress
Ġchar ities
ĠL ex
Ġ\ \
ĠSe an
Ġstim ulation
Ġposs essions
Ġdepend ence
ĠArchitect ure
s i
Que ue
ĠBroad way
Ġmask ed
Ġweb inar
ĠPract ices
enc oded
Ġcommun al
Ġst akes
ĠTe aching
Ġ' :
Ġreferen ced
Ġent ails
Ġe commerce
Ġgod dess
od o
ĠUS B
CON T
Ġfilter ing
Ġcountry side
ĠSustain able
ĠS ony
ĠFe el
ĠS um
b old
Ġportfol ios
COL OR
ĠHung ary
Ġr ansom
Ġz oom
c oco
Ġcancell ed
ĠNetwork s
Ġprot otype
il oc
p ull
ĠB enn
Ġexhib ited
Ġunderstand able
ĠF irm
Ġlib ert
Ġdisc oura
* "'
Ġbeat en
Ġel astic
Ġst ains
ĠD ru
Ġir res
f ac
ĠO m
ĠPay Pal
ĠA id
Ġsw itched
res istant
Ġep it
ib li
Ġbl ending
umb ai
ĠP ool
W ater
ĠV ik
Ġse ating
gress ion
ĠState ment
Ġdirect ing
ĠA ld
ĠFor ward
r h
Ġp ile
Ch ris
ĠD ad
ĠCirc le
Ġensure d
ĠM ong
Ġadhe rence
Ġkil ometers
CO DE
Ġpo ised
get item
ĠPh oto
Ġmiscon duct
Ġstrengthen ed
Ġsuper b
d ocker
ĠSh ar
ĠCal culate
Ġref usal
ĠViet namese
ant i
ĠK arl
ĠReg ulations
ixt y
ĠB irmingham
Ġh ust
Ġover d
ch ars
f b
Ġnull able
Ġs ights
Ġover t
st ones
Ġre he
Ġun pleasant
ĠH az
ĠP osition
Ġdis connect
Ġir relevant
Ġend ors
amp a
ĠCor inth
ĠFour th
prior ity
P erson
W ord
Ġv ague
B i
raw transaction
Ġpass ages
b ands
ec d
ĠW arri
Ġfellow ship
organ ization
Ġw icked
Ġfrag ile
set t
t hens
U LE
g ap
ish ops
ĠMain tenance
Ġwho ever
Ġche ating
ĠDev ice
Ġconc ise
Ġinject or
Ġmetabol ism
16 0
Ġf mt
P rim
ĠC isco
Ġjust ification
ĠWat son
Ġorgan isms
Ġar rog
Ġprevent ive
Ġgrad ients
v ings
Ġw rist
ĠEqu ity
Ġevent ual
ĠAct ually
dig est
dest ination
Ġaccum ulate
Ġprovin cial
ĠY ah
prim ary
ĠRes ilience
ĠEv olution
ĠGh ana
al ter
ĠSt ars
Ġbelong ings
ĠMem ory
s aving
S ingle
Ġsl ots
R unning
Ġrequest ing
Ġmem o
ĠAp ost
Ġpop ulated
] -
am el
Ġclean up
ut t
Ġsynthes is
an ia
ĠPar ad
ĠExt ra
Ġd ess
Ġar th
10 24
ĠV el
Ġbl ob
Re v
d ash
Ġfemin ist
ot yp
Ġcon current
res olved
ys et
Ġsex ually
Ġcoll apsed
Sept ember
Ġden om
Ġconsolid ation
> '
Ġkne es
Ġmor ph
gh ai
h ou
ut able
Ġrespon ds
s d
Ġanch ors
Ġprivile ges
iv ia
Ġ195 8
ra ck
ĠC arm
ĠL ith
ĠR idge
ĠA CTION
Ġp df
Ġfe ather
Ġch lor
Ġar row
ic able
ĠIn nov
Ġdistribut ions
ĠE P
ĠArk ansas
ĠBoy s
eval uation
int ed
subscription Id
ĠPro s
ĠRepresent atives
ĠEm ma
ĠT ab
t ot
Ġex otic
se ctions
Pri vate
im ir
IN K
ĠR ic
ĠPl ans
Ġweight ed
En s
me ans
w hether
Ġcor rid
Ġs orrow
() }
S plit
Ġadm issions
hold ing
Ġal beit
ĉĉ čĊ
ĠF ul
Ġboy friend
Ġo v
Ġse iz
osp ace
p kl
Ġimmigr ant
we gian
Ġlaw ful
op ter
Ġdev ote
Ġmolec ule
so ever
Ġmor ale
Ġdoc s
th resh
ĠEng aging
Ġeffort lessly
ĠF resh
ĠCh ain
Stud ents
Ġcoordin ated
], [
flow s
Met ric
ĠProt ocol
Ġmaxim izing
de cl
Ġre construct
Ġdis pens
ĠK ash
Direct ory
Ġse as
Ġsince re
our hood
s ong
ĠEd inburgh
ĠGo als
m un
um ar
ĠS oft
ut ed
Ġfemin ine
ĠAc cept
DI RECT
Ġdistract ions
out ine
Ġdef ic
Ġacoust ic
i enced
Ġens l
ĠCat hedral
Ġru in
qual ified
pro fits
u art
al ion
y ang
ĠRe ference
ĠV enezuel
ling ton
over ride
Ġun aware
st ery
Ġbound ing
Ġsh it
hes is
D ESCRIPT
Ġdis contin
Pl ugin
Ġprim itive
ĠAchie ve
code gen
ĠD ynam
n r
Ġ" ")
Ġgest ure
Ġaw ful
Ġcl ips
ĠD ow
ĠC ool
ĠDise ase
iter ations
ĠB row
Ġpione er
ĠC AR
Ġd ull
Ġcollect or
Ġtransform ations
Ġmira cle
Ġhard est
Ġrem oves
ann on
ĠG ates
An n
G overn
Ġth rows
Ġw ool
Ġcl one
ĠH P
ĠS TR
Em ploy
ĠPrim ary
ĠCap itol
ĠG ran
m ant
T X
Cont ainer
199 8
Ġjud ged
ĠMed al
Ġval ve
os ion
ert ation
Ġ8 1
ĠM atter
Ġon boarding
Ġridicul ous
Ġcorrespond ence
i w
Ġjud gments
ĠB ou
Ġk its
Ġgra ins
op hers
/ #
Ġunder going
ĠAr c
Jes us
Ġrest ing
ĠDiam ond
ob ic
Ġ8 7
LO AD
Ġpriv ately
S il
Ġnation ally
x iv
ĠF ear
Ġmas cul
Ġmot if
B ank
Ġcompr ised
level s
Ġreproduct ive
ĠO w
ĠAll ow
oper ative
Ġcol ony
Optim izer
Ġprofound ly
PRE FIX
ple x
Ġpsych iat
Ġcho oses
Ġmention ing
Ġsn acks
ĠKeep ing
G M
Ġrum ors
NOT E
Pro xy
ru ed
or able
ĠWel sh
chang er
ĠScient ific
Ġble eding
( ""
he res
Ġcorrespon ds
ĠPer ry
Ġpron ounced
Ġcalcul ating
EN TI
Ġ" +
Ġp ap
Ġout rage
ĠK ubernetes
IT H
ĠIntegr ation
ĠMur phy
Re view
ach i
ĠR EST
> \
Ġl ately
ic iary
EL L
Art ificial
Ġsupposed ly
c ultural
Ġcraft s
ĠB erg
Ġc affe
Ġcol onies
Ġm d
Ġexpend iture
Ġun law
ĠRe act
v c
: ")
vers ed
Proper ties
Trans port
ĠInflu ence
ĠPol itics
Ġnote book
osex ual
it ating
al ph
anch or
Ġin verse
ag les
Ġ195 7
D iv
ĠJ ama
Ġcounsel or
ĠN A
ym es
Ġrul er
Ġread iness
ĠJ ung
iter ation
Ġstorm s
Ġsett lers
Ġk not
ĠT ypes
Ġd io
ĠTurn er
j it
Ġlock down
sl ots
Ġha ul
% "
W atch
ĠX i
Ġ8 6
AT T
g ot
Ġflour ish
Ġ-- -
Eff ective
C s
Ġwhere by
__ ))
state ment
ĠHarr ison
Ġinfect ious
Ġhead line
Ġo ct
ĠDo ing
idx s
ĠM ovie
h im
Ġpsych ologist
ĠT at
m ile
Ġpre process
Ġsubst itut
uss ia
!! !
ov ak
ĠE dd
ĠE u
ĠF itz
Ġfundament als
ĠLike wise
T orch
Ġnot ified
Su pp
P an
ĠW alt
v ial
ĠE SG
Ġf art
Ġdis claimer
Ġparad ox
vel ation
ĠNorm an
he a
Ġdraw backs
Ġmed iation
ĠD A
B rand
Ġfile path
ĠVar ious
Ġnormal ization
Ġm ines
ĠC elt
Every one
rep ly
Ġcooper ative
F ire
ĠRelations hips
ĠTe ams
hell o
T alk
ĠDep ression
Ġcom ics
Ġ9 3
Ġ19 43
Ġstud ios
pro d
Ġneighb oring
SE LECT
Ġn ort
Ġl ang
ĠP IL
ĠCol on
Ġequ ip
ĠK ir
[: ]
f iction
Ġo mitted
Class ifier
Ġprivile ged
Ġthe or
ĠM aur
ĠTransport ation
gra ding
DO MAIN
With in
ok u
ĠLe v
Ġout right
Ġhapp ily
Ġinstruct ed
Ġtr unc
Ġrobot ics
Ġfacilit ated
ĠA RE
Ġgen ocide
fail ure
ĠIncre ased
hook s
Im pro
Ġc it
pre m
Ġcur tain
Sh ow
Ġdownt ime
v l
( ',
Ġclass rooms
Ġint ro
Ġt gt
Ġp ys
Ġvirus es
ĠT X
Ġst ro
Ġaccomplish ment
Ġl ush
Ġskept ical
n ik
Ġsens ible
Ġaug mented
ĠB ath
L IST
ĠTrans form
prep are
Ġlog ged
ĠDemocr at
H as
: ],
ĠBeaut y
const raint
Ġeduc ating
Ġre un
19 80
Ġw aking
is ite
is ol
ĠAr ray
Ġgovernment al
her ic
ĠJ unk
L ive
Ġra p
ĠCert ificate
Ġinn ate
Ġrevolution ized
Ġboost s
Ġhel pless
Ġsacrific es
Ġv inyl
Ġpret end
Ġra ys
Ġ# :
Ġroad map
ĠFil ter
Ġpill ars
ur bed
lin ux
T ips
Ġmaster ing
ĠMo z
Ġde er
Mod ern
"' ||
Ġinsp ires
ĠT amil
od iac
ĠC N
abs olute
Ġspecific s
th al
Ġdecl ining
Ġtim edelta
O s
ĠFrame work
un pack
Ġgeopol itical
ĠR V
ĠAny one
Ġs ender
Ġcondem n
Ġvalid ated
Ġto mb
Ġdial ect
Ġapart ments
pl ing
Ġtun ing
Ġemerg es
Ġdem ocr
Ġs iding
Ġtransl ations
Ġl end
Ġp t
ĠGra duate
ĠUn cle
D ense
ĠR io
s at
Ġad orn
ĠCom ment
ĠM ak
Ġw ives
Ġtw isted
exp ensive
cons ider
Ġ å
Ġrese mble
IC S
Aut hentication
ĠCompet ition
ĠF a
Ġrev ival
9 00
Ġc ush
Ġ18 00
Ġcult urally
host s
Ġbon uses
x it
Ġterrit orial
Ã ł
Ġredu nd
b ud
Ġdiam onds
Ġmanifest ation
um i
Ġtraff icking
(' .
ref s
Ġbom bs
Ġcoordin ator
Ġchol esterol
40 4
ER T
ar ium
Ġl ug
ĠH em
ĠEm ployment
ĠOrgan izations
Ġpossess ed
ĠSp ark
Ġmir rors
reat ment
Ġ( {
Ġn ails
Imp act
B D
Ġs aints
umb ent
Ġaffil iated
Ġindividual ity
Ġd oses
Ġd x
Ġg y
ĠExcell ence
Ġmagn et
ĠAl b
Ġ' +
Ġhack ers
/ (
Ġexp r
Ġs ourced
ĠA ges
ĠSupp ly
Ġf ocal
Ġp ear
ole on
erm at
Ġexceed s
ĠS ale
Ġmisunder stand
h arm
Ġresid ency
ĠS ame
cept ive
ĠSqu ad
ĠTrans fer
t run
Ġsc enery
lis hes
W eek
ĠAlex and
T aking
Ġacquis itions
Ġqu art
Ġb iodiversity
ĠG M
ĠT EST
h ad
Ġd orm
run s
Ġat e
res olve
or c
ar ial
M atch
est on
Ġph osph
Ġamend ments
Ġinfr inge
Brit ish
ĠVen ice
ĠO scar
Ġinsert ed
ĠPre vention
Ġbra ke
ay an
ertion Error
Ġpredict ing
os hi
Ġdepend able
n py
ĠAir lines
ĠTer ry
Air Date
Ġinter im
Ġinv oice
Ġcl an
Ġsk incare
dim ension
Ġsecret ly
Ġconstruct ing
Ġ16 0
ĠE num
cond itions
Ġ8 3
ĠLiter ature
Ġconsequ ently
ĠW E
Ġpursu ant
ĠY am
Ġinfer ior
Ġstere otypes
Ġmight y
Ġdu o
Ġlock smith
Ġblue print
grow ing
re ceived
in fer
') ]
ĠH ait
Ġfig uring
Ġfirst hand
ox y
ĠVi enna
ob ia
R GB
it les
ĠP att
Ġunw illing
Ġde mentia
Ġd ip
ĠN ON
ĠB O
char acter
ch y
New s
ĠDel aware
ĠAm sterdam
ĠH air
enn ial
ĠF ans
â Ĺ
Ġhead aches
Ġgri ev
Ġseaf ood
Ġpass words
Ġteen ager
Ġ< /
he astern
ĠL ate
ĠRe lease
w av
ĠTer ms
Ġun healthy
s z
Ġsound ed
Ġgar bage
SE D
Ġ195 5
ĠPub lishing
Ġspe ar
Ut il
Ġl os
11 1
ide os
Ab stract
W ORK
Ġup side
ĠConsult ing
Ġspecial izing
Pack age
S al
M ask
Ġweb inars
ĠN i
ĠRe ality
Ġch ore
De cember
ĠN athan
Ġutter ly
Ġon set
ĠAss et
Ġcon ceived
en z
Ġprovin ces
e ach
Ġgradu ating
mon itor
res pect
Ġtutorial s
ch t
ĠNep al
ĠCh ang
ĠIns ights
ĠLib eral
ĠBern ard
ĠLaw s
S V
ĠPhil osophy
p se
Ġintr insic
Ġ19 46
b low
ĠG on
Ġnick name
ĠTh or
Ġthere after
) **
Ġins ulin
ĠQuant um
al most
ass oci
Ġqual itative
ĠH orse
Ġcol s
P ut
OC K
Ġgen etics
ĠAppe al
Ġlow ered
G roups
Ch ild
leg al
Ġk w
Ġan ecd
g ene
ĠThanks giving
Ġe ighth
Ġtransfer ring
spe aking
ĠAud io
othe li
ar cer
Ġtre asures
zer bai
ĠNe il
Ġstreng thens
S ave
ĠC el
Ġban ner
Ġsp y
Ġfe ared
ĠNob el
press ure
ĠRe agan
ĠWhat s
Ġprem ature
pri v
ĠRed dit
Ġadvert isers
in qu
ĠJ uda
Ġ8 9
ĠInc orpor
ad vert
Ġpecul iar
ĠGo ing
Init ialize
Ġsp ur
Ġcomput ational
ue z
STR ING
Ġst icks
Ġret ros
Ġc ues
F uture
ut ures
ro ls
contain s
k ar
ric ular
Ġinstitut e
ĠSud an
mat ics
Ġfil enames
Ġris en
sp aces
j ah
w sgi
P eter
Ġfinger print
A x
ĠB ir
Ġunh appy
ĠHamp shire
Ġeager ly
Ġcor pus
Ġfac ets
Ġinter personal
rot ation
> "
Ġline up
ĠST EM
Ġstub born
ĠW arner
amp ed
r ho
W indows
ĠK le
IS S
Ġneed le
b ag
Ġcl ues
ĠS it
M ad
Ġres ervation
Ġpro actively
ĠV lad
Ġcha otic
icular ly
s ampling
Ġeat en
Ġfab rics
ier ra
Ġele ven
aster y
Ġd ock
Ġfrequ encies
ilib rium
ĠS hen
Ġow ed
cap acity
Ġcred ential
ST ATE
ĠOpportun ities
L en
S a
ĠVis itors
Ġunden iable
Ġsuper f
ĠM orm
Ġmon key
Ġs ore
Ġk in
top ics
Ġic ons
Ġweek ends
as ion
` ")
=' ',
ĠI celand
ĠList en
D im
ys on
Ġ9 1
Ġborrow ed
Educ ation
Des criptor
vis or
ĠW heel
ack ing
ĠEconom y
L oc
Ġhope ful
ĠAl ban
ĠT YPE
Ġp ave
Ġpiv ot
Ġprol if
uls ive
ĠAutom ation
################################ ################
Ġconstruct or
Ġobject ion
ĠF H
p oke
Ġl ion
c art
Pr int
fil t
199 7
Ġback pack
Ch ildren
L T
Ġv ault
Ġchat ting
ĠBlock chain
Ġdark er
ĠR ES
Ġcou p
ĠVis a
R ate
Ġpray ing
Ġup ward
alth ough
h all
Ġdesign ation
ĠID s
ĠMark ets
Ġsil ly
ĠAr ist
Ġreflect ive
Ġexperiment ation
as g
ĠR uth
anch ors
ĠC LA
Ġgrab bed
ost ics
Ġemp irical
ĠFl ag
Ġgraph s
Ġn arciss
Ġenact ed
Ġrif le
Ġsub ordin
ĠB B
ĠKe ith
Ġpr ince
ro i
Ġstand point
ĠVal ent
struct ured
uk a
Ġth under
T ry
oy s
ĠAct s
intend o
Ġtra der
Ġreluct ant
Ġtwent ieth
w ent
Ġbl ast
ĠV ari
ĠPerm ission
Ġ195 4
Ġsubsid iary
ĠC ant
Pass word
Ġint ros
in ference
S K
Ġdr unk
ĠKey word
Ġcs go
ĠB ing
Ġmim ic
crit ical
Ġfav ored
Ġint est
Ġre n
Ġmiss iles
Ġin box
c ott
* :
Ġim merse
Ph oto
Re lease
Ġunder way
Ġex quis
Ġcohes ive
Ġp aved
Ġbicy cle
ĠT odd
Ġsequ el
land o
Ġun real
ĠK o
Ġdesper ately
Ġ19 49
Ġlingu istic
t ion
Ġill ustration
es ar
Con clusion
________ ________
| }}
al ine
ĠMA X
Ġmethod ologies
ĠUnder stand
Ġt ones
ĠC atherine
som ething
Ġple asing
Ġstick ing
ĠArt ist
Ġval orant
Ġg ifted
Ġsimpl est
Ġlat ent
Ġres ide
arn ation
ĠTer rit
Ġev oke
Com pute
b log
ĠIs n
is i
ro gram
ĠPro file
Ġstring ent
Ġcancell ation
Ġcondem ned
Ġtim ber
Ġband width
ĠHer o
Call back
r ights
ĠR ud
| âĢĶ
ĠM umbai
Ġbe verage
ĠH alf
Ġcompr ises
Ġfacilit ates
M Y
L AB
Ġvis ions
Ġro pe
ĠCath olics
Ġacknowled ges
ĠG oth
Ġpers istence
Ġst airs
Ġwas ted
resource GroupName
Requ ired
e or
Ġsu p
Ġcomfort ably
st ru
Ġdisturb ing
Ġexped ition
Ġstret ching
mark er
Ġphilanth ropy
Ġapp ar
Ġb ore
Ġschol arly
q t
pre vious
Ġp ests
ĠC inem
ĠPict ures
vari ant
ĠCh ase
Ġeng ages
im eter
Ġcalc ium
$ ',
ground s
Ġpreval ence
ol ith
ĠM ack
Ġfore x
Ġlad der
CO UNT
Ġtact ic
Ġproduct ions
Ġher b
Ġbe e
ri ans
Ġbrand ed
Ġdivid end
L ess
ĠPro ced
ĠEth ics
A WS
ourge ois
aus ed
Ġcomp elled
ad j
S en
ĠC risis
Ġrecycl ed
Ġd umb
R oot
ĠPh ase
th s
Ġdecre asing
Ġcircumst ance
inter pol
Ġsubsc ript
ĠSt ruct
Ã Ĥ
Ġartic ulate
Ġh i
Ġtou g
M F
Ġreinfor cing
Ġtack ling
red irect
ĠK irk
co h
Ġun belie
Ġd rones
ii i
ĠChel sea
Ġv ars
Ġhurd les
Ġpharm ac
Ġimpress ions
call s
ĠQu arter
ĠIm ages
19 95
ĠF err
pat cher
ss h
Ġcultiv ated
ra its
x iety
Ġdivid ends
ĠS af
Ġsh ining
ĠâĢ ľ
s olver
L ock
Ġle mon
Ġf als
Ġthreat en
TO KEN
et own
l ove
Ġdig its
ogn itive
af ka
ody nam
Ġm x
ĠE lection
Ġrepe ating
Ġn as
Ġtum or
ĠP ipeline
Ġmis information
le ader
ĠA unt
ĠHel en
rand n
Ġch asing
ĠAltern atively
Ġupgrad ed
alg ia
ĠMont real
com pl
ĠSur v
Ġ9 4
Ġwhat soever
Ġdecor ator
Ġsent enced
Ġpresum ably
ware ness
ĠTh read
Ġcoh ort
ĠU X
Ġpain ters
i q
Ġr ushing
Ġgl orious
ĠCh ampion
gr at
uc ing
Ġaccel eration
Ġexerc ising
ĠRuss ians
Sm all
Ġfin tech
h l
ĠInst itut
or ie
Stand ard
ĠRet ail
Ġob esity
ĠM B
Ġc p
Ġarbit ration
ĠLet ter
il io
199 6
Ġm ice
gate way
Ġspan ning
Ġrul ers
d ark
ĠG i
Ġs erm
ĠSpot ify
Ġhook s
reason able
Ġpart nered
Ġintern ship
Ġsql alchemy
ĠMet ro
Ġs ampled
Ġbur dens
D river
Ġtrack ed
ÃŃ a
um ed
Ġcon quer
du p
oc aly
ean or
Ġneg lected
ĠCamer on
ok a
Ġcomprehens ion
Ġteen age
sur face
Ġmitig ation
Ġo m
ist ication
ĠN aval
Ġperiod ic
ĠPrep are
Ġcelebr ates
} ]
ĠNFT s
Bel ow
dir ty
Ġs ung
ĠS CO
commun ications
x o
ĠB ring
Ġp erv
ĠMont ana
w indows
Ġbr ighter
ĠH orn
IC K
ĠAppro ach
urt le
Ġlearn er
Ġpy game
otheli oma
to os
........ ........
Ġche f
ĠW es
Ġsear ched
in vest
ĠS ah
ĠAct ress
Ġgen ome
or ative
Ġnew com
ĠK aren
Frame work
Ġbe ats
Ġcomm ence
Te chn
ĠL odge
Ġmyster ies
Ġrecover ing
ĠHol land
ĠBuff alo
C annot
D raw
ĠNY C
Ġbroadcast ing
Ġannoy ing
Ġsol ver
Trans action
Ġpreced ing
ip ation
d ependent
s igmoid
Ġhazard ous
Ġminor ities
ord able
ear chers
ĠM ent
ĠS aints
Top ic
Ġjudge ment
Ġnot ions
Ġdiagn ose
Ġste wards
aa S
Ġste er
Ġj okes
Ġment ality
S ep
atom y
F un
ĠNe uro
Ġsum s
Ġende av
Ġproject ions
Rec ogn
oh y
Ġforb idden
ĠFirst ly
Ġelim ination
gener ic
Ġpione ering
f ed
Ġlack ed
ĠMor ning
Ġschedul er
Ġdeal ers
Ġreim burse
amm ers
ĠSpecific ally
ĠP ret
save fig
ĠS id
ĠCl ose
ens it
Ġs lope
Ġcontact ing
ĠL ore
Ġ19 18
Ġl ined
Ġprob able
Ġsusp icion
Ġmet avar
Ġ ----------------
Ġcont amination
Ġdecor ative
ĠK id
E r
deep copy
Ġf rappe
m ust
Fore ign
ha o
Ġcomp osite
or ce
ĠAgr iculture
Ġin def
Ġexcept ionally
Ġchang er
Ġmer its
atter ing
d ie
chie f
Ġsculpt ures
Ġjo ins
ĠW ag
Al ong
Ġcourt esy
r ational
H ash
Ġmarginal ized
Ġspe eches
Ġteam mates
hand ed
ĠSt alin
Ġl ou
}} ,
Ġin p
{ \
I ts
Ġopp ose
comp iler
ĠPict ure
Ġp our
t au
Ġreflect ions
Ġgreat ness
Ġse ize
Ġclear ance
ĠC opy
Ġindex es
Dat abase
iz ontal
fil tered
ĠInvest ing
ĠHud son
is se
H on
Fin ancial
m ys
app a
assert False
Ġex ert
AM L
ĠC ult
am as
Ġp aste
Ġh ints
Ġdisc ord
Ġl enses
ĠIns pect
trans lation
ĠUn ique
Ġind el
ĠInt roduction
Ġform atted
ĠMet al
Ġ3 50
L IB
ĠS phinx
âĸ Ī
Ġacad emy
ĠP le
ĠMichel le
Jan uary
Ġbehavi ours
ĠB A
Ġbi om
Ġfor k
Ġforecast ing
Ġrefuge e
man ifest
ĠEx ness
Ġro ster
Ġp oker
ĠF isher
ĠQue bec
Ġcommun ist
ER Y
discrim inator
Ġv oy
ac les
Ġc arn
Ġdef ended
ĠWe re
Ġc oco
Ġdis placement
Ġt ide
=[ ],
H i
en ic
Ġlon ely
Ġwall hack
Ã¼ r
Prot ocol
Con struct
ĠDan ish
Ġroll s
ĠFact ory
Ġenthusi ast
ced es
Ġstra ins
Ġdio xide
ĠSte vens
Ġspread s
oura ble
Ġcon ventions
execut or
Ġcon ve
ĠFact ors
Ġroof s
Ġdisrupt ive
A h
um ers
Ġback s
ĠVin cent
Ġf ixtures
ĠG A
ĠColumb us
rist ol
ĠP E
ag greg
dig it
Ġfat ty
Ġimprison ment
Ä į
ĠPot ter
Ġpr inter
ĠNich olas
br aska
Ġr c
appro x
Ġ195 3
Ġexp osing
ĠLe ave
Ġwis ely
Ġreward ed
Ġc pu
Ġpre view
Ġsoph istication
out ing
m aterial
Ġrevolution ize
ew orthy
ĠG R
Ġswe pt
ĠNorth west
t ip
ĠRog ers
ĠColomb ia
ĠA er
ĠL ORD
En h
ĠVal ues
Ġcos mic
d ent
Ġmon itors
Ġper ipher
Ġenfor ced
Ġdef enses
Ġsil k
ĠM ans
ĠMin or
commun ity
Ġcompet it
ĠForm at
Ġunder gone
Ġeconom ists
Ġline age
As k
Ġbelong ed
ĠFl at
le ys
as ers
ĠQur an
Ġam ateur
W ait
Ġgener osity
ĠBack ground
uss els
Ġimp lements
Ġfra gments
g mail
Ġprocess ors
Ġirrit ation
ĠD M
t ight
By tes
Ġsh ar
Ġpr ud
Ġrival ry
Ġsimpl ified
Str ategy
Fe atures
Ġal phabet
ĠE arl
M edia
Ġinter cept
Ġbox ing
FORM AT
End point
Ġdemonstr ations
Ġdefinit ive
Ġf og
Ġv ag
effic ients
Q uality
Dan iel
man ual
ĠS K
ĠN ancy
Ġat he
Ġ\ "
ub a
iv ism
s ed
æ ľ
ĠDecl aration
Ġmarri ages
represent ed
ĠL anc
mo il
ambo o
ĠToy ota
C ard
Ġw ires
P F
f m
Ġa ired
old ing
Ġair lines
Ġmar ital
ĠEff ects
#---------------------------------------------------------------- --------
Ġprob abilities
C ity
ĠR ising
S B
_ ="
Ġd ocker
ĠA rena
t gt
in fect
ĠAd just
spec s
T ool
Ġcommun icated
ĠAl fred
Ad v
Ġra bb
Ġinter rog
b rain
red itation
Ġconf ron
c in
Ġtext ures
Ġblo ody
ĠTe acher
p it
Ġsanct uary
Ġcre ations
ĠConserv ative
Ġprophe ts
Ġw oven
ĠWell s
pub lish
am on
ind a
back up
ĠGem ini
Ġc oconut
Ġbur ial
Ġbl oss
IN ST
Ġheart felt
ĠW henever
integr ation
ĠL an
Expl oring
ĠK rish
ge bra
Ġsound track
Ġur i
Ġpro be
ers ight
Ġgrant ing
` :
Ġrout inely
() ['
ib an
Ġp id
Ġexceed ing
ĠCh rome
ĠCons ervation
Ġtrou bled
Ġwarri or
sc ribe
ĠCre ation
Ġa kin
Ġtend encies
ĠMaterial s
Ġaug ment
dat aloader
ĠWood s
Ġremind ers
cast ing
Ġsign atures
ĠE D
Ġshort cut
Ġu int
Ġrh ino
Ġel ders
Ġamb assador
Ġpe aks
Ġco ords
ag ain
os lav
Ġd uct
ĠSh aw
d in
Ġpropri et
ĠJ iang
Ġl ord
ch rom
ĠForm ula
Ġcapac ities
Ġ( %
Ġj aw
ĠEd wards
st y
rupt ion
ol ades
Ġit iner
op edia
Us age
Ġcaptiv ated
work space
int ers
ĠDar win
Ġexperiment ing
ĠJ i
Ġdon ate
iz a
In formation
d ic
19 70
W ar
Ġninet eenth
be cca
Ġabsor ption
de ath
bel ief
Ġw ag
ĠSpirit ual
Ġtra v
Ġrem inis
z heimer
ĠB oot
Ġmort g
Ġrab bit
bo olean
Ġtask ed
Ġcand y
Ġun ravel
ĠTh inking
Ġshare holder
ĠPe ak
ĠLine ar
Ġdeep est
199 4
Ġp oured
Ġexplos ive
X Y
ĠN an
ress ing
Ġrecre ation
ĠQu ery
Ġroll er
Ġ0 1
rec v
Ġmin ers
O bs
Ġ19 17
aut hent
Ġle ar
ĠNor wegian
Ġgl am
Ġhes it
Ġparliament ary
ĠProt ect
is ans
Ġacadem ia
ĠBaby lon
Ġamaz ed
Ġ 000
en ium
f ro
Ġin place
Ġdet ox
ĠX ML
h ours
ĠPrem ium
S ensor
Ġpersecut ion
Ġhier arch
Ġ195 2
Ġdis mant
Ġconsult ations
ri pp
Ġs aint
Ġtaxp ayers
ĠL if
fol io
R ow
out ube
Ġstead fast
AR GET
Ġun anim
Ä «
ĠCost s
E ss
Ġele m
Ġproud ly
Ġsupp lying
Å Ĥ
Ġforg ot
a is
ĠL ing
on line
re b
Ġbel ly
ĠDis play
ĠImport ant
Ġfavor ites
ĠJ azz
Ġa fore
gra ds
Ġtempor al
Ġnutri ent
En c
ĠA zerbai
Ġpolicy makers
Ġb ent
Ġassert ion
ĠYO UR
Sim ilarly
il iary
Ġgluc ose
Ġm it
ĠPlatform s
Ġscan ning
ĠRoman ia
ĠJess ica
ch all
rown ed
ju ven
Ġmot ives
De ep
ol ia
B esides
Ad min
ĠCON NECTION
o ard
Ġinc arcer
U rl
ve ctors
Ġlab s
N T
Ġcomplement ary
P ipeline
Ġref using
Ġgroom ing
Ġc av
Ġhas ht
ĠComm ander
Sp ot
ĠMer cury
Ġeduc ator
ĠA bsolutely
Ġpromin ence
Ġinsp ir
pp rint
Ġcivil izations
script s
() ).
Ġinclus ivity
Ġdiscre p
k an
Ġforecast s
mask ed
dep s
ĠSPD X
ĠD ynasty
t rigger
ĠTy ler
Ġtempt ation
Ġlear nt
ol lo
ĠChar ter
Ġsing ers
ĠR ivers
ĠS ample
Ġinitial izer
ĠRe form
ab e
ĠIdent ify
C ast
Ġen chant
d id
ĠRest aur
ustom ed
j ax
Con vert
Ġin expensive
ĠVer ify
M el
Ġdrain age
Ġimp osing
ĠO me
R UN
requ irements
accept able
Ġc ough
Ġbelie ver
sub plot
ĠGab riel
ĠPan el
ĠAssoci ates
ĠGard ens
Ġ' *
Ġf oo
Ġupload ed
! ).
ĠDe lete
ĠNurs ing
Ġestab lishes
Ġasc ertain
d types
r strip
th reat
dat aclass
Ġquestion na
Ġcollabor ated
ĠRem ote
ĠProcess ing
Ġing en
Ġdem ons
sim ilar
pack et
dep rec
ĠW ire
Mem bers
Ġwhere in
Ġtr ump
ĠU g
ĠI L
Ġbe es
ĠF ounder
ation Error
ĠS creen
Ġins ist
Ġun just
Ġutil izes
Ex ists
th ora
g ons
ĠHe at
AN N
Ġm elt
ĠDe b
ari at
ĠF ailure
ver ages
Ġpot atoes
iling ual
ig hed
Ġauthor itarian
Ġref uses
vent h
Ġwh istle
Europe an
Ġprep ares
Ġlo os
ĠT itan
Ġdish on
ĠCub an
ĠLeg end
ĠAb stract
Ġconv ictions
Ð »
ĠR ice
Ġdig ging
Ġdis proportion
S tyle
Ġadvis er
Ġcomp ilation
ĠLast ly
ĠBrand s
ĠL ives
ĠFlore nce
Ġpharm acy
od us
ĠProject s
ĠTe achers
Ġdetail ing
ĠFred erick
ĠXia o
AT OR
Ġc oc
S end
ĠSac r
Ġveget able
Ġtrack er
Ġnational ism
Ġterm inate
ĠBase ball
execut able
Ġv m
AC H
Ġw itch
h n
Ġc ant
D rive
Ġrespect ing
Ġri pp
os c
p th
Ġenrich ing
br ight
al ert
app ings
Ġbi ased
Ġa ura
Ġm ate
ick ets
ĠCrit ical
perm issions
Ġre play
ĠRe ed
roll ment
Ġret rieved
ĠPT SD
ĠAn th
Ġab used
Ġremember ing
Ġneighb ourhood
Ġthank ful
Ġdoub led
Ġbree ze
Ġspo ofer
ĠDis covery
ult an
ĠS plit
az i
Ġf ixture
b ia
Ġeth ic
V s
Ġliv elihood
cover age
ru ment
Ġbefore hand
Ġshel ves
Ġch ick
0 33
Ġt ense
Ġres igned
Ġtaxp ayer
ĠWAR NING
ef it
ull ivan
Ġtest osterone
ĠEv idence
Ġmon arch
Ġfasc inated
Ġsympt om
Ġpar a
ĠRich mond
ĠHall ow
ĠAss istance
ĠCitiz ens
Ġinaccur ate
et ric
ĠM ul
Ġcum ulative
AT H
19 2
ev olving
Sim ilar
l ane
ĠBl ues
Ġheav ier
ĠCost a
Ġaccus ations
ĠSc orp
Ġsu ck
ĠM unicip
ĠTe a
Ġdecl aring
Ġuncertain ties
ĠL ayer
ck pt
Ġgl oss
ĠIraq i
Ġrat ios
am y
Ġwork outs
Ġfil med
Ġs ailing
Ġhards hip
ĠF light
Ġint roduct
select or
Ġdep ressed
Ġspl its
ĠLabor atory
assert In
Ġsha ft
F eed
ech o
Ġ40 4
Ġb aked
ä »
Ġcompar isons
ĠGrow ing
ĠIntegr ity
ĠD ating
ĠN ames
ĠM ing
Token izer
ĠCom prehensive
Ġdry ing
Ġto dd
ON G
et e
Ġre claim
ĠF oster
ĠY un
2 24
m igr
Ġsan ction
Ġtur moil
Ġexist ential
pars ed
ĠJosh ua
ul ators
Ġfib ers
ro be
Ġk ills
vel ength
ĠÂ »
ent ric
Ġdebt or
Ġwa ist
Ġkid n
Ġmet res
insp ired
ĠJuda ism
ĠP ink
Ġiss uing
Ġlau ndry
ĠN uclear
Ġreson ated
comp are
ĠAr med
Ġc ups
Ġsett ling
il ine
Ġac claimed
zz y
Ġspr ings
Ġdis gu
ric ing
Ġf isher
St ruct
ĠE agle
Ġst air
nder ing
Ġcatast rophic
mp athetic
Ġopt ical
Ġb ourgeois
p oll
ure r
ri ves
H ouse
Ġb er
Ġheaven ly
ĠG ay
Ġexp ands
ĠNo ah
o fficial
gest ion
Ġmon uments
Ġ ....
ri en
ar xiv
ĠCh and
prob ability
ĠP ure
ĠFI FA
ĠArch ives
v d
Ġtx id
ĠAn swer
g ust
ĠForm er
Ġper me
t b
ĠMin i
Fr ank
Ġcontract ual
asket ball
Ġn s
ĠU P
Ġapp re
] /
den ly
ac l
% ),
Ġautom ating
ĠTh an
Ġs ulf
Ġepid emic
ĠP oor
r ators
Ġun fore
ĠF ake
Dom ain
Ġcan al
ed ged
Ġ| "'
f ounded
Ġmaster y
ĠV M
ĠS ag
z ant
Ġwitness ing
Ġple thora
Ind ia
f ollow
Ġcal ming
Ġob server
Ġlon eliness
Ġfe ast
Ġun safe
ĠK on
ES CO
Ġjoint ly
c ents
ĠFl ash
Ġr outer
grow th
in ational
in tern
brow ser
uff y
Ġpars ing
Ġs r
Ġdec ree
Ġcommand ed
Ġspot ted
sh aring
io let
ish i
ĠNash ville
ĠG arc
Ġad hering
ĠD ol
Ġ= >
ĠB ald
au er
ensors hip
ĠAust rian
Ġconvers ational
Ġsubscript ions
"| âĢĶ
back ed
ĠD iff
US A
eng u
ĠN BC
Ġfire arms
Ġmigr ants
Care er
ĠRep orts
Ġblow n
Ġover flow
ĠPoint s
Ġspec ifying
Ġ19 33
mer ged
ĠVen us
c ards
Ġtre k
ĠDom ain
ĠS nap
cl amation
Ġout ward
ĠJ ake
ĠT ig
ĠPar se
Ġcon grat
Ġswe ep
Ġstaff ing
Ġorient ed
Ġarchae ological
Ġinsure r
Ġdiss ertation
Ġgentle man
math bf
Ġer ad
ĠC ad
Ġdef ect
Ġregul ating
Ġumb rella
ĠCLA IM
Ġstar red
pract ice
Ġimmort al
ĠS PE
Ġmis use
Ġtime zone
: ')
C reated
Ġt k
FR ING
h df
le ting
Ġind o
ĠAud ience
ĠB our
oc s
Ġiss u
aval ry
E W
ĠPark s
ear th
pub lished
Ġcryst als
rie ving
Ġpo ets
ĠSams ung
Ġ12 5
Ġb loom
ĠD R
Ġselect ive
Ġdiss ent
infl ammatory
rim ental
ĠBo ost
Ġconfront ation
ĠG uild
Ġ ^
PAR AM
Ġthe e
ĠBr anch
ĠNC AA
ĠWrit ten
Ġdistract ed
ĠTheat re
asg ow
Ġsort ing
AN S
stan bul
g ary
agn etic
s av
g om
ov ies
prot obuf
Ġinter sect
atic an
Ġposition al
ĠB I
AD DR
M er
Ġreal ms
Ġ/ =
Ġwe ed
Ġtow ers
Ġillustr ations
sec ured
um per
ĠCont emporary
Ġinf amous
in arian
Ġbomb ing
f ty
ĠK il
FRING EMENT
Ġlife cycle
ĠF ig
Ġhous ed
ir teen
Ġsh ades
art en
mem pool
H ard
ĠTim othy
qu it
ind ent
å Ī
re rs
Ġpick up
H ot
cod ed
L ater
ur ous
~~~~~~~~ ~~~~~~~~
ĠMar io
Ex amples
Ġcooper ate
Ġdisadvant age
Ġ12 3
n ick
Ġpal ette
Gener ate
Ġanal ogy
up iter
Ġwarri ors
st airs
J on
ĠCent ers
Mark et
Ġsp acious
S ch
W ant
Ġresear ched
)) ]
ĠM ira
Ġmetab olic
rop he
Ġcustom izable
Ġcompl ained
Ġint ol
Ġtermin ology
m und
Ġindel ible
Ġtrans act
Ġmod eration
Å «
ine a
ns ic
Ġpreced ent
D L
ĠCo hen
Ġadd itions
iv able
Ġ ion
Ġstimul us
Ġinitial ization
bal anced
Ġprev ailing
Ġst igma
A W
new address
id i
ĠPrinc eton
ens ure
d ialog
Ġprophe cy
J im
ĠPost ed
Rel ated
Ġfact ual
Ġam ino
SE C
Ch apter
Un less
ĠEnc ourage
Ġsp ices
Ġconver ts
Ġwas hed
Ġperform er
ĠHar bor
ar an
unct ure
Ġdam n
Ġdev iation
Ġcur se
read lines
Ġprompt ing
Ġexpans ive
Ġdetect or
ĠExper ts
ĠCarl os
ul as
ill es
Ġcan cers
ĠDe bt
Ġsem inars
ĠU E
Ġpill ar
ĠPlan et
C amp
Ġsocial ism
iar ism
ĠInvest ors
UT E
Ġoccup y
organ ized
Ġsk ull
Ġdecre ases
per f
Ġs urn
vel ocity
123 45
Ġple a
nt ax
ĠT ow
Ġsub class
it ures
Ġsur plus
Ġast hma
ĠIn frastructure
en h
Ġco herent
b ast
sche me
Ġlun gs
ens ed
g rand
Ġcontext ual
Ġ195 1
pr ime
Ġpre aching
Ġ" ...
ĠArt ists
Ġfl ock
Ġdies el
Ġir re
Ġdil ation
ĠR ou
Ġcomp ressed
Ġesc ort
Ġviol ate
h h
Ġg pu
work flow
develop ment
Ġbo oth
B orn
ĠAct ivities
Ġunc overed
ĠLaw yers
roph y
IN FRINGEMENT
Ġbe verages
Ġterm inated
Ġfrank ly
ĠShan ghai
ĠMot ion
Ġb n
re ce
Ġbul lying
Ġide ally
feed ing
ĠClick Funnels
ĠSh ape
Ġf ats
Ġgest ures
num bers
ha ul
Ġfl ames
Ġphilos ophers
at ics
ah l
] {
ĠSug ar
ut down
Ġant agon
Ġdet rimental
index es
Ġnot ices
Ġdeb it
Ã ¸
br inging
Commun ity
appro ved
Ġassert ed
m x
s ensitive
ĠV I
Ġne o
ĠAlbert a
ĠF eng
Ġfore see
Ġs way
sub st
ĠK ill
fl ux
Ġsp awn
Ġterror ists
role um
ĠBut ler
n ets
Ġin security
ĠDel ivery
Ġg ems
ĠEmb race
ĠR unning
Ġres olutions
Art icle
Pol y
Ġvigil ant
od ia
Ġph i
g iven
M ind
Ġrest ruct
ĠAl zheimer
oc ese
ĠM ist
per forming
M ike
Ġnot eworthy
Ġv om
Ġdis pos
Ġse rene
Ġcon quest
We ight
Ġpsych o
ĠSol omon
` ):
n as
A verage
Ġgener ators
Ġquarter back
Ġhe ater
Ġcool er
Ġc ott
o ji
Ġarm ies
T yp
Ġgar lic
Ġintegr ates
XX XX
em por
ĠG ET
s al
requ ire
m pl
Ġknock ed
Ġconscious ly
Ġafore mentioned
f ood
ĠCL I
L ow
ĠK yle
ĠMethod s
J un
Ġdeleg ate
Ġbl ends
3 60
E U
ĠRem oval
Ġlivest ock
Ġsim ulate
TH ON
l ip
Ġvision ary
Id entity
Feb ruary
V ICES
L I
ĠSk in
pay ment
as per
ist ine
ĠHom es
ĠApp lications
Ġcont am
ĠCoal ition
Ġrot ate
Ġeven ly
Ġp umps
Down load
ĠD ennis
foot notes
ĠG ov
Ġhe ir
Ġtrans plant
any on
Ġdimin ished
ĠSer ge
ge o
Pl ayer
ĠA F
Ġintertw ined
est ep
p ipe
ĠEnt ry
LE TE
Ġexquis ite
% "'
Ġelim inates
Ġ' [
ĠR osen
Ġint ends
Ġrecogn izable
c aster
ol ation
ign ant
ĠGree ks
Sc ott
ĠR ah
B ob
Ġcompens ate
Ġid ol
Ġl ith
Ġinvestig ators
f air
ĠT ul
Ġâ Ķ
ĠSet up
Ġcl ergy
ĠL abs
Ġthink ers
ĠHar vey
Ġh ype
vert ices
l b
Ġacc ustomed
ĠLind a
ine es
Ġdef inite
ĠWall ace
Ġdream ing
ĠRec ently
Ġiter able
Ġham mer
ĠDem ocracy
ĠMc Donald
Ġconflict ing
Ġrout ing
str ate
ĠNob ody
ĠS old
Ġprinc ip
G erman
Ġl ymph
ull ah
Ġ19 14
Ġreprodu ction
ĠEqu ipment
Ġcon ditional
ĠMet ropolitan
C ounter
ort ium
ĠDE AL
ub ric
Ġinterpol ation
ĠKit chen
ĠÂ ©
G r
Ġ19 38
ĠInter view
Ġsc rat
oun ge
Ġcl ue
Ġsun set
Ġp anc
Ġc ried
or b
' })
B ra
M IT
PASS WORD
P ot
ĠEx hib
Ġshout ed
Ġsp a
ĠRole x
wh y
Sh are
ur acy
ĠT emplate
N P
Ġsafe guards
Ġrefe rend
Ġcur b
Ġform ulated
Ġam p
Ġart illery
ĠBeng al
get newaddress
Ġexecut able
ĠHallow een
[...]
