#version: 0.2
Ġ t
Ġ a
i n
h e
r e
o n
Ġt he
e r
Ġ s
a t
Ġ o
e n
Ġ c
Ġ w
Ġ Ġ
i t
e s
n d
o r
i s
in g
o u
Ġ p
a l
Ġ f
Ġ b
a n
č Ċ
Ġt o
e d
Ġ m
Ġ in
Ġa nd
Ġo f
a r
Ġ d
i on
i c
l e
Ġt h
o m
Ġ h
a s
en t
Ġ re
Ġ e
s t
r o
v e
Ġ l
i l
c t
ĠĠ ĠĠ
Ġ n
Ġ y
l y
e t
Ġy ou
Ġ g
Ġ is
s e
u t
Ġb e
i m
Ġ I
c e
i d
o t
Ġ T
Ġth at
u r
Ġf or
at ion
o w
i g
r a
o l
Ġ on
Ġ u
c h
v er
Ġs t
a y
Ġ A
it h
e l
i r
Ġ it
Ġ S
a m
Ġw ith
a d
Ġa s
i f
Ġ C
er s
u l
Ġp ro
Ġ he
es s
Ġw h
Ġc on
' s
Ġa l
Ġa n
m ent
at e
Ġa re
Ġc om
k e
o d
g e
Ġe x
Ġw e
es t
Ġo r
ĠĠ Ġ
Ġh a
he r
it y
il l
Ġd e
is t
p p
or t
a b
Ġ M
u s
ĠT he
i ve
o re
t er
Ġ B
i es
Ġs u
e ct
l d
q u
o p
Ġc an
r om
Ġ v
a c
Ġyou r
Ġ P
an t
u st
Ġ W
re s
ig h
i v
Ġn e
a in
i al
Ġ H
t h
en d
Ġa t
o c
n t
Ġn ot
e m
Ġw as
Ġ r
Ġs e
u m
ar t
Ġha ve
o s
Ġc h
a nd
Ġ le
u n
Ġth is
Ġ "
ĠĠĠĠ ĠĠĠ
Ġ D
Ġs h
u re
Ġ F
Ġf rom
Ġb y
r i
ou t
igh t
Ġw or
Ġ R
u d
Ġa b
Ġ en
Ġthe ir
ion s
p t
p er
Ġ L
Ġ im
om e
Ġ E
Ġ (
ou ld
p l
Ġ G
al l
re d
Ġin t
p e
g h
r ou
ou r
Ġ 1
o st
k ing
i z
ar d
Ġ N
Ġp l
al ly
Ġd o
Ġal l
id e
Ġ j
Ġa d
t her
Ġw he
f f
Ġw ill
a ge
Ġthe y
Ġcom p
an ce
a g
a ct
o g
Ġ k
Ġg o
in e
Ġu s
el l
Ġ 2
i e
a re
Ġh as
Ġm a
Ġ O
Ġm e
ation s
i p
c c
ic h
ab le
or m
an s
as t
ou s
Ġt r
en ce
Ġcon t
in d
ĠT h
Ġim p
Ġre s
Ġb ut
Ġm ore
o o
on e
on g
im e
T he
ul t
at ed
ic e
e ar
i b
s o
k s
Ġo ut
i ke
d u
c l
Ġm an
ver y
ig n
u e
Ġc l
e re
am e
ic al
' t
ĠĠĠĠ ĠĠĠĠ
Ġs o
Ġab out
Ġ =
Ġt e
Ġwh ich
f orm
Ġa pp
Ġwh o
e p
Ġ -
Ġ J
Ġal so
Ġu n
Ġh is
Ġ U
ac k
Ġo ur
Ġon e
Ġu p
ĠI n
re at
Ġo ther
Ġe v
ve l
n ow
0 0
i le
Ġl ike
Ġthe m
Ġ if
i re
as s
Ġf e
a p
r u
r y
Ġ qu
t e
Ġd is
ĠI t
it ion
Ġs p
a ch
Ġp art
ar y
a ce
Ġt ime
Ġa r
Ġp e
it e
a u
Ġof f
Ġcom m
Ġp er
a il
Ġ Y
res s
er v
Ġt ra
a v
Ġwh at
Ġm y
or s
Ġthe re
nd er
Ġe m
ent s
i a
ing s
o se
ou nt
Ġbe c
as e
se l
x t
Ġs ome
ar k
or y
c es
Ġne ed
Ġk now
op le
ay s
Ġan y
Ġwhe n
Ġt a
ct ion
Ġit s
or d
l l
en s
b er
u al
Ġh ow
Ġin d
ĠTh is
Ġo ver
Ġwor k
Ġint o
Ġre c
n e
Ġa g
if ic
il d
Ġa cc
Ġs c
in t
u b
Ġwe re
Ġp re
Ġs a
Ġpe ople
re e
l p
c ial
rou gh
Ġbe en
ment s
an g
Ġg et
Ġpro v
Ġhe r
Ġh ad
c on
Ġne w
Ġhe lp
Ġ ro
it ies
Ġu nder
Ġcon s
Ġ '
if f
Ġ K
Ġthe se
Ġy ear
i ous
Ġm ay
ou gh
Ġj ust
o b
Ġw ould
ĠC h
o ve
f ul
Ġex per
Ġp r
ver s
il ity
ĠS t
Ġre l
Ġa ct
oo k
n ing
Ġth an
o y
c ess
Ġ2 0
ic t
ou nd
Ġs pe
Ġin v
w n
Ġd es
in ess
is h
au se
l ow
o v
pp ort
Ġp ers
i ence
. .
Ġb et
at es
cl ud
at ing
. "
Ġd iff
at a
Ġas s
c k
Ġth rough
sel f
Ġn o
p ect
Ġma ke
is e
a k
er t
ur n
j ect
o od
Ġ V
at er
ic es
r it
Ġimp ort
ol d
Ġa m
Ġs y
ir st
Ġb u
e f
Ġin ter
ĠĠĠĠ ĠĠĠĠĠĠĠ
us iness
on s
Ġm ost
el f
- -
h ip
Ġs erv
Ġe ff
l ic
if e
m s
Ġre p
Ġon ly
Ġin c
Ġw ell
Ġsu ch
Ġat t
i an
Ġpro du
Ġad d
g et
' re
Ġst r
Ġin clud
ol og
at h
Ġre g
ra ct
in k
ic k
Ġu se
Ġe very
o f
w e
Ġs elf
he n
Ġp os
f ter
p le
Ġ ra
Ġc ol
c ed
Ġwhe re
ro w
rou nd
he d
ĠW e
Ġse e
Ġb usiness
ow n
ur ing
at ive
t ing
le ct
Ġpers on
Ġ ke
Ġde f
i ent
ul ar
Ġre m
al th
vel op
Ġw ay
et h
Ġman y
ib le
Ġc o
Ġw ant
ĠH e
u res
Ġc ould
ĠA nd
Ġb l
an ge
Ġf irst
ent ial
ic s
ark et
ot h
t y
Ġsh ould
a w
ie w
t en
Ġs he
ion al
Ġev en
on d
ri b
Ġst ud
Ġt w
y s
l es
m er
re n
Ġdiff ere
Ġre t
Ġin s
it s
an y
il y
I n
p h
en er
iz e
Ġde c
Ġr ight
Ġf in
Ġbec ause
ation al
c y
Ġp o
st em
Ġp h
Ġtr ans
h at
Ġa c
ow er
ad e
Ġwor ld
Ġo wn
Ġ 3
ra m
Ġde velop
Ġre qu
w ard
ch n
Ġin st
st and
Ġ ent
ĠY ou
Ġle ad
) ,
Ġb ack
| >
) .
f ore
< |
g an
f t
as ed
is s
id ent
Ġl ife
Ġh igh
ust om
n ess
u es
Ġyear s
Ġcomm un
Ġth ose
u ch
Ġ very
Ġm od
Ġv al
Ġthe n
Ġm arket
Ġ1 9
e c
Ġs ign
Ġd ata
ĠA s
i ed
iv es
Ġs et
Ġp ol
Ġar t
al s
Ġgo od
Ġo b
Ġl ong
Ġsu b
Ġpro cess
Ġg u
Ġh im
ce pt
Ġsa id
Ġbe ing
e ver
al ity
Ġad v
) :
Ġtw o
Ġex p
Ġst art
Ġm ed
Ġin form
ar ch
e g
Ġdis c
Ġsy stem
Ġsu pport
e w
Ġf ind
Ġs m
Ġte chn
l ed
Ġc re
Ġp res
Ġd on
Ġa fter
Ġta ke
ot her
Ġc ustom
Ġpro f
oc k
Ġprov id
Ġdo es
te xt
Ġg reat
Ġd id
Ġdiffere nt
b le
t s
iz ed
Ġs oc
i et
om m
Ġa ut
Ġc are
Ġhe alth
Ġn ow
o ol
he s
Ġpl ay
u ally
Ġm uch
ĠU n
ol ut
ĠThe y
Ġle ar
Ġs im
Ġf am
Ġprodu ct
er n
er m
Ġre f
Ġd et
Ġ end
en se
, "
Ġ |
Ġin f
Ġn um
Ġb est
p s
Ġunder stand
u nd
it ed
Ġpro g
Ġth ink
t le
we en
ĠI f
n g
Ġimport ant
Ġf l
Ġh ist
Ġs ur
it al
Ġag ain
Ġv ar
Ġl oc
or k
Ġfe el
iv id
Ġwh ile
Ġcon f
Ġe ar
i en
ĠB ut
Ġha nd
Ġt y
Ġbet ween
Ġex t
Ġbe fore
ol low
Ġd own
Ġexper ience
of text
end oftext
Ġm ade
Ġcomp le
l ine
er ing
Ġm on
Ġp ub
Ġeff ect
in es
Ġg ener
v ing
Ġs k
Ġsh ow
Ġ ed
Ġapp ro
Ġf act
a ir
at her
Ġres p
Ġb oth
Ġv is
Ġus ed
v en
Ġte am
Ġb r
d ay
Ġto o
Ġre ad
Ġc all
ro s
Ġdes ign
Ġo p
Ġs om
ar g
Ġc our
ag es
at ure
n er
i qu
on t
e x
Ġre al
c om
is m
u c
al e
r ic
Ġe ach
Ġc ar
en g
Ġm em
Ġex pl
Ġc le
Ġinv est
olog y
ate g
ur al
ere st
Ġp ur
Ġex am
pl oy
Ġc he
ter n
Ġc ount
Ġc ur
Ġo pt
Ġinform ation
Ġres ult
Ġm ain
Ġall ow
iv ing
Ġpart ic
ĠH ow
re ad
im es
Ġbe l
k es
T h
ĠP ro
Ġa v
ire ct
Ġcont in
Ġen s
ra nd
Ġor gan
Ġ 4
Ġbu ild
Ġa w
in ing
cc ess
p ort
Ġ 5
Ġth ings
u p
as h
at ch
Ġre ally
v iew
ivid ual
Ġof ten
Ġse c
i x
ist s
Ġ20 1
y ing
Ġen g
Ġgo ing
er g
i vers
' ve
Ġf ollow
d ition
ic ally
Ġl ook
v es
Ġret urn
Ġde p
Ġis s
i el
Ġg row
Ġch ild
Ġle g
Ġhe re
rib ut
Ġp ower
Ġs ay
ĠF or
Ġinc re
ab ility
' ,
od e
Ġd ay
a ke
ĠS o
Ġspe c
Ġs ame
Ġh um
Ġm ust
ent ion
Ġa round
Ġth ough
Ġind ividual
Ġint erest
n ect
Ġm ight
ru ct
Ġ #
l ess
Ġfor m
Ġt est
Ġl it
ch ool
in s
Ġpos s
od y
Ġf ound
Ġ [
ar s
Ġd el
Ġd ist
Ġh ome
ver n
v ed
Ġst ate
Ġqu est
i o
i er
ar m
Ġpo int
Ġpl an
Ġst ill
Ġcomp any
w ays
e red
a ve
Ġb en
c ing
Ġp ay
d er
# #
a h
Ġprov ide
Ġe l
g g
Ġg l
ul l
Ġe as
Ġm in
Ġs er
n ce
as on
ĠĠĠĠĠĠĠĠ ĠĠĠĠĠĠĠĠ
t ed
e e
in ce
Ġ20 2
Ġwith out
ert ain
Ġl aw
an k
Ġpl ace
Ġd uring
b s
id er
Ġp ract
ĠR e
Ġha pp
eth ing
el s
ros s
Ġp ot
s c
Ġde m
in ed
Ġ ide
p r
iel d
Ġinclud ing
Ġperson al
Ġl ot
Ġsu ccess
Ġpro t
us s
i red
Ġc reat
ĠW h
Ġc ent
Ġc or
Ġt al
a red
Ġma king
-- --
it ive
oc us
Ġserv ices
Ġ est
Ġsoc ial
ant s
Ġb o
Ġp rom
Ġa ff
Ġke ep
mer ic
" ,
re nt
Ġst and
Ġp at
Ġc ost
Ġprof ess
Ġind ust
Ġsom ething
is ion
ĠThe re
t he
ĠA l
Ġbet ter
ir on
iz ation
Ġch ar
t o
Ġwith in
' ll
i ver
ĠA n
iv en
Ġf un
Ġd r
Ġch all
Ġimp ro
am p
Ġben ef
ou se
_ _
Ġhist ory
Ġcom e
a z
Ġg ra
Ġus ing
Ġre se
Ġp ass
Ġl ist
ri end
Ġbel ie
Ġs it
Ġc ult
et s
Ġle vel
( )
t ain
Ġsign ific
Ġpro ject
Ġper form
ill s
Ġop en
Ġem ploy
ou n
Ġc a
age ment
Ġpro ble
ate ly
Ġpub lic
ĠG od
' m
.. .
Ġr is
b ers
th ing
p ut
Ġal ways
Ġtr ust
st r
Ġfin an
" "
ĠA meric
Ġl ast
Ġfe w
ĠA d
Ġw rit
Ġf ocus
os s
as es
ut ure
Ġ $
ĠA I
Ġrel ations
Ġbe h
iet y
ort h
Ġto p
Ġstr ateg
Ġpot ential
d e
Ġpro per
Ġsa f
ĠA r
oo king
I t
ĠThe se
Ġacc ess
Ġcon nect
ĠT r
p ar
Ġd irect
con om
Ġfam ily
Ġcon c
Ġc ap
l ing
Ġneed s
v iron
i ents
Ġg rou
Ġ ess
Ġrep ort
Ġm at
l and
Ġo per
00 0
Ġan other
Ġpre v
ĠS h
Ġserv ice
ĠI s
Ġgo vern
p ro
Ġsm all
o ad
Ġab le
is hed
Ġp op
Th is
Ġspec ific
one y
Ġf il
e ad
ur ity
Ġle t
b e
Ġnum ber
pport un
Ġme an
it ions
Ġch ang
Ġcre ate
r ation
Ġl ove
ĠĠĠĠĠĠĠĠ ĠĠĠĠĠĠĠ
Ġbec ome
Ġcommun ity
Ġke y
Ġcl ass
Ġsignific ant
iqu e
Ġf ree
Ġl ess
Ġr un
Ġcon st
Ġhum an
Ġw om
ne y
Ġinv ol
Ġrelations hip
Ġoff er
Ġcont ro
m an
ĠI nd
re t
Ġc ase
Ġimp act
re am
ĠN ew
Ġth ree
Ġe qu
Ġf ac
Ġo pportun
c o
Ġf uture
W e
Ġs chool
Ġp ut
Ġlear n
Ġ ident
it ut
Ġch ange
Ġk ind
Ġagain st
Ġto ol
Ġ 6
l u
Ġfinan cial
Ġon line
ent ly
con d
r al
p or
Ġb ig
ect ion
Ġb re
Ġm ind
Ġprofess ional
Ġc r
Ġadd ition
Ġexam ple
i or
olut ion
Ġacc ount
an ces
Ġn ame
Ġt er
ĠTh at
Ġed uc
at form
Ġb ro
Ġact iv
ĠD e
h or
Ġre ce
Ġen viron
ar ge
Ġwor king
Ġother s
Ġ 0
Ġwh y
r ist
Ġh ard
Ġm et
Ġan al
Ġdevelop ment
Ġne ver
Ġstud ents
in ation
Ġmon th
Ġ es
Ġrese arch
if y
ight s
Ġpartic ular
ivers ity
Ġinter n
ĠW hat
Ġsu pp
Ġlit tle
Ġm us
Ġcomp an
am es
ĠE x
a pp
ot e
a king
k en
Ġcont ent
or ies
ur y
A s
Ġsu re
if ied
end ing
ac y
Ġty p
Ġl and
o int
Ġval ue
Ġor der
Ġindust ry
Ġav ail
ain s
Ġvar ious
Ġg ive
ib ility
m ed
Ġc ertain
ĠHow ever
Ġe conom
Ġp ost
a x
a ut
Ġme et
Ġprog ram
Ġen h
ĠW ith
Ġwe e
Ġme ans
Ġchall eng
Ġcle ar
Ġw ater
in al
Ġex pect
ic ation
Ġm oney
he re
č čĊ
Ġapp lic
Ġwor d
Ġb rand
Ġm ove
ĠS he
an n
Ġj ob
are nt
iv ed
Ġpl atform
ĠW hen
og n
ri pt
a pe
Ġv iew
Ġexper ien
w ork
Ġe le
Ġne xt
eth od
Ġf und
ard s
Ġf riend
Ġcur rent
ab or
Ġcons ider
k ed
w are
= =
Ġse em
Ġre du
ur ther
Ġeffect ive
Ġ Q
Ġ1 0
W hat
Ġs ince
Ġens ure
Ġro le
en cy
Ġrequ ire
Ġhe ad
Ġspe cial
il ities
our ces
ĠC om
l ish
f or
Ġto day
I f
a im
Ġc red
Ġwe bs
ab ly
2 0
Ġch o
t t
p os
f rom
Ġenviron ment
Ġpres ent
Ġloc al
iss ion
is ed
or n
Ġproduct s
Ġo ld
Ġcompan ies
Ġp ar
r ies
m e
Ġre st
at or
Ġtechn ology
Ġstr ong
n ame
Ġcour se
pe cial
oc i
Ġinclud e
ic le
our ce
Ġth ing
o ver
ĠB y
Ġt re
Ġl im
v al
Ġt urn
ĠC l
Ġbe g
Ġ 7
Ġm ov
Ġre le
Ġen c
ĠS c
Ġse ver
Ġb as
ĠT o
ill ion
Ġst ep
op e
Ġb ook
Ġb ased
it ing
u g
ĠC on
Ġavail able
Ġt reat
Ġposs ible
led ge
ers hip
Ġl ooking
Ġw ar
Ġg ot
ent al
Ġresp ons
Ġiss ues
ra y
get her
Ġto gether
Ġchild ren
ort s
ag ing
Ġj our
ward s
ater ial
Ġp ast
Ġqu ality
Ġpol it
Ġst ory
m b
em ber
ch ie
Ġl arge
Ġa ud
m in
g er
Ġg ame
Ġd ig
Ġcomm it
Ġess ential
Ġs l
Ġcustom ers
Ġha ving
as ter
iz ing
Ġm ult
Ġb ody
Ġcomp et
Ġ &
id ence
n ot
ra ph
j or
Ġf r
o ot
Ġt imes
Ġpol ic
Ġcom es
Ġcustom er
Ġn et
Ġlear ning
in c
Ġc rit
ĠCh rist
Ġchar act
Ġs al
Ġappro ach
Ġ ve
is ing
Ġac ross
Ġde v
Ġsever al
Ġ Z
at ic
Ġg r
Ġgovern ment
Ġma kes
Ġ2 00
Ġimpro ve
Ġknow n
Ġ 8
Ġf ull
as ing
t on
Ġact ually
sel ves
Ġse cond
o id
Ġo cc
Ġaw ay
Ġrec ord
i ans
Ġcomm on
at s
ir d
Ġcontro l
Ġf ore
Ġun ique
Ġqu ick
ĠC omm
Ġdo ing
Ġwhe ther
Ġunderstand ing
o h
Ġph ys
p y
Ġmed ia
Ġm om
H ow
Ġm aterial
ĠS e
Ġre view
ĠP l
Ġf ood
Ġp ain
pl es
ĠG o
ĠA ll
Ġmem bers
at ures
Ġne cess
read y
Ġindividual s
f ort
Ġcount ry
s w
r or
Ġa chie
in a
Ġh ig
Ġadd ress
Ġpr iv
Ġdet ail
u ro
Ġal ong
u ment
Ġm ethod
u se
end ed
Ġt ell
Ġdisc uss
ĠB e
s h
Ġs ol
i od
Ġsh ort
p ath
Ġgrow th
) )
Ġd ays
Ġgrou p
Ġd ra
Ġty pe
Ġma jor
Ġinf lu
or ing
re en
Ġr ange
res ent
oo ks
Ġare a
i pp
Ġal ready
y n
Ġ 9
i ate
W h
ang u
Ġn on
pecial ly
Ġam ong
Ġl o
Ġquest ion
Ġel se
Ġmod el
s ide
Ġman agement
Ġsec urity
Ġwom en
Ġu nt
b r
1 9
act ion
Ġris k
Ġcont ribut
ĠB l
erg y
S t
ĠO n
Ġre ason
n ov
h ing
ore d
Ġev ent
Ġf ar
Ġso ft
our s
i um
ar ing
ul ation
Ġn at
Ġs ays
c ent
ic ult
j oy
Ġta x
Ġf re
Ġs ense
Ġaut hor
ar get
Ġoff ers
ure d
Ġh old
Ġe lect
Ġp ri
Ġsit u
Ġcomple te
ord ing
Ġw ays
Ġmarket ing
Ġcall ed
Ġc ru
Ġw r
Ġear ly
Ġd one
du ct
s et
Ġ +
Ġrec ogn
Y ou
Ġprot ect
ir it
Ġin it
ob al
Ġem ot
ou ra
Ġknow ledge
Ġint eg
Ġhapp en
cl us
W hen
ir c
Ġwebs ite
Ġe ver
ĠC ol
Ġsh are
E R
Ġwor ks
Ġm ar
ur ance
Ġmain tain
r on
Ġl ive
Ġv ide
ra in
Ġl ight
Ġs w
e xt
Ġf ield
ri ed
Ġcom pl
ĠS p
( '
Ġs ing
Ġp a
Ġbr ing
d ing
Ġcons um
Ġd ue
b y
Ġdes c
er y
Ġsk ills
Ġcol le
Ġtra ining
ff ic
ĠU S
a pt
Ġcl aim
Ġdid n
Ġproble m
Ġar g
e es
le ment
Ġhe art
i res
( "
Ġ1 8
Ġsystem s
Ġfollow ing
Ġ" ""
Ġest ab
Ġex ist
it her
ou th
im ate
Ġsp ace
il ar
Ġor ig
Ġen joy
Ġen ergy
Ġdiff icult
ĠH is
Ġes pecially
au gh
Ġen ough
Ġab ility
Ġl og
Ġde al
ĠR es
il it
ist ic
Ġle ft
Ġcol l
Ġbuild ing
ĠA t
Ġyou ng
s y
ver age
m it
Ġn ature
y le
Ġf urther
Ġwee k
Ġt em
Ġthough t
ĠC an
ĠO r
ĠAmeric an
## ##
os ed
Ġbeg in
um p
Ġleg al
Ġl ine
Ġde ep
' :
Ġan t
ac es
oo se
Ġper iod
Ġ {
Ġperform ance
Ġsome one
Ġmus ic
d ef
ĠT e
Ġs ide
Ġchalleng es
id d
Ġdoes n
Ġ er
i k
Ġam ount
ĠE ng
Ġbenef its
Ġcred it
] ,
Ġcom b
Ġtool s
id es
Ġenh ance
Ġ i
Ġtr y
ot s
Ġst ay
Ġdet erm
Ġresult s
f er
Ġeas y
Ġget ting
m ost
Ġc ity
u ed
Ġm en
Ġquest ions
Ġtra dition
ĠP h
A n
Ġ .
Ġbu y
ro p
Ġg iven
o x
Ġbusiness es
Ġf our
Ġdig ital
Ġon ce
l ished
Ġd oc
os p
1 0
Ġc ame
Ġe y
Ġpop ular
le t
ain ed
Ġm ess
f ect
Ġconc ern
a ff
if t
Ġ vers
Ġeff ic
Ġcomple x
Ġlike ly
ap s
as k
Ġl angu
" )
t ime
Ġche ck
is es
in king
Ġem b
Ġeduc ation
Ġan n
c hes
p re
Ġne g
og raph
Ġre pl
Ġne ar
er al
Ġh ouse
ĠO ne
id s
ĠUn iversity
Ġevery thing
Ġob ject
Ġbelie ve
Ġw al
Ġreg ard
Ġass oci
Ġse en
ific ation
ful ly
ĠM an
Ġf ace
Ġc amp
an ced
ne w
Ġb it
u nt
Ġm ot
Ġoff ic
et y
Ġunt il
Ġyour self
p ly
F or
Ġs ell
I N
The re
ĠY our
Ġl ow
Ġcru cial
Ġrec omm
Ġprovid es
ĠIn st
Ġsu per
l oad
Ġare as
Ġcon d
ur s
at t
Ġf ail
Ġcharact er
il t
Ġrep resent
Ġg en
Ġopt ions
is ions
Ġcl ose
Ġfe atures
at ors
ens ive
Ġbe aut
th ough
' )
Ġst ruct
Ġa ction
u ck
Ġme as
on se
ĠD o
Ġta king
ren g
c er
Ġvis it
Ġapp ear
---- ----
Ġus ers
Ġstart ed
Ġl ater
ress ion
ĠF r
Ġle ast
ec ut
Ġ *
Ġde b
iv ity
Ġt arget
g ed
ip le
gg est
Ġnat ural
end s
an e
b ack
g o
ir m
O N
Ġin nov
Ġass ist
olog ical
Ġf ul
Ġdec ision
ĠE uro
ur ch
um m
ĠUn ited
Ġr ather
Ġtr ue
c hed
olut ions
Ġpur ch
Ġcontin ue
Ġ ut
l er
Ġpri or
Ġp ress
Ġd am
ĠA m
ill ed
Ġwho le
Ġide a
Ġsoft ware
Ġst at
s on
us h
ou d
im port
Ġjour ney
Ġp ort
Ġfun ction
Ġcle an
al f
ach ing
Ġpro b
c le
Ġincre ase
5 0
Ġw in
Ġp ath
Ġsu ggest
Ġp le
Ġa ir
ious ly
Ġd i
Ġchang es
Ġpolit ical
Ġbeh av
Ġy et
ĠL e
Ġhig her
Ġstud y
ar r
Ġter ms
oh n
T o
on es
ver t
ag ed
Ġrequ ired
Ġres pect
Ġcult ure
Ġbec om
p art
Ġthem selves
Ġan sw
Ġpos itive
a ult
on y
Ġpartic ip
and s
Ġp arent
Ġres ources
ĠWh ile
Ġtoo k
Ġproper ty
A T
Ġprovid ing
h old
Ġcol lect
Ġ :
Ġent ire
w ay
Ġproble ms
Ġcl ients
re ct
Ġex ce
om s
ro du
v ent
le y
' d
g ing
ĠI m
Ġnecess ary
Ġus er
Ġmat ter
Ġst reng
Ġs ite
e le
Ġse arch
Ġsp irit
Ġev ents
el t
os ing
Ġs at
Ġtra vel
ĠEuro pe
Ġc ra
le x
Ġcare er
E S
Ġte xt
Ġl ives
em ic
c he
Ġca us
Ġnew s
/ /
e al
her s
ĠS u
Ġevery one
Ġc al
Ġsub ject
Ġallow s
ĠE n
av or
Ġup on
Ġword s
i able
Ġatt ention
" :
ip s
Ġper fect
Ġgl obal
Ġpos ition
y ond
av ing
Ġcan not
em pt
f act
Ġaut om
ĠN o
A nd
Ġopportun ities
Ġph ot
ĠO ur
Ġs ound
Ġb al
u ly
Ġa ge
Ġc oun
Ġhelp s
l t
Ġas pect
u le
Ġanal y
a i
Ġm illion
Ġexper t
Ġactiv ities
Ġsim ply
Ġsu m
Ġem ail
Ġl a
Ġaff ect
Ġmom ent
Ġpr int
Ġv ol
or ld
Ġpolic y
Ġpract ice
ir t
ra ms
Ġcon vers
Ġneed ed
Ġpr ice
Ġsim ilar
Ġmonth s
ĠM y
Ġl oss
l i
Ġfriend s
Ġreg ul
. ,
p ose
Ġ z
ic ated
n ed
Ġmed ical
A R
Ġphys ical
ĠS ome
Ġsaf e
Ġc y
re c
Ġav oid
Ġmod ern
Ġlangu age
Ġcreat ing
cl ass
Ġopportun ity
" .
i ol
Ġhow ever
ul es
Ġc irc
et imes
ere nce
Ġiss ue
Ġex c
Ġex cept
Ġim m
Ġhist or
Ġtrans form
Ġeng ine
ot t
a f
Ġquick ly
at ives
ict ion
ac ks
un e
Ġ1 2
ĠC o
b d
ĠP r
Ġl iving
ut h
Ġachie ve
Ġ= =
Ġac cept
d ata
Ġab s
[ '
Ġit self
Ġj o
Ġ X
Ġp red
ist er
Ġcomp ut
l ight
em s
Ġexperien ces
ĠA pp
ĠM ed
Ġgu id
t ers
Ġd est
he ad
c ome
ĠM ar
c ies
Ġsim ple
Ġar r
Ġf all
ell ig
Ġcost s
Ġw ide
B ut
Ġp ie
Ġc ou
ers on
Ġart icle
Ġtal k
' ]
Ġenc oura
ĠSt ates
it es
Ġf ig
Ġtr ying
Ġc ases
Ġt erm
Ġvide o
Ġcont ract
Ġd ed
Ġfam il
Ġe ither
Ġh y
Ġsing le
Ġw ent
Ġgener al
s u
ĠC ent
ive ly
Ġab ove
Ġw a
Ġwrit ing
Ġbec ame
g s
Ġas k
Ġorgan iz
ru ction
Ġany thing
Ġh on
Ġto wards
al se
r ing
Ġto t
Ġcond itions
Ġs olutions
Ġsaf ety
C h
is on
g es
Ġthrough out
ty pe
Ġins urance
Ġc ut
Ġref lect
Ġse x
ol l
ĠT ra
Ġde ath
Ġreg ular
Ġag ree
Ġre v
Ġd om
Ġo pp
Ġcre ated
Ġa im
ad d
Ġc ause
z e
v ant
ys is
Ġ x
Ġcont act
Ġgo als
min ist
Ġal most
Ġeconom ic
Ġins p
op h
e ed
Ġta ken
er c
Ġch oose
Ġinvest ment
ĠN one
re g
Ġpart n
ĠJ ohn
Ġexpl ore
Ġbeh ind
Ġimp lement
Ġw orth
Ġpr im
ag n
ĠA fter
iv al
Ġs ent
Ġcour t
S o
Ġtradition al
Ġmean ing
Ġbre ak
Ġprev ent
Ġf ive
en n
at ory
Ġb i
Ġm or
Ġsal es
. _
c ast
Ġw on
Ġrequ est
Ġh ope
u ff
ĠR ep
ĠA f
Ġg round
Ġover all
o ard
n ces
Ġsu st
Ġlead ing
Ġaw are
ar ies
d d
Ġtreat ment
c are
Ġlong er
ĠC ar
re me
Ġprovid ed
Ġs ect
Ġtyp es
er ous
Ġstrateg y
Ġj ud
Ġh ours
re w
Ġfor ward
ep end
Ġ19 9
Ġsitu ation
Ġs ens
Ġdesign ed
Ġinteg r
ub lic
u x
b ased
ov ed
Ġis n
Ġqu ite
pp ing
T r
Ġb at
O ne
act ions
ru pt
ĠE m
m od
i ance
Ġ1 5
Ġl arg
Ġcons ist
Ġca pt
ir ing
Ġright s
ĠM r
op y
Ġemploy ees
Ġbe yond
Ġinvol ved
t est
ib r
Ġfact ors
i ation
Ġcom fort
Ġcoll abor
A N
en ing
Ġinst itut
Ġparticular ly
Ġprog rams
ĠC ont
Ġem erg
: //
o or
Ġst ru
se qu
Ġcho ice
Ġopt im
Ġcommun ication
il es
ĠCom p
Ġn ational
1 2
Ġresp onse
Ġma ch
Ġta kes
Ġincre asing
Ġ ur
Ġcon cept
Ġb ad
Ġaud ience
Ġl ay
Ġsc en
ly ing
Ġe t
ĠAs s
in ary
iver se
ĠM ay
pl ay
sy ch
Ġrec ent
ĠW est
Ġ3 0
ĠA ct
Ġorgan ization
Ġ ill
Ġst ress
Ġass ess
op s
l s
Ġf it
Ġext ra
ic ate
ag er
Ġdec isions
Ġto ld
O R
c ode
Ġro om
w w
Ġst aff
I D
Ġde g
Ġcount ries
A S
Ġstrateg ies
Ġrelationship s
ac hes
Ġfe ed
Ġn ight
Ġfil m
hen s
Ġus ually
Ġproject s
= "
og le
Ġcom ing
Ġapplic ation
a ith
Ġv iol
Ġst ore
Ġin j
m a
ĠG u
it or
Ġb ar
Ġrem ain
Ġup d
am s
Ġpriv ate
Ġn orm
Ġinclud es
Ġnot hing
Ġwant ed
am ent
Ġth inking
Ġas ked
Ġr ate
Ġper cent
== ==
Ġexp ress
ĠP res
Ġadv ant
al u
u fact
Ġf low
Ġser ies
Ġdesc rib
I T
Ġlevel s
r ast
ic ations
an ks
Ġcrit ical
ĠSt ate
Ġw ond
Ġim med
Ġsoc iety
un ch
g round
Ġwe b
ie f
Ġob s
Ġre ach
Ġsuccess ful
ud e
x im
is f
as ons
Ġval ues
Ġw atch
Ġout side
Ġh ost
o ice
Ġse ason
Ġint rodu
ro ll
Ġnet work
h ood
Ġf ile
Ġprob ably
il s
ĠĠĠĠĠĠĠĠ ĠĠĠĠĠĠĠĠĠĠĠ
l ike
Ġpre p
a ign
ĠN ot
p ite
ĠD r
E N
ter m
Ġex ecut
Ġth ird
ĠF rom
w h
ab les
he t
end er
ĠS y
Ġdef in
Ġintern ational
Ġst e
ove red
Ġprodu ction
Ġ ver
Ġev idence
Ġpr inc
m ber
Ġmin ut
ra d
Ġl if
if ul
en ces
E O
u ge
Ġs ource
Ġaddition al
Ġens uring
f ace
w here
ra p
ke y
Ġm iss
ĠS erv
ide red
H e
p ri
Ġon es
ry pt
Ġbro ad
Ġl at
Ġmult iple
Ġhe av
pp ed
Ġacc ording
f ile
he l
Ġpower ful
um e
Ġbu ilt
Ġpract ices
es us
Ġrecomm end
Ġatt ract
ol ic
Ġdem and
se c
Ġm ale
u ild
e v
Ġrel ig
Ġm ental
Ġcap ital
b all
= '
Ġtre nd
Ġimport ance
Ġd iv
ail y
Ġu nd
Ġe p
Ġar ch
Ġrece ive
Ġw ind
? "
ellig ence
ĠH er
Ġvar iety
Ġassoci ated
ĠH ere
Ġrel ated
Ġs ix
Ġsust ain
Ġide as
umm ies
he ther
Ġcons idered
Ġstud ent
Ġpur pose
Ġd ou
Ġval u
Ġdem on
f l
Ġm ass
it able
Ġp ack
Ġm ention
Ġmin im
Ġbe gan
Ġm is
Ġf avor
Ġcult ural
Ġf oot
Ġth reat
Ġinst all
Ġrequire ments
Ġt ri
ĠĠĠĠ Ġ
Ġprom ot
Ġve h
Ġl ower
ĠP e
Ġs ize
Ġorganiz ations
ĠA g
m ing
st er
Ġpoint s
Ġgrou ps
Ġl ed
Ġexce ll
Ġqu al
Ġprog ress
Ġmaterial s
Ġex act
ro wn
Ġc ele
n a
Ġpre c
Ġrem ember
iv il
Ġanal ysis
o le
Ġbl ood
d om
Ġplay ers
Ġd ream
h ib
Ġf ram
ĠM e
Ġstru gg
m y
ic les
Ġfr ont
Ġdoc ument
Ġle ave
ĠN ational
Ġcl ient
Ġcon duct
av ig
1 1
re l
Ġag o
Ġsub st
iz es
ĠW orld
re et
l og
ĠP art
Ġt ou
3 0
ĠI nt
Ġspe ak
ow s
Ġse lect
Ġgo al
Ġfin al
c od
ĠC ons
Ġshow s
art ment
Ġeas ily
or por
Ġman ufact
pl ace
f ig
ĠJ esus
Ġcamp aign
Ġre d
Ġansw er
l ist
j ust
Ġstreng th
ag s
ĠAf ric
Ġst yle
Ġg ain
ar ily
Ġh alf
ess ion
ĠIn tern
um b
* *
ĠC al
Ġs olution
ĠY ork
Ġdist ribut
ĠD es
Ġoffic ial
Ġoff ice
arg s
Ġhigh ly
Ġredu ce
Ġan im
ac ed
Ġso on
W ith
Ġseem s
Ġsa w
Ġh om
olog ies
h aps
Ġopt ion
n al
I S
ript ion
Ġcol or
Ġf ear
id ed
Ġmem ber
Ġp age
le ep
Ġf elt
Ġeff orts
ĠA b
Ġad minist
er ve
Ġmod els
Ġf ast
h a
Ġco ver
Ġacc ur
o ber
op t
Ġrequ ires
t ies
Ġdetail s
Ġcont ext
w or
ĠR eg
Ġ _
Ġhe ld
dition ally
ill ing
w ise
Ġdirect ly
ic ense
Ġad apt
Ġplan ning
b ook
Ġf aith
I C
Ġcommit ment
b it
Ġsh all
if ying
en ge
Ġestab lish
Ġemot ional
for ce
Ġresp ond
Ġoff ering
Ġb ud
Ġfe ature
Ġplatform s
Ġdo ct
Ġm ilit
Ġinst ead
Ġr out
Ġ1 00
ĠF in
Ġt our
le ction
Ġb ase
Ġst ories
Ġf ight
Ġsom etimes
ĠR uss
et er
Ġpart y
ĠAmeric a
Ġm ob
Ġsu ff
Ġwork ed
Ġorig inal
Ġcent er
Ġl ab
A l
Ġtra ck
Ġf air
Ġrece ived
Ġor d
ak es
Ġim age
ec ause
Ġro ad
Ġh ot
ĠS oc
Ġbenef it
Ġe th
Ġinflu ence
Ġc ard
E x
Ġb ank
stand ing
ĠM in
ĠW ar
ĠA ust
ens ion
ĠS outh
Ġparent s
Ġconnect ion
Ġass ert
ĠQ u
u ments
Ġlead ers
rough t
Ġwr ong
Ġf ire
Ġbeaut iful
Ġeffect s
Ġdel iver
idd le
Ġpe ace
le g
Ġu lt
ĠA cc
Ġsat isf
ĠCh ina
Ġdemon str
Ġins ide
ĠF l
Ġt it
w ord
Ġc at
Ġbe low
Ġany one
r ight
Ġre ve
O n
Ġcomp re
Ġp sych
as c
Ġc ode
is c
Ġpat ients
Ġpl ans
Ġatt empt
res h
Ġsc ience
Ġman age
Ġpre t
Ġcons ult
Ġinit ial
Ġgo es
or g
Ġinc ome
in ks
Ġo il
b ody
ce ed
iqu es
ĠD ep
ad es
Ġread y
Ġr ates
it ch
ac hed
Ġhand s
ed eral
Ġbl ack
as ks
id ents
Ġra d
ĠJ ust
e qu
Ġh arm
Ġhim self
ĠC our
Ġgrow ing
Ġfre qu
Ġst op
Ġtot al
Ġ1 6
Ġtr uth
Ġb ur
ain t
Ġg ames
Ġl ink
ĠS ec
ĠN ow
Ġd ate
Ġst ates
Ġbl og
air s
ĠB rit
Ġcontin u
ĠGo ogle
ra el
m ore
Ġlead ership
Ġbehav ior
] )
Ġ1 1
ien cy
Ġsc ient
pect ive
Ġincre ased
Ġwh ite
Ġg iving
ac c
Ġcon dition
Ġs il
clus ion
Ġdra w
Ġeffic ient
Ġsy mb
Ġd aily
Ġex erc
Ġext reme
Ġdr ive
Ġmethod s
Ġde cl
Ġse par
av es
Ġcommun ities
Ġest ate
Ġvalu able
ĠP er
Ġeffective ly
Ġ Â
Ġev alu
ĠAr t
Ġind epend
Ġins ights
Ġn avig
e ah
Ġc ell
Ġp en
Ġwrit ten
r s
Ġdiffere nce
al y
Ġgreat er
l ier
Ġp ict
s ize
c ks
ic ro
Ġdis e
ant ly
ell ing
Ġsay ing
Ġs ort
Ġbl ock
Ġm other
Ġsm o
Ġd at
ph as
t r
Ġdam age
Ġrun ning
ĠG erm
Ġeff ort
an cing
Ġexpect ed
Ġ /
P ro
Ġident ify
Ġey es
ĠSt ud
Ġstep s
Ġte ac
Ġlim ited
Ġfeel ing
ĠP ar
Ġwe ight
Ġl ost
Ġl i
Ġ )
o on
ĠC O
l ict
Ġc ross
rou p
Ġal tern
ic a
Ġl ack
Ġ1 7
Wh ile
Ġth r
ĠHe alth
Ġv ict
Ġread ing
ct ions
Ġteam s
Ġpart s
Ġact ions
ist ics
Ġlo an
Ġpat tern
Ġpro pos
Ġinvest ig
Ġob tain
Ġf ra
Ġent er
ib ly
Ġappro pri
am ple
Ġim ag
Ġre asons
al ing
Ġsy m
Ġdevelop ed
Ġac qu
Ġsh ared
Ġrele vant
b l
Ġdo g
un g
Ġb ooks
Ġre ality
a ur
B y
ous ly
Ġstand ard
Ġbal ance
an a
im in
Ġp ick
Ġac ad
Ġsec ure
Ġb rought
ab ilities
Ġcele br
Ġadd ed
Ġst ra
Ġcor rect
A t
Ġs low
Ġpa per
ĠD on
Ġinterest ing
Ġsk in
Ġref er
Ġlim it
ĠInd ia
Ġexperien ced
Ġprocess es
Ġinter view
Ġgu ide
Ġmeet ing
Ġ1 4
ast ic
Ġut il
ĠW ill
ĠS chool
Ġwom an
Ġ5 0
yn am
Ġto wn
Ġocc ur
A C
Ġgra du
Ġhealth care
Ġm atch
ĠPres ident
Ġallow ing
ĠC ity
e b
Ġmess age
am ed
Ġn p
im ent
Ġmilit ary
Ġst age
Ġchall enge
Ġan c
Ġg ives
ch an
Ġlit er
ĠM ore
ra py
Ġit ems
Ġc and
ro om
ĠIs rael
Ġ19 8
Ġser ve
Ġet c
Ġland sc
Ġpart ner
A L
e y
Ġcent ury
ens es
Ġfor mer
Ġst ream
ĠThe ir
Ġcor por
c il
Ġoper ations
Ġfor ce
v est
ĠG e
Ġful ly
Ġris ks
ĠCan ad
Ġbo ard
Ġsc he
g y
C on
Ġvers ion
Ġl ate
Ġinst ance
ĠM any
Ġtyp ically
Ġapp rec
Ġregard ing
l ation
eng th
Ġsh o
Ġf irm
Ġspirit ual
Ġconcern s
Ġprofessional s
ĠO f
Ġwr ite
Ġloc ation
Ġv irt
ĠN orth
Ġcomm er
ĠU s
Ġprot ection
en ed
1 5
ough t
tt ps
ip ment
Ġd ru
Ġcompre hens
Ġg old
b or
it ect
Ġt en
#### ####
us ed
o very
Ġcomplete ly
o ff
p oint
Ġbud get
Ġspe ed
s p
ĠL et
Ġexp and
Ġmove ment
Ġem p
Ġele ments
le ar
Ġint elligence
Ġsc ore
Ġadv ice
Ġactiv ity
Ġsur pr
l am
Ġtal king
Ġh or
ir th
Ġpat ient
g ment
Ġro b
Ġst ri
Ġf ather
Ġpress ure
1 8
ar i
Ġapplic ations
cept ion
ear ch
ere nces
Ġtr uly
ĠT w
Ġpay ment
ĠL aw
Ġ __
Ġhelp ing
ĠG ener
u el
Ġg ir
Ġim pl
Ġminut es
Ġpl aces
ĠG l
Ġh uge
Ġcl oud
Ġwork ers
Ġrem ains
Ġem phas
l ig
Ġaspect s
Ġhealth y
Ġ2 5
Ġmy self
Ġr ules
ar c
Ġstruct ure
all s
Ġcou ple
en cies
Ġsa ve
ch ange
an c
Ġch ance
Ġcon v
Ġc ert
Ġrep ut
E D
use um
Ġpres ence
ĠM c
Ġacc om
Ġtechn iques
c king
Ġtra de
Ġexpert ise
Ġbegin ning
olut e
Ġinclud ed
Ġcomp on
Ġapp ly
ĠL ord
y ear
ust r
ve y
Ġadv ance
Ġconf lict
Ġk new
est s
d ict
Ġenhance ment
id ing
Ġ1 3
ĠCent er
Ġv oice
ish ing
ĠC he
i ar
ĠTr ust
Ġg ummies
Ġf ost
ĠP a
im ately
Ġpro s
Ġrem ind
er ation
ĠW hether
Ġhe ar
o ly
Ġbecom es
Ġsur round
Ġrespons ible
Ġestab lished
Ġpurch ase
Ġinit i
k y
Ġsupp ly
r ict
Ġpa id
Ġreg ion
ĠS m
ar ant
Ġcont ain
Ġm ark
Ġfamil ies
con t
Ġhe ard
Ġeas ier
est art
ap an
Ġpro ced
oc r
Ġal one
ĠU K
Ġc bd
ĠCour t
Ġapp l
Ġth ous
Ġvis ion
Ġr ich
un ction
it ude
1 6
Ġtr ial
k er
Ġal ign
Ġsymb ol
Ġass ets
Ġrec ently
cod estart
code end
Ġcar ry
Ġ2 4
Ġstand ards
Ġstat us
al es
ĠE ven
Ġcontin ues
Ġdown load
oy al
in ct
Ġf ix
Ġset ting
Ġph one
ĠJ ew
Ġc am
re ed
Ġop in
Ġ202 0
it ation
[ "
Ġpred ict
Ġc ivil
Ġt able
he nt
ĠE d
Ġinterest ed
I s
Ġmov ing
ĠBl ack
Ġcurrent ly
Ġn ation
Ġpie ce
Ġad vert
c ul
Ġreview s
Ġs leep
Ġmach ine
Ġg ave
ĠB ar
Ġde ad
Ġm ag
i pl
l im
Ġh it
Ġstart ing
Ġpret ty
ur t
ĠV al
r an
Ġs us
es e
Ġev ol
Ġprev ious
Ġwas n
Ġtou ch
ĠM us
act ive
Ġtechn ologies
Ġnot e
Ġd ark
Ġtra d
Ġneg ative
Ġs old
Ġs ong
Ġcertain ly
Ġt asks
Ġ202 4
Ġwond er
Ġexcell ent
Ġdeg ree
Ġsignificant ly
st ate
ĠComm un
Ġstud ies
id ge
ven ue
ĠA re
Ġph il
a ks
Ġexist ing
ate ver
Ġd ang
ĠThe n
augh t
h am
i ately
Tr ue
Ġwee ks
Ġnum erous
Ġd iverse
Ġf lex
ĠK ing
Ġcirc um
m p
be ing
Ġeconom y
Ã ©
2 5
Ġact ive
Ġv ia
Ġus es
Ġexact ly
Ġsee k
ĠChrist ian
Ġs ection
Ġpass ion
Ġch ann
R E
Ġch arg
Ġcomprehens ive
Ġsee king
ash ion
Ġinterest s
ve re
Ġhapp y
Ġthere fore
Ġa verage
A d
o ke
Ġd ynam
Ġallow ed
Ġch urch
iven ess
Ġch at
ĠF irst
Ġaff ord
Ġ19 7
Ġatt ack
Ġgener ally
. )
ĠW ell
ra ce
ograph y
ic ip
Ġres il
ord er
m at
c ol
Ġt end
Ġk ids
it iz
Ġhistor ical
Ġad just
Ġpolic ies
Ġsur v
Ġfind ing
Ġm ix
Ġschool s
Ġbas ic
Ġcommer cial
Ġpre m
om en
Ġdevelop ing
Ġbo x
pp er
n um
ĠB usiness
a res
in it
Ġmay be
i ples
Ġequ ipment
Ġtrans port
i ra
ĠEng lish
Ġfig ure
um n
S T
Ġ @
Ġprim ary
v is
ĠAust ral
Ġh ol
Ġbas is
Ġback ground
now n
Ġlaw s
ĠJ apan
Ġan g
Ġadvant age
und red
Ġser ious
Ġra ise
oc ks
Ġsp end
Ġme chan
Ġtra in
Ġpub lished
ac ity
Ġne igh
Ġapp eal
Ġappropri ate
ruct ure
Ġcoun ter
m on
ĠH ist
Ġhelp ed
ĠC ount
Ġwho se
Ġadv anced
Ġd en
d own
Ġc opy
Ġf ell
Ġh ous
her n
ĠD av
Ġchang ed
Ġfor ms
od es
A I
Ġpart ies
ash ing
Ġdeterm ine
Ġ ...
Ġident ity
Ġc ore
ite ly
ĠH ar
Ġinnov ation
e per
Ġeng age
Ġd ri
ĠJ an
Ġbecom ing
f ield
Ġha ir
Ġimmed iately
ent y
Ġs n
Ġturn ed
Ġb ound
Ġ <
ĠA ut
m et
Ġb rain
Ġt im
ĠEurope an
Ġs av
Ġbelie f
Ġra p
Ġsu n
Ġplay ing
ĠH ouse
ipp ing
Ġcreat ive
r is
or ch
Ġlearn ed
Ġp an
1 4
Ġpr ices
m ission
Ġl abor
Ġpl ant
os ure
ific ial
tern al
Ġhand le
Ġfund s
Ġful f
A M
Ġeng agement
Ġc ateg
T hat
s es
Ġm aster
y pe
o k
ic ing
Ġin put
f ess
Ġinvol ves
Ġsit es
Ġlat est
ĠE ar
H E
Ġm ist
Ġobs erv
Ġ čĊ
ĠE very
Ġcomput er
Ġplay ed
Ġan x
or row
Ġ %
ĠR ec
itut e
Ġarch itect
Ġg am
Ġper haps
Ġsect or
Ġinform ed
Ġh osp
Ġt ail
in f
t ings
Ġs ources
Ġey e
Ġsp read
te e
g or
The se
' .
Ġc rypt
Ġt ask
Ġlook ed
ĠP re
ĠAd ditionally
Ġfocus ed
Ġget s
ĠC oun
Ġcircum st
Ġ4 0
Ġval id
ist ry
Ġmot iv
ĠH igh
Ġb ed
ĠS te
Ġc ash
ĠB ecause
go ing
ĠD is
O ur
ĠE l
Ġcand id
ra w
" ]
ch ol
er ia
Ġte le
ou l
Ġfeed back
Ġpre f
Ġdep end
b an
Ġoff ered
Ġmob ile
du c
6 0
Ġam az
Ġdec ided
Ġcolle ction
Ġdisc over
Ġcl imate
an cy
1 7
Ġexper ts
C om
Ġ202 3
ur ies
Ġto ward
Ġf em
Ġintern et
Ġa part
ro te
Ġma xim
u ary
Ġt ur
Ġh undred
id ential
Ġcontin ued
Ġlarg er
ĠS im
it ness
Ġorig in
ĠM ost
Ġlandsc ape
Ġa head
Ġl ooks
Ġlead er
Ġcomp ared
Ġfre ed
Ġsm art
Ġuse ful
Ġdou b
Ġgu arant
w ide
Ġact ual
y th
Ġwill ing
Ġbat tle
ten ance
â Ģ
Ġdev ices
Ġp et
re qu
he st
Ġclaim s
Ġhappen ed
Ġf resh
ĠR ed
ĠA c
Ġpop ulation
Ġprodu ce
f riend
Ġsh ape
Ġsp orts
ĠM arket
Ġconst ruction
ĠN et
E r
Ġo s
ri ef
e ch
m iss
Ġvis ual
Ġr ise
Ġob v
Ġear n
por ary
in y
1 3
d ir
in o
Ġv ital
Ġhigh light
Ġsp ot
Ġwal k
i ant
m ar
Ġcent ral
a j
gor ith
Ġconf idence
ag ue
ef ore
Ġpre fer
Ġnot ice
Ġcon sequ
Ġmention ed
ative ly
ress ive
Ġpo or
Ġtra ding
Ġg e
od ay
i very
Ġded icated
ĠS w
Ġtrans fer
Ġinc red
qu ality
Ġ202 1
Ġinflu en
Ġaut hent
Ġveh icle
Ġes c
in st
con fig
-------- --------
Ġguid ance
g ra
Ġrespons ibility
Ġtechn ical
ĠP ol
Ġl oad
Ġlead s
Ġeffic iency
ĠO ver
Ġchalleng ing
Ġmeas ures
o e
Ġs qu
ut e
Ġm ission
ĠO ff
Ġsc reen
A fter
Ġs end
or age
re st
Ġwant s
Ġ ign
p ass
ĠD irect
r ont
Ġpers pective
is ation
b oard
am a
Ġide al
Ġdo or
Ġdev ice
Ġb illion
Ġb reat
Ġad ult
Ġacad emic
Ġsp ent
Ġchar ge
n et
Ġmarket s
Ġear th
ĠM on
ar ter
o in
E C
Ġnorm al
Ġant i
Ġ ing
Ġm id
Ġcompet itive
Ġout put
r im
Ġabs olute
Ġtest ing
ak er
r ant
Ġ202 2
Ġrel iable
ib ilities
Ġw ood
Ġim ages
Ġreport ed
Ġplay er
Ġstrateg ic
Ġnum bers
Ġpro p
Ġenvironment al
Ġcl in
Ġsym pt
ire ction
Ġple ase
Ġ ,
Ġn arr
Ġw rote
pr int
Ġexpl ain
ĠTr ump
Ġs we
Ġte aching
ĠCh urch
Ġl ib
Ġchang ing
Ġw el
ines e
ĠGo vern
ĠIn c
Ġdr iving
ien ces
Ġsol id
Ġcolle ge
Ġv ot
ru it
Ġreg ist
d ate
ffic ient
Ġclear ly
v ision
rast ructure
Ġear lier
Ġtra ffic
Ġwe alth
ĠU nder
Ġtrend s
2 4
it ors
A P
. '
Ġm ount
ĉ ĉ
Ġanc ient
Ġf ans
Ġp and
Ġsh ap
Ġdise ase
Ġsc ale
p en
Ġche m
Ġ ir
Ġal though
Ġthough ts
Ġst ock
Ġsex ual
Ġf arm
Ġfore ign
Ġbo ost
Ġconsum ers
Ġstra ight
pl it
Ġinc orpor
Ġro of
Ġrap id
Ġinstitut ions
z z
Ġsc ript
Ġmeas ure
Ġst uff
wor ks
Ġlaw y
Ġprom ote
ff ect
ren ch
ĠBrit ish
Ġb ond
ĠO ct
ver se
ĠP ark
Ġtal ent
Ġf ashion
Ġs on
Ġinvest ors
em y
Ġb us
Ġcr is
ab y
Ġl oved
Ġco verage
How ever
Ġconvers ation
oc al
C l
Ġc itiz
Ġcircumst ances
Ġemploy ee
Ġjob s
Ġcons id
Ġpartn ership
k nown
Er ror
Ġl ines
Ġbeaut y
Ġfin ally
Ġare n
mit ted
Ġstate ment
Ġrele ase
c omm
Ġth us
a it
Ġsee ing
res p
Ġm er
Ġdeb t
Ġpol ice
idd en
Ġg reen
Ġn ut
ĠTr ans
Ġ- -
Ġf ederal
ĠPe ople
ang ing
The y
Ġco ol
ĠWh y
Ġmaintain ing
Ġcl os
Ġh ar
Ġs en
Ġm ent
Ġour selves
ĠB ro
ond on
ĠTe chn
Ġb irth
Ġwh atever
ĠInd ian
al ed
ĠD ata
Ġtrans p
ron ic
n ers
Ġreport s
Ġr ule
od cast
Ġbrand s
Ġextreme ly
Ġrelig ious
U n
val ue
an king
ĠD em
al d
Ġregul ations
E T
if orn
Ġgener ation
f low
an ch
Ġw ife
Ġdefin itely
ĠM arch
Ġde eper
ĠF ace
ic ial
i am
Ġencoura ge
Ġr ound
A ll
i os
u ps
ĠI T
Ġal gorith
.. ..
R O
mod el
Ġapp oint
Ġsh aring
Ġd oll
Ġkeep ing
Ġcap acity
Ġres ist
g est
Ġcons c
er o
o at
ĠP al
pt ion
id ay
Ġatt or
com es
Ġcon ven
ar ian
Ġpract ical
Ġtem per
] .
ĠS ee
p es
4 0
Ġloc ated
ĠA ug
ĠTr ue
el ine
d r
b and
g en
Ġexerc ise
Ġcontribut e
ĠAss oci
ĠO ther
Ġre str
ĠA ng
Ġinvol ve
Ġcharact ers
Ġpartn ers
Ġcre ation
Ġdes ire
Ġrecord s
Ġemot ions
iforn ia
Ġn ames
R es
ĠCh inese
Ġtit le
or ation
ap ter
Ġdis play
Ġhapp ens
Ġdef ault
ĠCh ar
se e
Ġassist ance
N one
clus ive
Ġcra ft
Ġdel ivery
pre ne
r ics
Ġind ic
I ON
ov ing
ĠR em
ar a
M y
Ġfreed om
Ġagree ment
Ġass ign
Ġb orn
Ġp ray
Ġdef end
le ase
V ID
pr il
Ġt ried
Ġex hib
Ġnear ly
augh ter
S h
Ġg rand
Ġmain tenance
Ġcaus ed
re prene
Ġcompl iance
ur ation
Ġre pe
Ġfeel ings
P T
Ġresil ience
Ġf ine
Ġcho ices
Ġeduc ational
Ġd ut
Ġh op
ri age
s hip
Ġgr ant
Ġview s
Ġcomfort able
form ation
ĠDe velop
er a
Ġ201 9
Ġw arm
ra ft
ipp ed
Ġd iet
Ġconf ig
ĠPro g
ĠDep artment
m en
um an
az on
Ġaff il
Ġjour nal
Ġrecogn ize
3 2
Ġinf rastructure
Ġsympt oms
Ġsh own
l en
Ġm ill
k ay
Ġw ish
Ġadv oc
om an
b on
le ge
Ġeng aging
Ġt ips
Ġdep ending
ĠĠĠĠĠĠĠĠĠĠĠĠĠĠĠĠ ĠĠĠĠĠĠĠĠĠĠĠĠĠĠĠĠ
Ġcommit ted
ub e
b ed
Ġwe ak
Ġc ast
ĠSe pt
Ġrepl ace
Ġhon est
C O
ĠN e
Ġw ild
ĠK e
ĠB r
w ith
ul ate
Ġro ll
Ġfe es
Ġpass ed
Ġmor ning
ic ks
D o
ĠIntern ational
l in
Ġconsum er
un k
ĠC or
Ġte ch
Ġaccount s
Ġserv ed
ĠAl though
il le
Ġamaz ing
ic ed
ac he
Ġt rou
Ġlist en
Ġd irection
A r
p ret
Ġsitu ations
b ox
Ġ }
Ġmajor ity
Ġthe rapy
Ġcompet ition
h ouse
Ġphil os
us ion
Ġexam ples
os ition
Ġm iddle
Ġb all
ĠL ondon
Ġown ers
2 2
ĠM od
t ra
Ġauthor ity
Ġwa it
Ġra ce
ĠPa ul
Ġcould n
Ġexpect ations
et ic
Ġocc as
s er
Ġinst ruct
Ġlo ans
ĠL in
Ġcour ses
An other
Ġcomm and
Ġe c
ck now
Wh y
Ġno vel
ĠJ une
b ur
Ġsec ret
ĠPh il
ren cy
ĠE ach
Ġfollow ed
ific ations
Ġcy ber
ĠCal ifornia
com ing
Ġro les
Ġens ures
od ies
ĠL ike
Ġprovid ers
Ġre b
ĠSoc ial
Ġrev olution
Ġfound ation
ove mber
pect ed
Ġent ertain
Ġadv is
Ġb ott
ĠM ich
Ġv ary
N ow
f e
ĠComp any
__ (
Ġdoc uments
Ġex change
O T
2 00
Ġcris is
N o
Ġshow c
Ġfam ous
l ines
Ġprep ared
Ġreput ation
Ġaltern ative
Ġart ists
Ġp ills
ĠE duc
ĠG et
ĠF ound
et ers
in ated
Ġre nt
re ly
Ġob lig
re ate
Ġg as
it er
du le
Ġt ast
ĠServ ices
Ġcall s
Ġbehav i
Ġd ro
ic ine
ul ner
Ġinnov ative
Ġintern al
Ġnavig ate
Ġw itness
ĠTh rough
Ġmov ed
d es
ĠB en
Ġpattern s
Ġ king
Ġinst ru
Ġext ensive
Ġpriv acy
ĠS en
Ġme ant
Ġp ow
ĠP at
Ġf at
Ġhig hest
par am
Ġproper ties
n y
s pe
Ġaware ness
Ġsur face
ĠPro fess
ĠCanad a
Ġprinc iples
Ġbro ther
Ġcom ment
Ġult imately
Ġfavor ite
Ġfor ces
i ers
Ġfund ing
uild ing
Ġleg is
Ġindepend ent
ĠD ay
Ġb oy
Ġte ach
ĠFace book
Ġconnect ed
Ġfram ew
Ġret ail
as ure
e k
Ġother wise
p an
el ines
ĠS an
Ġanx iety
Ġw at
m aking
Ġpres ident
ĠAn y
Ġ201 8
Ġlarg est
Ġspecific ally
ic on
Ġman aging
Ġdoct or
Ġw is
ĠO nce
ent ure
Ġl ength
Ġprior it
Ġs ac
ĠIn s
E L
Ġwh om
H ere
het ic
I m
ed s
app end
Ġsign s
Ġcan cer
Ġpict ure
Ġincreasing ly
Ġsustain able
Ġsell ing
Ġsum mer
Ġdec ades
Ġb ra
Ġre venue
Ġrecogn ized
Ġ >
Ġst y
IN G
z y
Ġk n
ĠA pril
==== ====
are n
Ġep is
Ġcollabor ation
ĠOct ober
Ġpre par
f it
ĠR el
Ġqu ant
or ough
ĠE ast
Ġhom es
ĠG reat
ce mber
ĠCol lege
Ġserv es
Ġdef ense
ĠJan uary
Ġrestr ict
Ġsh ift
t ics
Ġn amed
cl es
Ġdi agn
Ġout comes
ĠL ear
ag ers
h us
Ġthe ory
Ġa cknow
Ġthous ands
ĠG roup
pos es
ĠI I
form at
Ġfe et
Ġelect ric
Ġcont em
Ġprocess ing
le vel
Ġjust ice
u k
w ood
Ġpl ays
Ġm ort
o om
O U
Ġdes pite
Ġj oy
ĠF rench
un ately
Ġpand emic
Ġgood s
Ġfor t
ĠAug ust
ĠRes earch
Ġfact or
erson al
"" "
( ):
Ġadminist ration
ur d
qu e
in ter
Ġconsid ering
Ġun ivers
us es
Ġres ource
Ġke pt
Ġbig gest
Ġknow s
ĠL icense
ĠAl so
ĠR et
ĠJ uly
at ically
Ġh our
Ġjo in
dd en
Ġag ency
Ġprovid er
Ġs chol
Ġclean ing
Ġon going
Ġg ather
oc ol
ff ee
Ġv ulner
Ġtri p
ĠRep ublic
ol f
ens or
Ġknow ing
ĠS ince
Ġra ised
ĠIt s
f ord
! "
Ġrep air
Ġhelp ful
et ime
Ġprom pt
9 9
ĠA ir
A D
Ġbu ying
Ġprodu ced
Ġcorpor ate
ter y
B e
ashing ton
Ġbr ings
Ġpay ments
ess ions
oth ing
ĠSt r
Ġcon clusion
Ġdis app
Ġvict im
Q u
r ig
Ġscen e
Ġsubst ant
ĠL ife
Ġsub sc
S ome
rel ated
Ġn ice
Ġ2 1
ĠN ovember
ud d
ibr ary
Ġe at
Ġfamil iar
Ġmem ory
Ġv ill
Ġst orage
ĠDav id
Ġc old
Ġopin ion
Ġcl ub
Ġmat ters
ĠSept ember
Ġle aving
Ġtop ic
Ġaccom pl
f ree
Ġsu dden
Ġl oyal
Ġauthent ic
Ġf ol
Ġdirect or
Ġrest aur
ĠL eg
Ġdec ide
ĠH ol
il ing
Ġdist inct
ĠGener al
or ge
Ġvide os
Ġm ut
Ġg one
Ġdiscuss ion
ĠCount y
Ġpro ceed
Ġdescrib ed
Ġmanufact ure
Ġwebs ites
Ġatt ribut
Ġpur poses
ĠCoun cil
ĠAm azon
a el
Ġown er
Ġun f
oun ced
ĠB oard
Ġfeel s
Ġevent ually
Ġrec overy
Ġacc ident
ĠHist ory
m ark
ass ert
Ġcaus es
n o
Ġk it
Ġent reprene
Ġdetail ed
Ġcoun sel
al t
g r
ĠServ ice
ĠS EO
e ared
Ġsl ight
h ol
Ġf an
Ġfl u
Ġrem ote
Ġh us
Ġgra ph
Ġele ment
Ġsmall er
urther more
f ol
Ġbel ong
Ġro ot
er ies
ĠO ut
ul ated
Ġsmo oth
Ġas king
Ġun c
Ġc overed
ĠAfric a
Ġp odcast
ĠC ong
f unction
Ġpie ces
Ġlet ter
Ġvirt ual
Ġvol unt
Ġmov ie
ir ation
Ġsk ill
Ġtrans ition
Ġscient ific
Ġleg acy
Ġsp ending
Ġe ight
Ġp ages
ĠA P
Ġpotential ly
hus i
ac ing
l ay
Ġg ard
Ġatt end
Ġinj ury
Ġold er
l ife
Ġl ose
Ġw all
ĠC B
Ġconnect ions
ress ed
Ġsupport ing
Ġrele ased
L E
Ġset s
Ġart ificial
Ġd ram
as et
ĠW ork
Ġse ven
est er
Ġreal ize
tt p
Ġproper ly
Ġent husi
Ġout d
l ab
Ġ `
S E
Ġ6 0
Ġf asc
Ġ id
Ġneg ot
Ġh ttps
Ġrel ax
Ġover w
Ġcomb ination
Ġman ner
Ġcap abilities
ĠT V
ion ally
ĠPl an
ĠD ef
Ġass um
o ch
ĠDe cember
ĠW ashington
Ġaccur ate
2 3
ro y
Ġcomp ar
ĠCO VID
ĠAfric an
Ġwe ather
ww w
op er
Ġro ck
Ġag g
est ic
Ġwor ry
Ġsim pl
Ġann ual
ĠT est
d f
Ġfun ctions
ĠAcc ording
Ġt ree
Ġdru g
it oring
Ġoper ating
Ġcitiz ens
Ġmom ents
< /
Ġclass es
Ġd ating
h and
Ġcomple ted
Ġviol ence
Ġpur su
Ġa ward
Ġgener ate
Ġd ry
âĢ ¢
Ġimpro ved
u ine
ĠD uring
Ġrem ove
ĠA N
Ġfac ilit
Ġv ast
ĠRuss ia
Ġsatisf action
Ġam b
est ion
os is
Ġhe at
Ġconst ruct
Ġcare fully
ast s
Ġcomp ens
iz er
Ġredu cing
erv ation
Ġadvert ising
d at
Ġindust ries
Ġn or
Ġad opt
Ġ201 7
Ġconsist ent
ĠM or
ir ms
Ġs em
ra b
Ġimpro ving
ĠL a
in ating
ĠA tt
inf o
Ġfrequ ently
ĠO b
Ġpar am
on om
Ġ19 6
Ġvisit ors
Ġfail ure
Ġrese arc
Ġpresent ed
ant ic
os es
Ġ201 6
Ġsepar ate
i pe
co in
s s
re f
am ental
Ġheav y
Ġs ale
p et
Ġinv ent
Ġth orough
ĠU p
Ġcompon ents
ĠEx per
Ġstand s
ic ians
os en
Ġt orch
Ġen ab
Ġintegr ity
Ġun it
Ġman aged
Ġv acc
g ar
Ġgir l
ĠComm ission
ĠY eah
Ġch ain
Ġfield s
ĠInst ead
Ġcontro ll
ĠB ank
Ġteac hers
Ġapp s
il ed
Ġd ict
ĠInst itute
om b
mer ce
Ġcal cul
m l
Ġer ror
uc lear
Ġing red
ĠY es
Ġman ager
oss ible
ur ally
Ġele ction
Ġstrugg le
ĠThere fore
i j
Ġwe ap
Ġexc iting
Ġd er
Ġa p
Ġhum ans
ur rent
ĠF eb
Ġb ill
Ġc ities
Ġexp ensive
Ġset tle
Ġadd ing
ĠSy stem
te red
r un
Ġwe ar
Ġseem ed
Ġaccess ible
ĠIn ter
Ġit em
Ġla unch
Ġres ol
Ġphilos oph
Ġl ad
M S
Ġbl ue
ul um
ac king
ound s
Ġc ards
Ġconst antly
ĠD ist
Ġtr ig
ĠMan agement
it age
Ġend ed
hold ers
Ġf uel
Ġf aster
id a
ĠG ood
1 00
i us
Ġs ession
ĠS pe
Ġre act
h t
ĠUn ion
Ġb and
R e
ĠU k
l ock
Ġspe aking
ch ain
Ġmar riage
m es
oc ation
Ġshow ing
ĠCon st
ot al
Ġ- >
Ġgen uine
d ed
m ax
con s
Ġart icles
ĠU se
ars er
ĠĠĠĠĠĠĠĠĠĠĠĠĠĠĠĠ ĠĠĠĠĠĠĠ
ore s
Ġg od
Ġd ial
ĠB el
Ġcl ar
Ġappl ied
Ġre action
Ġinter pret
Ġr at
8 0
Ġocc up
Ġc ook
Ġread ers
Ġmin or
Ġconsequ ences
n el
h ab
ĠF alse
Ġanim als
it ter
Ġcho osing
ĠC are
ĠG old
ĠP ort
Ġrecogn ition
Ġre in
Ġres idents
Ġart ist
I P
Ġl en
F alse
Ġc row
friend ly
b ot
ic it
Ġmult i
Ġa id
Ġregular ly
v ention
Ġwas te
ĠAmeric ans
Ġest im
Ġsubstant ial
Ġconc ent
in put
Ġrem ark
Ġp us
Ġl ic
ĠS at
ic ious
Ġen able
r ate
Ġdeep ly
r ors
Ġdoub t
i ated
p a
ail s
Ġhus band
Ġun iversity
Ġb rief
ĠAustral ia
Ġer a
Ġprev iously
ĠComm it
Ġdet ect
ĠRe ad
2 1
r ial
hip s
Ġpl aced
ĠLin ux
O ver
al k
Ġco ffee
Ġfor get
Ġg ar
ĠEduc ation
l a
am b
Ġb ul
Ġd im
Ġv ibr
Ġdo gs
Ġinter act
ru ary
Ġtest s
Ġun w
el ess
Ġtrust ed
F rom
ĠM a
ĠM ake
ul a
ĠC ustom
c hen
Ġappear ance
Ġopen ed
ĠP ay
Ġexp enses
Ġcr im
ĠG en
ĠGerm an
Ġal le
Ġse vere
ro l
ĠL ead
Ġst ated
Ġsignific ance
est yle
Ġf illed
( [
Ġfac ed
Ġappear s
Ġconsc ious
N ot
Ġre ached
ĠO pen
p at
Ġneigh bor
Ġpo ol
Ġfor g
Ġlab el
Ġs oul
ĠWh ite
U S
Ġsche dule
Ġbelie ved
Ġdynam ic
Ġsupport ed
Ġnot es
Ġcl ick
ĠWest ern
ĠIn vest
Ġf ant
Ġp al
ut ion
Ġst ar
s ub
R A
Ġdist rict
Ġm icro
Ġengine ering
yth on
C C
Ġpersonal ized
Ġemploy ment
ic o
Ġl ock
Ġopen ing
ĠA nt
re es
Ġprof it
Ġintrodu ced
ĠT ur
Ġinvest ments
Ġint ent
Ġb aby
n es
con nect
ult ure
ak ers
ĠM et
Ġl ived
Ġfl oor
Ġwould n
Ġattor ney
g n
tr ans
Ġl inks
if ts
Ġlot s
Ġchem ical
Ġj oint
ĠRuss ian
ĠD el
ĠGovern ment
Ġad op
Ġm il
P h
Ġtop ics
Ġp ull
Ġp ra
ĠFound ation
Ġnet works
Ġcrit ic
iv ate
land s
L C
Ġdep th
el lect
Ġp ush
ĠC ap
Ġcreat ivity
Ġl ux
Ġdiffere nces
ro ad
y m
Ġtrans l
Ġsp ect
Ġd ied
t a
Ġhe aring
ĠS om
ĠSec urity
Ġess ence
Ġfund amental
Ġsen ior
Ġpolit ics
Ġfac ilities
ĠD an
Ġkind s
ĠE v
Ġcrim inal
b re
Ġthan k
am ples
Ġv ir
ag ram
Ġnot ed
if ies
ĠP ublic
Ġbring ing
ĠI S
Ġa th
) ;
ĠO h
Ġex ternal
Ġse lection
ing u
w orth
Ġteac her
Ġde ploy
Ġrecomm ended
Ġinvest ing
O S
Ġpref erences
ĠS ur
Ġparticip ants
c all
Ġsurround ing
Ġfil es
Ġoper ation
ic king
Ġg ift
ĠT ex
Ġre ward
ĠB et
Ġenter pr
Ġdesign s
ĠG ree
ĠO pt
Ġexpl oring
Ġwa iting
ĠM at
Ġimprove ment
Ġassess ment
ĠC EO
ens ions
Ġshow ed
Ġst o
y l
Ġag reed
Ġb ag
Ġclose ly
Ġaffect ed
Ġspe ech
Ġcommun icate
Ġ2 2
Ġres on
Ġtrans actions
Ġreport ing
Ġframew ork
Ġrout ine
ĠI N
st ood
Ġha ven
w hat
am ily
ocr atic
Ġpos itions
st ep
D es
Ġst ake
Ġra nd
Ġmess ages
E n
w rit
Ġint ended
Ġput ting
Ġdef ined
Ġredu ced
u y
M ore
c ers
Ġm agn
Ġ201 5
Ġapprec iate
Ġprep are
Ġsus p
ĠDirect or
ind ex
Ġt ick
Ġsh op
ĠA v
P S
ĠÂ £
in ations
Ġent ry
ib er
ig ration
Ġmanufact uring
ĠEng land
ĠJ ames
ĠH el
Ġthan ks
omm od
Ġp un
ul ations
ra cy
Ġprof ound
ĠJ er
erv ed
Ġfail ed
Ġpay ing
Ġspec ies
Ġadvant ages
Ġ2 3
Ġag encies
h i
so ft
se mb
Ġgl ass
Ġhold s
ĠAssoci ation
ĠSt reet
Ġins ight
ĠJew ish
ou nder
Ġk ill
us er
Ġdisc overed
an cial
Ġdist ance
Ġmeaning ful
Ġpur s
Ġdisc ipl
Ġrel atively
Ġhosp ital
Ġgreat est
Ġoverw hel
Ġfin ance
L et
Ġdis rupt
Ġpl ants
h ost
Ġhappen ing
Ġlist ening
ĠB ible
Ġag ent
Ġon to
Ġmon itoring
l ast
Ġexp ression
m as
Ġcreat es
Ġc atch
sh ape
ĠB est
Ġimmed iate
Ġnarr ative
a e
ĠT oday
Ġso le
ri e
c ription
Ġb anks
m osp
Ġeng aged
Ġel imin
res ents
Ġsu itable
r ite
E M
Ġgl ob
or ial
Ġabsolute ly
Ġsh oot
Ġdeal ing
Ġins pect
Ġcont rast
co ver
ĠSc ience
ĠFeb ruary
A cc
en e
oun ter
h ow
al le
ing er
Ġprof ile
S c
ĠS am
Ġr ul
ĠP ost
b al
I L
Ġl ies
B C
ĠProg ram
um s
ist an
ĠCong ress
Ġhe aling
Ġdat ab
Ġdevelop ers
ĠIs lam
Ġass et
in ent
ap ers
ult ural
Ġgu ess
Ġfact s
ĠG reen
ĠJ e
Ġiniti atives
Ġconvers ations
Ġconcern ed
Ġs in
S he
v ille
Ġhold ing
Ġequ al
ord s
Ġc op
Ġbott om
Ġatt acks
Ġexist ence
Ġse a
ĠH ome
Ġident ified
Ġded ication
Ġst reet
Ġpromot ing
ed ding
ĠO F
D P
Ġfe e
w args
rou d
ĠH am
Ġsh ot
y stem
Ġindust rial
d en
Ġemerg ency
Ġcom ments
Ġentire ly
Ġafford able
Ġed ge
Ġfac ing
Ġfem ale
ĠM iss
ĠS ch
aren cy
out put
Ġsp aces
Ġimp ossible
Ġyou th
ĠE U
ĠT HE
Ġv ac
Ġun less
ear s
Ġsur vey
Ġposs ess
Ġre ject
ur l
Ġrand om
Ġh idden
Ġc e
Ġ icon
ang es
Ġf urn
Ġt aught
Ġsho pping
Ġm useum
w ell
Ġfra ud
Ġg un
ol es
ĠM ary
Ġprec ise
Ġdep ends
Ġ <|
Ġd rop
Ġdeterm ined
Ġsp ort
Ġinteg ration
Ġveh icles
Ġstand ing
Ġmost ly
Ġtransform ation
ĠS ub
ĠV is
Ġarr ange
Ġd ivid
ĠB ra
Ġdis cl
z er
Ġdec re
Ġport fol
n am
ĠEar th
Ġf ill
Ġsound s
Ġwrit er
ĠM useum
Ġc ry
Ġb odies
A pp
Ġrep resents
Ġant icip
Ġdistribut ion
Ġphot os
at us
Ġb ags
un ning
Ġb orrow
Y es
Ġdep artment
ĠH im
Ġcontribut ions
Ġworld wide
Ġinter actions
Ġre new
Ġfoot ball
ĠDevelop ment
Ġproced ures
Ġguarant ee
Ġat mosp
4 5
Y our
Ġcar ried
ĠGerm any
ĠRe view
Ġcell s
g age
force ment
st ream
Ġn uclear
Ġco ord
ĠS k
Ġa f
itut ion
ce ll
Ġcar s
z ing
Ġreal ized
f ront
S e
u nder
Ġen roll
ov es
Ġsc hed
Ġla un
Ġarg ument
Ġdis s
Ġsu c
t op
D A
Ġansw ers
Ġreturn ed
Ġacc ommod
U nder
Ġlif estyle
Ġemp ower
Ġhon or
st art
fort unately
Ġann ounced
Ġupd ate
Ġadminist r
y a
Ġmass ive
Ġreturn s
ans ion
Ġpl enty
Ġjud ge
oura ge
rib e
ag o
Ġform at
I M
ĠR ight
ar io
Ġp ark
Ġdem ands
on ial
Ġcont ains
oc ur
Ġsuccess fully
Ġstart s
g ener
Ġs an
Ġl icense
Ġar m
Ġd ur
ĠCommit tee
Ġind ex
ĠS a
j oin
ĠM em
g in
st on
Ġanaly tics
Ġaffil iate
ĠJ ud
Ġjud gment
Ġeth ical
ou nce
Ġf irms
Ġs essions
Ġint ellect
sec urity
Ġtell s
Ġsh ares
g l
Ġ201 4
ĠTex as
w in
z a
l ights
Ġdou ble
Ġsuc ceed
C ont
Ġlawy er
Ġev olution
ot ic
Ġche ap
ri an
Ġg ender
Ġwonder ful
Ġex cess
i ary
Ġclos er
Ġperson ality
P A
um ber
Ġp ure
ment al
ing ly
Ġqu ot
Ġbuild ings
Ġf ish
Ġorgan ized
Ġrecommend ations
Ġgu y
it ure
Ġmet al
Ġlay er
l ook
Ġre ly
Ġ2 8
Ġflex ibility
Ġsuggest s
Ġhous ing
ar ray
less ly
b ut
Ġse qu
Ġab use
Ġtail ored
Ġapp eared
ov al
Ġepis ode
m ap
Ġchann el
Ġbenef icial
Ġdang erous
Ġpro te
ĠR ich
Ġsh ip
Ġsu it
Ġind eed
B A
D on
Ġdri ver
is ms
Ġf ab
i ability
Ġ2 7
x y
Ġext ent
Ġha ck
Ġwide ly
le te
Ġd iversity
Ġmill ions
Ġexp osure
Ġ{ }
ĠDes ign
Ġconst ant
Ġcr ime
Ġ[ ]
Ġb ird
Ġdesc ription
ĠW here
Ġset tings
N A
se y
ram e
re te
I A
Ġminim um
Ġsol ve
Ġf alse
6 4
re m
ĠWh o
I nt
Ġt act
Ġcy cle
Ġserv ing
Ġst ability
Ġv s
ĠF ore
Ġfocus ing
ĠSp irit
ĠNew s
M any
Ġreason able
Ġalgorith ms
in ate
ĠCon f
ĠM icro
Ġcon clud
Ġ8 0
Ġmed icine
ĠT ime
b ing
Ġout come
M od
as y
Ġprem ium
C an
Ġappro aches
Ġrelig ion
Ġpost s
Ġinsp ired
Ġd aughter
Ġdest roy
Ġexper iment
t hen
co hol
ĠC ath
t rain
Ġwatch ing
Ġcap able
Ġdep art
D ata
Ġact ively
Ġse am
Ġret ire
Ġcampaign s
Ġobject s
ĠB it
Ġschol ars
Ġregul atory
Ġre form
Ġwind ow
ĠM al
ex pected
e er
Ġl iqu
ĠAc ad
Ġexpl ained
Ġp u
Ġch osen
Ġconf ident
ĠM ex
ĠWe b
Ġresearc hers
G et
Ġdoll ars
' '
ĠF e
Ġchann els
ĠE conom
ĠTh om
Ġunc ertain
od ing
b its
3 3
ger y
Ġpl us
Ġexcept ional
Ġmor al
Ġfor ced
yn c
ig ital
Ġj ump
Ġarchitect ure
Ġposs ibility
Ġstruct ures
Ġresult ing
id en
oc king
ĠJ our
Ġingred ients
ĠT ake
Ġclass ic
Ġgener ations
Ġin ner
out hern
Ġprim arily
Ġjo ined
Ġ* *
h an
oc racy
Ġref erence
ĠL ist
Ġbig ger
Ġunder stood
Ġoper ate
( ).
Ġclin ical
######## ########
ag ues
Ġp roud
ass ion
Ġ9 0
Ġsc r
u it
ĠPl ay
ĠSu per
Ġinvol ving
ce ler
ot hes
Ġmod e
Ġbound aries
ĠM ad
Ġqu iet
ĠCh at
ĠR ober
Ġle aves
ĠOff ice
Ġless ons
ĠR ob
u gg
Ġ( "
c ount
ĠFr ance
Ġfulf ill
Ġleg it
Ġm it
Ġgu ys
Ġdistribut ed
ord ers
Ġnecess arily
p red
ri er
ind ing
l or
Ġhouse hold
Ġslight ly
Ġupd ates
Ġim per
Ġrob ust
EN T
Ġcompens ation
Ġfig ures
9 0
ĠAng el
Ġdiscuss ed
ĠV ir
ĠPro v
Ġtra ined
Ġvol ume
Ġsu fficient
Ġas p
5 00
u ing
Ġobv ious
ĠG ra
Ġcomb ined
out s
Ġsens itive
Ġdream s
Ġarg s
i ations
Ġcol ors
per ty
wh ile
Ġth row
Ġgam ing
d o
Ġsum m
ĠIn f
Ġimag ine
Ġpr ison
ell ow
ĠM art
qu al
Ġanaly ze
Ġfin ish
Ġ â
Ġob st
k a
Ġconsider ation
Ġentertain ment
Ġb row
ct or
F T
wh ich
Ġcor ner
Ġprotect ed
ĠB oth
n p
s m
ĠS ing
Ġwal king
Ġw est
ĠCh ild
Ġstate ments
Ġy es
Ġcontem porary
ĠL at
Ġag ents
ive red
U T
ffect ive
ĠA lex
Ġ2 6
Ġparticip ate
Ġqu arter
Ġpropos ed
Ġcall ing
ĠJapan ese
ĠPro ject
vers ion
ĠCommun ity
Ġb ot
d raw
ult y
c ript
red it
Ġele v
Ġproced ure
D r
ap i
Ġposs ibly
Ġk id
ĠIntern et
Ġab ilities
Ġanim al
wor king
ĠB ig
Ġproduct ivity
Ġcl osed
Ġal b
in ner
Ġincred ible
C H
Ġguid elines
Ġloc ations
Ġbeg ins
Ġmeet ings
Ġe ating
O D
Ġman if
che ck
ĠEng ine
Ġauthor ities
Ġplan et
Ġm outh
ĠW or
Ġpr icing
Ġpro of
Ġhundred s
port s
Ġp hen
ic he
S A
ra ine
Ġofficial s
Ġd ie
Ġman agers
ĠMich ael
Ġr id
Ġm iles
Ġsuff ering
Ġper man
ĠTh ose
Ġincre ases
Ġb urn
Ġfollow s
ĠĠĠĠ ĠĠ
Ġf le
i xt
ĠS et
Ġen ables
Ġhe ro
Ġimplement ation
Ġcut ting
2 7
h ttps
ig r
ĠR iver
Ġaut h
Ġhe ight
Ġsustain ability
Ġbr ight
Ġover come
3 5
ĠH all
of t
ĠOn ly
Ġd ys
le an
ĠRe v
t es
Ġbroad er
b i
Ġ rom
Ġl uck
Ġv ote
olic y
ĠFl or
Ġrel ief
Ġatmosp here
ren ce
Ġm al
end ers
Ġdut y
Ġbl ess
Ġconf erence
Ġsp o
Ġexc ited
Ġtre es
Ġbro ken
Ġaccept ed
Ġe ase
ber g
Ġown ership
and er
Ġachie ved
ĠF und
ĠW al
Ġsh ar
Ġk illed
om a
Ġgir ls
Ġper ce
Ġtra um
Ġwis dom
Ġtell ing
Ġsupp l
ĠGe orge
Ġhy p
I G
f il
Ġf est
Ġun s
Ġg rew
C A
Ġord ers
ĠS un
Ġsupp osed
Ġm o
ĠR oman
Ġcar bon
ĠM ag
Ġher self
pl ate
Ġp ul
Ġw ine
Ġcomm ission
ĠTh us
pro cess
c an
Ġcharg es
Ġg ained
Ġst im
Ġph ase
Ġdru gs
Ġel ig
ĠU N
Ġamount s
th at
ph one
ĠP ower
Ġfriend ly
Ġcrypt ocur
Ġperform ed
on a
ĠK ore
ĠM ac
Ġ201 3
ĠB ill
Ġrece iving
Ġsh ut
ad o
Ġwor se
Ġra in
Ġser ver
Ġmonth ly
ĠDes pite
Ġsupport s
Ġgu ard
Ġpros pect
Ġdis put
Ġbelief s
Ġtransp arency
Ġcapt ure
ig en
Ġconcept s
Ġtur ning
Ġter rit
r ical
Ġfl at
d s
Ġemb ra
ĠL u
Ġst ation
Ġobject ives
ĠY et
Ġrefer red
Ġadd s
ĠD et
ars h
res ult
l o
Ġdisc ount
Ġrec ip
l is
gy pt
Ġthreat s
ĠA ff
Ġa est
I nd
i at
O nce
Ġadult s
ri p
ens ed
Ġpict ures
Ġra re
Ġvibr ant
Ġch apter
Ġdel ivered
ic ian
ĠMus lim
a o
Ġmiss ing
Ġthem e
Ġconduct ed
2 8
Ġfor th
r ition
Ġn urs
Ġt ough
Ġa x
ĠL ou
l ong
Ġcl im
Ġcompon ent
Ġtemper ature
Ġcare ful
Ġtrans action
Ġemb race
g u
Ġsh ipping
Ġart s
st s
Ġexecut ive
path y
ĠPro t
word s
Ġdiscuss ions
ĠAn other
Ġpro ve
Ġt ight
Ġma p
I V
ĠC am
Ġar ray
Ġ201 2
Ġact s
ĠM o
Ġneighbor hood
Ġaud iences
U R
Ġthe rap
Ġfix ed
Ġv it
ri ers
Ġworks h
ĠĠĠĠĠĠĠĠ Ġ
Ġlaun ched
ĠI d
lic k
Ġtransport ation
ĠCB D
Ġur ban
id th
ĠInst agram
b ase
resp ond
Ġb an
Ġapp arent
Ġath let
Ġtax es
ĠC y
Ġinj uries
Ġinter action
Ġaddress ing
Ġsoc iet
ĠS al
us ing
Ġremark able
ĠT re
Ġy ield
Ġdom estic
am in
Ġp ip
ĠSm ith
r um
os it
Ġmar ried
ĠA rab
Ġcomp rom
Ġlimit ations
ĠC ert
Ġaut o
b o
A re
F in
ĠOr gan
Ġstore s
ĠI ran
ort hern
Ġmaxim um
Ġinvestig ation
C T
ĠDo es
Ġrec on
7 0
Ġstrong er
Ġ7 0
ock et
Ġtast e
Ġs ought
Ġprom ise
Ġenviron ments
ĠS T
Ġm arg
et her
2 6
im age
Ġun like
Ġportfol io
ĠH uman
Ġch ances
Ġ201 0
and a
Ġme rely
Ġrun s
Ġher itage
ĠFin ancial
ĠM ain
() )
Ġs and
Ġcandid ates
g ent
Ġmot or
aint iff
Ġstr ing
ĠB efore
Ġregard less
n s
dition al
Ġsit ting
Ġis ol
Ġtechn ique
Ġcharacter istics
Ġlarge ly
Ġcommon ly
ĠF ort
Ġcam era
Ġdec ade
i i
ĠM aster
Ġbas ically
Ġlim its
Ġsub sequ
le ts
ĠP ri
ar row
ra id
Ġto w
Ġresist ance
we ight
ĠD ec
Ġenh ancing
er ate
ful ness
ĠSt art
u an
Ġcontinu ous
Ġst ick
et ry
Ġreve aled
os ystem
ĠApp le
Ġsy n
Ġmed ium
Ġmot ion
ne ys
Ġkeep s
Ġst one
Ġrapid ly
2 9
Ġhistor ic
ĠE gypt
ens ity
Ġflex ible
inst ance
d is
M A
Ġp ill
m ain
ess age
Ġste el
Ġro w
Ġfin ished
Ġdr iven
Ġwel come
Ġliter ature
Ġmon itor
Ġter ror
Ġeffect iveness
ĠT or
xim ately
ĠPart y
Ġph r
ĠKe ep
Ġ+ =
ĠA p
ĠS af
Ġh unt
ĠS und
ĠAr ch
Ġ il
ĠM ark
Ġlast ing
ĠT er
u gh
Ġill ustr
Ġdeb ate
ĠTechn ology
Ġact ing
Ġupd ated
ĠSt ep
Ġpack age
Ġsav ings
ĠL ook
Ġext ended
Ġill ness
erv ice
Ġsudden ly
Ġma x
Ġsty les
Ġhot el
Ġch amp
ĠGl obal
O f
ĠYou T
d im
ĠDe v
Ġwork place
Ġrem oved
ĠChe ck
Ġfight ing
U s
Ġhand ling
Ġaccur acy
Ġun able
ĠSe cond
Ġd u
Ġtre ated
Ġlux ury
c her
Ġtyp ical
Ġinsp iration
Ġs plit
Ġreg ional
de v
ĠSoc iety
Ġexpress ed
Ġcaus ing
Ġfost ering
Ġform al
Ġin qu
ĠH ave
Ġun its
Ġal cohol
Ġ iron
r ich
Ġmark ed
Ġcateg ory
Ġag ric
Ġm and
u ous
Ġp y
re al
ĠB re
Ġemerg ing
Ġkit chen
Ġmove ments
O L
ĠW ord
as p
ĠRe al
ĠTh ank
Ġimp ressive
ĠL ong
Ġthem es
Ġsign ed
Ġbuy ers
Ġstri ke
Ġdescrib e
Ġaccompl ish
Ġfood s
Ġad m
Ġdest ination
Ġe rect
Ġdefin ition
Ġcult ures
Ġconven ient
in i
Ġtal ked
Ġnat urally
ĠP lease
ĠOn line
Ġaim s
o ices
Ġswe et
at ural
Ġany where
ual ity
ĠFlor ida
Ġfil ms
Ġcollect ive
Ġprinc iple
Ġsk y
Ġphilosoph y
Ġpurs ue
n orm
ak ed
ĠAs ia
ĠO ld
ĠCent ral
Ġn one
Ġevery day
ab in
ĠD iv
Ġstay ing
Ġf av
Ġfram e
Ġpopular ity
Ġform ed
Ġve ter
Ġgard en
Ġimpl ications
Ġr ig
Ġfr ustr
ol it
Ġco ach
Ġt ro
Ġloyal ty
ĠB er
ograph ic
ĠSu pport
Ġhigh lights
ĠC reat
Ġev il
Ġperson ally
Ġrespons ibilities
Ġcol umn
ĠS uch
Ġstr ict
Ġwin ter
Ġappro ved
Ġsp ring
ce l
ect ed
ĠMore over
Ġpen al
Ġphen omen
Ġscient ists
Ġun expected
ĠM ount
Ġst re
ĠP eter
Ġtra cking
Ġ19 5
Ġsub mit
Ġequ ity
D e
Ġdemonstr ate
o es
d ro
g ers
ar n
Ġoffic er
Ġpre gn
N ew
Ġch air
Ġun iverse
Ġn ob
Ġacknow led
st one
Ġintellect ual
s k
d ep
Acc ording
urn s
Ġcal m
Ġco vers
A G
Ġg rown
op eration
Ġoutd oor
, '
0 1
Ġsk illed
ob ject
Ġsp oke
Ġaf raid
Ġreflect s
Ġturn s
c s
Ġtest im
Ġrequest s
Ġselect ed
Ġreg ions
Ġinc ident
Ġautom ation
Ġtechn ological
Ġorgan ic
Ġlink ed
ĠSec ret
Ġed itor
n ic
ĠP ress
** **
Ġtot ally
Ġb ath
Ġtele vision
Ġac celer
ĠK now
Ġis land
Ġbus y
ĠCl ass
Ġrespons es
F A
Ġefficient ly
Ġf if
ĠAd v
os ite
Ġs ides
Ġpsych ological
Ġmy th
Ġpain ting
Ġfell ow
Ġrem ained
dr iven
ĠQ ue
F irst
[ :
Ġc aught
ĠTw itter
Ġch ief
Ġconsist ently
ĠW omen
ĠS ol
Ġconf irm
Ġpow ers
Ġo kay
Ġec osystem
Ġg ent
Ġint ense
Ġlist ed
Ġoffic ers
Ġel if
S P
ĠUk raine
n ight
Ġn ations
l ib
E very
Ġc as
Ġn orth
ang ed
al a
og rap
Ġsp ons
Ġoper ational
Ġh iring
Ġliqu id
os h
ĠL o
z en
P l
Ġ201 1
Ġb ow
c ific
Ġmit ig
Ġsac r
Ġapplic able
Ġt ack
Ġobv iously
ĠS il
Ġpub lish
k ers
Ġfocus es
Ġintegr ated
Ġcons ent
he red
ĠMin ister
j son
Ġch art
ĠH y
Ġdatab ase
Ġde als
T ra
Al though
Ġprov en
Ġset t
Ġrem oval
ony m
Ġp air
ĠK en
og a
Ġst ead
Ġst ret
Ġs oph
Ġgra ce
ĠYouT ube
Ġ19 4
Ġbe ar
p ay
Ġad s
Ġexpl o
ĠB ay
Ġent ered
Ġl osing
Ġear ned
Ġdel ay
ĠMicro soft
r ust
p ress
Ġsc ope
Ġr h
Ġincred ibly
Ġdr ink
ri a
Ġtrou ble
Ġfasc inating
Ġcor respond
Ġdial og
I R
ĠSt ar
Ġ2 9
it le
ĠIn formation
Ġorgan is
ĠB ook
T ype
Ġess ay
Ġautom atically
Ġw edding
ĠAn n
Ġ ice
Ġwrit ers
et ary
iss ions
t able
Ġfac ility
Ġv end
Ġdesign er
ce an
Ġcandid ate
Ġevalu ate
v an
Ġcolle agues
Ġenc ounter
Ġstreng then
Ġsw itch
on na
Ġrepl ica
ĠF ederal
Ġcomp assion
p ack
Ġinstitut ion
ow ered
erv es
I I
ĠF amily
Ġprior ity
Ġalong side
Ġres olution
Ġc ogn
Ġj ur
am m
k wargs
Ġ200 8
Ġfol ks
Ġiss ued
Ġil leg
Ġle ver
Ġo dd
Ġd ance
Ġw alls
Ġpurch asing
Ġconst itut
Ġlegis lation
Ġyoung er
ri x
w ater
ad a
he rent
er ning
Ġsur gery
Ĥ ¬
Ġhous es
Ġt ap
Ġmist akes
ð Ł
ĠI D
! !
Ġdeliver ing
ĠMarket ing
u a
Ġgener ated
Ġcomb at
3 6
ĠBit coin
ĠFr anc
Ġcompl icated
Ġgu ests
ĠĠĠĠ čĊ
Ġco ast
ĠP ersonal
Ġdef ine
} ,
Ġobject ive
Ġre actions
R eg
Ġmanif est
p erson
n n
Ġc ere
Ġexpl ains
ot he
Ġs outh
Ã ¢
Ġl ibrary
gra de
ro g
ĠC amp
ĠI P
ĠR ef
ĠF orm
ĠH oly
C E
Ġsome body
ĠF ree
miss ions
ĠT imes
Ġmort gage
Ġsong s
Ġin n
ir med
Ġachie ving
M e
ĠW ind
Ġcent uries
Ġpain t
Ġtarget ed
Ġarr ived
Ġinstall ation
Ġesc ape
Ġgovern ments
ĠCath olic
ĠI r
for ward
Ġemploy er
eg u
Ġdes ired
Ġvers at
Ġcon ver
3 4
Ġp il
C omm
Ġs ample
." ""
ĠB ur
ain ing
pect ives
Ġspecial ized
( ),
Ġdys function
Ġretire ment
Ġad equ
Ġha bit
Ġhor se
Ġblock chain
ot a
ĠW ater
Ġimpact s
Ġmach ines
ĠLear ning
Ġtreat ments
ĠS l
Ġh ire
Ġfound ed
g rad
T est
ĠStr ateg
S u
lab el
l ers
Ġg ap
Ġfost er
Ġfl o
Ġrepresent ation
Ġunder lying
og ether
Ġpriorit ize
Ġremain ing
Ġli ability
ust er
Ġref ers
O C
Ġphot o
Ġdom ain
ic ago
Ġsuggest ed
Ġint ric
Ġconsum ption
Ġappro ximately
ĠS er
Ġwin ning
Ġst able
Ġenab ling
d oc
ĠSc ott
ĠIs land
ĠMr s
Ġexp ansion
Ġro t
Ġauth ors
Ġentreprene urs
Ġneigh b
Ġlangu ages
com merce
C ol
Ġrecord ed
E ven
Ġ2 000
Ġdef e
ĠS up
ĠCons ider
Ġar rest
Ġeven ing
ĠTw o
ĠT em
Ġer rors
ĠG r
ab s
ir ty
Ġwith draw
Ġperiod s
sc ale
Ġc os
Ġinsp ire
Ġbe at
Ġpers ons
Ġperfect ly
ag on
ĠT y
Ġimplement ing
Ġro oms
ĠDist rict
Ġmus ical
ĠM er
Ġposs ibilities
ĠMed ia
Ġsurpr ise
Ġmag ic
Ġch arm
Ġbelie ves
Ġbl end
ast ers
7 5
ĠEx ecut
Ġcrit eria
Ġf ake
A b
Ġinstruct ions
Ġh ttp
Ġprogram ming
ĠV ict
D uring
Ġris ing
Ġrad io
Ġind icate
Ġ5 00
vent ional
S pe
Ġn ative
Ġend s
Ġst ood
cl ient
Ġn ine
Ġtrad itions
Ġve get
ĠAd d
ex p
Ġal t
ĠL LC
ĠN ig
Ġgreat ly
w orld
ool s
Ġunder t
Qu estion
Ġenjoy ed
ra ction
ĠT om
ĠL ib
ĠSp an
Ġr ough
Ġd ress
Ġp iv
Ġrepe ated
ĠUS A
Ġexpl an
|> #
Ġall erg
Ġweap ons
ĠF urthermore
Ġminut e
d b
le ments
U N
ĠF ather
w est
ĠL and
igh ter
Ġcontract s
Ġar ms
ĠM iddle
Ġint ention
Ġf ruit
Ġmind s
Ġevalu ation
Ġm el
Ġpl ot
Ġz ero
in ity
al ian
W ell
R ead
Ġexperien cing
Ġloss es
Ġsched ul
ic ul
Ġex ists
clud ing
Ġqual ified
val id
ĠH ill
Ġb ought
ed ge
Ġal ike
Ġ \
ĠN or
en a
B efore
az ine
ĠP et
Ġdep ression
Ġbreat h
ain ts
Ġcrypt o
ant a
ner gy
Ġus age
Ġinfluen ced
ĠCh ief
Ġmem ories
int s
in n
ĠPro duct
ed y
Ġregist ered
Ġdiv ine
Ġprom inent
en ame
Ġapp lying
Ġaud io
Ġsupp lement
Ġlog o
ĠEm ploy
Ġpass ing
or al
Ġsubject s
Ġst ages
Ġin ject
Ġen forcement
Ġcomplex ity
ĠCar ol
Ġevol ving
Ġsu gar
ĠT im
Ġinter face
ĠFr ank
Ġmount ain
Ġy eah
cl aim
y ou
Ġadv enture
Ġslow ly
ĠPal est
Ġs ad
ĠRep ort
Ġ3 5
G o
ĠSt and
ĠS pecial
ĠW il
Ġn om
Ġem pt
ĠO ffic
ĠWill iam
Ġport ion
Ġext ract
M ost
Ġsto pped
ĠChrist mas
Ġident ifying
ĠB o
ĠTe am
Ġcent ers
ang er
ĠSund ay
Ġparticip ation
Ġnot iced
ĠD igital
Ġhuman ity
Ġser iously
Ġrestaur ant
Ġevery body
Ġn arrow
Ġessential ly
ĠProfess ional
Ġalb um
Ġart istic
ĠCl ub
w ing
st e
S ince
s ource
ere nt
Ġinc om
Ġfollow ers
con sc
Ġdec or
C L
Ġappro val
ad ing
Ġr ide
ro id
Ġfac ulty
M an
Ġimplement ed
T S
Ġt un
as m
Ġha bits
ol ving
igen ous
Ġcateg ories
ĠVir gin
Ġco aching
Ġfit ness
ĠIm p
Ġobst ac
ov en
Ġdri vers
p ace
O r
ĠP ract
Ġcomp are
Ġdom in
Ġemploy ers
3 8
Ġenterpr ise
Ġfind ings
Ġdo ors
Ġh all
Ġredu ction
Ġoccur red
Ġtra il
T H
Ġdev ot
Ġexp osed
F L
Ġp ed
f ast
ĠM ass
s he
Ġconc rete
J ust
Ġmem or
Ġra w
Ġsect ors
Ġvill age
Ġb low
Ġpan el
Ġrout e
L ist
Ġhapp iness
Ġprot ocol
Ġinitial ly
Ġstake holders
ĠK ey
ĠJ ose
um es
ĠB as
Ġopin ions
Ġr an
Ġsur ve
Ġre aching
and on
Ġdeterm ination
Ġst unning
Ġbeh alf
ĠO R
Ġso il
Ġattract ive
ĠJew s
Ġman ip
Ġvict ory
Ġb anking
Ġelect ronic
Ġdist ingu
Ġemail s
Ġult imate
av a
Ġfl ight
l oss
Ġj ew
ib l
par ams
ict ed
Ġcan n
Ġicon ic
Ġr ank
erv ing
m ethod
Ġs ight
v ity
ĠThom as
ist ent
Ġbre ed
re p
Ġar my
Ġvulner able
Ġmov ies
con st
Ġmind set
w ar
ow nt
m ail
ĠV ol
Ġw ider
sec ut
Ġdocument ation
Ġm ur
Ġdefend ant
re ction
Ġexpl oration
ĠRober t
com p
ul s
fl oat
Ġr iver
Ġ200 9
ang o
Ġequ ally
ind er
Ġmy st
Ġn urt
ĠC ode
pro fit
ĠRem ember
A m
Ġintrodu ction
Ġcontro vers
i est
ĠAcad emy
Ġne ither
Ġtest ament
Ġpray er
Ġbat tery
ĠCh icago
Ġplan ned
Ġreal m
Ġpol l
Ġth ick
Ġent ity
ak en
ĠR oad
ex ample
Ġvis iting
Ġhard ware
t d
ĠT H
Ġal ive
ĠL ove
ĠAut hor
Ġprofess or
olog ist
ent ures
Ġfl ood
ell ed
Ġadopt ion
Ġpers pectives
u ct
ĠFr iday
Ġdise ases
Ġmain ly
C ons
ĠL ake
Ġshe l
Ġent it
3 7
ĠAb out
Ġm ood
ĠB ack
ad ow
Ġst ars
Ġadop ted
i as
g roup
Ġthous and
Ġc art
ĠW ood
ĠUs ing
li ament
l aw
or a
Ġm ine
Ġcommit tee
Ġgovern ance
O W
3 9
b ar
if ting
ĠB rand
ab et
Ġwar rant
Ġread er
I d
ĠC ost
Ġvictim s
Ġobserv ed
ĠA D
Ġinf lation
Ġl ie
Ġv en
Ġpl aintiff
ĠFranc is
Ġsol ar
a ver
ip al
es ides
Ġfunction al
ber t
ĠVal ley
Ġdem ocracy
Ġremind er
the less
ĠAt l
Ġsaf egu
Ġs ick
Ġbre aking
ĠC r
Ġd il
Ġdiv or
Ġdynam ics
Ġperman ent
Ġcomput ing
Ġh urt
Ġdra wn
ob s
Ġachieve ments
Ġrec ruit
Ġcur rency
Ġ3 1
Ġconc erning
ĠJour nal
Ġle verage
S S
ad s
g on
Ġsy nt
ĠM ill
Ġe ld
Ġt on
ĠJust ice
he m
. __
Ġwor st
Ġex clusive
ut ils
Ġmet rics
Ġcor rupt
Ġb atch
Ġdec ent
Ġt f
Ġe gg
ĠG ummies
ĠSup reme
ĠIns urance
ĠSom etimes
P C
ĠE lect
L e
Ġpercent age
Ġg onna
t em
Ġph arm
Ġlat ter
ors hip
Ġcamp us
Ġprodu cing
Ġqual ities
Ġemphas is
Ġsumm ary
P r
Ġorigin ally
Ġr ing
Ad ditionally
Ġhosp it
Ġst orm
Ġfair ly
Ġs now
P L
et te
ĠB udd
ĠL ast
Ġcl othing
ter ing
Ġt one
Ġinc ent
Ġprotect ing
Ġheart s
Ġint u
om in
ĠUnder standing
Ġexcell ence
w rite
ĠS ign
ĠC orpor
Ġp it
ĠT op
G PT
ust ration
ĠCon nect
ĠL im
Ġpr ide
ĠLou is
or ous
Ġple asure
Ġheav ily
Ġtravel ing
ĠY ear
ob ile
Ġsh ock
Ġdel ight
Ġfant astic
s plit
ef its
Ġmer ch
ĠM il
ĠCanad ian
Ġfurn iture
Ġsecond s
ĠProfess or
semb ly
Ġte a
im ents
Ġa st
Ġsqu are
Ġheav en
Ġrec all
Ġp ace
ist ers
Ġdevelop ments
b atch
k in
Ġrec over
% .
Ġf ly
part y
Ġrel ation
Ġminim al
Ġpl astic
ĠPar is
Ġun ion
Ġgent le
Ġ( '
ĠEx pl
Ġu pl
Ġabs or
" ),
Ġdeg rees
Ġmed ication
iz ations
Ġr ust
Ġaddress ed
ĠL abor
Ġopp on
Ġc ul
Ġsub s
Ġev ident
Ġpriv ile
Ġopp osite
Ġbr idge
ide o
Ġacqu is
ĠAd minist
R ec
Ġsome what
m akers
Ġpres ents
Ġnot able
ep ing
Under standing
Ġobtain ed
Ġwhen ever
Ġimprove ments
b les
ĠTh anks
ĠGree k
Ġenh anced
c ore
Ġmembers hip
Ġbehavi ors
Ġperform ing
he mat
Ġsil ver
ĠC all
ro c
Ġdoct ors
i y
Ġar ise
ĠMay be
Ġiniti ative
Ġcelebr ate
Ġaccount ing
Ġ !
ot o
' ),
Ġmov es
Ġdis pos
U p
en v
R em
Ġext end
ann el
' ],
Ġsur f
iv ating
Ġcommun ications
Ġaim ed
U L
Ġla id
ĠMed ical
6 5
Ġcontribut ed
Ġpo ly
Ġsupport ive
Ġgrant ed
Ġr ub
bl ock
Ġb read
Ġcollect ed
ed ia
av ors
ĠE r
ĠF ood
ĠO per
ĠM el
Ġfac es
ĠB rown
Ġatt itude
Ġass ume
Ġs ister
Ġab andon
as tern
Ġfab ric
Ġencoura ges
Ġmut ual
Ġjur is
Ġdang er
S C
Ġprepar ation
Ġoblig ations
ĠS on
Ġlegis l
b acks
ĠF il
Ġautom ated
Ġrep airs
Ġconscious ness
i h
Ġse at
t w
Ġrequire ment
Ġfinan cing
Ġas ide
M L
Ġvis ible
Ġdisc overy
Ġstre ets
Ġres idential
Ġorgan isation
Ġthr ive
ant h
Wh o
Ġoverwhel ming
Ġregist ration
Ġstud ying
ur ities
ur ning
Ġw ise
p age
Ġencoura ged
Ġcharg ed
ĠG rand
Ġrel ative
Ġcur ric
ac hel
r ated
t ical
Ġen emy
ĠĠĠĠĠĠĠĠĠĠĠĠĠĠĠĠ ĠĠĠĠĠĠĠĠ
ĠRes p
Ġprote in
Ġmanufacture rs
att r
ĠSpan ish
str ing
pr ing
at tle
Ġcompet itors
Ġstrugg ling
ĠC R
ia h
Ġmus cle
Ġperform ances
Ġvis ibility
it t
Ġshap ing
Ġinst ant
ĠAustral ian
r ary
Ġfore ver
Ġfe at
Ġocc urs
if orm
Ġarg uments
Ġgradu ate
Ġhol iday
Ġc ater
def ault
Ġme at
Ġbe ings
arg ument
K ey
ĠIt aly
ĠBl ue
Ġro ots
Ġth read
it a
Ġcons erv
ĠP C
ĠIt alian
Ġexce ed
Ġinvolve ment
] :
Ġliter ally
Ġsearch ing
Ġch a
Ġun known
Ġhard er
ĠLe ague
Ġqu ote
m m
op en
ĠGe org
ĠM ont
Ġcomp elling
n ames
am ing
Ġavail ability
ul ating
Ġcontribut ing
Ġstr ange
Ġlawy ers
Ġsettle ment
O P
Ġinf o
Ġc ourage
un c
Ġs ending
Ġfunction ality
Ġsold iers
our se
Ġsurpr ising
et t
Ġown ed
Ġdifficult y
ĠAcc ount
Ġg all
Ġ4 5
A B
Ġcontinu ing
Ġinter f
Ġdra ft
ĠH aving
Ġy e
Ġresol ve
Ġextra ord
ugh t
Th rough
Ġpartnership s
( (
Ġto ken
Ġequ ipped
angu age
n ode
Ġnut rition
Ġs ou
ĠMex ico
Ġestablish ing
Ġtw ice
B l
D E
Ġcert ific
Ġreve al
Ġbal anced
Ġte en
ĠL ink
ĠW all
Ġh ur
Ġencoura ging
bur g
Ġtr ick
Ġwork force
Des pite
Ġdisapp oint
th rough
H S
g ments
M E
ro oms
Ġclar ity
Ġb on
Ġinvent ory
Ġsw im
Ġtransp arent
ĠBe ing
Ġwal ked
Ġprov ision
h ist
Ġp arser
Ã ¡
Ġreg ulation
Ġutil ize
li ers
Ġarg ue
as ant
Ġbehavi our
ĠWith out
Ġn u
Ġindepend ence
Ġm ir
re ens
Ġunivers ities
Ġaw ait
Ġdis miss
ound ed
ret urn
Ġrestrict ions
ent ed
ov iet
Ġnear by
Ġd ive
rib le
Ġexam ine
Ġcompar ison
ha ust
9 5
ent h
ollow ing
Ġorganis ations
ial ly
Ġsp ark
ĠH en
ond ay
ic an
T e
Ġphot ograph
Ġpresent ation
Ġcour ts
Ġfind s
Ġno ise
Ġbo at
Ġdes k
Ġus ual
Ġrepresent ed
in em
P e
Ġcogn itive
Ġlet ters
Ġsuper ior
ĠEm p
Ġend e
W here
l ength
Ġgu est
Ġsuppl ies
Ġtw enty
ure au
Ġaut onom
is k
Ġfil ed
ĠAg ain
Ġestim ated
Ġsav ed
Ġalle ged
Ġdifficult ies
4 4
Ġsurpr ised
Ġra il
Ġd ates
Ġclaim ed
ĠR ights
r c
Ġjew el
3 1
Ġal ert
Ġemerg ed
Ġf old
Ġgr ass
v y
Ġmix ed
Ġf ault
A meric
d ec
Ġr ural
ĠV er
ear ing
Ġfour th
i ating
Ġme al
ĠH ot
Ġpassion ate
Ġshould n
V al
Ġwe aring
Ġerect ile
r ine
Ġbut ton
Ġme ets
Ġact ors
Ġjo ining
ĠT ax
Ġbet ting
Ġwell ness
Ġc ooking
Ġw ave
Ġtarget s
ĠA ward
Ġcontroll ed
osp el
ĠS oft
Ġse es
ĠAr my
Ġilleg al
sw er
Ġdirect ed
Ġcorrect ly
Ġinterview s
Ġwor ship
ĠExecut ive
ĠCl oud
Ġdecl ine
ist ant
R I
Ġr u
ou b
Ġb order
Ġsm ile
ĠI ll
rom e
Ġmat ches
ĠF uture
ĠChrist ians
b el
requ est
ĠF ed
Ġs aving
Ġshar p
is hes
Ġrel iability
Ġout standing
8 8
Ġv an
Ġg olf
Ġexc ite
Ġstrength s
Ġsho es
ign ed
Ġtraum a
r id
Ġman ual
Ġexcept ion
Ġg ut
Ġevol ve
em ploy
Ġinter active
ĠA ud
ĠCol l
az z
ht ml
Ġto x
Ġsuff er
Ġweak ness
l ined
now ned
r as
ra q
an o
E qual
Ġinter vention
Ġt rib
ĠC ivil
Ġr anking
Ġhe s
ĠE p
ill a
pl ot
Ġk ick
ĠJ o
se ction
Ġconflict s
Ġconven ience
Ġra c
br id
L ast
Ġsign al
os c
ĠI re
Ġco operation
---------------- ----------------
Ġbas k
t arget
Ġ200 7
ĠB iden
Ġund ers
Ġdiv ision
ĠJ ack
val u
] [
Ġc ro
Ġentit led
Ġne ut
Ġte eth
Ġenc ount
Ġtest ed
aut hor
Ġord inary
opy right
Ġt iss
o il
Ġg ate
Ġlad y
Ġconvers ion
Ġconv in
Ġalgorith m
Ġcyber security
point s
t elling
ĠHe ad
em b
ud es
Ġattempt s
Ġreg ister
ĠTh ough
ur a
am il
Ġappoint ment
av y
Ġacc ord
Ġoptim ize
it em
c rib
b orn
Ġfore cast
Ġto ler
Ġinteg ral
Ġdraw ing
Ġpen is
ĠStud ies
ren cies
The n
Ġchild hood
us al
it ar
Ġthe ater
h y
Ġlay ers
Ġpoint ed
Ġm ath
Ġweek end
d ist
ĠL os
end a
ĠMe an
Ġann ounce
ĠE nd
ĠB al
Ġopp osition
Ġprefer red
ch ing
Ġrestaur ants
ĠP enn
Ġbl ind
Ġn ode
S p
en ess
======== ========
Ġcl othes
it z
Ġscore s
Ġlog ging
ĠM ot
as er
ĠC at
Ġag es
ĠN ever
Ġacc um
cept ions
Ġin ev
ĠCol or
ic ity
b ling
um in
worth y
In st
b in
ĠNet work
it arian
D S
Ġ199 0
ĠC ard
Ġch ose
ĠS ar
com pass
er ror
ĠJohn son
Ġper ception
ĠVict or
um ps
Ġsubst ance
Ġelig ible
im g
Ġdemonstr ated
Ġan ger
it ative
Ġutil izing
ĠG row
Ġreplace ment
z ed
k i
Ġempt y
Ġbe ach
let ter
ĠD en
Ġsur ge
Ġd ownt
N ame
P er
S et
Ġtr uck
Ġset up
Ġp apers
Ġcre w
Ġdam ages
= {
Ġex ch
St ep
ĠAll ah
Ġcarry ing
al ysis
Ġmotiv ation
ĠD isc
Ġcount less
it tle
Ġstrugg les
0 5
T C
du ate
u ction
P R
an i
call ed
Ġch ronic
Ġmist ake
Ġm old
Ġ ?
iff erent
Ġac id
ĠS oviet
st ract
ellig ent
ĠV iet
Ġopp osed
ĠB uilding
ur se
Ġbond s
ĠN eed
Ġpro hib
4 8
Ġt ut
ĠStud ents
Ġmed itation
ĠL og
U M
Ġs le
ĠJ im
Ġeng ines
Ġfew er
Ġin clusive
Ġpurch ased
Ġconf ront
Ġemploy ed
Ġprepar ing
Ġimm une
c reate
Ġsole ly
Ġref lection
ĠN on
j ango
im p
Ġcrow d
Ġhy per
Ġtem porary
Ġprof its
Ġevery where
ĠAN D
Ġc oding
the re
Ġmiss ed
ĠP olicy
Ġexpand ing
T oday
Ġs izes
istic ated
ĠInt elligence
ĠI raq
ĠAr ts
par se
Ġs hed
m d
Ġm ining
Ġoffer ings
ĠE th
Ġu pper
Ġprom ises
ĠD id
aw are
Ġsent ence
Ġadvance ments
Ġfore st
Ġb old
W S
ĠBrit ain
e ers
Ġform ation
Ġun lock
Ġdis h
Ġsche me
ole c
Ġgra de
e en
Ġper mission
ur day
Ġsc al
ĠM ax
ul f
ĠC redit
f rame
Ġre wards
ak istan
ĠCh air
Ġtal ks
Ġimm ers
k ins
Ġbur den
Ġex haust
n ings
Ġlaw su
Ġis instance
Ġfacilit ate
Ġrepl aced
Ġintrodu ce
Ġabs ence
Ġse ed
Ġrepresent ative
Ġshap ed
consc ious
Ġhe l
ig an
ĠL i
Ġpar ad
Ġexcite ment
ĠSecret ary
Ġne uro
Ġd ivers
ate ful
Ġse gment
Ġem pathy
Ġhead s
j ud
Ġexerc ises
ĠS um
est ions
il st
Ġcon vey
Ġcontribut ion
Ġfall ing
More over
ĠIn it
ĠC ast
Ġpro active
Ġf ounder
ĠIre land
ap es
Ġl augh
irc raft
ĠVal ue
Ġoptim al
Ġwind ows
S im
Ġn iche
Ġun us
p ost
Ġsatisf ied
d et
Ġbar riers
Ġscen ario
Ġleg end
Ġgra b
ens us
Ġdut ies
Ġimp ression
Ġ q
Ġto m
Ġinqu ir
Ġst ored
ut y
ol a
ĠMus ic
ĠR ock
cl ing
ĠD u
Ġfeature d
av en
Ġcontrol s
te en
oc ial
ES T
= [
Fin ally
Ġrecord ing
Ġenh ances
Ġcryptocur rency
z il
00 00
Ġcon ce
olog ists
F ield
ĠS ir
Ġle ct
Ġacknow ledge
form ance
Ġinf ect
ans hip
W hether
Ġ[ '
ĠHel p
Ġtrig ger
g reg
Ġgr at
Ġsubsequ ent
r d
our cing
Ġinstall ed
ĠP ython
ĠU lt
Ġfrequ ent
re ts
Ġcurric ulum
ĠVirgin ia
G ener
y an
Ġexpand ed
ic ating
Ġe ager
Ġd inner
ĠS and
Ġhome own
Ġl ights
Ġprec ious
Ġwere n
or gan
or ic
P s
F urthermore
Ġin her
ĠE xt
Ġvers ions
Ġne ck
Ġs ke
ĠC ON
ĠC bd
Ġj son
ĠB i
R S
ĠE nergy
Ġnorm ally
ĠE st
Ġphot ography
r ange
ĠChat GPT
it ate
Ġfil ter
Ġre nowned
Ġengine ers
Ġstraight forward
Ġout s
Ġaltern atives
Ġst uck
ty pes
Ġche cks
ĠG ard
Ġstrong ly
Ġgradu ally
Ġsy s
Ġbr ill
Ġclass room
ac ific
ĠJose ph
Ġli kes
Ġt ank
ĠJ oe
ĠH aw
Ġcur ious
Ġ3 00
Ġentreprene ur
Ġapprec iation
Ġunivers al
Ġlif etime
Ġcomp at
ĠEn viron
ig ation
ĠG DP
Ġconf irmed
Ġextraord inary
Ġb ike
ĠImp act
Ġpl ug
Ġfl ag
a fter
Ġbenef ic
ĠFin ally
Ġent ities
v as
Ġseam less
ab is
Ġprot est
Ġagree ments
id x
ĠW rit
Ġb ills
Ġg ifts
Ġtime ly
Ġinstru ment
Ġche cking
ĠLat in
Ġsoph isticated
Ġele g
Ġconnect ing
Ġra ising
ĠAs ian
Ġinterpret ation
Ġsurv ive
Ġt ag
ĠE qu
se ct
Ġb att
Ġsome where
ol id
t ion
ĠPl us
Ġcon vert
Ġinstru ments
d rop
Ġper mit
ĠMart in
ĠCustom er
pro perty
Ġenthusi asts
re y
ĠR ad
Ġcons ists
Ġwrit es
Ġelect ions
ĠKing dom
Ġin herent
p arent
Ġt iny
ro ot
Ġresult ed
or se
Ġmaintain ed
Ġconsult ation
Ġb are
S ee
im al
Ġmed ications
Ġ200 6
p read
Ġearn ings
Ġwar ning
Ġless on
Ġdis order
av ed
ĠU t
ĠS ection
C he
O ther
Ġdi am
Ġdifferent ly
Ġaffect s
Ġdel ve
ĠF ind
Ġassoci ation
Ġaddress es
Ġab und
Ġpropos al
Ġhost ing
ish ment
b a
Ġprov isions
con f
m ade
it ual
Ġdescrib es
Ġfarm ers
Ġmil k
ab led
m essage
Ġcert ification
Ġadministr ative
Ġr ating
ĠPro cess
ĠA R
ides pread
Ġwork er
Ġt u
Ġsupp liers
Ġ198 0
B ecause
dep th
ĠF ire
5 5
Ġign ore
k ens
Ġcon ventional
ĠP ut
ĠComm on
Ġdeterm ining
g a
ĠAn aly
D is
Ġj u
Ġadd iction
Ġent ering
ĠAngel es
ar ks
Ġreg ime
el i
Ġeconom ics
ment ed
pa per
Ġma il
Ġst ocks
ĠS qu
Ġpiv otal
Ġsafegu ard
ĠW ay
Ġevol ved
st atus
iv als
nov ation
Ġprec ision
Ġinter ior
ĠSh ow
E m
ĠSu pp
Tr ans
ĠCh amp
ĠJe ff
Ġsafe ly
T T
ĠM onday
Ġview ers
Ġpus hing
Ġanaly zing
Ġ ]
Ġz one
as hed
Ġwhe el
i aries
rim ination
Ġindic ates
ap h
Ġexpl icit
ĠH R
Ġvis ited
ab i
es sel
Ġconsider ations
mod els
act er
ail ed
b ow
Ġbre ast
Ġpath s
ĠSc ot
Ġco al
Ġminim ize
Ġvar i
Ġvers us
Ġdiscipl ine
Ġspecial ist
Ġfulfill ment
Ġcreat ors
vent ions
ĠA ccess
ĠWh ich
Ġmo ist
Ġsp r
ĠYou ng
ĠR oyal
Ġobstac les
Ġl on
Ġfact ory
Ġany more
if ier
Ġinst ances
abet es
ĠChild ren
Ġsurv ival
Ġgen etic
Ġval ued
Ġdiagn osis
Ġincorpor ate
ple te
y e
v ar
Ġsuff ered
Ġmod ule
Ġdesign ers
ur b
ver ty
ĠRich ard
Ġstud io
Ġathlet es
Ġequ ival
Ġbi as
y al
Ġ{ '
Ġselect ing
Ġpo verty
to ken
ĠD og
Ġret ain
Ġrep ay
ĠMed ic
Ġha z
Ġdi pl
Ġdivid ed
Ġbask et
ly wood
ĠD ra
Ġjewel ry
s l
m ind
ĠInt eg
ĠPr ime
i ors
ĠP an
Ġup coming
ur ches
Ġsect ions
ane ously
Ġpract ition
p ie
i ot
ĠOb ama
A A
Ġw idespread
Ġexecut ion
Ġfl avor
Ġacqu ired
Ġstud ied
Ġdivor ce
ĠH arr
Ġd ust
ater al
ĠP akistan
Ġdes ires
ĠL ocal
Ġinst ruction
A ut
Ġrad ical
Ġref uge
et ing
Ġstat istics
Ġaccount ability
Ġun cle
ĠChar les
ĠTra ining
ĠO l
ist ed
om et
ĠL ight
Ġc up
Ġdis p
up date
e ffective
Ġanc est
i king
Ġhor iz
Ġterrit ory
Ġscen es
Ġd ental
Ġfl our
Ġext ension
Ġv oices
Ġelect ed
Ġshowc ase
Ġra cial
Ġa ircraft
or ry
Ġbuy er
Ġput s
ĠD ub
ob by
Ġlegit imate
ost on
Ġeth nic
ĠH osp
Ġr ational
Ġuncertain ty
te ch
ĠEn ter
ĠR E
Ġhy dro
Ġprevent ing
Ġcollabor ative
em ed
res hold
ĠEn h
Ġpe ak
Ġme re
O ut
Ġatt ended
ĠR est
ĠComp an
ap se
Ġle an
r at
Ġw ire
ER S
c ar
Ġcomplex ities
ĠM u
Ġcover ing
Ġconst ra
Ġparam eters
a per
Ġcare ers
Ġperson nel
an es
c ut
ĠAP I
ĠT al
Ġmur der
Ġfl aw
Ġh ub
ĠM en
Ġelectric ity
ĠDan iel
ig ious
Ġsp ir
ĠCarol ina
uc ks
Ġh ate
Ġcount y
T ime
Ġpro port
Ġcas ual
el ing
et he
Ġproduct ive
ever al
4 9
ĠA M
dat aset
ĠL ee
Ġ200 5
ĠC D
Ġcred ibility
bd a
ail ing
ĠB u
ĠR om
d isc
Ġt ension
it ivity
Ġbank rupt
j i
ĠCap ital
s ervice
ree ment
ari os
6 6
Ġbl ocks
ann ed
P art
Ġaest hetic
k ind
ke ys
Ġinsp iring
Ġpres erve
a ud
4 7
or ical
ly mp
ions hip
f ire
Ġmat hemat
Ġtransform ed
pt ions
Ġen orm
k l
Ġpublic ation
m arket
Ġmechan isms
ĠPer haps
at o
ĠT own
Ġl oving
clud e
ĠT O
Ġphr ase
ĠIm port
Ġ3 2
ĠS outhern
Ġoff ices
ut ch
ĠF act
Ġaccur ately
Ġdis ag
Ġt ang
Ġvir us
er as
Ġinf ection
O h
ĠRel ations
Ġmechan ism
ic y
Ġstory telling
Ġint im
Ġem issions
Ġk ne
ĠP ot
N et
assert Equal
Ġelect rical
oc ated
Ġimportant ly
Ġtact ics
Ġm ic
Ġphys ically
ĠPalest in
og en
ick en
Ġestablish ment
Ġphot ograp
app ing
Ġord ered
Ġimm ense
val ues
f g
Ġappoint ed
ann a
pred ict
Ġdet er
Ġharm ful
Ġpick ed
Ġpurch ases
Ġintric ate
ĠInd ust
Ġconsider able
Ġfall s
Ġperce ived
ct u
B S
Ġrepresent ing
in er
Ġfl oat
Ġ197 0
ĠS elf
Ġprinc ipal
Ġacqu ire
Ġpros per
Ġappl ies
Ġ! =
Ġp itch
â Ĥ¬
p ower
ĠSh ould
J ohn
Ġn n
ĠC reate
or ks
Ġv enture
Ġhe ll
ĠN Y
ĠG ame
Ġexam ination
Al so
Ġb le
Ġspe aks
at hered
ĠM ach
Ġg ains
Ġdat aset
a wn
Ar t
0 2
Ġassist ant
Ġrom antic
ĠSat urday
Ġadequ ate
Ġke ys
Ġreput able
Ġcont ained
Ġdam aged
Ġo ught
Ġdr inking
Ġbel oved
Ġtre m
Ġcompl aint
Ġwat ers
Ġle ts
L ike
f are
r ance
if ted
ch ild
dev ice
ĠDem ocr
i ates
in ction
lic ation
Ġprofess ion
Ġth in
Ġfrequ ency
h ire
Ġacquis ition
Ġcl osing
ĠSim ilar
Ġsp in
Ġl oud
Ġcomput ers
Ġp in
es ome
ĠH on
ĠJ ul
Ġintegr ate
s we
Ġinv ited
Ġint rig
Ġparticip ating
ribut e
An y
Ġvacc ine
ĠN ext
Ġcapt ured
ĠP R
au nt
b est
Ġincorpor ating
Ġh at
Ġstr ive
Ġl oves
Ġexplan ation
ĠBra zil
Ġsuggest ions
ov id
ĠR o
g ency
Ġacc idents
Ġd f
AN T
4 2
.. ."
ar ity
art ers
Ġfr anch
ĠE ss
ad ata
ne cess
ort ion
per or
Ġlever aging
E d
Ġv oc
f irst
b ration
Ġadvoc ate
Ġme als
Ġext ends
ĠG al
Ġappeal ing
Ġredu ces
Ġp ump
Ġrent al
Ġf ishing
Ġatt ach
Ġglob e
Ġbird s
ĠMan ager
Ġcritic ism
Ġdis aster
Ġoccas ion
onym ous
a id
Ġworksh ops
7 7
ra pe
Ġdest ruction
alle l
Ġmaxim ize
Ġembra cing
Ġm ask
eng er
em ies
â Ķ
Ġauthentic ity
Ġnet working
ĠM ur
Ġpr ime
st ers
Ġinflu ences
P O
ĠT our
str ong
acks on
n oon
C ar
Ġenjoy able
ios ity
gh an
elf are
Ġr itual
Ġrat io
Ġt we
ixt ure
ĠLear n
Ġmotiv ated
ĠR ome
Ġwhere as
se m
Ġdevelop er
us hed
r ick
um er
ĠP rom
K e
Ġprov ed
H is
P E
b uild
Ġdet ection
Ġgu itar
Ġde ce
tain ing
Ġg ear
Ġconc ert
Ġres c
Ġcry st
Ġche at
Ġpack aging
Ġprecise ly
ĠĠĠĠĠĠĠĠĠĠĠĠĠĠĠĠ ĠĠĠĠĠĠĠĠĠĠĠ
Ġstruct ural
C S
hold er
Ġal leg
B I
Ġgain ing
m n
ĠP sych
Ġforg ot
z one
Ġenroll ment
ĠD i
af e
ant ed
Ġatt ached
Ġl enders
ĠCol umb
end ment
Ġdecre ase
R ep
Ġmy ster
ĠO lymp
Ġreal istic
Ġoblig ation
resp onse
Ġthorough ly
ir s
Ġcontinu ously
ĠGeorg ia
Ġw ww
Ġgather ing
ont o
Ġsh ops
Ġbroad cast
ob b
Ġlab els
Ġlib eral
Ġv essel
Ġben ch
w idth
Ġor ient
Ġo w
Ġpub lis
Ġper pet
ĠJ ones
Ġsub mitted
Ġtrad ers
Ġsp ouse
Ġinvest ed
R et
ĠKore a
{ }
Ġint elligent
Ġsecond ary
b et
Ġemb ed
me an
ĠSoft ware
ous es
i ams
Ġsal ary
Ġd uration
ĠE s
ential s
or rect
ĠC lean
Ġf ru
Ġrec y
ort ed
ors es
p ool
Ġbro ker
ĠCom put
Ġmanufacture r
Ġbox es
Ġexp ense
au g
Ġle ather
ĠAd am
ĠM att
ĠReg ular
ĠC ur
Ġdestroy ed
ĠRepublic an
Ġelimin ate
app y
d iction
Ġwant ing
ĠSen ate
Ġarg ued
Ġpublic ly
ĠD ou
Ġcomp r
iv ation
Ġmar ks
Ġin clusion
I F
O M
Ġaff airs
Ġbro ke
Ġcou ples
ul pt
: :
th is
Ġt all
Ġqu ery
y pes
Ġcontain ing
ĠChar l
Ġaccept ance
Ġsal t
ĠT reat
ap ing
Q L
Ġflow ers
Ġrequ iring
th on
ĠConst itution
ĠRev olution
Ġground s
in cluding
ĠK ar
Ġf iction
ĠN OT
Ġthere by
Ġaddition ally
az a
Ġfr ustration
Ġcomp ly
Ġrepe at
ĠB oston
ĠBe ach
ĠProt ection
Ġnew ly
Ġcelebr ated
Ġenjoy ing
atch ing
ĠF re
Ġdem ocratic
Ġf ert
ĠTh ink
ĠA S
re ated
Ġsupp lements
Ġdur ability
Ġtrial s
Ġun ity
Ġdecl ared
ĠExper ience
Ġf ro
ert y
f ting
ĠF our
L P
Ġport ray
norm al
Ġinf lam
s um
Ġen compass
av al
ĠSu ccess
v ation
ad y
Ġweek ly
â Ħ
ĠCont act
Ġad mit
Ġact or
Ġscen arios
d em
if ice
Ġarr ive
Ġspec ified
Ġm ac
Ġpass age
Ġunus ual
am pl
Ġdiscuss ing
ĠP ers
p u
Ġgold en
end ar
Ġpul led
Ġprospect s
ap ore
An swer
ĠA ri
Ġbr anch
v ol
Ġmen u
ĠIsrael i
un ity
Ġc her
the w
ĠE nt
Ġmemor able
ĠC ross
Ġreflect ing
ed nes
aw ay
Over all
Ġc abin
mon th
Ġb oss
Ġboy s
c ur
Ġtem pt
Ġinvest or
w an
Ġrest ore
Ġw ra
Ġrecogn izing
Ġend uring
ĠIslam ic
ĠMedic are
ĠE astern
Ġal ter
ĠUn fortunately
Ġg iant
Ġfem in
Ġsim ult
Ġnavig ating
Ġag enda
ag ine
Ġcert ified
Ġhop es
Ġatt ending
ĠIm pro
on ly
ian a
ues day
it ems
Ġreve als
ob j
Ġweap on
ĠE ll
Pe ople
Ġhighlight ed
ĠB uy
Ġpost ed
Ġcra zy
l ink
ulum i
Ġgr ateful
a a
Ġcharacter ized
ĠIr ish
Ġvis its
ĠS ales
Ġcr imes
Ġexhib ition
Ġr anging
Ġcol on
Ġf its
B en
'] )
Ġpu zz
Ġnum py
ĠM ult
c at
Ġ7 5
Ġar bit
ĠMod ern
ĠGu ide
Ġspeak er
Ġdis orders
Ġm olec
Ġdoll ar
Ġexcess ive
Ġagg ressive
ĠJ on
v a
ĠT ype
ab il
Ġprior ities
Ġinflam m
Ġaccord ance
Ġa wards
Ġtem ple
AT ION
M ay
Ġra rely
ĠUn like
Ġw ake
Ġsp ots
Ġl ists
Ġdis ability
ap ed
ag raph
igr ants
c r
p m
p op
Ġbre ach
ĠF est
ĠPh ys
Ġbre aks
Ġobs erve
Ġpus hed
P N
âĦ ¢
Ġh oly
Ġas ks
m ond
ES S
ĠOffic er
ost er
P D
ang el
Ġequival ent
Ġfear s
Ġro yal
ĠEmp ire
Ġm erg
ell er
ĠJ ac
G B
Ġ200 4
Ġany way
Ġpre ced
est y
Ġcre am
st yle
Ġlic ensed
ust ain
Ġcap ability
Ġnot ion
Ġview ed
Ġpat ience
Ġab road
ĠPol it
Ġdr ives
ĠD NA
f old
Ġy ellow
urs day
> >
est ed
rand om
Ġret urning
Ġtra its
Ġlight ing
Ġhas n
alu able
Ġy oga
O b
al og
Ġdel icious
Ġreflect ed
ĠHen ry
Ġamong st
ell a
Ġn erv
Ġprom ising
ĠR am
Ġro se
Ġhighlight ing
ĠEx p
Ġl ik
Ġsubsc ription
Ġdi abetes
Ġdro pped
ĠM ah
T R
c raft
Ġmarket place
ĠC lick
Ġk illing
ĠRe qu
Ġsus pect
Ġstruct ured
A dd
Ġstream ing
Ġ3 6
ĠSp ain
umm y
ĠH ind
v ard
Ġsell er
Mod el
Ġnut ri
Ġtack le
ĠCompan ies
M s
m ony
Ġavoid ing
Ġdel iber
cont ent
Ġh orm
ĠM ind
Ġattribut es
p owered
% ,
ern el
Ġwor ried
Ġassign ed
Ġsign als
Ã Ń
ĠCh ris
ĠAm ong
Ġpursu it
ĠSe a
M r
el ly
ĠM ike
Ġpe ers
Ġphenomen on
Ġwat ched
Ġt ip
ĠSt ill
ad ed
ac ies
ĠK h
Ġafter noon
ad vant
ou red
Ġmin ister
Ġper f
et ed
Ġnurs ing
ĠFor ce
Ġo cean
Ġden ied
Ġang ry
il ty
ow ed
Ġfil ing
ĠW ild
Ġform ula
ath an
s ite
Ġs pl
ic ide
Ġend less
s ight
spe cific
Ġmount ains
Ġquot es
Ġelse where
Ġdep osit
br idge
Ġl unch
Ġc ats
ĠH and
Ġvot ers
ow ers
ĠBe h
Ġres id
Ġtrans c
Ġinv as
Ġcirc le
ĠA L
Ġsequ ence
Ġs amples
à ¤
Ġear ning
" >
Ġaccom pan
Ġcompet e
ĠA ge
ac her
ĠF air
cy cle
ĠCh all
Ġop ens
ĠAdminist ration
ĠC up
ĠSp ace
Ġwork flow
lay er
ay lor
Ġcost ly
Ġcollect ions
4 6
ĠN ame
Ġun iform
Ġshoot ing
ĠId ent
Ġdis pl
Ġrepresent atives
Ġenc rypt
Ġp ion
ednes day
ĠOr der
Ġtrust worthy
Ġun com
ĠTh ree
Ġshowc asing
Ġbrother s
ĠP oint
Ġsub tle
0 3
8 5
ĠF ar
T w
Ġdist ract
Ġinter pre
Ġassoci ate
iz z
umb ing
ibl ical
Ġsome how
w ind
Ġimag ination
ĠS av
Ġpar king
Ġw are
ĠA z
ch o
ĠB uild
Ġconf usion
ĠSt an
Ġl am
Ġg athered
Ġ19 60
Ġtit les
Ġun necess
Ġasp ir
Ġrob ot
ĠM id
os a
ript ions
Ġed iting
Ġm ock
Ġspecial ists
ĠO kay
Ġmag azine
Ġtext s
Ġlet ting
Ġend ing
Ġfulf illing
Ġdisc rimination
in ite
Ġdur able
ĠP o
Ġconsult ing
Ġth inks
Ġcele bration
ĠJ ackson
Ġor al
Ġver ify
Ġch urches
Ġunderstand s
Ġmon etary
Ġlog istics
Ġdepart ments
form ed
us hing
ĠQu estions
R C
Ġprev ention
O s
ĠLeg al
al i
Ġtra cks
Ġt ied
Ġtro ops
Ġstart up
Ġb omb
Ġlog ic
Ġmain stream
Ġed ition
Ġm es
Ġh ide
Ġtrans lation
Ġsociet al
c a
Ġconf idential
ĠC opyright
rodu ction
Ġfeat uring
connect ed
ĠCons ult
ĠN ations
Ġsell ers
Ġcra ck
Ġland ing
ir us
ĠSaf ety
ĠN umber
ĠV ers
Ġdis hes
on ic
ĠAd vis
st atic
Ġm ild
Ġdepend ent
ĠG all
P lease
eli hood
Ġinflu ential
Ġre nder
Ġper m
j a
Ġover look
Ġwond ering
Ġli ked
Ġaward ed
Ġv ig
it udes
x id
ĠP ur
ĠEngine ering
Ġoff ense
ĠP acific
Ġret ention
an ning
Ġl y
Ġachieve ment
ial s
Ġsubs id
enn is
ĠP en
ĠN orthern
s ave
in ar
Ġver se
Ġshe ll
0 4
ĠSing apore
Ġoff ensive
et ch
Ġcann abis
0 8
Ġw aves
comm on
ĠWill iams
Ġpsych ology
ĠAnd rew
Ġadvis or
ĠE mb
Ġbreat hing
Ġviol ent
i ac
Ġaccording ly
Ġad verse
Ġenorm ous
Ġass ault
Ġrein for
Ġv ice
Ġchemical s
ro t
Ġregard ed
Ġind icated
Ġphil anth
Ġleg s
Rem ember
` `
Ġdes erve
it u
Ġutil ized
ĠInd eed
Ġmyst ery
Ġnews letter
un n
Americ an
P ar
C o
Ġin equ
ail able
Ġpl ate
Ġ200 3
Ġrel ating
Ġrespect ive
Ġj ury
Ġlike wise
Ġport ra
ĠG ar
Ġe ast
ĠP ath
ĠWind ows
q l
Ġpack ages
v in
Ġvar iable
Ġvol at
Ġeld er
s en
Ġguid ed
Ġpromot ion
Ġp ad
Ġcons ervation
Ġglob ally
pos ition
Ġdes per
Ġex clus
Ġpe er
Ġsc ulpt
Ġtestim ony
Ġmitig ate
Ġoptim ization
ĠCh oose
Ġhol istic
ĠC irc
Ġorganiz ational
Ġh ook
Ġpregn ancy
Ġf ur
ĠD own
Ġgo ver
ĠLink ed
Ġfun ny
Ġdipl om
st ore
Ġinv aluable
ch arge
Ġw et
pp y
ĠL ibrary
Ġpass word
Ġrem oving
im ental
Ġconclud ed
Ġpeace ful
E X
Ġcur iosity
oub ted
Ġ200 1
Ġh ang
[: ,
ĠCont rol
Ġimm igration
Ġpursu ing
Ġw ars
s ing
ĠAut om
ĠCont in
Ġb unch
ĠAtt or
Ġsac red
ro ph
s uch
u is
Ġter r
T O
ĠZ h
du ction
Ġf lying
Ġcorpor ations
AT E
7 8
Ġam id
Ġinspect ion
ĠT ry
Ġaccess ibility
ab eth
ig m
Ġhy brid
ĠM L
Ġbl ank
Ġwest ern
Ġspect rum
Ġtrem end
g raph
ĠD am
id ers
m ic
Ġpl ain
ĠV en
ĠD ar
Ġneg lect
Ġquant ity
Ġinstitut ional
ĠChristian ity
Ġgr asp
Ġacc used
Ġenab led
Ġgl ad
Ġex empt
Ġspo ken
Ġref erences
Ġaud it
ĠJer sey
f iles
Ġdram atic
Ġover se
Ġcomple tion
Ġsm ell
py thon
Ġrel ate
Ġvot ing
o osing
Ġdil ig
Ġvend ors
swe red
Ġarrange ments
ĠEn s
Ġnerv ous
c al
Ġgover ning
Ġint r
ethe less
L ear
Ġattor neys
Ġeth ics
Ġc odes
ĠC P
Ġsil ent
Ġaffect ing
b our
ĠPr inc
ĠL y
ĠT ik
Ġgu ides
Ġke en
Ġproceed ings
c ase
ĠN ative
ĠV an
ĠR ather
ĠQue en
Ġkey words
ĠZ eal
rape ut
Ġexpl os
Ġref used
ĠCont ent
Ġhop ing
ĠMich igan
Ġthe ories
Ġinst antly
Ġm oon
0 6
ven ues
Ġtick et
ĠOpt ional
Ġcopy right
Ġking dom
Ġcustom ized
Ġad vers
Ġpers u
ĠAs h
Ġf ing
Ġsymbol s
Ġconsist ency
ord an
fort able
Ġc inem
Ġtransform ative
ĠAg ency
crib ed
ĠC S
as hes
ist ing
ĠWe ek
Ġd ining
oubted ly
ad or
f ix
Ġun cover
re ation
Ġgen re
ĠSte ve
b ound
Ġrul ing
um ph
Ġmin istry
Ġdirect ors
ĠTe ch
Ġadjust ments
Ġrequest ed
or ient
Ġconcent ration
ĠFrancis co
il ly
Ġbro wn
Ġcut s
Ġdistinct ive
Ġde leg
Ġcomple ment
e ous
Ġadvert ise
Ġgl ory
M P
ĠNig eria
R equ
h ttp
Ġb es
ĠL ab
ell o
ĠDef ense
g ress
Ġupl oad
ĠDem ocratic
om ing
en cing
Ġinnov ations
Ġv ent
Ġb id
ĠOr ig
Ġh arsh
ir l
Ġcomp osition
arch y
)) )
um ing
IT H
f its
Ġcol onial
Ġassign ment
ĠS S
Ġlo op
m ask
Ġp up
Ġunlike ly
iv ated
ĠCert ification
Ġb ull
l arge
Ġident ification
D R
] ]
Ġliter ary
Ġroad s
Ġclub s
Ġinn oc
ĠM ic
Ġgot ten
con text
ĠE mer
er r
ĠEconom ic
Ġstead y
Ġsurround ed
ar ly
Ġbu ck
un ate
Ġtom orrow
ĠF riend
Ġw elfare
Ġapart ment
rou s
el come
ick et
Ġcomb ine
Ġp ython
ĠEar ly
pl ates
Ġinst inct
Ġest imate
ĠO il
ĠN az
p any
ĠStud ent
Ġconserv ative
ĠSc ript
Ġhad n
Ġsee ks
Ġdisc om
Ġinj ured
ĠB oy
Ġad mitted
Ġconduct ing
Ġlik elihood
Ġre verse
Ġan swered
Ġrest oration
N E
Ġmil est
ĠTor onto
Ġemot ion
Ġhe al
ester day
Ġshap es
Ġter rible
op les
Ġagric ultural
ĠP op
Ġtherap ist
Ġtemper atures
Ġw id
ĠOh io
Ġunf old
Ġsign ature
v iously
Ġcertific ate
Ġstri king
ĠB ow
ĠZeal and
ĠX ia
un icip
Ġacad em
F ile
Ġwe igh
gra duate
ĠSm all
Ġen emies
Ġexp ort
he alth
ĠMod el
ĠDon ald
iz za
ang ers
a ul
ĠD ream
ĠM s
st ruct
urrent ly
Ġversat ile
Ġco at
Ġbo ards
Ġn urse
ans as
ĠN ote
F C
Ġs orts
Ġreward ing
r m
Ġengine er
ĠSt at
Ġ1 50
ĠTh ings
Ġc ow
Ab out
Ġref und
er ge
Ġpop ulations
Ġur l
Ġover l
Ġoper ates
ict ions
Ġvirt ually
om y
Ġse asons
ĠCh ange
am ber
ph ones
s im
Ġm s
S ub
Ġbuild s
ĠS n
Ġover view
Ġas c
} )
K E
ĠL ittle
Ġfest ival
ĠConf erence
mod ule
g ical
u i
Ġdiff er
Ġtiss ue
ĠM S
ĠT uesday
Ġhas s
ĠB a
Ġg aps
R L
ph a
Ġapparent ly
Ġwis hes
ar ation
9 8
az e
ian ces
ĠM ess
v ance
Ġpo etry
Ġchar ity
Ġd ad
Ġjuris diction
Ġodd s
is a
Ġgu ilty
ĠTur key
Ġdram a
re r
Ġam pl
og y
sc he
Ġobtain ing
Ġdev ast
ĠP M
Ġdef ect
iz able
pro ject
van ia
Ġorgan ize
Ġir re
epend ent
0 7
Ġthe ore
Ġt um
Ġmir ror
rop ri
9 6
Ġequ ality
Ġcomple ting
ĠĠĠĠĠĠĠĠ čĊ
b ots
Ġpromot es
Ġt ired
Ġco oper
Ġsociet ies
" ],
F F
Ġl ift
ĠHol lywood
Ġbankrupt cy
Ġtalent ed
E ach
Ġhand b
Ġso vere
es is
Ġpet ition
Ġfund ament
col or
Ġb ab
ress ing
Ġtreat ing
ĠS eries
Ġprof iles
d irect
Ġres idence
Ġprint ing
Ġtarget ing
Ġcons olid
Ġmus cles
Ġprom ised
ĠViet nam
Ġstru ck
Ġpil ot
Ġbackground s
l oc
Ġbu ff
er als
t itle
Ġf inger
Ġhospit als
Ġdesign ing
ian o
Ġhealth ier
f all
Ġ200 2
ĠH om
Ġinc idents
mar ks
Ġpro c
in th
d a
Ġcont rary
O G
n odes
ĠA ction
i pt
pp ers
Ġle ague
Ġin hab
C ON
ac on
Ġprocess ed
Ġu h
int on
al o
Ġint imate
ĠPre m
Ġre ass
Ġinv ite
Ġgener ating
ĠN ov
Ġs outhern
j o
Ġdiscom fort
Ġplan e
Ġres ident
elt a
ĠTh ursday
Ġsett led
it ting
e ven
Ġluck y
ĠSt ay
re ach
Ġim g
ot ive
Ġir rit
Ġtim ing
Ġhar vest
Ġsimult aneously
Ġdisput e
ad ium
b u
Ġrespect ed
Ġh ole
Ġn od
s ign
Ġprompt ly
oo f
ĠB ang
op her
Ġhomeown ers
ĠSh op
ĠArt icle
Ġflu id
Ġsubsc rib
Ġen v
ĠSystem s
pro of
Ġst ack
Ġ4 8
ĠTra vel
r imin
Ġcontribut es
ter ior
Ġp ets
act eria
Res p
Ġcomm od
em ail
Ġqual ify
Ġb ars
iz abeth
erm an
Ġseem ingly
Ġcoun cil
Ġj ack
Ġdemonstr ates
Ġrh yth
Ġcon qu
Ġar med
Ġ Ã
ĠMin istry
Ġinvestig ate
sel l
ĠPhil ipp
" ).
St art
ic ism
ig ma
Ġsh ifts
o T
ad el
Ġschedul ed
Ġmess aging
ĠM oon
F i
Ġse eds
are r
Ġpublish ing
Ġl oose
ĠUs er
D ef
ĠR en
Ġc ust
Ġund et
ĠInt erest
Ġunnecess ary
Ġpolit icians
Ġrem ed
Ġt ies
ĠRet urns
p ing
H T
Ġp ose
a ire
con v
Ġmet icul
Ġnecess ity
Ġattribut e
ĠH ard
Ġaw esome
ĠP ass
Ġcons p
Ġretail ers
q a
Ġco ins
Ġsec ured
Ġcreat ures
To k
Ġre vel
ĠFin ance
ĠQ uality
Ġdep os
Ġharm ony
Ġbe er
the y
Ġtick ets
Ġorig ins
cl ose
Ġagric ulture
Ġ vert
ĠB ul
Ġb ooking
Ġ[ "
aver ing
ĠR a
Ġcollabor ate
ens ing
0 9
Ġcontract or
b ul
h ome
Ġdemand ing
Ġemphas izes
Ġh orses
ĠF ac
if act
ĠCh apter
t orch
ĠHosp ital
Ġtrou bles
ag ger
Ġ6 5
Ä ģ
ĠCo ast
ĠLinked In
achel or
Ġprev al
Ġm ira
ĠIndust ry
ĠA T
ĠL ow
he nd
Ġfre el
ĠBet ter
Ġvac ation
Ġassess ments
Ġreson ate
Ġgrat itude
Ġm ature
Ġmet als
Ġsacr ifice
Ġspeak ers
m ith
b uilding
Ġk il
ĠAf ghan
aut h
p in
sy l
Ġpre st
Ġl ender
e conom
Ġcorrupt ion
ĠE state
ra ined
ĠWor ks
L og
m ates
Ġrespond ed
Ġarr ival
Ġfunction ing
Ġread ily
Ġbelong ing
er ry
ro ke
Ġfost ers
ĠW ednesday
qu ery
C D
un a
Ġair port
ist ical
Ġder ived
Ġd ent
ud a
Ġbl ame
Ġab stract
ins on
Ġf ib
Ġt ables
Ġres ume
Ġaff irm
7 6
ag an
ĠCorpor ation
Ġfinan ces
Ġprotect ive
pl ed
b n
Ġorgan izing
Ġstart ups
Ġemot ionally
Ġroof ing
Ġvar ied
at i
Ġintu itive
Ġb ol
Ġe co
Ġsure ly
ĠBen efits
Ġreject ed
Con fig
Ġwar fare
Ġh ung
Ġwh ilst
Ġhand led
AR T
st op
ish op
Ġf u
Ġnob ody
ĠB ob
bre aking
ĠScot land
Ġtra ce
ple x
ro log
AL L
ĠM oney
Ġf ier
Ġcompl aints
Ġdis advant
ĠFest ival
is p
st ar
Ġstay ed
Ġche st
ik i
Ġprodu ces
Ġbi ological
Ġimpact ed
Ġfav our
Ġhe nce
ast y
Ġ ),
ĠAg reement
Â ®
w ear
Ġhar ness
ĠSen ior
Ġfriends hip
Ġut ility
Ġfranch ise
low er
Ġoccas ions
ĠC H
ĠS earch
ĠPl atform
Ġunw avering
ĠW is
Ġbot tle
Ġnews paper
h as
Ġdef ensive
Ġo h
OU T
ann y
ĠPol ice
ĠS pring
Ġneg lig
Ġlawsu it
ĠGu ard
Ġde ck
Ġscr ut
ĠV ice
row s
Ġbasket ball
ie ve
writ ing
ĠBro ther
Ġ202 5
Ġcapt ivating
B M
AM E
ter ies
Ġcar ries
e vent
Ġneut ral
Ġt ort
Y eah
Ġgrow s
Ġcal endar
Ġdirect ory
Ġphotograph s
p c
Ġt ours
Ġmeas ured
Ġl ens
Ġcollect ing
Ġexecut e
ivers ary
Ġre hab
Ġany body
Ġknowledge able
Ġunder m
Ġbrill iant
syl vania
el ve
ĠT aylor
ĠPh D
it is
Ġh am
ĠG ames
F orm
Ġund oubtedly
Ġn orthern
Ġcont rad
Ġpar agraph
Ġcomprom ise
) (
ĠD oc
St ud
ĠE vent
C P
Ġb one
ol ly
Ġst om
ĠD E
Ġuncom fortable
Ġen rich
H aving
Ġp ig
Ã ¼
Ġf ought
Ġbur ning
c hers
ĠL ive
ge vity
Ġvari ables
Ġdefe at
P re
ĠC ra
! )
3 00
ira ble
Ġyour s
Ġbrand ing
ĠDiv ision
Ġres ur
Ġwilling ness
Ġadvoc acy
Ġtox ic
Ġsw ord
Ġun pre
A Y
Ġprotocol s
arm a
ĠC ulture
Ġold est
Ġaccompl ished
Ġguid ing
ĠS olutions
Ġcred its
ĠK im
Ġelect ron
Ġcontract ors
Ġp d
Ġautom atic
ĠInc re
Ġmarket ers
Ġcal c
Ġt ire
od ge
Ġland s
Ġinfluen cers
Ġser vers
Ġemb ark
Ġpain ful
Ġdec iding
Ġcontain er
R el
Ġto ys
ĠSt ory
Ġrevolution ary
Ġconstruct ed
Ġcorpor ation
4 1
ple ment
f ind
is her
b ell
ĠC ase
ĠN ature
ro py
Ġex it
Ġhard ly
Ġf ut
Ġins ert
Ġalign s
Ġret reat
Th ank
ut en
Ġprof itable
ĠE V
ĠColor ado
aj abi
Ġte aches
Ġdeath s
Ġaccommod ate
Ġexplore s
C ustom
ĠL anguage
Ġas ync
st ra
Ġdiam ond
ĠP ub
ĠA h
Ġbrow ser
Ġs ed
Ġpl acing
Ġsh adow
Ġflu ctu
Cl ass
he lp
Ġch ains
ret ion
Ġref ere
ĠHar ry
Ġgra y
Ġ ðŁ
ĠB rad
Ġroot ed
a us
Ġdisplay ed
re ll
ĠPar liament
Ġdist inction
Ġf ed
ĠL td
pro duct
ĠW he
4 3
Ġsh ots
rapeut ic
M ar
âĶ Ģ
Ġple ased
Ġbeg un
s is
Ġreview ed
Ġr um
Ġe ternal
ĠC ub
Ġenterpr ises
Ġpredict ions
Ġrecruit ment
Ġa er
Ġse ar
Ġdevot ed
Ġth reshold
I ES
ĠN orm
Ġt ends
Ġ4 00
Ġem erge
Ġshould er
Ġwh oles
ĠPri or
Ġdim ensions
Ġundet ected
Ġalign ed
wh o
ĠL ew
Ġgr id
ĠĠĠĠĠĠĠĠĠĠĠĠĠĠĠĠ ĠĠĠĠĠĠĠĠĠĠĠĠĠĠĠ
C R
Ġcam eras
8 6
Ġrec ru
Ġdeb ut
Ġu m
or ious
Ġdesign ated
Ġposs ession
ĠWe bs
Ġsil ence
d y
ri or
Ġpra ise
ĠH u
ĠH as
ĠMc C
Ġg ym
S om
Ġbirth day
Ġleg ally
p o
ĠM other
ĠAv oid
ste in
iat ric
Ġb ust
ĠW atch
he ast
ĠN ob
Ġcar ing
Ġpract icing
Ġtri ps
ĠO m
e als
ĠMem bers
ĠHarr is
ang le
eng ers
Ġdra in
Ġepis odes
he art
mind ed
Ġcop ies
y er
Ġlay out
Ġwal ks
ĠF arm
Ġche ats
Ġtrans mission
ĠB ase
Ġass ured
9 7
ĠEvery one
ĠPro p
Ġdirect ions
ĠO x
Ġal arm
u ity
Ġsh ame
H er
ĠW as
Ġpip eline
Ġharm on
Ġpar allel
Ġconstitut ional
irt ual
ĠSw ed
H ave
Ġrough ly
ĠK n
Ġsu its
el le
D F
ĠC ovid
ĠJ un
Ġgod s
Ġins ure
ĠF ord
Ġconfig uration
Ġra ises
Ġwe ird
Ġnarr atives
Ġarchitect ural
Ġcur ve
n ament
Ġcreat or
se arch
Ġ{ "
Ġst ations
or ig
Ġb acteria
EC T
Ġvolunt eer
Ġt or
ĠR h
int erest
Ġant ib
Ġw ages
ĠC hen
ĠSc he
l on
Ġsec uring
Ġgr ants
ane ous
Ġtal ents
Ġel ite
Ġnegot iations
isc al
Ġdes ert
Ġt ar
ĠCon c
Ġsign ing
ent er
Ġsupp lier
H el
Ġdomin ant
Ġra cing
Ġmusic ians
col umn
m ake
Ġdiscount s
as ures
Ġo xy
ĠE S
ĠV ill
Ġsol ving
c opy
Ġcere mony
ĠH ong
Ġan ch
ro at
Ġworld s
Ġtown s
Ġconvin ced
ĠD C
ĠY OU
Ġintegr ating
Ġfl ash
ĠMed icine
ĠS ky
Ġhost s
t ensor
clud ed
iet ies
y ard
Ġexpl ored
Ġarrange ment
Ġattract ions
Ġg ro
Ġrec ipe
ĠE T
ĠPl ace
ĠV ar
Ġnurt uring
Ġshe et
Ġexch anges
Ġfail s
Ġtransfer red
Ġvolunt eers
W ill
Ġnorm s
ĠAnd roid
ĠAttor ney
\ \
Ġca ution
on ing
m ath
ĠT ai
Ġd imin
Ġ} ,
Che ck
ĠF ull
ann els
Ġsupport ers
ĠLead ership
ĠN atural
ĠPenn sylvania
Ġt ill
Ġsurf aces
ĠTra de
ur ring
Ġd ash
Ġrece ives
Ġhunt ing
Ġst rain
Ġfail ing
ĠB ush
H ist
Ġmoist ure
Ġg est
ĠDemocr ats
Ġpenal ties
Ġtem plate
ĠS ports
Ġdef ining
Ġmis con
ut ter
ĠÂ §
H A
ĠHe art
Ġattempt ed
Ġscreen ing
Ġmet ab
is er
w a
g ame
Ġp icking
Ġsec rets
ocol ate
Ġrecommend ation
Ġt ab
T ER
Ġbut ter
Ġadvance ment
ĠC N
Ġun employ
Ġprop ag
Ġspect ac
Ġguarant eed
Ġprogress ive
ĠInd igenous
Ġent rance
Ġestim ates
bre ak
T able
an ches
Ġcl ock
Ġdisput es
il ation
Ġcitiz en
Ġstream line
Ġsh ips
ound ing
Ch rist
Ġo ils
ĠTik Tok
Ġ5 5
Ġinter rupt
Ġsust ained
Ġf o
G od
ult s
oc ate
ev in
e ering
Ġpl t
Ġvar iations
Ġw ins
ĠTur k
ĠV ideo
Ġtour ism
Ġaccept able
Ġworksh op
t f
Ġfl ags
id ity
Ġl apt
Ġdig est
Ġmoment um
Ġmob ility
Ġimpro ves
Ġunders c
ĠF ield
w as
pe x
sec ution
Ġegg s
T ake
o ors
ation ally
Ġexist ed
ĠU r
les h
ĠAuthor ity
ĠJ ordan
) ]
Ġperm its
Ġb ool
Ġwild life
Ġdeploy ment
z ona
Ġaccompan ied
h op
Ġattempt ing
E ng
ick ed
id ays
Ġlove ly
ab lish
Ġsatisf y
ĠR og
Ġser ial
Ġpan els
Ġcomp osed
Ġl ibr
ĠR on
Ġdark ness
ĠS her
ĠR ay
i ology
Ġresil ient
G E
Ġfru its
Ġv ib
g ic
Ġdes p
Ġlog ger
Ġax is
Ġsw ift
Ġveget ables
ĠMuslim s
Ġofficial ly
ĠJ r
Ġper mitted
Ġse ats
Ġl ake
ino is
b ury
ĠC F
ĠAs k
Ġcha os
Ġr ival
Ġcounsel ing
ĠDe b
Ġup grade
Ġsepar ation
Ġm ile
Ġmechan ical
Ġ' ''
Ġm art
Ġl ending
Ġc oc
Ġchamp ion
Ġadv ances
Ġgraph ic
Ġevalu ating
b ooks
Ġsc ar
h ar
Ġpain tings
Ġvulner ability
ĠS us
In f
Ġimpl ied
ĠB ern
Ġauthor ized
ĠK ong
s olving
ĠI de
Ġse vent
ĠTem ple
Ġ3 8
olit ical
Ġint ensity
ĠB on
Ġinput s
al ities
O ps
num ber
Ġign ored
ĠDis ney
ĠG iven
Ġadv ised
ĠF OR
ĠInf lu
Ġhe ating
ĠWor king
ble m
fil ename
Ġdel ays
Ġgener ative
v o
In ter
= (
app ed
A tt
n atural
Ġoper ators
if er
Ġaspir ations
ĠF red
Ġpres idential
ĠHar vard
G u
Ġteach ings
Ġn ose
Ġkn ock
Ġ3 3
Ġsh ield
eng es
Ġd ign
ĠSimilar ly
Ġh ired
Ġqual ifications
w art
Ġpres erving
Ġcheck ed
Ġ199 9
em pl
ut ical
Ġinc hes
Ġaest het
Ġdro ps
Ġphys ician
Ġhost ed
h our
usal em
Ġst em
Ġsmo ke
N e
Ġsaf er
ol n
ra ham
t xt
E P
ĠL ine
ĠInvest ment
ar on
ĠF ocus
Ġaccess ories
Ġch icken
Ġvis a
Ġg host
Us ing
Ġt ale
Ġmind fulness
Ġalign ment
p arser
Ġtext ure
Ġre nd
Ġtr ies
Ġwin ner
ĠR ose
ob e
ĠC A
Ġfall en
ist ence
ĠPh ot
Ġprivile ge
Ġesc al
ly n
Ġdoct rine
last ing
Ġaccount able
clus ions
ĠB ol
Ġtrust s
ĠGrow th
Ġclass ical
ĠMat thew
Ġlad ies
Ġsa ke
ri ver
m ode
ĠB at
ĠPlan ning
ag en
l ass
Ġdel icate
f in
Ġc ir
ĠK ent
Ġper se
Ġbar rier
Ġtremend ous
Ġg ri
Ġinter ventions
med iate
Ġtransform ing
Ġrep et
Ġto kens
f ather
Ġanticip ated
Ġconf used
e ath
c or
Ġtail or
li est
s ized
Ġfail ures
p ed
Ġco aches
B est
Ġintent ions
ern ame
Ġwat ches
B ack
im er
ĠR ole
ĠM ember
z ens
am i
Ġf ool
ĠD ue
emb ered
ĠM ethod
Ġsol o
Ġobserv ation
g iving
Ġrout es
ĠC lear
ill ance
ol is
Ġor g
Ġviol ation
Ġ1 000
Ġrestrict ed
Ã ³
Ġpros pective
Ġeduc ators
ĠH a
Ġh its
Ġcond em
Ġw age
Ġrac ism
H O
Ġapprec iated
Ġd type
################ ################
arg o
Ġlon gevity
ĠEvery thing
ĠD ark
requ ently
Ġreg ards
R ef
ĠA lp
un ct
ĠUk rain
Ġexecut ed
Ġswim ming
as ets
ĠTest ament
il er
w all
ne g
ĠStud y
us ive
Ġforgot ten
Ġs orry
am ine
Ġd ual
b rew
Ġexhib it
Ġph ones
Ġtem por
ĠA C
ĠM ove
Ġstat ut
% )
Ġagg reg
eg in
ĠL uc
Ġmis under
M C
ĠB ad
Ġsu pre
ot es
Ġbr id
ĠC apt
y es
ĠApp ro
i ang
Ġhum or
Ġwitness ed
Ġlandsc apes
k o
l ocal
Ġp ounds
cs v
al m
Ġlist ing
Ġsacr ific
ig ure
cent ury
im a
**** ****
reat ing
Ġprodu cer
Ġbase ball
A ct
in formation
sm anship
Ġsum mar
ĠSar ah
en ced
Ġjournal ists
ro duct
Ġno qa
ass ment
Ġre vers
Ġinflamm ation
Ġfif th
Ġpublic ations
ĠEl izabeth
Ġpe oples
st ack
Ġcontin ually
ĠL iving
Ġr iding
umm ary
Ġencount ered
l at
Ġur gent
el a
Ġres erved
Ġt ear
ĠN ight
Ġcomp os
sh ow
Ġtim eless
st d
lab els
ĠD ie
Ġcolle ges
pie ce
Ġisol ation
Ġy esterday
Ġindic ators
ced ented
ĠMar x
Ġrepeated ly
Ġqu e
ĠIm m
H D
T op
Ġmag ical
Ġ3 7
Ġrespons ive
Ġcor on
g ate
Ġsl a
Ġsurv iv
oc a
Ġd irt
ograph ical
Ġwas hing
ä ¸
ru g
T A
ĠK at
ab b
Ġprint ed
Ġcont est
Ġlit igation
Ġg ig
Ġexper iments
Ġa ug
Ġpr on
Ġshort er
Ġvol umes
Ġal ien
Ġup set
add ress
ĠJer usalem
Ġbatt les
m aker
Ġco in
Ġpay day
Ġwood en
ne red
ĠAN Y
Ġacknowled ged
Ġear s
ĠCl in
Ġintrodu cing
Ġm igration
Ġche aper
Ġm ad
f oot
reed om
Ġreson ates
Ġven ue
Ġsy nd
aw a
ĠM ale
ĠN FT
g ram
ex ecut
Ġalle v
ch anging
Ġright eous
Ġseam lessly
Ġmodel ing
Ġnot ing
S I
ost ic
Ġdecent ral
? '
Ġkn ife
in et
m em
Ġf illing
ne xt
Ġinfect ions
Ġpenal ty
Ġsuggest ing
Ġbattle field
Ġrespect ively
ĠDe ep
ĠN at
Ġattract ed
Ex pl
Ġcalcul ated
Ġtrust ee
Ġconsum e
Ġle ak
c urrent
Ġde emed
Ġpractition ers
ĠPr ice
Ġconstra ints
Ġworth y
ĠTh ird
Ġsec urities
or i
Ġbr ut
ĠKore an
Ġfl avors
Ġimp r
ĠW ITH
Ġphys ics
un s
enn y
Ġstret ch
Ġpar ks
Ġs ne
IT Y
Ġsla very
Ġbreak fast
Tr ust
Ġpro pri
Ġtang ible
ĠGold en
ain e
ĠLe vel
co very
Ġtend ency
ĠAn th
Ġsp ell
Ch ar
ĠV iew
Ġloc ks
Ġsurround ings
Ġprop he
d ra
ĠO K
Ġdim ension
Ġcr ash
Ġann ually
Ġempower ing
Ġstom ach
Ġimp osed
B ase
ur red
S ec
Ġb orders
b as
ĠBl ock
Ġf ame
5 6
Ġsleep ing
Ġassum ed
Ġpo em
M ake
Ph one
ĠInd ividual
ĠColumb ia
ĠR O
Ġrelax ation
Ġweakness es
Ġc v
step s
Ġt ensor
Ġbon us
Ġver b
Ġwhere ver
ĠH or
Ġfund ed
Ġfree ly
ĠWil son
Ġpro secut
ĠP erson
Ġpresent ing
lim ited
ĠAri zona
Ġprodu cers
Ġtrans f
E A
Ġhot els
M ed
Ġfeed ing
St ate
Ġsurve ys
ĠS aint
ĠV e
ag g
rop ic
ĠHot el
Ġg ospel
Ġha cks
Ġcon j
ï ¼
Ġadv ise
t x
Ġmed ic
th od
Ġview ing
U D
il a
Ġlisten ers
Ġver ification
class es
inc oln
Ġtre asure
Ġlearn ers
Ġplace ment
ĠSm art
Ġcoll apse
Ġlow est
s ample
Ġsh out
Ġminor ity
ĠCom pl
ace utical
Ġversat ility
Ġoccas ionally
ĠW AR
qu is
ĠF ollowing
the ning
Ġth irty
Ġtravel ed
Ġform ing
v oc
fil ter
Ġres ort
ĠII I
Ġoppon ents
umin um
Ġh un
ĠP u
ot ional
get s
is an
Ġdisc retion
Ġfrustr ated
ĠO wn
ĠEnh ance
Ġflow s
Ġhor ror
adel ph
ĠS chol
ak h
ĠT ri
Ġc uis
Ġimper ial
ĠPe ace
form ing
Ġre lying
ent ry
Ġh ier
Ġcustom s
ĠPract ice
Ġpass es
Ġrespond ing
ut s
ĠArt ificial
h uman
ree k
ĠMount ain
Ġbr anches
Ġsubst ances
Ġr ice
Ġ Ð
Ġabandon ed
Ġ19 50
ad er
8 9
od ed
Ġqu eries
Ġoxy gen
opt ions
ie val
in ery
Ġdemonstr ating
Ġcont ents
ĠCR M
Ġunpre cedented
Ġcompet ing
Ġ199 8
__ __
ĠWith in
ic as
Ġsw ing
Ġwell being
Do es
ĠOther s
comm and
Ġv oid
Ġseason ed
Ġben eath
Ġst ain
Ġrem embered
Ġloc ally
ĠH ence
Ġsent iment
C ase
ĠT ogether
z h
| |
Ġm urd
Ġfound ing
ĠP arent
Ġtour ist
Ġpositive ly
Ġvary ing
ĠCommun ication
e em
Ġincorpor ated
Ġwithdraw al
ĠIll inois
ĠThe ater
Ġthe rapeutic
ĠC rit
Ġtri umph
Ġgraph ics
ig ue
Ġche ese
c ap
ĠH ope
Ġto oth
Ġdiscl osure
Ġca ut
m art
Ġgame play
' ))
ast e
b ug
Ġind irect
Ġpl umbing
Ġconsult ant
Ġpen et
Ġcons ensus
Ġincent ives
Ġlog ical
Ġang le
ĠCy ber
Ġstream s
ĠB ud
gg ed
Ġfore front
Ġfarm ing
Ġwas h
ĠS anta
Ġdis abilities
Ġwor n
Ġl un
Ġra b
Ġproport ion
Ġstim ul
Ġf lesh
ĠSt ock
Ġp ond
Ġanticip ate
ĠH ig
Ġexam ined
ic iency
Ġwal let
Ġapplic ants
ĠJud ge
Ġhead ed
Ġmarg inal
othe rapy
Ġw idth
ĠD utch
Ġinf inite
Ġpri est
Ġchalleng ed
are t
Ġbath room
F I
6 7
B oth
Ġoverwhel med
ĠB ased
Ġsmooth ly
ĠFore ign
Ġfrustr ating
ir ts
Ġtour ists
e fficient
om ic
N ext
ĠN eg
ĠAn alysis
Ġfavour ite
ĠC a
Ġaccept ing
Ġexecut ives
Ġb ub
Ġcounter part
ĠH an
Ġexplain ing
ĠMach ine
Ġarg ues
ĠS ure
Ġthe ft
Ġdr inks
ĠC ru
Ġsing ing
Ġhead ing
Ġscholars hip
ach us
Ġtyp ing
IS T
ira cy
+ +
Ġpropos als
in ars
Ġcharg ing
ard less
ĠD O
Ġst ere
Ġinher it
H igh
Ġc ock
Ġbehavior al
Ġfil ters
Ġpres um
Ġsh ifting
er b
Ġinev itable
adelph ia
Ġremind ed
ow ing
Ġpregn ant
ĠG P
Ġmin i
ĠC ond
Ġas sembly
ĠW W
il iate
Ġrep ly
Ġg rief
ĠB C
eg a
Ġple asant
Ġcook ies
ĠK u
Ġopen ly
orient ed
t ask
P ress
et ts
ĠP ack
ĠLim ited
Ġrat ings
Ġwh is
Ġr ush
F e
ĠR od
p ublic
c ost
Ġh ip
ith ub
Ġfant asy
writ er
Ġmet ers
I O
Ġst eal
Ġin hib
se x
Ġinter section
Ġel abor
ot ton
lay ers
f n
re nd
m o
ĠR and
ION S
pro t
ol ved
Ġenthusi asm
z es
ĠW ould
Ġcompan ion
Ġeduc ate
Ġoppon ent
Ġresol ved
Ġin cl
Ġl ying
Ġcomb ines
Ġcrit ics
am ous
M M
ch annels
Ġam en
ous ing
Ġen erg
Ġkind ness
Ġhistor ically
Ġre ar
tr ue
Ġwarrant y
ur able
h igh
Ġpref erence
Ġcompl ications
or ant
ĠM uch
ĠAre a
Ġ âĢ¢
s end
ak a
ĠL ic
* -
Ġmod ified
Ġcomm ands
Ġt ons
ĠN AS
int age
av irus
Ġann iversary
ĠGDP R
Ġisol ated
mer cial
ĠA k
uck y
ĠN ic
ask a
Ġroll ing
Ġsuper vis
ĠPalestin ian
Ġcat aly
Ġd ying
Ġconf erences
Ġf ate
ribut ion
re nder
ĠL ind
our ing
ustr ial
w ill
ĠN ick
Ġvend or
ud i
Ġdeb ts
Ġcraft smanship
iv a
Se cond
Ġnurs es
Ġre ign
Ġske pt
d on
mb ol
Ġcryptocur rencies
Ġsc reens
Ġexp ed
g ood
ĠPr ince
row ing
ĠCont ract
Ġag ing
ĠAp ache
Ġbut t
A g
Ġst ays
r ative
V iew
Ġcult ivate
Ġsal vation
ĠT en
ry ing
Ġcapital ism
ĠNever theless
Ġment or
own ed
fe atures
Ġp atch
Â °
ĠP y
se en
Ġadop ting
Ġle ase
Ġm unicip
Ġemb arr
ge red
Ġnutri ents
Ġg al
b ro
ĠE ric
ĠH ou
Ġunt o
tra ck
Ġemphas ize
app ropri
Ġfavor able
at in
Ġland l
Ġassum ptions
Ġjournal ism
D B
Ġdisag ree
Ġex empl
L ooking
ĠF urther
ist ance
equ al
Ġaff ection
ĠD I
Ġma ps
Ġgenuine ly
Ġart work
Ġb io
ram ew
f s
se cond
it ations
at tered
ĠStep hen
Ġup grad
Ġembed ded
Ġt ears
Ġag ed
Ġad mission
ĠSh ort
Ġprosper ity
Be ing
ĠAl ways
Ġref ine
IN D
Ġrenew able
achus etts
Ġ3 4
S ocial
Ġremind s
pos ed
5 8
Ġrele vance
trans form
ĠH old
Ġconv iction
off s
ect or
l ooking
Ġjud ges
d iv
ou ch
ĠB ell
5 9
In c
Ġh ref
Ġsens itivity
Ġinc orrect
Ġs ons
aunt ing
Ġchar itable
our ced
Ġdig it
min ute
Ġdram atically
in ator
Ġdra g
Ġpun ishment
ĠSqu are
Ġma j
Ġtele phone
5 7
Ġbenefic iaries
ĠD aily
Ġsem i
Ġneighb ors
Ġc rown
Ġpres cription
Ġf iscal
Ġinstru mental
ĠPort ug
Ġback ed
ms g
Ġst ops
Ġrele ases
ĠF ox
Ġexclus ively
att oo
Ġsepar ated
ĠG rant
Ġframew orks
m ad
Ġret rie
ĠN a
iv ities
bur gh
Ġassign ments
Ġcor rel
ra ge
D av
~ ~
ĠStrateg y
Ġg ross
Ġmyster ious
ex per
Ġc ited
ur ious
C B
Ġth y
iv acy
ĠDav is
Ġt ong
Ġen light
ĠBe yond
Ġatt itudes
Ġs au
ut her
spe c
ĠD ifferent
Ġb ureau
che ster
and al
m aster
Ġaccommod ation
ĠM A
Ġlic enses
Ġcraft ed
ĠW ars
Ġbare ly
as ync
Ġam bit
âĶĢ âĶĢ
Ġcontrovers ial
Ġarrest ed
Ġexpress ing
ĠAss ess
Ġ //
Ġc s
[ -
v able
Ġcontroll ing
id el
ĠK ajabi
Ġad j
ĠStand ard
so le
ĠIn novation
Ġclaim ing
sh ot
Ġin sect
ep och
6 8
ĠIs s
Ġcred entials
Ġang el
Ġsc an
Ġexp end
Ġvis ually
Ġtravel ers
4 00
Ġaccom pany
Ġall ies
Ġdocument ary
ĠUn less
Ġconsequ ence
ĠP ain
Ġvot es
R ed
Ġbreak down
ex pl
ĠM aking
Ġimp ress
Ġeconom ies
Ġadvis ors
Ġp ocket
ĠIm age
br is
Ġst ones
Ġindepend ently
Ġdispl ays
AT O
ential ly
Ġvar ies
Ġatt ain
onial s
Ġv ocal
ĠMa jor
Ġbe ll
ay a
u ros
Ġlect ure
Ġ4 2
ut il
ĠL incoln
Ġadapt ability
ĠS everal
Ġquant um
o en
ax is
Ġst atic
Ġmarg in
ĠO S
ĠOf ten
Ġassess ing
oid s
g ence
apt ers
Ã ¶
ĠDo ctor
Ġbul k
e an
Ġpass ive
Ġemp ire
Ġguarant ees
ĠCar l
Ġ- *-
Ġr anks
Ġabund ance
ar ry
Ġmind ful
asc ular
Ġret ired
Ġp izza
pl us
w al
Tw o
Ġdo se
V E
ĠRes ources
ĠT urn
. -
P ath
Ġsurve illance
b led
Ġoper ator
Ġneed ing
Ġcomb ining
Ġsu icide
ĠA mb
', '
u um
ĠR isk
Ġfing ers
Wh ich
Ġbr ick
ĠSc ient
Ġcomp aring
ĠO s
Ġadvoc ates
ber ry
Ġcontact s
ro ck
Ġpar ams
imp se
ĠBro ad
f unc
qu arters
ĠPer formance
Ġfinancial ly
Ġnon profit
Ġreason ably
ĠComp et
Ġparticip ated
ade qu
Ġp ension
Ġj unk
Ġcommit ments
p res
rou ps
iction ary
ĠAff airs
Ġthreat ened
P al
ĠN FL
Ġg reet
cl s
Ġhonest ly
Ġpack ed
Ġtim eline
Ġappro ached
Ġeduc ated
ilit ary
Ġdo zen
Ġimmers ive
ĠF oot
ĠCare er
ĠGree ce
Ġcorrespond ing
Ġl in
ĠS ustain
et o
Val ue
Ġcat alog
ps on
Ġrefer ring
u ce
ĠSh are
E E
c ient
Ġattract ing
Ġse al
ĠEx change
Ġapp ell
Ġun con
des cription
Ġmatch ing
at ers
ĠRepublic ans
Ġrig orous
Ġp ays
As s
Ġh iking
N ote
econom ic
Ġstat ute
ik a
Ġhand y
Ġpoll ution
sy stem
Ġthr iving
Ġgam bling
Ġen large
OR D
Ġoper ated
Ġrob ots
." )
Ġit er
Ġemb od
pl aces
G A
Ġhope fully
ĠJ ob
Ġperce ive
Ġcalcul ate
Ġautom ate
o ir
Ġjournal ist
au c
ĠUS D
Ġover t
Ġend orse
e enth
ĠSt aff
opt im
) ),
Ġd ump
le tt
Ġt ub
ĠAl tern
Ġout lined
Ġpost ing
P P
Ġinquir y
Ġdraw s
Ġcul inary
Ġann oy
ĠPr ivate
de velop
Ġtem plates
Ġass urance
ĠGard en
h r
Ġcommun icating
Ġmet a
Ġregul ated
Ġmuseum s
f ocus
Ġviol ations
ĠV ery
ol en
Ġind igenous
Ġscient ist
ĠUn ivers
ĠO p
Ġs el
Ġassoci ations
Ġcompre hend
Ġn ights
Ġaim ing
Ġloc als
Ġfaith ful
Ġrelax ed
sel ling
Ġdisc iples
ĠDe ath
Ġlock ed
Ġanx ious
ĠC L
h o
Ġanaly zed
ĠLew is
Ġden y
ke ep
IC E
Ġspir its
Ġfound ations
Ġfoot print
ĠP age
in ance
Ġpo ison
Ġex terior
Ġr ic
Ġh oney
Ġlegisl ative
ĠPhil adelphia
sc reen
Ġsmo king
Ġb ones
Ġpress ures
Ġdat etime
Ġhol es
is ure
ĠMass achusetts
pro file
Ġcivil ization
acc ur
at able
it zer
ĠH ay
Ġrepl acing
il ton
ĠM D
Ġ199 7
Im age
Ġun for
u ana
Ġtou ched
Ġcelebr ating
ĠP ra
Ġste pped
ĠĠĠĠĠĠĠĠ ĠĠĠĠĠ
ĠOx ford
ĠBer lin
er ver
c am
ĠRep resent
Ġun fortunately
Ġjud icial
Ġreason ing
Ġth rown
Ġmechan ics
D ate
Ġb iblical
Ġtheore tical
A c
ĠY u
s ur
Ġun predict
olog ically
Ġscr atch
ret t
ĠHer itage
5 3
9 2
Ġlo vers
Ġflow er
comm un
Ġra ces
Ġhass le
Ġcert ifications
Ġannounce ment
up id
ard ing
ĠF all
Ġclin ic
r ank
Ġlegend ary
Ġb ands
Ġvalid ation
ke eping
ĠN avy
ĠAfghan istan
Ġcirc uit
v als
Ġa str
Requ est
ĠF A
nt il
ĠEconom ics
Ġexam ining
ĠGovern or
ĠB ox
ul ent
St r
Ġj un
fact ory
ac cess
p i
Ġch ocolate
Ġ199 6
Ġsu ite
ĠB aby
is ers
Ġwel coming
B uilding
Ġalleg ations
ĠEn c
Ġthought ful
igh th
Ġ` `
Ġg re
ĠAlex ander
Ġt ie
Ġrul ed
p ers
ĠAb raham
Ġp ulumi
Ġres erve
Ġpro long
ĠA wards
ĠHaw ai
ĠU RL
ĠB ru
ĠSt ore
result s
Ġambit ious
Ġshort ly
Ġf er
Ġd b
log ger
Ġreform s
Ġinfluen cer
Ġup hold
Ġdang ers
Ġcharm ing
ĠRec ogn
Ġre aches
Ġelig ibility
es see
ĠL ess
ĠP ast
Ġopt ional
Ġf oss
ĠSy ria
Ġautom otive
Ġv iable
Ġrev ol
h ack
Ġd ies
s ession
g ien
Ġhum ble
Resp onse
ĠR ule
Ġimm igrants
Ġwitness es
b oy
G e
Ġut ter
ing ton
AN D
ĠM arg
aw s
Ġdel ivers
Ġder iv
ĠIs a
Ġemphas ized
ĠMean while
we ek
ĠG ive
Ġfund ra
ĠA WS
Ġresc ue
Ġadapt ed
Ġattribut ed
le ading
Ġsc iences
Ġident ical
Ġdis par
ramew ork
Ġh anging
Ġg au
ul ative
Ġoff set
Ġcom edy
Ġpromot ed
ig rant
ĠOrgan ization
ĠS U
Ġindic ating
Ġover night
ĠK it
F l
Ġref res
ser ver
Ġc ope
Ġan th
Ġgard ens
Ġimp ressed
Ġrepl ied
Ġexpress ions
Ġn odes
Ġlif es
Ġobserv ations
Ġb ass
Ġgl impse
en viron
Ġaim bot
ilit ation
Ġsc rew
ve ment
cont in
it ably
d i
Ġart ifact
Ġste am
Ġblog s
b ec
Ġs ins
Ġchem istry
Ġgu ilt
Ġgener ous
ens ional
ĠS ite
U se
Th ose
os ity
Ġconsist ing
Ġadv ent
R P
Ġbo asts
M on
rep resent
.... ....
Ġas semb
Ġprofessional ism
9 4
Ġprob ability
d ney
u ple
ĠMill er
Ġear liest
Ġimpl ies
Ġcapt uring
ĠUkrain ian
Ġreview ing
Ġsubscrib ers
Ġpat ri
Ġy ard
Ġen um
ĠMar c
iz ers
ĠB ooks
Ġtrad es
ĠI V
ĠSc iences
Ġde bris
Ġpres ervation
P ay
Ġcon clusions
Ġoverse as
Ġdist ress
Ġchat bots
Ġb ite
cont roll
Ġinhab it
Ġref use
Ġto ile
le ft
Ġmod ify
Ġthe rm
Ġbr ush
im um
Ġunf air
Ġmand atory
ĠColl abor
Ġh o
Ex per
Ġmod erate
t im
ĠP RO
M et
Ġ9 5
Ġcap s
Ġwealth y
ĠAs ked
ĠE ffect
ĠCl inton
The ir
Ġatt raction
n on
Ġv ine
ipl inary
ĠVers ion
Ġfle et
ĠO nt
Ġdeal t
Ġcharacter istic
Ġbreak through
Ġstress ed
ĠM ars
8 7
ĠH it
re place
Ġcoord ination
ĠOver all
op ath
Ġfin est
Ġactiv ists
f ound
ab ul
Ġenjoy s
Ġsh ine
Ġbas ics
ris k
Ġrain bow
ĠD om
Ġvacc ines
Ġdist ant
Ġprote ins
ĠEnviron mental
D ec
Ġpat ent
i ative
Ġrece ipt
man n
Ġapplic ant
Ġla wn
Ġdiscover ing
ĠCol lect
Ġ6 4
Ġdesc riptions
i ov
sc ore
ĠMex ican
ĠDub ai
ĠR un
ĠUlt imately
Ġcan cell
Ġinvas ion
el ong
Ġsc ream
ĠSil ver
p ically
ĠSt one
im m
ĠN HS
ĠR ub
Ġpre jud
ĠB ureau
Ġfor ums
Ġc able
Ġd rew
Ġdo zens
Ġen act
Ġtra ject
Ġtra ged
Ġhol idays
Ġfier ce
ruct ive
Ġpredict ed
Ġadapt ation
Ġtax pay
Ġbo ot
Ġd aunting
Ġbab ies
T ensor
Ġint end
m other
S D
ĠP it
c fg
Ġcount s
Ġgun s
ĠAr m
ĠB all
is ons
ĠFore st
Ġdispos al
S ource
ĠCan cer
m ult
n ote
ĠPro perty
Ġgen e
5 2
ĠN E
bo ards
Ġout line
ĠAs sembly
Ġta pe
Ġoptim izing
Ġmat rix
Ġrel ies
Ġc rop
M at
cl osure
ne ver
Ġsu ited
Ġhit ting
ĠL ater
r ating
ig er
Ġ199 5
Ġpr one
St ring
t otal
Ġoverlook ed
od er
su pport
ĠB esides
( {
Ġautonom y
Ġm ixture
b ra
D et
ch annel
ĠI oT
iam i
bs olute
9 3
el and
ĠBr idge
Ġdistingu ish
Ġde ar
Ġe cho
ĠReview s
ĠUs ers
Ġj e
av ior
Ġcryst al
s ome
Ġk ernel
Ġconclud e
Ġd iver
Ġunder go
Ġnegot iate
fl ix
Ġexplicit ly
Ġbelie vers
ĠD un
Ġad here
ĠS em
ĠWebs ite
Ġcuis ine
F rame
Ġcompat ible
Ġt ens
Ġ: :
G ood
Ġart ic
Ġrem edy
ĠR us
ĠAtl antic
y r
ĠS P
Ġp m
Ġlibr aries
Ġer r
ĠĠĠĠĠĠĠĠ ĠĠĠĠ
Ġallerg ies
reg on
Ġg ang
' ):
Ġre cept
Ġpar liament
ĠC ultural
Ġcy cles
Ġprest igious
Ġt ender
Ġtit led
Ġvulner abilities
Ġsens ors
Ġveter ans
Ġc ure
Ġin du
Ġste ep
Ġdescrib ing
Ġab ortion
Ġl ip
h ave
ĠI ce
Ġne ural
Ġsm iled
ĠC ook
he ld
ĠRes erve
L A
Ġcam ps
Ġy ards
oven ant
ĠF un
board ing
Ġw rest
Ġl iable
Ġrecip ient
Ġapp et
Ġl au
et ics
ĠH ub
Ġin cons
5 4
ĠS ix
Ġsubsequ ently
ch at
gener ated
Ġle af
ĠC orn
Ġvert ical
are st
ĠArch itect
Ġcat ast
Ġpain ted
ip her
Ġed it
p her
Ġfac ial
Ġattack ed
Ġanaly sts
Ġreg ret
Ġco inc
ĠEd ward
pr ise
B ased
50 1
Ġinv iting
o is
Ġgar age
Ġdign ity
Ġint ake
S te
Ġt ags
sem ble
ĠCast le
am ination
Ġen force
Ġprot ests
ĠF ollow
ship s
od a
Ġde lete
ad ays
Ġsched ules
Ġmat t
Ġphr ases
Ġbless ed
se ed
ĠAust in
Ġjust ify
Ġtoler ance
ist ically
Ġc ake
20 20
Ġemphas izing
V ER
Ġout er
Ġmet ric
v i
ĠW ales
er k
Ġkey word
Ġhe d
Ġgra d
ĠTe le
Ġun re
Ġadv entures
ĠS ex
Ġunder graduate
Ġbur ied
all as
Ġmeas uring
out e
Ġfat igue
Ġrespond ents
Ġg ay
Ġcompar able
Ġexper imental
Ġreve aling
Ġclass ified
T ext
m outh
Ġtw elve
Ġpass engers
ar ms
ĠAss istant
Ġfe as
Ġf ence
Ġdiv ide
Ġi Phone
Ġsc oring
Ġimper ative
Ġdisc ourse
ĠMet a
Ġcon greg
Ġtransl ate
t ail
P M
Ex ception
Ġcou p
Ġfest ivals
ĠC ould
ĠS O
Ġfirm ly
Ġnob le
Ġv ivid
Ġinstall ment
Ġeleg ant
ĠT it
ac ious
Ġrecip es
Ġelev ate
Ġout look
Ġembra ced
Ġspread ing
ver ance
Ġa pex
A E
t ic
Ġacc red
U lt
ch ar
Ġdownt own
R ANT
ĠAll iance
Ġsl ave
Ġpers istent
eg ree
ĠCount ry
un it
ant ing
th ur
b one
ĠBet ween
Ġbur st
Ġscrut iny
ĠTurk ish
ned y
Ġwith stand
ĠEns ure
Ġfor um
Ġre ct
ag a
ĠDep ending
Ġconnect s
Ġstri kes
Ġmother s
ĠEnhance ment
ĠT rib
it ches
ĠM obile
Ġcolumn s
ĠHe brew
ĠI RA
o ked
ĠK evin
ĠB rian
Ġautonom ous
Ġg em
V is
ĠR yan
am ins
ĠL ady
Ġunemploy ment
w s
Ġelder ly
AT H
Ġvot ed
ĠValue Error
Ġmult if
Ġpress ing
Ġbat teries
Ġtra ils
Ġun ited
sequ ently
Ġsou ls
l ining
ĠJ ane
met ic
He alth
Ġregul ate
Ġende avors
Ġhand ful
p apers
Ġintrig uing
ĠBe aut
ĠInd ones
p aced
Ġfort ress
add le
u pt
Ġoccup ation
H and
h ard
Ġmean ings
Ġperf ection
l ive
Ġre im
Ġstrugg led
Ġl iver
x x
OR T
Ġt une
Ġware house
Ġpow der
Ġsat ell
Ġleg ends
Ġhyp othes
Ġback up
Ġconv ince
Ġbo om
ĠHind u
Ġst ating
Ġpart ly
G l
C all
ĠM om
Ġlaunch ing
ĠAnaly tics
Ġess ays
ĠJ osh
su ccess
Ġper missions
Ġpan ic
Ġconver ted
Ġsynt hes
m g
ĠR os
Ġsp an
Ġoccup ied
ign ment
ĠN ATO
Ġcontext s
Ġparam ount
Ġpart ial
Ġdro ve
Ġdefend ants
thod ox
ur u
Ġbu zz
Ġphilosoph ical
Ġst er
Ġcollabor ations
ĠB ody
ĠHou ston
Ġsymb olic
Ġob sc
ĠAl ong
Ġsh ower
Ġdocument ed
Ġ ..
Ġbe aches
Ġ199 4
ĠC ore
P res
Ġ1 20
9 1
Ġrom ance
ĠN ear
Ġtransl ated
Ġtransf ers
ful l
ot ing
Ġamen ities
Ġsche mes
a S
ĠAut o
Through out
Ġve t
field s
Ġk wargs
v ised
ov a
Ġdeploy ed
ĠM ental
Ġs its
ĠG reg
Ġout lets
ou st
ĠI RS
am ic
Ġbit ter
Ġinvestig ations
Ġconnect ivity
Ġor che
ap hor
Ġalt ogether
Ġintern ationally
Ġtr im
ĠWrit ing
Ġdep ict
L M
5 1
em bed
ĠAr gs
ows hip
Ġdisapp ear
e u
Ġcor n
m atic
ĠF ive
D id
ĠB attle
Ġstreng thening
Ġin adequ
F act
Ġschedul ing
Ġmaintain s
Ġdead line
Con nect
Ġhand ed
Ġtreat s
Ġsan ctions
Ġhes itate
In vest
Ġprofit ability
Com merce
Ġpro l
ĠFil m
ot ype
Ġsynt hetic
Ġover sight
Ġp p
(' --
Ġc ave
Ġpull ing
Ġstress ful
ab a
Ġmatt ress
Ġdisc rimin
Ġresearc her
Ġhousehold s
ile y
U ser
t ag
d ays
s ys
ĠSp ot
ĠO N
Ġgradu ated
ĠD ur
ard ed
L ife
Ġprev ents
as ury
param eters
Ġprov ince
ĠBro ok
E nt
Ġpred iction
ĠBar b
Ġhonest y
S ign
Ġaesthet ics
g ithub
Ġk iss
ĠSa udi
Ġal uminum
Ġpres cribed
ill er
Ġs isters
ed ing
Ġoutput s
Ġcontrovers y
p ub
inc ome
Ġallerg ic
ĠN ation
ĠB h
ĠTr uth
Ġdisrupt ion
Ġmer cy
Ġencourage ment
Ġp ipe
p ersonal
Ġbet ray
Ġsk ip
Ġdiet ary
Ġf ired
ij uana
ĠReg ist
u ced
ĠT aking
anc ers
b en
Ġj ail
Ġresearch ing
or ph
Ġpartic les
ch arg
ĠC ash
ĠVictor ia
EN SE
iss ance
ĠF reedom
Ġse gments
ĠS ource
ĠPol and
ic ular
ĠM oh
Ġhaz ard
Ġcomp ounds
Ġappoint ments
Ġcop ing
Ġind ul
Ġly rics
Ġfra ction
( -
on ents
Ġsh r
Ġtut orial
Ġdef ines
ĠSy dney
8 00
Th anks
Ġst abil
Ġmethod ology
M ain
Ġdiscipl ines
o vers
Ġwarm th
Ġapproach ing
ĠAm endment
ĠÂ «
ĠL iter
Ġma kers
Ġbal ancing
ĠC rypt
D ep
Ġthe sis
ĠSe lect
Ġexce l
Ġout reach
Ġh al
ĠT able
Ġc ig
G en
Ġmid st
ĠT enn
Ġlim iting
Ġm igr
Ġrec k
ĠH o
og s
ĠF ast
Ġcompassion ate
c ard
Ġnew est
Ġlib erty
ĠAdv anced
Ġcommer ce
In put
ĠC old
ĠWAR RANT
Ġrad iation
g t
ffic iency
O K
Ġind oor
Ġem peror
Ġencrypt ion
Ġdevast ating
Ġn a
Ġcomp ound
Ġbelie ving
Ġforg iveness
Ġcir cles
Ġvit amin
f ish
ã ģ
Ġprotect s
ĠT ony
Ġloc ate
is ive
Ġcou pled
") ;
Ġpoint ing
Ġvolat ility
Ġw ing
Spe aker
f eed
st age
Ġun ions
Ġpromot ions
nes ota
M B
ac eted
Ġsimpl icity
ĠĠĠĠĠĠĠĠ ĠĠ
Ġarr anged
ĠJac ob
ĠVis it
Ġprogram mes
there um
ĠO regon
p ol
ĠTrans port
Q U
Ġmed ieval
sp ace
Ġed ges
N AME
ĠMon th
Ġh ill
Ġle aks
r ane
get table
Ġw ard
D I
ĠN othing
es h
Ġlabor atory
Ġl acking
Ġconst itute
ĉĉ ĉ
Ġsur gical
Ġcool ing
Ġancest ors
ĠExper t
ef t
Ġdiagn osed
ĠG h
Ġfra g
pe ople
ĠThe rapy
Ġsoc cer
ig e
Ġsing les
ir k
Ġste pping
Ġname ly
Ġt attoo
Ġasp iring
ĠJ enn
p ad
op es
M T
Ġsub mission
Ġexpect ing
ĠS ong
ĠO cean
in te
'] .
al g
Ġshel ter
um bers
Ġg ram
ur i
ĠInd ex
Ġco hes
Ġphys icians
es c
Ġdecre ased
ĠJ oin
iff s
Ġch apters
Ġvirt ue
Ġst olen
Ġposition ing
ĠS C
Ġranking s
gr id
Ġphotograp her
Ġmeasure ment
Ġimpact ful
an cer
Ġpass ions
" ])
X X
Ġwar ned
ĠD a
ĠResp ons
se lect
Ġill um
r ons
Ġtow er
ock ets
ot ypes
erv ices
Ġinf er
ĠD ead
7 9
ĠM iami
ep s
win ning
Ġshowc ases
Ġtour nament
ĠScott ish
Ġn it
Ġsupp ose
Ġis lands
Ġconsid ers
Ġform ats
Ġbrief ly
Ġep ic
ĠF L
ros pect
Ġinquir ies
Ġmiss ions
B usiness
Ġbuild er
Ġoccur ring
Ġdepart ure
Ġcateg or
Ġsec ular
( __
Ġspecial ize
Ġnever theless
Ġorient ation
ĠT ext
P ersonal
Ġen for
per ties
Ġsp ray
ĠR ail
Ġhop ed
h ash
Be yond
ĠG ospel
Ġshare holders
Ġexcept ions
ib les
Ġep id
om ed
ĠSim on
in cess
Ġpo et
th ink
Ġmod est
Ġwond ered
ĠCl imate
ĠR aj
Ġh ind
h ot
de bug
Ġvessel s
Ġsatisf ying
Dav id
7 2
Ġ2 50
Ġfin ishing
Ġpray ers
ĠD at
Ġprov in
j u
Ġelev ated
Ġbe ars
Ġrepay ment
ah a
Ġgovern or
Ġr anges
Ġcar rier
ĠChair man
Ġinequ ality
Ġpodcast s
ĠT a
ugg ed
Ġd jango
appropri ate
m ers
Ġcle ver
Ġrec oil
f uture
Ġchat bot
Ġdistrict s
Ġas h
Ġsimpl er
Ġdom inated
ĠOnt ario
ĠS ac
Ġliquid ity
Ġhandb ags
ĠH unt
Ġz ones
C reate
l inks
Ġg ently
Ġtradition ally
Ġload ed
ak i
Ġfor b
Ġgra in
ĠMor gan
Ġrest ored
Ġbless ing
ĠEx cell
ĠT R
Th ough
ĠThrough out
last name
Y et
M O
cl oud
Ġgradu ates
Ġident ities
or p
Ġsever ity
Ġsens es
Ġf iber
Ġones elf
Ġdes erves
N S
ap le
Ġle isure
" ))
Ġcare g
Ġenlarge ment
ing e
il ateral
Ġmob il
Ġr ings
w hen
ĠC ertain
Ġind ication
Ġkne e
Ġsoon er
ĠKen nedy
Som etimes
al id
it o
e lect
Ġnavig ation
Ġhospit ality
ĠM oses
ĠTai wan
amil iar
ĠOpen AI
st rip
Ġsh ifted
Ġce iling
Cons ider
D at
Ġcompet ent
Ġshould ers
is ible
Ġact ress
ĠL ooking
ĠHealth care
Ġac ute
Ġ ~
Ġ9 9
ĠV PN
Ġpure ly
ĠB uff
Ġdra gon
20 19
Ġpri ze
Ġact ed
Ġdatab ases
Ġconcent rate
osc ow
Ġsc am
ro se
Ġhy gien
ĠComput er
Ġpharm aceutical
d am
Ġco pper
ow a
Ġ199 2
Ġr het
augh ters
Ġvalid ate
T ech
Ġunder ground
Ġpay roll
Ġconsum ing
AC T
Ġgra des
ĠNet flix
Ġrese mb
b es
Ġfore sts
Ġsan ct
G O
Ġingred ient
Ġconsum ed
Ġpredict ive
ĠO pportun
cons in
Ġacqu iring
ĠEx ception
Ġlapt op
Ġfun nel
ĠP ope
Ġperse verance
set tings
Ġsen iors
Ġrel uct
Ġscript s
m ate
AS S
imin als
Ġappropri ately
Ġd ensity
Ġmathemat ics
Ch oosing
ĠG PT
focus ed
p ot
Ġavoid ed
ie ge
ĠSe ason
Ġdis m
Ġsecret ary
Ð µ
Ġdest inations
ĠOpt ions
Ġacceler ate
ĠA qu
Ġro cks
Ġdesc end
Ġcomment ary
B el
Ġ ],
f alls
Ġtrust ing
Ġblock ed
Ġin con
ĠNig er
E l
ĠT alk
Ġbed room
Ġinfluen cing
Ġha unt
Ġvir al
P at
n ity
ĠD iff
Ġa rom
Ġdis abled
ch ron
Ġspeed s
Ġintim id
Ġansw ering
ĠSchool s
us cript
Ġhero es
Ġ3 9
Ġinnoc ent
Ġby pass
Ġvar iation
ĠA y
Ġment ally
Ġtestim onials
6 3
Ġdist ur
oc key
ĠSum mer
il ot
Ġtrig gers
Ġanaly tical
on ed
at ter
ac ent
] ),
i ator
ug s
Ġclos est
D C
ĠProduct s
p ng
Ġdevelop s
ĠF aith
ĠG aza
ĠMal ays
Ġprem ises
I B
ĠO ak
Ġclim b
Ġbel t
olit an
itut ional
ck er
ĠB irth
ĠL am
Ġinform ative
ol s
ag le
Ġdistingu ished
Ġbre aches
m ock
ĠE ver
ograph ics
ĠJ ason
ĠU m
Ġv intage
Ġcust ody
Ġd os
6 9
an qu
sh ore
air y
ĠLe on
ĠE X
Cl ient
d el
Ġattend ance
Ġqu it
i ants
ĠM arsh
iv ic
Ġind ivid
id ency
Ġexpect ation
Ġcar pet
Ġpres erved
ĠR oss
Ġd are
ah u
Ġl aser
Pro fess
N orm
Ġunfor gettable
Ben efits
Ġb arg
child ren
Ġcl uster
if iable
Ġmin erals
b at
Ġsn ap
Ġwe ights
Ġsuper vision
Ġdu pl
Ġarch ae
There fore
Ġtrans it
chn ology
empt ion
Ġencount ers
at ar
ĠC T
Ġrein force
Ġvill ages
im s
Ġrel ent
IC ENSE
um a
Ġemerg ence
id o
Ġminim izing
ot ion
Ġdecl ined
he rence
P ost
Ġb om
ĠW ik
Ġintu ition
Ġvac uum
at isf
Ġg rip
load s
Ġsty lish
ond er
num py
Ġrel ates
ĠRead ing
Ġfort une
Ġvisit or
ĠM and
Ġfol k
ab out
Ġbudget s
Ġread s
M R
m t
ĠLu ke
ĠE ve
ĠVill age
ĠPut in
ĠLo an
in ates
er get
ĠMic hel
ph y
ĠS ay
Ġbeautiful ly
ĠDr ive
Ġrenew ed
te es
k now
Ġritual s
ĠScript ure
Me an
Ġd ense
Ġbelong s
x ide
Ġsitu ated
Ġseason al
Ġmar king
Ġpersonal ities
Ġrecon cil
Ġsubstantial ly
ĠM IT
Ġpriorit izing
Ġtechn icians
net work
Ġmar ine
Ġrel ied
ĠK a
ess ed
ĠH ad
Ġpip es
Ġdistribut e
w er
ĠPart icip
ĠMary land
Ġveter an
ĠK ansas
Ġstrict ly
ĠMin nesota
Ke ep
Ġpow ered
Ġen erget
Ġg rit
I E
ĠT ips
Ġmet aphor
ĠPolit ical
en c
ĠF inal
Ġide ology
n ership
acc ount
ĠI ron
le vant
Ġz ip
umn i
ĠExpl ore
py test
F ollowing
Ġrel atives
Ġempower ment
Ġsent ences
Ġrefuge es
ĠS ri
ig nt
Ġsto pping
Ġreal ities
Ġpreval ent
Ġgener ic
Ġtr icks
Ġsl ot
Ġnovel s
ĠJe an
Ġn ull
ĠO tt
Ġb inding
Ġa ids
Ġtrans cript
claim ed
Ġeas tern
ĠT an
ĠM ort
Ġfr ight
Ġallev iate
Ġcontem pl
it ated
tem plate
ĠT ree
F requently
Ġmod ules
Ġv entures
Ġad min
Ġfound ers
Ġfore most
Ġassess ed
Ġauthent ication
Ġneglig ence
â ĸ
Ġintent ional
ĠDie go
Ġfair ness
is y
oll ar
Ġinj ust
d oor
Ġn ore
ast ing
ing ing
ĠCustom ers
Ġdon ations
ĠSy m
Ġt ennis
Ġdecentral ized
Ġground ed
os itive
Ġun h
ac hers
ab lished
ac cept
Ġappear ances
Ġp ink
Ġbi ology
ien cies
" ):
8 4
Ġdead lines
O ff
t an
ĠW in
Ġs ampl
ĠAtl anta
6 1
ĠCam bridge
Ġob ed
ĠF DA
Ġ4 4
be an
epend ence
Ġb in
th ird
Ġreal izing
6 2
ĠPr ivacy
AP I
V AC
Ġdiscl ose
Ġmake up
Ð °
om etry
Ġadv ancing
Ġsoc io
Ġbro kers
Ġrep rodu
d ings
Ġres erves
sel ess
Ġgall ery
ab ase
ĠW y
ĠW orth
F S
ou ri
ĠSk ills
at ial
ĠT ru
ad ows
Ġneighborhood s
Ġcro ps
ĠS EC
Ġj azz
fer rer
Ġe go
ĠH ung
ĠDe an
ĠAl i
Ġline ar
Ġcaut ious
spe ed
Ġsimilar ly
omet ric
ĠB ry
Ġtraject ory
ĠSe attle
Ġimag ined
ĠNet her
ĠF ile
Ġt ent
ĠK y
Ġres h
az ing
Ġst d
Ġl ips
Ġd ancing
Ġliter acy
rim inal
ĠAd vent
Ġsmart phone
ĠY an
B et
Ġsystem ic
Ġst ance
ĠC ome
F O
Ġded uct
ĠFor um
Ġrout ines
Ġamb ition
AS E
Ġb other
Ġpup ils
Ġlif elong
Ġs aves
Ġso f
ĠEd ge
ĠAnt on
ĠFr ont
Ġspectac ular
Ġposition ed
Ġsuppl ied
Int eg
ĠS pr
d ess
) ):
Ġrhyth m
Ġto ll
ys ical
Ult imately
l an
W rit
h u
c ache
Ġhe mp
Ġcinem a
Ġ199 3
s rc
ĠIm agine
Ġg room
Ġdep r
Ġar ises
ĠT ell
Ġmagn ific
ĠH art
Ġver ified
Ġre ception
ĠEx press
Ġm im
Ġassum ption
est amp
Ġk m
Ġteam work
Ġcent ered
Ġpuzz le
ĠH at
ic ates
Ġto y
Ġequ itable
ĠChe m
a ired
Ġsing er
O pt
ĠM oscow
com ed
p ur
Ġn ost
lear ning
Ġfundament ally
pre hens
or ia
ĠMc K
u ke
app ro
Ġcoast al
Ġch ron
ĠLic ensed
Ġcl oth
ĠH un
Ġwholes ale
Ġimp art
Ġtrib es
Ġaccomplish ments
Ġgen es
ĠG ab
Ġch ip
Ġtr ucks
pre fix
B L
ĠCreat ive
er ial
Ġattach ment
Ġh iding
C al
e z
ro le
ignt y
Ġcustom ize
Ġdismiss ed
Ġman ually
Ġcomp act
Ġtra gic
doc s
ĠC V
Ġ199 1
L icense
ys es
um ble
Ġfoot age
ĠS ant
Ġcapt ures
lam bda
Ġcon form
Ġdilig ence
Ġstat istical
Ġsus cept
ĠJ ay
7 3
eal ous
Ġb its
Ġstr angers
j an
Ġfast est
ĠB ot
Ġl uc
Ġconsp iracy
ĠN O
Ġw rap
ĠM aterial
ateg ory
Ġc otton
Ġremote ly
Ġelimin ating
em an
ĠLeg acy
ĠP odcast
Ġimm un
est ry
Ġtrain er
Ġfoss il
m ir
de lete
we et
ab ama
ĠD ate
els on
zer os
Ġcy cl
Ġup front
yn asty
On ly
alle led
Ġapp eals
Ġap olog
ĠC as
ĠCl ient
Ġconfirm ation
Ġflo ors
Ġev angel
Ġoccas ional
Ġoutd oors
Ġr ivers
Ġsurv ived
A v
ol er
ĠBl ood
Ġexhib its
ĠC and
Ġsynd rome
ĠJ am
Ġms g
Ġtrig gered
ra ys
os oph
Ġprog ression
Ġb esides
Ġst ir
Ġimag ery
Ġclass ification
st an
Ġshock ed
ĠWis consin
Ġquestion ing
cent ric
in ally
S U
ĠJ ava
re port
Ġâ Ĥ¬
W orld
Ġcra fting
st orm
Ġmic ros
Ġh int
Ġsuccess es
Ġfram es
Ġconst itution
p atch
cy cl
Ġtr illion
Ġmach inery
Ġbe aring
ĠCon vention
reg ular
ĠD allas
Ġdeb ates
roc ery
Ġaccess ing
Ġca f
Ġsp are
ĠK elly
Ġcontin ent
th an
Ġwork out
ĠM it
Ġvar ieties
Ġdepos its
Ġac res
i op
Ġn erve
Ġpropos ition
Ġsem ester
Ġd irty
ĠEnviron ment
Ġp iano
ĠAll en
Ġra ge
n of
ĠPr im
Ġtal es
7 4
ĠC over
Ġlength y
h ouses
Ġfirst name
B O
Sim ilar
ĠPhilipp ines
Ġmass age
Ġcor ners
ĠSt ation
i ro
Ġconsider ably
Ġpremium s
ĠEgypt ian
ul ous
Ġwhe els
Ġ 00
Ġtong ue
Ġroll ed
box es
l aim
ĠDev Ops
Ġdefe ated
ĠOr d
L ook
com put
Ġbul let
r ates
Ð ¾
Ġrank ed
Ġam end
ĠWord Press
ĠY e
ica id
Ġshe er
ĠBel ow
Ġindic ator
Ġinform al
ĠDI Y
H R
in ch
ĠDel hi
ĠPat rick
ĠHist orical
ĠPar am
Ġor ange
Ġfif ty
Ġ19 30
Ġsear ches
arr ing
Ġsc ared
Ġn est
ass ador
ĠO cc
Ġnegot iation
hes s
ĠE thereum
UL T
he ight
Ġdisapp eared
fact or
Ġa qu
Ġcast le
Ġnews papers
Ġtrad em
" -
Ġadapt ing
Ġdeter ior
ĠIndian a
ĠJour ney
d ig
Ġinf ant
ĠO bs
Ġreject ion
A F
m atch
Ġb od
: `
ĠC le
ed ed
Com p
Ġunw anted
Ġhom eless
Ġlifes pan
Ġun author
Ġpol ar
Ġed ited
ol ve
tw o
ut f
Ġbu nd
object s
Ġ ;
Ġindivid ually
Ġmerch and
ĠB apt
ĠGet ting
less ness
Ġnot ably
Ġimpr ison
Ġma pping
Ġdece ased
Ġl es
ĠS E
Ġ4 9
Ġenroll ed
Ġthrow ing
ĠOlymp ic
ĠMag azine
Ġcirc ulation
bour ne
Ġconf using
Ġfin es
Ġcollect ively
ĠC C
i ological
ist le
Ġall ocation
n amed
Ġlist ened
Ġtraged y
Ġeleg ance
be at
j ob
ĠBusiness es
Ġ vel
Ġassist ants
Ġ6 00
6 00
Ġmill enn
ct ors
ion ed
P RO
Ġproject ed
Lear n
Ġdelay ed
Ġcr ust
oot ing
Ġsymbol ism
Ġch ips
e ffect
P oint
Ġnum er
abul ary
Ġabsor b
Ġsusp ension
Ġspark ed
Ġpract ically
Ġlive ly
ĠL yn
best os
O per
M us
Ġal pha
U I
8 2
ol k
o z
ĠI C
Ġvit amins
ip edia
Ġmon ument
ĠInst all
nof ollow
Ġsubst itute
IN E
Ġreb ell
oen ix
r t
Ġre venues
7 1
Ġunpredict able
ĠP L
Ġsur pass
Ġown s
Ġgen res
ĠG ro
Ġp ic
Ġless er
ĠPri ze
ĠD ave
Ġint ensive
Ġfl ights
Ġthr illing
D IT
Ġbill ions
Ġbet s
Ġman ages
Ġspo kes
ĠOpt im
Ġevalu ated
ul ates
ĠM ission
Ġfl ip
ĠY ears
Ġsc ored
ĠR u
ĠY ang
eg as
Ġun limited
ele br
ER E
Â »
Inst ead
Ġvolunt ary
Ġst upid
" ?
ĠAn ne
Ġload s
8 3
Ġexam s
Ġtem p
Ġfit ting
S ervice
Ob ject
ol i
oc c
Ġf ract
Ġinspect ions
l iness
re ne
Ġhistor ian
Ġcru el
Ġdat asets
not ch
Ġcoron avirus
ĠPal ace
ĠWh atever
Ġn ick
Ġabs ent
ĠB ull
it ched
od d
bsolute ly
Ġob j
Ġfar ms
Ġiniti ated
Ġborrow ers
Ġexplo it
n ie
Ġwond ers
Ġnore ferrer
Ġwel comed
Ġw ound
Ġtast es
aur a
ĠKnow ledge
Ġc ache
Ġhuman itarian
Ġpos ed
ĠMem orial
Ġpos es
Ġsens or
Ġembarr ass
Ġg orge
Ġins u
res ource
E mb
ĠT ools
ĠHe aven
Ġterror ism
L ine
Ġspot light
Ġinev itably
Ġhoriz on
Ġde le
ix ed
Ġentertain ing
Ġst roke
Ġh ills
Ġur ge
Ġsocial ly
Ġlight weight
w ich
F ree
se a
Ġemp owered
Ġsystem atic
] ))
Ġpoor ly
B ook
Ġsau ce
pe red
Ġillustr ate
Ġtherap ists
Ġm ales
Ġ' .
ĠSpe cific
ĠHe y
out heast
Ġdon ors
ĠP s
ĠA venue
Ġex h
Ġrevel ation
Ġvig il
Ġborrow ing
Ġhome work
Ġp est
ĠRad io
ĠAnd erson
Ġcont ing
Ġmathemat ical
ĠW i
Ġpred omin
L eg
Ġhydro gen
ĠF le
Ġnegative ly
Ġremed ies
ig hed
Ġnu ances
ee ze
Ġparticip ant
sc ape
1 50
Ġtrust ees
id al
Ġw and
Ġlic ensing
cons uming
Ġcompat ibility
ĠInd ustrial
Ġman uscript
Ġgra ve
ij ing
Ġm asters
Ġcrit ically
az y
ast ically
W ork
Ġover see
Ġbegin ners
T V
ĠL uther
Ġg low
Ġterror ist
Ġmand ate
v ens
Ġclean er
osit ory
Ġmetab ol
Ġcompl ain
Ġ198 9
Ġ4 3
ure ment
Ġhe ights
Ġdam aging
Ġsc ary
ĠApp lication
Ġb ases
Ġboost ing
Ġdeterm ines
ĠStr ong
ĠAff iliate
ĠCoun sel
E xt
M in
Ġmanip ulation
Ġjun ior
Ġmar ijuana
Ã ¨
ont al
ĠPro b
Ġdem ographic
ĠL A
Ġactiv ation
Ġrub ber
Ġsp here
ĠS QL
l r
O pen
Ġtw ist
Ġbow l
ĠMan chester
^ ^
Ġappear ing
ĠN BA
input s
Ġundersc ores
Ġcl s
xim ity
Ġconstruct ive
Ġper ceptions
Ġprov ing
Ġhar assment
Ġaffil iates
Ġap ost
Ġbra ve
Ġsuggest ion
view s
Ġsl ide
ĠH ell
Ġd iving
ĠBl og
Ġrecogn izes
U ST
Ġdisappoint ed
ĠCl ark
Ġintim acy
Ġgau ge
Mod ule
Ġfulf illed
Ġh urd
Ġafter wards
ĠV R
T Y
Ġclar ify
par alleled
ĠNether lands
Ġep och
en cod
Ġparam eter
Ġso ap
He y
Ġprob ate
Ġenvironment ally
st ud
Ġproblem atic
on ent
ĠĠĠĠĠĠĠĠ ĠĠĠĠĠĠ
Ġelectron ics
M ich
Ġp ause
eng ine
Ġhaz ards
Ġprec aut
Ġd ated
rane an
Ġpaper work
Ġcreat ure
Ġrem arks
ro it
Ġdes irable
Last ly
ĠE ffective
g reen
Ġast rolog
Ġlegit im
ĠSa aS
Ġ4 1
Ġh ood
ĠG em
Ġfil ename
Ġquick er
ĠF BI
hed ral
Ġmod ifications
oth y
ĠN ep
Ġath lete
Ġthe ology
Ġcolor ful
ĠS D
Ġprofess ionally
ĠTre nd
Ġacc laim
Ġtra p
ĠPro f
Ġjour neys
Ġar c
Ġrefer ral
? ?
Ġfig ured
ĠAir port
Ġentrepreneur ial
Ġnow here
Ġne at
Ġhand les
Ġr ally
. ]
pt on
Ġlux urious
u id
ab el
ĠWARRANT IES
unn els
E vent
cl ick
Ġburn ed
Ġcompl iment
Ġhistor ians
Ġenerget ic
ĠComm and
Ġr ushed
D ay
Ġres erv
ĠN ev
Ġs rc
Ġadjust ed
ac erb
ra c
ul in
Ġcredit ors
ĠT erm
Ġoptim istic
ĠHig her
Ġm os
Ġcelebr ity
Ġuncle ar
ĠE c
Ġcross ed
Ġacknowled ging
Ġs ail
M arket
Ġrec urring
ĠFed eration
Ġdesk top
ĠG il
Ġ> =
Ġcar p
ar ia
ĠB E
w en
Ġshort age
Ġcere mon
Ġadvers ity
ĠQu ick
Ġo d
Ġspecial izes
u ation
ĠB ond
ot te
y our
fe ature
D irect
ĠAl abama
Ġinv ention
Ġwar nings
ann ah
Ġs ends
Ġinv itation
T HE
un es
Ġparent ing
ĠCert ified
ro gen
pass word
ĠAg ent
ĠL ux
Ġgl ance
-- -
Ġchart s
Ġst ub
ĠB alt
Ġsol ved
Ġshe ep
ĠMan ufact
pl ess
C reating
Ġregul ators
Ġ8 00
Ġa ver
ĠAnn ual
Ġparad igm
M D
Ġsubsc ribe
Ġfl av
Ġtrick y
ĠR oof
Ġres et
Ġra mp
Ġanaly st
Ġover coming
Bl ack
Ġsusp icious
rec ord
Ġport al
Ġfacilit ating
Ġpresent ations
Ġmod es
pa id
Ġstatut ory
Ġb iod
ut es
on ia
Ġp airs
ĠL as
Ġeditor ial
ir atory
f ive
ĠLa ure
Ġar ising
obb ies
ile m
Ġmon et
ĠUt ah
Ġimp ose
au x
ĠCapt ain
ip eline
Ġrel iance
ĠH IV
Ġcontain ers
Ġimpact ing
ĠBel g
Ġi OS
Ġprison ers
Ġdom ains
ĠMo ore
Ġmass es
ĠCour se
Ġinv isible
ock er
ĠR oom
c md
20 21
Ġang els
ĠChall enges
Ġp sy
ar ound
Ġal tered
ĠCons umer
Ġencompass es
Ġinter ven
8 1
Ġinterpre ted
ky o
bel ie
Ġappet ite
Ġcounterpart s
Ġsl ip
ĠH VAC
Ġden ial
ac co
n an
Ġpolit ically
Ġass ass
o a
it ime
Ġw ings
ĠCommission er
Ġsol ic
Ġadvis able
Ġre def
Ġd ot
Ġsl aves
Ġr ated
pro v
ĠSim ply
Ġpart ially
ĠT itle
lic enses
Ġall iance
Ġouts ourcing
Ġearth qu
Ġbreat he
t ree
ĠSt ra
l ocation
place ment
Ġmar vel
Ġaccess ed
int end
ĠA G
Per haps
tra ining
ps y
Ġclim bing
Ġex acerb
opt ion
Ġadm ire
ĠMed icaid
Ġrisk y
e valu
Ġover ly
( _
ĠEx amples
as ked
pro b
Ġs iege
av ailable
Ġrespect ful
ĠS ide
ĠTra ditional
ĠT es
Ġcur rencies
ĠWh it
Ġcontinu ity
Ġwrit ings
ĠP A
Ġrelig ions
Ġl over
pl ant
Ġin ability
Ġac ids
Ġt ribe
Ġsurprising ly
op ing
ct ic
Ġinstruct or
ĠSw iss
Ġmanufact ured
D an
f und
re ational
s om
Ġrid icul
ĠC reek
ĠS H
old s
Ġamb ig
ĠB and
Ġspons ored
Ġb apt
Ġ8 5
ĠN ut
Ġcol ours
De velop
Ġeas iest
Ġfun eral
F ind
ĠSaf e
ar se
G iven
Ġpy test
ĠD or
ĠW at
Ġconvers ions
ĠD omin
se ason
ia o
Ġag ile
itzer land
Ġf et
Ġphilanth ropic
r als
'] ['
d type
Ġm g
Ġbre w
ĠTenn essee
Ġjo ke
Ġcelebr ities
Ġad oles
Ġ' '
Ġround s
Ġsovere ignty
AC K
Ġprot agon
ĠV ision
ĠDu ke
Ġt ensions
e val
Ġcraft s
L a
ĠAr men
Ġun paralleled
Ġconst itu
ĠMus k
Ġinstall ing
ather ine
Ġagg ression
Ġmac ro
Ġamid st
Ġp unch
ĠS ound
ĠMove ment
Hel p
ĠIs lands
Ġsurviv ors
Ġ( $
ust ers
Ġappl iances
F OR
Ġshe ets
K now
Ġm erc
Ġwor ries
Ġext ending
g al
ĠV irtual
Ġdown s
Ġcl ause
Ġelabor ate
Ġare na
ĠPart nership
Ġc ous
Ġeffic acy
Ġstr ings
Ġ> >>
ĠB AS
ĠD ict
pt ic
ĠGall ery
Ġpl ag
Ġfro zen
Ġresist ant
Ġlam bda
Ġbu g
Ġult ra
Ġtw in
Ġbenefic iary
ĠH al
Ġhead quarters
Ġund en
ĠCent ury
g rim
AR E
cc a
ĠJ oy
is l
Ġb aking
hen g
Ġwra pped
Ġserv ant
ĠMad am
Ġa uction
Ġmilest ones
( *
AT A
Ġcl icking
Ġ19 20
ĠE N
ail and
Ġinterpret ations
Ġd aughters
g ly
Ġbroad ly
Ġcell ular
Ġcloud s
ĠG ray
ĠElect ric
Ġpublis her
Ġsun light
f ounder
Ġstrong est
Ġbu gs
ĠT oy
ĠZ ero
Ġanal yses
Ġdesper ate
ĠIn come
i u
Ġrepl icas
roll ing
Ġdoub ts
ĠCl aim
Ġsepar ately
ĠStud io
R eal
Ġbad ly
ĠHow ard
S ON
Ġb alls
ĠL oss
orig inal
Ġjust ified
ĠLe ban
Ġrecy cling
aps ed
Ġ' /
Ġfu els
Ġland ed
Ġref ined
in itely
Ġnation wide
ibl ings
Ġconsult ants
we ights
Ġpromot ional
Ġdis asters
ĠQ ur
IG HT
con tain
ĠWITH OUT
Ġs ink
ĠB an
ĠV eter
Ġfort unate
ex ists
g ov
ĠYou th
Ġconv ention
ĠAr k
Ġl ingu
ĠH em
ĠCo oper
Ġmet adata
Ġpost ure
Un fortunately
ĠEm ail
ĠB BC
Ġter rain
IL L
Ġemploy ing
ĠPol ish
ĠCorpor ate
ul atory
Ġlock down
ix el
ĠProg rams
cont rol
ener y
ax y
og ue
Ġrehab ilitation
if iers
Ġpal ace
Ġr ib
Ġn our
Ġartifact s
Ġd ictionary
pat ient
er ness
Ġinter connected
ĠGu id
Ġsp ite
Ġven ues
ĠN ik
Ġcustom ization
Id ent
Ġmultif aceted
Ġtempor arily
Ġw ines
Ġadvis ory
Ġinherit ance
ĠAr gent
Ġrenew al
Ġup s
Ġpath ways
work ers
D own
Ġst ats
Ġenum erate
Ġbi ases
Ġany time
M ax
est eem
ĠEm peror
Ġsubject ive
L ead
Ġdecl are
Ġdec ides
ĠP ear
en ment
Ġgra pp
ac le
Ġcolle ague
Ġbe ans
Ġv ague
ail ure
2 50
Ġp od
ru b
Ġph ases
ĠA B
writ ten
ĠC ann
Ġf usion
se q
Ġnon etheless
mat rix
c uda
ĠSchol ars
Ġextensive ly
Ġt rop
ĠP S
Ġspiritual ity
Ġexc use
Ġemp owers
ĠT ar
Ġg rocery
Ġchamp ions
connect ion
Ġfor cing
ast ed
Ġche er
Ġcompan ions
Ġquot ed
ĠEd itor
am ps
G R
Ġincent ive
Ġtu ition
Ġaw a
Ġcom ic
ĠK han
ĠG ulf
Ġinv alid
ĠAD HD
Ġquiet ly
p us
Ġflow ing
ĠClean ing
Ġexp ose
ĠPhys ical
ere r
ĠAnth ony
go vern
Ġp s
Ġhe y
ht aking
Ġassum ing
Ġpropag anda
oc ity
ĠM P
Ġnutrition al
play er
R ight
Ġchair man
ipp i
Ġbless ings
wh ite
ĠV A
Ġed itors
Ġfor ty
Ġcl ip
ĠRet urn
ĠRom ans
ah oma
Ġton ight
an im
ĠC urrently
Ġcitizens hip
ribut es
ĠRec ords
heart ed
s chool
fold er
Ġec ological
ĠSat an
Ġth rew
Ġbre eds
Le vel
ĠL es
Ġt anks
ĠM ust
Ġint ens
Ġsk i
M ark
Ġsc rap
ĠR ab
Ġwar zone
ĠT ower
Ġsolid arity
ĠF eed
u v
ĠP oly
ĠPro test
Ġdest ro
Ġsur render
ig s
Ġstrateg ically
Ġsh ore
ĠM ason
ĠTra il
Ġcr ises
ĠMar ia
Ġbes ide
ĠG ir
Ġl one
Ġadministr ators
ach ment
Ġcan vas
ĠMag ic
Ġstain less
Ġm asks
Gener al
Ġmart ial
Ġtoile t
ĠInd ians
Ġprohib ited
is ode
ose x
d jango
Ġm arch
ĠE valu
ĠHam ilton
Ġl ighter
Ġam ple
Ġload ing
Ġb icy
Ġn ic
ĠE asy
Ġpot ent
Ġvers es
us r
l ie
Ġinteract ing
Ġbo ats
Ġcle ans
ĠH ost
len e
Ġvalu ation
Ġconcept ual
bur se
us ers
Ġworry ing
Ġten ure
ĠKnow ing
Ġmin eral
i kes
Ã §
Ġlog os
on ts
Ġcan cel
h is
ĠCons erv
Ġge ographical
ĠM aj
ĠMiss iss
Ġquant ities
ĠH T
Ġtherap ies
ist a
Ġab ol
Ġsucceed ed
Ġrelax ing
Res earch
Ġcivil ian
init ial
ĠAg ric
20 18
Ġlif ting
em or
ap ache
Ġfundra ising
ĠOther wise
Ġdr um
Ġen vision
Ġsix th
Ġcoal ition
Ġdiscuss es
Ġpro ximity
ay ing
Ġhon ored
ĠFriend s
ĠN urs
il ience
Ġpo ems
in x
Ġb anned
ĠA part
Ġa unt
Ġcorner stone
Ġcapital ist
p and
ĠR ules
ĠSh ipping
Ġschol ar
Ġpass enger
ĠProp het
Ġour s
all ow
Ġtr anqu
Ġcross ing
U G
ĠApp lic
ĠGener ally
ĠBe ijing
ĠDis cover
Ġju ice
Ġgener ator
Ġhist ories
Ġathlet ic
ment ation
ver b
Ġmal icious
Ġadjust ment
Ġterrit ories
Ġoptim ized
d it
M I
ĠMiss ouri
ĠW H
Ġmerch ants
Ġpublis hers
im ages
Ġnew er
Ġm ouse
Ġf ancy
ĠCont ents
ari us
Ġenjoy ment
Comm on
Ġdecl aration
Ġ5 2
in fl
Ġbreat htaking
Ġpar se
ĠTreat ment
Ġgener ates
Ġur gency
Ġproceed s
Ġgradu ation
el d
ne ath
Ġcrow ded
Ġimm ort
ĠP red
Ġinf ring
k it
Ġhung ry
Ġspons ors
ĠK IND
es y
ĠCh an
Ġsh y
Ġm ast
ĠDoc ument
Ġlimit ation
ĠP ent
Ġcent res
Ġsub t
Ġre nov
L oad
add y
ĠUp on
kl ahoma
================ ================
ĠF ra
Ġsh ook
ik h
ĠDiv ine
ĠCom mercial
Ġag ility
Ġback drop
ĠAz ure
Ġbott les
os ures
Ġinhabit ants
st ock
ĠAr thur
) -
Ġmem orial
Ġassist ing
s qu
Ġmeasure ments
ĠH um
ul ator
Ġprom in
Ġex cluded
Am ong
ĠI BM
Ġcor ros
Ġm ater
ay er
ĠP ick
Ġsusp ic
Ġf ires
Ġtruth s
' ).
Ġc ord
Ġcompet itions
Ġfra gment
z i
Ġinject ion
Ġm gr
ĠM erc
Ġapp ra
Ġsafeguard ing
Ġundert aking
Ġgood ness
V ar
Pro v
ĠK ind
Ġsimpl ify
Ġ4 7
Ġb inary
Ġcru ise
ĠC ou
Ġun ified
ra cing
ĠH i
Ġl aughter
Ġsurge on
Ġinsu fficient
uc king
ĠBre ak
ĠP ed
ĠM ilitary
Ġexplo itation
Ġpro w
Ġtransc end
n als
ĠFoot ball
r ide
oy d
Ġd ressed
ĠC ape
ol as
ĠA st
ĠEng agement
Ġlandl ord
Ġval ley
Ġadjust ing
Ġun ve
ff e
Don ald
ĠC os
ĠI owa
Ġbet a
Ġst amp
Ġsp ont
ol ar
Ġgr an
ĠPlay ers
ri ad
ĠAssoci ate
reg ister
Ġord ering
Ġoff line
ins p
Ġfound ational
iov ascular
Ġd in
Ġst adium
Ġpurs ued
nam ents
Ġgu ards
ĠIran ian
ĠR oy
Ġc od
Ġsecure ly
o king
ĠMot or
Ġun conscious
P aul
Ġnod ded
Ġan onymous
ĠStrateg ies
Ġtra ction
Ġcoll ateral
c ustom
Ġsort ed
id get
Ġdiagn ostic
Ġ4 6
ĠK nown
Ġspecial ty
ĠSw itzerland
Ġm asc
Ġcomput e
ĠS now
ĠImport ance
Ġdis charge
Ġconvin cing
ĠSen ator
om es
ĠArab ia
r us
at al
20 24
Ġch airs
ĠTechn ologies
S everal
en cer
Ġmagn etic
iter ranean
Ġdigest ive
Ġbo ots
Ġinf ected
Ġdomin ance
c os
" {
Ġcom ed
Ġbe ef
orth y
r ish
Ġcertific ates
ĠShop ify
Ġhead er
Ġcondition ing
h ma
sc ript
Ġundert ake
Ġpad ding
S w
Ġplaintiff s
Ġdon ation
ĠT oo
Ġattend ees
ĠCar ib
ĠJ ess
ĠReg ulation
Ġinadequ ate
Ġbegin nings
Ġslow er
Ġb ind
c rit
ĠH ur
Ġnurt ure
TT P
w ait
Ġo ven
oun cing
Ġte ens
inst all
Ġb oring
Cl oud
B lock
r ations
Ġactiv ist
d ated
Ġrec overed
Ġhygien e
Ġcomprom ising
Ġgorge ous
ĠCon sequently
Th us
D ict
ĠS ad
Ġsu cc
Ġhun ger
Ġcr icket
Ġgen ius
Ġphenomen a
Ġspecific ations
lect ing
ra vel
Ġmat urity
Ġterm in
1 000
Ġdeliber ately
ĠR ain
Ġall ergy
Hist ory
Ġpract iced
Ġsc aling
Ġrepet itive
ĠET F
Ġw ip
Ġsold ier
Ġin accur
Ġw ed
Ġpu ppy
n ia
Ġp ier
em it
Ġfr ank
Ġrecy cl
i eth
Ġiss u
qu es
Ġbeh ave
Ġ' __
Ġen zy
ĠHit ler
Ġmon op
Ġthreat ening
ĠIm plement
Ġman kind
Ġreb uild
Ġcompl iant
Ġut most
C are
Ġaut ism
On line
Ġam endment
Ġcollect ors
Ġwin ners
ĠK am
H ead
ĠE li
Ġdevot ion
Ġh orn
er ated
c ert
ud ge
Ġport able
Ġjump ed
c ourse
ĠM un
? )
Go ogle
L S
ĠTH C
ĠOper ations
Ġle ap
umb led
Ġtact ical
Ġver bal
Ġent ries
ul se
ĠCon duct
Ġmerchand ise
Ġentrepreneurs hip
ĠTh ailand
Ġgra vity
ĠDirect ors
r ator
Ġjump ing
Ġout fit
Ġdon or
r idge
ĠRe venue
Ġatt acking
Ġd well
Ġbur d
ens ation
ans om
Ġten ants
Ġaff air
Ġarg uing
Ġsupre me
ĠThe ory
ĠD ick
st ory
ap el
onom y
s amples
Ġconcent rated
Ġthr ust
Ġelect ro
Ġbl ade
W est
Ġrel ie
ĠMan aging
ĠR ap
Ġsh irt
Ġinterview ed
Ġsal aries
Ġun st
Ġd ough
Ġre per
ĠDe cl
ĠT arget
bu ilt
ĠEs pecially
ĠConst ruction
Ġglass es
Ġmagnific ent
Ġheight ened
ĠResp onse
Ġfem ales
Get ting
ĠS in
Ġsens ation
Ġlay ing
u ctions
oca ust
Ġt orn
Ġfraud ulent
ĠRes ource
ĠSwed en
Ġcapt ain
Ġdest ructive
Ġground breaking
Ġrecru iting
Ġfluctu ations
Ġutil ization
ĠPart ner
Ġfold er
E st
W elcome
b ad
Ġspec ulation
Ġfact ories
Ġperman ently
Ġment ors
ĠFe atures
b urn
k g
Ġtouch ing
B ar
urd y
Ġstri p
Ġa ston
Ġdisc ern
Ġdef ic
Ġcar b
Ġorg ans
Ġdemand ed
ĠB or
Ġca res
Ġmar ry
Ġn an
Ġadequ ately
Ġmus h
ĠG raph
ĠEnter prise
ĠB ed
Ġfert il
ĠNaz i
Ġpre lim
ĠĠĠĠĠĠĠĠĠĠĠĠĠĠĠĠ Ġ
bal ance
Ġsusp ended
Ġapp le
we alth
Ġent rust
end ant
ne x
Ġmult ip
Ġl acks
ĠAnd re
Ġdef ending
ĠPa per
t mp
O kay
ĠG ate
Ġdetect ed
ĠK ings
m al
load er
az ines
Ġgirl friend
Ġrec reational
ĠR oc
ĠBudd ha
met adata
Ġcomprom ised
Ġch ol
Ġmeticul ous
pl an
k ward
ĠZ ion
ĠD elta
g one
ĠAn na
Ġ< =
Ġm ant
ĠN C
ĠM ade
In s
ĠH ills
). __
Â ·
Ġim aging
we b
Ġterm inal
Ġassist ed
Ġprevent ed
ĠI M
âĤ¬ âĦ¢
Ġsens ory
ĠRO I
Ġanim ation
ĠOb ject
Ġdead ly
n i
Ġsle e
ĠAd ams
Ġrend ered
C hat
S W
t age
Ġterr ifying
G reat
Ġf ont
ĠG race
Ġgrand father
Ġundert aken
Ġbrut al
Ġdem o
Ġopp osing
Ġaction able
Ġreg ener
ĠS ab
Ġlong est
idel ity
ĠM as
ĠPart ners
n ite
Ġsim ulation
Ġswe at
Ġobserv ing
ĠR s
20 17
ĠInd ependent
H L
Ġ7 2
ĠKent ucky
am ation
W ar
ĠM agn
Ġce ase
an ium
Ġcontact ed
ĠPay ment
Ġuns ure
Ġm eth
ĠD al
che ll
ĠReg ional
ĠSh an
Ġd a
ĠD ise
aware ness
Ġpro secution
iss a
ĠCreat ing
io xid
ĠMc G
ven ge
Ġ5 1
Ġexhib itions
Ġrefres hing
am an
j amin
li ance
Ġcra w
Ġflaw s
ĠFort unately
Ġrac ist
he res
ĠB ah
Ġbra ins
ĠC ir
Ġma ker
Ġupd ating
ĠPalest ine
L ong
ĠTo kyo
ĠC itiz
on i
ĠPr int
Ġt ube
met ric
Ġview er
ĠLo ans
Ġd ub
Ġprelim inary
N C
Ġc argo
Ġcook ie
Ġjoint s
Ġunauthor ized
ĠCol omb
ĠF lex
Ġillness es
Ġs ourcing
l ad
Ġdash board
cl ock
Ġfix ing
ĠJon athan
EN D
b ank
Ġd ilem
Ġend ure
F R
Ġstr ide
ĠMed iterranean
Ġspec ify
Ġenerg ies
Ġecosystem s
ĠE le
f i
ĠDra gon
U C
ain ted
uc le
ĠU ntil
Ġth roat
ĠI R
B uild
Ġlect ures
B T
it ives
ord on
Ġav iation
ĠDet roit
Ġcred ible
Ġc er
Ġsurv iving
Ġproceed ing
Ġreport er
Ġprompt ed
Ġanch or
uff le
ar king
IN T
Ġpur ity
w atch
Ġwire less
ĠR ust
Ġdist urb
Ġmer it
Ġdelight ful
" ;
E nd
Ġrow s
Ġinvent ed
Ġst oring
f ill
Ġfut ures
Ġpast or
Ġflo ating
Pr ice
ath on
um en
d est
ĠCh annel
Ġmotiv ate
ĠF u
Ġmilest one
Ġpl ates
Ġcy cling
Ġp acking
Ġinvestig ating
Ġpu pp
at on
Ġvoc abulary
t or
per ial
Ġn ail
e ff
Ġmy riad
ĠW ang
Ġment ions
Ġne ur
ra cle
Ġse af
Ġshowc ased
P I
Ġrec ession
ĠRus sell
Ġoutd ated
B ig
P ublic
Ã ¤
arc iss
ĠIn j
Ġcelebr ations
Ġmat ched
Ġ19 40
Ġcommit ting
verse ly
Ġass ists
Ġmor ality
ri ors
Th ink
Ġhold ers
ĠRober ts
ĠN ich
Ġext ensions
ĠRec overy
Ġadvoc ating
he imer
Ġdelight ed
Ġlist ings
ĠJ O
Ġcl icks
Ġb ored
ir y
le e
ĠM os
ĠL if
F inding
Ġm m
ĠP ier
Ġrele asing
Ġsatell ite
ant e
ĠG ent
C lick
Ġro d
Ġmix ing
Ġt ribute
Ġmeticul ously
Ġperform s
ĠBudd h
Ġbl ocking
Ġtra ins
ĠFr an
Ġvalid ity
Ġprolong ed
ĠIndones ia
ĠSte el
ĠO klahoma
ru p
ĠProv ide
Ġins ured
Ġswift ly
Ġresp iratory
Ġut f
Ġar che
ĠSom ething
ĠCommun ications
Ġmedic ines
Ġge op
Ġch amber
Ġt ires
Ġhum ility
ĠC ut
Ġtrad ed
uss ian
Ġsevere ly
Ġher bs
ĠCarib bean
health y
ĠE C
Ġin ch
Ġdiplom atic
Mich ael
ĠBl oom
Ġgrand mother
ã Ģ
Ġ" .
Ġbound ary
b ool
Ġsn ake
h ill
Ġcirc ular
ĠEv ents
Ġanth rop
ĠR ick
id ering
Ġclean ed
cl osed
Ġend urance
Ġcollabor ating
or ance
Ġmyth s
ment ioned
Ġth umb
Ġvacc ination
Ġacadem ics
Ġl iv
Ġtra pped
ĠK ath
og an
em bers
Ġhed ge
Ġ198 8
p olicy
ĠT rain
Ġprofess ors
am l
ĠM O
ĠS leep
Ġafter math
Ġtravel s
ĠCol lection
d ot
D IR
ĠB ird
Ġas bestos
Ġfriends hips
d iff
ĠAn cient
com pl
ar o
Ġenthusi astic
ĠA chie
Ġpra ised
ĠW olf
ĠS el
Ġb ay
disc iplinary
Ġimp air
ĠSh ar
be it
ĠB io
Ġtechn ically
par ing
L ICENSE
Ġg ad
Ġopp ression
Ġten ant
Ġunder neath
Ġ198 6
ĠMississ ippi
Ġthread s
f un
Ġquestion ed
Ġprov es
Ġbit coin
reng th
Ġn inet
ĠT ian
ex cept
ĠB egin
Ġset backs
Ġhabit at
ĠVis ual
Ġsuscept ible
if le
Ġsh ake
er on
ĠT ro
Im port
|> """
Ġfeas ible
ĠTra ding
Ġinter tw
} ")
Ġret ro
Ġres ent
Ġtrib al
Ġconv icted
rem ove
Ġlif ted
b ecause
Ġ" /
ĠOff er
Ġforg ive
Ġap i
Ġra m
ĠW u
Ġlight ly
ĠSt ream
Ġtransform s
Ġexplos ion
uff er
Ġb illing
ĠBudd hist
es pecially
or king
ac re
Ġtap estry
Ġh ike
Ġdest iny
A V
ĠFrank lin
A ng
Ġwhe at
em a
ĠW inter
in ition
by tes
oc ide
Ġchar ter
op ard
Ġtable ts
ĠMe et
ĠCommun ist
Ġpro xy
C ount
Ġcompet itor
Ġconfidential ity
Ġve ctor
Ġvol can
Ġc ovenant
Ġsettle ments
Ġsubmit ting
N ever
w alk
Ġres ign
cle an
Ġcher ished
Ġb acks
Ġmusic ian
Ġbrid ges
Ġaw kward
irm ing
log ging
Ġre un
Ġcon ve
Ġow ning
Ġf ict
Ġcon gress
Ġp ending
Ġdifferent iate
ĠCirc uit
Ġcra cks
ĠL iver
Ġintention ally
ĠUn it
Ġdev il
og g
Ġment orship
ã ĥ
Ġw ounds
ĠT ib
ĠMar ine
Ġprow ess
Ġ Ã¢
H P
Ġhorm one
ĠP ray
Ġrelent less
ze ch
Ġcater ing
ĠSim ple
Ġent ers
ĠK ids
Ġacc us
Ġautom obile
Ġb acking
Ġpath way
Ġplug in
ĠU V
os ph
G roup
Ġopen ness
25 6
Ġende avor
e ment
ĠA th
ĠTre asury
Ġh obby
Ġs iblings
z o
ĠF em
ĠV egas
i rop
Ġag rees
Ġcommod ity
IV E
Ġsh ocking
Ex ample
Ġpur ple
Ġst iff
ry st
Ġcur s
le ans
ĠL eft
Ġin appropriate
ĠCo ach
ell ar
ĠH erm
ĠMe eting
ĠB ron
Ġjuris dict
L D
ĠH appy
ĠAnt i
Ġcry ing
ĠChamp ionship
aug hed
ĠSt ories
Ġbuck et
gg ing
all ing
Ġnot ification
worth iness
Ġsport ing
act ively
N ode
r in
ĠWe ight
ĠB ec
ĠBud get
Ġco h
ĠCor ps
Ġworkflow s
ĠL ED
c ounter
avig ating
Mean while
iv ia
Ġmult ipl
ĠP DF
ĠA ra
l ate
ĠE ld
Ġmarg ins
Ġarg u
ol ph
Ġhead lines
Ġout lines
Ġd read
Ġelect oral
Ġdep icted
Ch ild
Ġgo ogle
f ight
Ġid x
ĠSam uel
Ġpred e
rit is
sc ribe
ĠD er
re q
Cont act
p df
iam ond
Ġgather ings
Ġserv ants
S ur
u its
el iness
Ġsp am
ĠJ en
un ge
Ġdefin itions
Ġtw ent
ri ber
ĠH ousing
op ic
ĠLead ers
'' '
ç ļ
Ġmotor cycle
Ġext rem
Ġgovern ed
Ġreal ization
ĠS i
Ġinherent ly
dat etime
Ġsc andal
Ġcon secut
ĠQ ing
iny l
k h
Ġra ck
Ġide ological
pl atform
G C
å ı
Ġdis g
Ġsmart phones
and ra
Ġdeliber ate
z an
Ġcalcul ations
comm it
Ġmult itude
Ġcontroll er
Ġb achelor
Ġdisrupt ions
Ġaw ak
ĠWal ker
ĠStrateg ic
Ġl aughed
he ro
Ġexp ans
z ero
ĠLead er
Ġconj unction
ĠBru ce
th y
E qu
Ġan onym
cl ip
go ogle
ĠL E
t own
Ġsell s
Ġbreed ing
Ġdesp air
Ġex ert
ĠDisc uss
y ers
Ġj et
Ġorche str
m ont
ĠP ict
v it
Ġcook ed
un ks
Ġinsight ful
Ġharmon ious
Ġwarm ing
lear n
Ġchamp ionship
Ġpractition er
ĠMay or
F ans
Ġfreel ance
Ġcar riers
Ġbed s
ĠRep air
Ġp orts
Ġnut s
Ġamb itions
f ly
ĠKen ya
ap olis
ch a
Ġj ealous
Ġ198 4
Ġexplan ations
Ġins ulation
ï ¸
Ġabund ant
su per
ĠEst ablish
Ġwind s
E arly
ere rs
l anguage
ĠSt ring
b ird
Ġsho e
ĠT el
Q s
Ġmon ster
ĠReg ardless
R a
Ġsus pected
ĠPalestin ians
Ġin aug
om eters
çļ Ħ
Ġhead ers
Ġhat red
ical s
ĠJ ere
em et
em en
Ġtraum atic
Ġstand out
Ġsqu ad
F ore
ĠD ynam
ĠUr ban
ĠB achelor
fort unate
Ġcat tle
Ġce ment
Ġlog in
ver ted
Ġstim ulate
Ġterm ination
on al
Ġover head
ĠStan ford
tem p
ific ate
Ġsupp ress
ĠS ud
Ġhapp ier
: .
Ġcal ories
Ġmolec ules
ĠCompl iance
" ,"
T ypes
Ġfle w
ĠA bd
Ġdiv isions
Ġred irect
head er
Ġemerg encies
Ġcrow ds
ĠAcad emic
ĠQ ual
prehens ive
iz ard
Ġextra ction
ĠCON DIT
as i
ank a
irop ract
ĠN ap
Ġ" [
Ġstream lined
Ġg ast
Ġsc ams
Ġref rig
Ġcomb inations
I mp
Ġinv ites
Ġhas h
Ġst ip
Ġimm unity
ĠBas ic
Ġcl osure
M aking
Ġim pe
Ġnegot iating
Ġex clusion
CON F
Ġins ur
Ġstr anger
ĠAd vant
Ġrighteous ness
ĠB lu
ĠCom merce
ĠRec ord
Ġbust ling
Ġb ree
Ġnu anced
uro pe
Ġafford ability
L Y
il i
ĠPre p
Ġund erest
Ġbutt ons
ĠL ot
fl ict
Ġprotect ions
Ġret ained
Ġpro pose
Ġan not
ĠZ oom
ond a
ĠGen esis
ĠCreat or
Ġrecord ings
th ood
ĠM es
akes pe
ann ot
Ġide als
Ġmerch ant
Ġsh ade
Em ploy
ut ed
gl obal
ĠOb viously
Ġpri ests
P G
ic ut
re ck
Ġchar ism
e in
ĠR ow
Ġun int
In it
ur ated
n els
ĠIndividual s
ĠD J
du e
Con v
ĠMel bourne
Ġtou ches
Ġbr on
Ġa we
Ġsou p
Ġb ail
v ia
Ġelimin ated
Ġsc ales
c ious
ĠC row
che m
E duc
Ġspons or
Ġremind ing
A ccess
20 22
Ġout let
ĠAl an
Ġresol ving
RE E
Ġshel f
V P
Ġb out
Ġconstitut es
Ġdefect s
Ġun common
is en
ĠC ow
Ġrese ar
Ġintr ins
u f
ĠC ro
. ')
ĠTechn ical
Ġassoci ates
) [
Ġfat al
Ġtu ple
ap or
Ġver dict
ĠCar ter
oc y
Ġupgrad es
Ġ ic
Ġcle arer
al so
ire ments
ĠDe al
ĠL isa
Ġexp on
ĠSee ing
u o
Ġfe ver
ĠMean ing
ens itive
ĠH us
ĠM ir
Ġsub ur
W ind
Ġcabin et
Ġrecip ients
rop olitan
al ia
Ġmag azines
ĠSur vey
Ġabs urd
Inf o
ĠSt op
c ribe
Ġinsect s
ĠChamp ions
Ġcard iovascular
Ġdepth s
ĠU C
ĠY oga
Ġfle e
Ġluc rative
ĠPrem ier
d ale
ĠDen ver
Ġanticip ation
N umber
Ġtrans mit
Ġp orn
ugg ing
ĠDou gl
Ġequ ation
ĠG olf
Ġdom inate
Ġdiscl osed
Ġnot ify
Ġcertain ty
ir ical
Ġsovere ign
Ġcontrad ict
ĠG ib
ĠCONDIT IONS
ĠM i
Ġinstruct ors
Ġdro pping
itch ing
Ġcast ing
ĠCor p
Ġcl ay
Ġturn over
Ġsho ppers
ĠF inding
Ġtiss ues
Ġportra it
i ably
parent s
... ]
ĠCom b
Su pport
ĠEm otional
ĠEmer gency
Ġcomm issions
Ġdel ves
ĠUs ually
g ue
ĠH op
Ġinterf erence
Ġoccur rence
ĠAl t
Ġinjust ice
ĠW right
N on
ere n
ĠLe o
Ġre de
ĠBeh avior
resp ons
Ġprede cess
ĠC art
ĠRe act
Ġu seless
ĠO k
Ġmolec ular
Ġinc ap
Ġped est
Ġphotograp hers
ĠR oll
Ġst ark
Ġu pt
P ATH
p rom
Ġintrodu ces
Ġscal able
Ġdisappoint ment
ĠWork ers
Ġli abilities
Ġur ged
on ut
Ġmort ality
Ġex agger
Ġpartn ering
: -
Ġbrow se
Ġe Commerce
ĠCo in
Ġnotice able
Ġworth while
Ġcos metic
per formance
Ġl ag
Ġjour nals
Ġrig id
Ġh obbies
} /
ĠParent s
00 1
ĠT am
Ġlawsu its
Ġattract s
Ġyield s
Ġbr ide
ri ages
Ġdem ographics
Ġill usion
ĠF ell
Ġen ch
Ġmyth ology
her ing
Ġrefer rals
Ġlog s
Ġrhet oric
m anship
g i
Ġas leep
Un like
Ġsum mit
akespe are
Ġprompt s
ĠShe l
Ġform ally
Ġc ens
path s
Ġconc ise
Ġpub g
O rig
Ġqu o
ĠProt ect
Ġappro ve
man ager
th a
c uss
id able
ĠD rug
Im agine
In tern
ĠF er
ĠIss ues
Ġpal m
ĠInit iative
im en
ĠBow l
Ġ198 7
M OD
Ġburn out
ĠO d
Ġfo am
Ġcap ac
ĠG a
ĠJ obs
ight y
Ġinit iate
.' "
Ġw it
Ġcentral ized
Ġpropri etary
Ġpand as
ens able
Ġhe m
Ġ20 30
ĠW rite
Ġsuper f
Ġc ab
Ġac oust
ĠBAS IS
Ġd amp
Ġbrow sing
Ġen ric
ĠLouis iana
Ġd airy
Ġhier archy
ĠStand ards
in is
Ġdent ist
Ġi P
ĠH ug
Ã ±
ĠTes la
Ġant ioxid
ĠR at
L ocal
Ġportray ed
ĠIns pect
ĠAl bert
Ġland mark
. ).
ment ia
inc are
Ġsp ine
Ġbuild ers
Ġinvestig ated
Ġ5 4
ĠK al
Ġbod ily
H ome
ĠL en
J an
Ġresur rection
L L
F unnels
ĠPer iod
Ġcalc ulation
ĠD iet
Ð ²
ĠĠĠĠĠĠĠĠĠĠĠĠĠĠĠĠ ĠĠĠĠĠ
V C
Ġfair y
ĠV it
F P
GB T
Ġhost ile
T em
Ġcataly st
Ġpress ed
Ġinher ited
Ġpre y
Ġrep ublic
ĠF igure
Ġcount ing
s ql
Ġ198 5
Ġtax ation
ĠBrook lyn
Ġintern ally
Ġpost er
Ġkill er
Ġlib eration
Ġsimilar ities
Ġrel ieve
Ġbe ast
ĠM ail
Ġunderm ine
Ġvisual s
Ġsing ular
Ð ¸
Ġmanip ulate
Ġun fortunate
Ġpool s
Ġdis pro
Ġperform ers
S uch
Ġbub ble
ĠU AE
Ġf are
Ġformer ly
c m
dist ance
s ent
le m
Ġw ore
ĠG irl
p ract
ã Ĥ
Ġimpro per
Ġplay ful
cent ered
Ġcut e
ke eper
l ades
ĠLaw rence
Ġobed ience
sw ith
Ġident ifies
Ġpersu as
We b
ĠHawai i
iot ics
S y
column s
mer se
ĠL arge
Ġverb ose
ee k
ĠHT ML
Ġfert ility
Ġcr iminals
Ġmis leading
emet ery
ĠOr leans
Ġorigin ated
F ort
Ġcon sole
Ġ5 6
Ġad ul
se ud
Ġfif teen
c pu
ĠB os
Ġdec ay
by e
Ġrecomm ends
Ġant it
Ġc ivic
Ġscal ability
Ġdemonstr ation
ĠTy pically
With out
as is
Ġsufficient ly
ĠSing h
ĠEmploy ee
P ub
ĠThom pson
w he
ĠPh ill
th inking
Ġproc urement
ĠNAS A
Ġappell ant
Ġhold er
Ġpr iced
Ġa pt
w ick
Ġrespect s
ĠRe pl
Ġperson a
ĠPro duction
ĠDep uty
Ġco zy
ou ver
W H
Ġmod ification
ĠMalays ia
n ut
Ġinnov ate
ĠG ary
hist ory
m ay
ĠS oph
Ġdis able
Ġbal ances
ris is
ser ial
H ub
Ġfar mer
Ġl ung
ĠPot ential
Ġstr iving
ĠAd ditional
Ġper taining
Ġflo oring
Ġconsecut ive
Ġemb odies
ĠP ositive
ĠCh amber
f our
Ġmer ge
Ġp icks
ĠC zech
Ġass ure
ra h
dem and
ĠB ishop
Res ult
c v
ĠP as
Ġbegin ner
form er
im ore
ĠM BA
ĠUt il
Ġoptim ism
t i
ĠBapt ist
b oth
Ġmotiv ations
ĠSum mit
Ġcur ated
ĠC urrent
Ġo we
Ġm amm
ĠNorth west
ĠC riminal
Ġconfident ly
ĠSt ri
ham mad
Ġvit ality
ĉĉ ĉĉ
ĠPh oenix
s pring
Ġo mn
Ġst ems
ĠP urch
Ġw ax
Ġpun ish
Ġform idable
Ġclin ics
ĠC I
Ġign orance
Ġth ou
sh aped
ĠV iol
im ated
pher d
ĠEmploy ees
b ie
Ġdr ill
umb ling
S earch
Ġrespons ibly
Ġread ings
ĠC IA
ĠChrist opher
Ġmanage able
Ġred emption
Ġcoord inate
ours es
ĠC rown
Ġscholars hips
Ġdos age
Ġmet aph
Ġcomm emor
Ġen velop
Ġswitch ing
M essage
ĠIn sp
Ġst urdy
Ġcatch ing
ï¼ Į
ĠSome one
Ġunf amiliar
H uman
Ġst rand
Cont in
ran ch
Ġadvertise ments
ĠGl ass
Ġborrow er
av i
Ġsexual ity
Ġpro st
ĠM is
ag ent
AR S
ard o
Ġper t
le ton
Ġthere of
Ġair line
Ġind isp
Ġcamp ing
hat tan
Ġlabel ed
RO M
ĠL ie
aw ays
Ġc ared
us ions
Ġdeal er
ĠP ow
Ġd ried
Ġplan es
Ġf el
l ocking
ol o
Ġport ions
Ġplant ed
ĠV oice
__ ':
Ġquant itative
th ritis
B E
R ob
Ġscen ic
Ġincl ined
Ġcult ivating
cont ract
Ġaltern ate
Ġr ides
Ġsc attered
e very
Ġ5 3
ch air
ĠHol ocaust
per m
e ur
Ġout break
T im
ĠD ays
b ig
w d
v ious
Ġarr iving
ĠS ep
Ġdeep en
eral d
20 23
Ġthr one
Ġr ug
Ġcorros ion
cent er
Ġargu ably
ĠQu estion
Ġall ure
unt ime
Ġgate way
Ġexpect s
Ġc ort
Ġcrit ique
Ġp el
Ġhypothes is
Ch ina
ific ant
Ġg reed
ĠCr ime
nd ry
es ity
Ġpictures que
st ick
doc ument
Ġdefin itive
Ġdist ances
Cont ent
ĠAssess ment
Ġthe ological
cc i
Ġrail road
Ġth c
g roups
ance ll
Ġcompet ence
Ġang les
st ated
Ġanal og
r ants
Ġadapt able
ĠK ate
Ġcor rection
ĠN elson
E v
row th
Ġacceler ated
Ġret aining
Ġl ing
Ġhigh way
Ġfr iction
ĠDet ails
Ġcar ved
Ġaud its
ĠK ra
Ġbench mark
ĠRelations hip
l ies
ĠUn iverse
ĠCo ord
Ġa venues
ĠG O
Ġarchitect s
ĠR ena
ĠB art
Ġinsure rs
ĠF if
ĠAl aska
em on
Ġpers ist
Ġb our
un ing
Ġreported ly
ĠCon fig
Ġto b
Ġ3 60
M ult
o kes
ĠAd vert
Ġwa ited
N N
Ġatt ent
UR L
Ġcult ivation
V D
Ġob ey
ire ment
ak y
ĠEth iop
Ġsh a
U t
Ġcivil ians
pl oad
Ġnot ifications
Int erest
it ary
Ġdeg rad
ĠEn joy
ĠCh oosing
it us
A ug
Ġj er
Ġtest ified
ĠBen jamin
Ġpersonal ization
f ar
Ġins isted
Ġal umni
ĠEngine er
ĠL ower
in formed
ĠS MS
ĠJ oint
Ġlot tery
ĠĠĠĠĠĠĠĠĠĠĠĠĠĠĠĠ ĠĠĠĠ
ĠTrust ees
Ġfra gr
Ġthr ill
j s
Ġc fg
Ġdiss atisf
Ġreconcil iation
Ġu mb
Ġalleged ly
ĠMain e
Ġsc ent
U RE
Ġcos m
Ġking s
ce ived
Ġsmo other
N ational
uls ion
Ġpredict able
ĠPsych ology
ixt ures
S M
Ġarch ive
ĠCamp aign
Ġbe ating
Ġdis reg
Ġfl ame
ĠR y
anc ouver
ĠG as
ric ane
ĠHam as
Ġc m
ĠE sc
bor ne
al in
Ġwood s
Ġcont ra
roduct ive
Ġalign ing
ĠH ans
Ġunique ly
c amp
ĠP ros
ex it
Aut hor
o ons
Ġin k
ĠBe at
ĠEvent ually
Ġo xid
ĠD est
ĠAd s
Ġher bal
fe it
Ġconsc ience
Ġadd ict
Ġsurpr ises
ĠB B
Ġtr ash
Ġarg parse
ĠCo le
pl ane
Ġblog ging
Ġcorrel ation
b id
D ev
Ġalert s
ĠSh o
ign ant
Ġ6 6
ĠCharl ie
Ġactiv ism
ĠEx pect
20 16
Ġkid ney
Ġcomp iled
d ration
ipp le
Ġdisadvant ages
ĠFac ulty
Ġc ub
ĠF an
Ġman eu
ug ar
ĠF low
Ġpursu its
ut ation
ĠT otal
h idden
Ġlegitim acy
osoph y
ĠN ort
Ġsubject ed
ĠA le
ĠD ig
ot y
Ġn ons
is factory
Ġg aze
ĠG it
ĠRe ally
ex isting
Ġg ummy
ert o
ip h
ĠEnt reprene
op ed
ple asant
n ational
Ġtra ces
ĠN ash
ĠEm ily
f oo
Ġbi kes
Ġprecaut ions
ĠB eth
C ent
ĠWar ren
Ġto mat
Ġinstall ations
F il
new s
uck er
Ġintric acies
Ġsw elling
Ġstat ue
head ers
Ġele ph
l arg
Ġwild erness
ad min
Ġfre ight
Ġelement ary
Ġb un
Ġint act
Ġrel atable
Ġsign ifies
Ġsm arter
ĠW ard
2 000
Ġst aple
Ġpop ul
Ph il
.. /
Dis cover
S QL
act ly
Ġsequ ences
ĠSec urities
D O
Ġarr ives
ĠZ en
AS T
roph ic
Ġadm iration
: ]
Ġtem ples
Ġalb ums
Ġf isher
Ġf ond
ins ert
f elt
Ġe rection
Ġprint s
ĠU I
Ġw anna
ĠConnect icut
Ġspecial ly
at to
Ag ain
Ġindisp ensable
Ġretail er
Ġinstinct s
Ġtun ed
ott om
ĠArab ic
S R
ĠC op
Ġweb inar
ĠAgain st
Ġkey board
ĠAdvis ory
ĠT ang
ĠReg ister
P arser
Ġsad ness
= ['
Ġincom plete
s n
Ġthr illed
set up
Ġfather s
Ġre active
Ġp ale
Ġprop het
ĠH D
Ġlaugh ing
Ġdef icit
Ġe commerce
ĠL ocation
Ġhorm ones
ason able
Ġde ed
Ġco ating
Ġrep ent
Ġkick ed
Ġlight ning
ĠV inc
ĠWe alth
â ķ
ĠY ellow
Ġrev ised
st ruction
St ill
ester ol
ĠSh akespeare
Ġ197 9
ess ert
Ġcommod ities
Ġaccommod ations
S m
o ken
ĠSus an
ĠJust in
pr ising
dom ain
ĠAnd y
Ġcommand er
Ġin clus
gener ation
Ġhor r
re ls
Ġgl uten
ĠChall enge
ĠQu ant
Ġhor rible
at oes
AG E
Ġf led
Ġplan ets
Ġinter med
Ġvib e
Ġrestr iction
B ay
Ġh inder
B N
ĠTib et
B re
Ġw ished
ĠW a
ĠJ es
b usiness
Dat aset
ĠB us
ast ics
i per
__ ()
Ġrev is
ĠRes ults
h icle
Ġl inking
f c
en abled
} "
ĠNot ice
Ġm ud
it ored
Ġrecall ed
Ġmal ware
Ġtable t
ĠL ad
ĠAn imal
Ġ' --
dim ensional
Ġevalu ations
ĠGra ham
ut o
ĠB Y
Ġm our
ð Ŀ
Ġlast ed
ĠSh a
ĠE D
Ġment oring
KE Y
Ġgam ers
Ġcareg ivers
Ġtransl ates
oster one
oc ating
U P
id y
ĠA BC
Ġrail way
Ġde eds
Ġplant ing
ach ine
Th ree
May be
S L
ĠTrend s
ĠB eng
Ġvot er
ĠHon or
on ies
ĠL uck
Ġve gan
o qu
Ġc tx
ĠT ed
round ed
ĠH ab
ĠG ordon
Ġcomment ed
) ?
lett ers
Ġun le
ĠBe ck
un al
Ġexam ines
Ġwal lets
ĠOr thodox
vas ive
Ġtroubles h
udd en
ĠPhil ip
ym ph
Ġsympt om
ob i
er red
Ġdiscover ies
Ġpo ised
ĠUnivers al
Ġra pe
Ġfuel ed
Ġden ying
Ġprejud ice
Ġh ust
ĠUp date
b rand
Ġcommit tees
ĠM ath
ĠQue ens
Ġexhaust ed
ï¸ ı
s leep
Ġst ains
Ġtreat y
conf idence
ĠP resent
it ol
ĠTh ai
ĠRob inson
S H
Ġsymbol izes
it i
Ġmist aken
ĠD ak
Ġjurisdict ions
Ġp ants
Ġdr one
ĠF I
Ġdec isive
Ġself ish
pro du
ĠBang lades
Ġnice ly
Ġincon ven
ĠRes ilience
Ġb ounce
Ġobstac le
ĠQ in
Ġge ographic
Ġf ights
t hens
ill ery
ĠW oman
resh ape
ĠAl f
ĠCharl otte
om on
ĠM ong
ĠBeh ind
ĠSpe ed
Ġsymbol ize
ĠS W
Ġunderstand able
B ox
ĠR achel
ĠT ask
Ġnow adays
Ġ" "
sche ma
er ic
ĠL ock
ĠP rec
st ates
ĠNeed s
ĠS A
Ġent ails
Ġg iants
cul iar
Ġo live
ed e
Ġportray al
Pres ident
EL L
Ġrefere n
Ġrep ository
Ġs ch
ĠS ave
ĠPract ices
Ġris es
ĠP and
Test Case
Ġin h
ĠIn side
ĠEng aging
Ġclear ing
Ġto ss
B ER
Ġmin isters
Ġin ception
Ġcontribut ors
Ġadminist ered
ĠMan hattan
Ġtrail er
us ername
ĠAl b
Ġvolat ile
Ġtra ct
ĠPay Pal
qu ote
Ġprof iciency
Ġo k
Ġgl oves
Ġ( @
Ġpol ished
Ġimag in
U E
Ar g
C ode
ĠP ap
ĠP il
ram es
Ġportfol ios
Ġcle ared
Ġqu een
Ġru ins
l iter
g un
D oc
Ġrest ra
ru nt
ĠSpe aker
Ġ5 7
ĠC elebr
th read
zh ou
ĠPop ular
Ġpres idency
Ġtob acco
Ġprevent ive
Ġteen agers
A lex
ĠW elcome
Ġsmall est
ĠWik ipedia
P Y
Ġl akes
ed uc
Ġpossess es
v m
20 15
Ġam ended
Ġtight ly
Ġw ounded
ĠAlp ha
ĠS port
ri um
art s
Ġsp atial
Ġp ockets
Ġviol ated
A nt
|># !
level and
is al
Ġinject or
ĠClin ical
ĠPer fect
b ian
Ġstead ily
ĠLib erty
Ġlast s
ĠNon etheless
Ġind ices
ĠF ashion
ĠPl ant
Ġwh olly
(). __
Ġsyn onymous
Ġoff shore
ĠJ u
ĠCo ffee
ĠS oul
B R
Ġb ots
Ġad herence
atin um
Ġdistract ions
Ġab normal
Ġinc urred
Ġre novation
Ġcol ored
ĠJeff erson
ĠAv ailable
Ġ198 3
ĠRena issance
Ġab st
f illed
Ġst akes
Ġhe ated
II I
Ġw icked
Ġm ig
Ġdr astically
ĠE R
Ġrot ation
J ames
head s
is co
Ġb ip
ĠR ot
Ġconcept ion
pl ug
et on
Ġall ocated
Ġeffort lessly
cess ion
Ġse greg
Ġn ov
Ġparent al
ĠSe ven
Ġsuper b
Ġhon ors
inst ein
ĠU ber
Ġflood ing
Ġwho ever
ĠH app
Ġrein forcement
ĠL aura
Ġprocess or
ĠR ace
Ġaccum ulated
ĠAl most
ud ed
Ġsocial ist
or us
ĠL GBT
ol ves
Ġtra ced
Ġgall eries
Ġir res
ĠOr ange
M c
Ġbelong ings
Ġtherm al
Ġ196 8
Ġexempt ion
Ġconf ined
Ġillustr ates
ir ates
Ġqu arters
ĠMu hammad
list ed
Ġpe culiar
Ġsh adows
Ġcongreg ation
Ġtradem ark
Ġdele ted
Ġaccred ited
ĠTest ing
ĠO sc
ogen ic
Ġreg ain
ke ley
Ġyear ly
Ġt iles
ribut ed
AN G
pro fits
ĠJ a
ĠTe aching
test s
Res ource
ĠC her
Out put
Ġr ansom
Ġsince re
ar ians
Ġjack et
oo fer
ĠSustain able
Ġvict ories
Ġadministr ator
ĠSt ress
r ity
A f
Sh ould
Ġfight ers
Ġmeant ime
m ble
ĠDog s
ĠAm y
Ġlaw ful
m ount
ĠH E
Ġs orrow
ind ices
à ¥
res istant
Ġprotagon ist
ab ad
Ġprem ise
Ġadj acent
ĠSol ar
ĠCo al
Ġfell owship
ĠM C
b age
im b
ĠReg ulations
ĠHist oric
Ġtrans itions
Ġfin ishes
pl t
Ġchar ities
ĠG PS
Ġaggreg ate
Ġsn acks
Ġlearn s
ĠB rain
Ġa fore
O ct
Ġmaxim izing
Ġal ly
Ġinterf aces
AR D
Ġeconom ically
Ret urn
Ġsle ek
Ġst roll
Ġse aled
ĠNiger ian
ĠMor ris
Ġadapt ive
Ġaw ful
Ġgar nered
Ġar rog
IM E
Ġrid ers
R un
ĠHun ter
Ġon boarding
W orking
Ġinterf ere
ig ion
Ġan ime
Lear ning
at ories
Ġc um
Ġhas attr
Ġn aked
ĠES G
Ġche ating
p he
ĠAct ive
Ġrepresent ations
Ġsh ipped
Ġsuper natural
Ġboy friend
F igure
Ġl obby
Ġkne es
ĠC ass
Ġsevent h
Ġimp ly
Ġgl uc
Ġvar iant
ĠCom plete
Ġaccept s
Ġprofound ly
p ulumi
Ġenc oding
Ġgradu al
Ġb race
Stud ents
in v
Ġu gly
e pt
Ġgreen house
Ġd awn
ĠSo on
Ġ ):
ĠB ing
Ġfrag ile
Ġcommun al
ĠCub a
ĠAd apt
Ġg el
Ġmira cle
ĠS outheast
C oll
Ġrest oring
Ġsp ans
Ġ198 2
Art ificial
Ġ18 0
rie ved
D igital
D el
Ġfundament als
aur us
Ġign oring
Ġne arest
ĠM E
Ġguard ian
ĠF ish
Ġste ering
app lication
Reg ular
Ġun e
Ġun pleasant
Ġstim ulation
Ġemploy s
p g
ix on
ĠAL L
S ize
Ġmagn itude
ri el
l ists
Ġbl ending
lish ing
AC E
ats on
Ġl ap
Ġdraw backs
Ġapp rent
ĠSte ven
exp ensive
ĠArt icles
so ever
Ġjud gments
ues e
ipp ers
o an
Ġridicul ous
ĠĠĠĠĠĠĠĠĠĠĠĠĠĠĠĠ ĠĠ
Ġmiscon duct
Ġconfront ed
ĠIn nov
Ġhard est
s ocial
Ġdevelopment al
OR E
ĠM ov
ĠKeep ing
Ġrece iver
Ġbuff er
i otic
ch i
Ġlower ing
ĠAb u
Ġstret ched
Ġceremon ies
Ġflour ish
ĠAnton io
Ġrev ision
ĠInt el
acter ial
o ks
Ġsh it
ĠB orn
ĠAct ually
Ġpa ired
Ġex clude
Ġconf ess
Ġroad map
Ġv ic
Ġpat ron
J oin
ĠGener ation
Ġbase ment
ĠG ram
Ġcounsel or
Ġge ography
Ġdev ote
ĠD ad
Ġ" __
im mer
Ġre he
config uration
Ġboost s
Ġgram mar
Ġmunicip al
bl ocks
ĠDet erm
bl ack
ĠBrazil ian
P ER
Ġconsolid ation
Ġ197 3
Ġut ils
Ġinst ability
Ġdisc oura
Im pro
n or
Ġprem ier
Ġcount ies
us c
Ġbi ography
ĠS CO
ĠJenn ifer
ch anger
ĠA aron
Ġ5 8
ipp er
n ell
Ġad missions
ĠJ oh
Ġreinfor ced
Ġmor ale
Ġbe acon
Ġf ighter
Ġt el
Ġrevolution ized
Ġcritic ized
ien ced
ĠB aker
T ips
Ġinsp ires
Ġl ately
qu er
Ġs ights
ag u
port ion
ĠZ e
ĠL oc
__ ,
Ġposs essions
v id
H y
Data Frame
ĠRelations hips
ol ine
Every one
ic able
ĠPl ans
Ġscar ce
Ġdownt ime
ĠE M
Ġg ates
ĠC hel
ĠD iamond
Ġaccum ulation
Ġw aking
ĠM asters
ĠB rew
ay ed
Ġqual ifying
ĠEduc ational
g ender
ĠEqu ity
Ġan ec
at hetic
ĠB ab
Ġsk incare
Ġeduc ating
Ġtrop ical
rell a
ĠMult i
Ġl ush
Ġensure d
L O
Ġd ull
ĠMe chan
Ġimper fect
Ġh ockey
Ġ197 5
ul u
Ġl av
ĠIncre ased
m i
Ġun ch
ĠM oving
Ġaccomplish ment
hand ler
Ġlocks mith
Ġp ars
Ġru in
Ġch ase
ĠC ars
Ġrobot ics
. ),
Ġstra w
Ġs iding
Ġweb inars
ĠG re
Ġmed iation
Ġrec alls
Ġcheck out
Ġdepend able
ĠSt yle
L ove
Ġrec ount
Ġdraw ings
Custom er
Ch all
Ġjust ification
v ideo
ĠPit ts
ra de
ĠF irm
-------- -
Ġgeop olitical
r ise
Ġmon itored
ĠMain tenance
Ġhel pless
ge ois
Ġtort ure
S k
Ġch rom
arg v
ene z
Ġball ot
Ġc el
dis covery
ĠF ried
Ġ" --
Ġut ilities
Ġhe ter
Ġby tes
Ġmut ually
Ġemb ody
Log ger
Ġimpl icit
ĠCor inth
Ġindividual ity
ĠOlymp ics
Ġst ro
() ;
Ġland marks
Ġfirst hand
sh ine
ĠPat ri
ĠG host
ĠA x
Ġreport ers
Ġillustr ated
ĠBalt imore
ĠPortug al
Ġa rose
Ġvisual ization
Ġmar itime
W A
ĠInflu ence
Ġincorpor ates
ĠFor ces
ec hes
Ġw rist
ĠMarsh all
Ġindirect ly
Ġ197 2
Ġtun nel
Ġmisunder stand
Ġevolution ary
ĠP un
Ġliv est
Ġ- --------------------------------
f amily
ĠP O
Ġhapp ily
m are
Ġl od
qu et
v ings
Ġconclud es
Ġstrengthen ed
Ġha ul
- "
per t
pr ice
Ġirre levant
ĠL ang
p ra
Ġfulf il
J esus
Ġ Î
Ġmention ing
Ġtax i
ĠM ut
Ġhack ers
Ġcountry side
as ia
ass y
ĠB R
Ġout rage
Ġtensor flow
Ġun law
Ġref usal
Ġdep uty
Ġtri ple
ert ation
ĠR oth
TH ER
Ġsculpt ure
ate ur
it ating
Ġequ ip
Ġbas eline
Ġimport ed
ĠA round
Ġc ush
Ġrepl icate
Ġexpend iture
Ġmetabol ism
ĠL ane
Ġspecific s
Ġinn ate
output s
Ġabsor bed
c ils
Ġfig uring
ins ula
Ġanim ated
ĠWal ter
c reated
Ġp ine
Ġab dom
Ġd essert
ĠL P
Ġrad ar
um ers
Str ateg
ĠPh arm
Ġus ername
ad i
ĠInd ependence
ĠA w
ĠDef ault
t ags
Ġn ails
ĠI gn
Ġp ile
ĠDise ase
ĠNev ada
Ġmight y
Ġlib ert
ĠDo ing
] ['
Ġneuro log
Ġread iness
Ġskept ical
Ġex otic
p ical
Ġstreng thens
r ong
ĠV ancouver
Ġpro actively
F ull
ĠAny one
ĠG and
Ñ Ĥ
Ġmes h
ĠDes cription
Ġrevers ed
ĠN ag
Ġbon uses
Ġpar as
are l
T E
Ġsl ice
ĠGo als
ĠY ale
St ar
ĠBuddh ism
des igned
ĠF alls
Ġderiv atives
add ed
Or gan
E ar
Ġchol esterol
|>#! /
Ġpat ches
met rics
Ġmanifest ation
ĠAP Is
Ġunden iable
ĠB erg
ĠSc ore
z ip
w elling
Ġhead aches
Ġsupervis or
ĠOpportun ities
B as
Ġl end
ĠE aster
m ill
Ġdepend ence
Ġrebell ion
ĠVictor ian
Ġpil grim
ĠBrother s
Ġarch ives
vel ation
ĠSche dule
ĠA id
Ġsub ord
Ġe tern
Pro cess
Ġble eding
ĠS M
ĠF C
ĠK night
Ġfict ional
Ġcoord inated
vel t
ĠCamp bell
Ġpar ish
t ry
Ġl oses
Ġpursu ant
Ġchat ting
o pp
Ġsc enery
Ġclass rooms
g b
Ġcontribut or
ing le
ĠC leveland
Ġincom ing
Ġpass ages
Ġ' _
Ġpass port
Ġcs go
all ed
P ort
ĠK rist
Ġcur tain
ĠD h
ĠF ellow
Ġpsych ologist
ĠP el
Ġdem ocr
Ġmay or
ĠLeban on
ĠGreat er
U K
E ffective
L ink
ĠF unction
Ġque ue
ĠUn cle
Ġkil ometers
ĠK az
Ġutter ly
Ġcommission ed
Ġim merse
Ġemerg es
ĠS R
ĠR ise
Ġval orant
ĠLeg isl
G ET
ĠK el
Ġinfect ious
Ġseaf ood
pat tern
c ultural
ĠB anks
Ġp or
er ator
ĠStat istics
d k
ĠGir ls
head ed
od iac
Ġcount ed
Ġfemin ine
ĠL L
Ġstub born
Ġsp ends
Ġaccompany ing
Ġadvert isers
ot ics
Ġpra g
Ġrender ing
ĠSpr ings
ĠCN N
Con clusion
St ream
ĠWhat s
G S
Ġde mentia
Ġcult urally
Ġmerg er
Ġunder going
ĠS ER
Ġfacilit ated
ixt y
Ġad orn
ĠConf ed
ĠConsult ing
Ġrespond s
Ġrep roductive
ĠOrgan izations
Ġv o
Ġfeed s
Ġsyn c
Ġinter personal
Ġtre asures
I AL
Ġ" ,
Ġrum ors
F r
Ġ198 1
Ġqual itative
p arency
im edia
ed a
am med
ig o
Ġenc aps
ĠIntern al
Ġjud ged
ĠSh i
Ġs ore
Ġhope ful
line ar
ĠST EM
Ġfore x
Ġparad ox
Ġall ocate
Ġal beit
ĠT u
ĠR ate
g el
Ġdestro ying
Ġbiod iversity
id uc
Ġtransport ed
s q
ĠUnder stand
Ġstandard ized
Ġpret end
Ġsacrific es
ro ots
C ap
T aking
Ġex quis
Ġinter val
us hes
mat ched
Z E
ĠDem on
Par am
Ġgri ev
M ENT
Ġup side
Pro t
Ġpill ars
m id
Ġun ravel
ĠPh oto
uck et
ĠStan ley
ĠGuard ian
act ic
Ġev ac
Ġtutorial s
ĠFe el
Ġdiamond s
C ost
or o
st ones
int ed
ĠLike wise
ĠF ans
Ġ197 4
ĠEmploy ment
Ġstand point
Ġacc ent
hold ing
ĠIs n
Ġir regular
Ġsound ed
ĠE ither
Ġfin tech
Ġgest ure
or ne
Ġmethod ologies
ast ype
Ġimm igrant
å Ī
Ġan om
ĠV erm
Ġdel ta
D isc
ĠAl ber
ĠG M
a que
FA ULT
ph inx
P rior
Ġref resh
Ġpra ying
Ġun healthy
s a
ot on
erc ise
ĠDown load
Ġple asing
Ġcondem n
Ã Ĥ
ĠCommon wealth
Ġauthor ization
ĠZh ang
Ġanec d
Ġincons istent
ĠCrypt o
controll ed
ke e
erm at
Ġ' -
Ġstorm s
ĠTer ms
ĠLi u
ĠH P
Ġat e
execut e
Ġun aware
Ġfab rics
oper ative
Ġst icking
Ġpol ls
mod ern
li oma
Ġeager ly
Ġcohes ive
ĠApp eal
Ġexp orts
7 00
ĠCh anges
ĠA unt
Ġse ating
ĠVis itors
Ġsampl ing
Ġ7 00
iz ar
Ġ197 1
ĠRob in
direct ory
Ġsens ible
x ml
ĠAl ice
G old
Ġout right
Ġc ad
Ġse iz
d m
Ġpsych iat
Ġphilanth ropy
Ġdon ated
er ion
Ġstere otypes
count ry
ĠL ag
w hether
Ġartic ulate
Ġphilos opher
Ġn arciss
Ġ196 9
D ue
Ġun belie
Ġmet er
Ġ[ ...]
st ation
j e
Ġspecial izing
Ġvir uses
Ġo m
Ġgovernment al
omm y
Ġ6 2
Ġcooper ative
Ġpiv ot
s ky
Ġdesper ately
Ġoptim izer
Ġexhib ited
Ġdem ol
am bers
t ier
Ġprivile ged
Ġcan ce
ĠNFT s
ĠMat ter
g rowing
le ad
ĠG A
Ġm as
Ġp ave
Ġtack ling
ĠB urn
Ġev oke
Ġp ests
ĠDougl as
Ġr ivals
dec ode
Ġcircumst ance
ograp her
Ġsuccess ion
sen al
Ġins ulin
ĠG round
Ġstring ent
Ġcha otic
Ġcomfort ably
ĠLiver pool
e lement
Ġsh ining
ĠIns ights
ĠF at
Ġgen etics
ĠE ye
yl um
Ġsc roll
Ġresid ency
Ġtour naments
ĠChar acter
ĠC ell
ph ony
ĠEx ness
M aster
ĠState ment
ĠV iking
Ġnot ified
Ġpredomin antly
Ġk its
Ġin box
Ġwork load
othe lioma
Ġse as
oose velt
Ġ197 8
Ġ196 7
ĠIn n
x iety
arm ing
ĠP in
al pha
Ġ197 6
ĠNor way
he ll
!! !
ber net
ĠThanks giving
av an
v ari
Ġapart ments
Ġsex ually
Ġp ist
ĠMarket s
c f
v iol
"] ["
ĠPort land
Col or
Ġreinfor cing
ĠIm perial
Ġreflect ive
oc hem
Ġobject ion
ĠPortug uese
C y
Ġgl orious
ĠT ensor
Ġcl ues
Val id
Ġcor rid
M W
ĠPre vention
ĠTr inity
r h
Ġens l
be h
Ġaccident ally
ble ms
ĠEv olution
ĠF resh
Ġburd ens
ĠU X
at ivity
Ġwas ted
he a
Ġc ues
V er
m ove
Ġconver ting
cont rib
Ġep it
ĠRed dit
ĠY ah
al one
ĠR ing
ou ter
Ġtrans mitted
Ġw ool
f ake
S en
Ġperpet u
Ġwhere by
ic iary
u z
Ġse ized
Ġtou g
ĠW alk
names e
Ġdep rec
Ġacknowled ges
ON E
Ġbeat en
20 14
Ġfemin ist
Ġ5 9
nd array
ist ication
ĠH air
ĠH arm
ĠG er
ĠAutom ation
Ġris en
Ġgra ins
u h
Ġyoung est
ĠT s
b low
Ġcoll ision
Ġmis information
st ats
Ġrock et
Ġtra it
Ġadoles c
ĠMount ains
Ġpil ots
Ġst icks
tain ment
Ñ Ģ
Ġsil ly
our t
Ġdirect ing
Ġactiv ated
m ac
Ġintern ship
Ġwall hack
Ġmaster ing
Ġamend ments
ĠInvest ing
ware ness
Ġdivid ends
iv an
Ġunw illing
ĠMad ison
Ġwrest ling
Ġmark ers
Ġchang er
Ġan at
ĠAp ost
ĠPro per
Ġhoriz ontal
ĠList en
met a
ĠL ORD
ĠRog er
Ġmed ian
Ġdistur bing
ĠBarb ara
Ġeng ages
Ġs ourced
Ġcho oses
Ġnation ally
ĠVis a
N D
ĠSer ver
ĠF ear
ĠR ol
ol ics
ĠR V
Ġpion eer
e ks
Ġlit eral
Ġweek ends
hed ul
Ġrevolution ize
Ġexerc ising
Ġsupposed ly
bet a
Ġw ives
ĠSupp ly
er able
Ġfacilit ates
Ġreact or
cept ive
Ġfe ather
Ġunh appy
ac o
AI L
iz on
Ġbe verage
ĠStart ing
f inal
Ġtra der
Ġfac ets
Ġfit ted
ĠEx ample
ĠGra duate
Ġd oses
Ġow ed
ĠF el
Ġment ality
V ol
Ġexperiment ation
ĠFirst ly
ĠMar ie
Ġre venge
Ġwise ly
Ġreim burse
sh ort
Ġs aints
ord able
. *
Ġdecl ining
ĠĠĠĠĠĠĠĠĠĠĠĠĠĠĠĠ ĠĠĠĠĠĠ
Ġarm or
Ġhurd les
A ff
Ġun real
o op
Ġgrab bed
Christ ian
ĠR ound
Ġcompr ised
Ġste wards
Ġf a
ĠS alt
Ġimpress ions
Ġback bone
Ġc hess
amil ies
Ġsche ma
R ich
Ġp ear
Ġf art
ĠF H
Ġorgan isms
pr ivate
ĠSw ift
k n
ĠA CT
Ġbl ues
Ġch asing
Ġc it
ĠSwed ish
Ġgreat ness
Ġexecut ing
ĠB right
ric ing
ĠB illy
lo op
Ġvis ions
ĠS yn
s afe
ĠDub lin
test ing
d ers
Ġcan on
T y
Ġdis k
Ġconcert s
ĠJ unk
ash a
amm atory
Ġbr ighter
ĠClass ic
Ġint ro
Ġmount ed
ĠD ance
is ite
Ġexecut or
Ġf iring
ĠBanglades h
ĠSy rian
hood s
Ġmyster ies
Ġwhat soever
ĠC raft
Ġmem br
Ġin expensive
Ġ10 1
Ġde er
Ġfree ze
Ġrecycl ed
ĠBeaut y
P age
ĠCl ar
Ġcul min
Ġinstruct ed
ĠFil ip
Ġcontact ing
ĠBer keley
Ġacquis itions
zz le
Ġdescend ants
bernet es
d ates
Ġst airs
ĠN G
ĠJ in
Ġcomp elled
res pect
lis hes
Ġhum idity
Ġagg ress
ĠNe ither
Ġ6 3
ut er
om eter
ĠVol unt
uls ive
Ġg ifted
sel s
Ġqual ification
ĠGu y
Ġende av
h alf
Ġthe at
D em
ĠS N
l ove
ask et
ĠRe ality
Ġspe ar
! '
ob ic
Ġob esity
ean or
il ib
an ic
ĠG ates
oc o
ĠX i
Ġsoph istication
ĠP TS
Ġd umb
Ġtransfer ring
T om
Ġremain der
Ġdivid end
Ġind el
Pl us
est ablished
ĠCh ron
ĠS olution
qu estion
Ġrese mble
ĠGerm ans
Ġcorrespond ence
Ġdiagn ose
Ġgener osity
atto os
Ġassemb led
Ġarbit ration
En ter
ount ain
Ġp aved
Ġmitig ation
ĠP ant
Ġl azy
ar cer
x it
Ġenthusi ast
E urope
L aw
Pro ject
fl at
ist ency
Expl oring
M a
With in
Ġpl ed
H C
os ion
Ġdr ones
ĠK an
ĠO t
og ram
ĠIsa ac
ĠAdd ress
Ġthreat en
Ġmarginal ized
Ġaut umn
******** ********
ar us
read ing
it als
cel ona
ĠW ere
od ium
R ev
ĠEth ics
Ġheart felt
ĠTe ams
ĠGh ana
ĠGo ing
ĠFact ors
L OG
Ġcelebr ates
Ġpr ud
alg ia
ĠSh ah
ĠSte wart
Ġup ward
ĠH end
Ġsub conscious
Ġl ord
ĠMor oc
It em
ground s
Ġmer its
Ġpriv ately
Ġdet ox
Ġcapt ivated
Ġirrit ation
Ġopt s
Ġconsequ ently
ĠDep ression
b b
Ġunder way
ob ia
Is rael
ar ium
Ġmir rors
Ġin sec
Ġtact ic
P ass
d og
ĠMit chell
Ġth under
ĠF ab
ĠHim self
ĠM orm
ĠD A
Ġnot ions
form s
Comm un
ĠResp ond
off set
Ġbehavi ours
Ġlegisl ature
Ġd orm
app ly
at ches
Ġstret ching
if eration
ĠC E
ĠRet ail
Ġle mon
Profess ional
Ġneed le
ĠAust ria
ĠPark er
Ġexc av
to kens
12 3
Ġrh ino
r ality
Ġannoy ing
us p
ĠN ord
th al
as a
urs or
Ġt ones
"] .
al king
Ġl ou
Ġlone ly
Ġb ump
Imp act
requ ency
S ection
ge x
Ġbe e
Ch ris
Ġamaz ed
Ġremind ers
sec ret
ĠSt adium
Ġs erm
ĠO ri
= -
ĠWay ne
ĠB ring
ĠLaw s
te enth
Ġpass words
ĠA bsolutely
Ġteen ager
O p
gra ding
Ġneglect ed
ĠInit ially
] ):
Ġhazard ous
art ered
Ġmasc ul
Ġinclus ivity
o j
Ġpolicy makers
Ġspread s
ĠUs ed
ĠK ay
Ġgen ocide
Ġpossess ed
Ġpredict ing
ru ed
ĠR oosevelt
w oman
Ġtraffic king
Ġint est
Ġdeal ers
Ġexcept ionally
Ġprem ature
__ )
Ġdisplay ing
Ġrequest ing
ĠPro ced
aut o
Ġgod dess
Ġstead fast
ĠAppro ach
ĠComm ons
cer pt
Ġprophe ts
Ġval ve
Ġproud ly
ĠS ale
Ġend ors
own ers
ĠG ill
it ted
Pro duct
Ġcourt esy
sc ope
Ġjudge ment
S che
ĠS pect
B rand
ĠInc orpor
ĠCh a
as ma
Ġsimpl est
Ġins ane
Ġher b
gr at
ĠO racle
Ġdiff ers
ĠF ant
Ġ' ,
ĠArgent ina
ĠNY C
Ġconsult ations
S elf
Ġearthqu ake
un ned
Ġmort g
Ġreluct ant
icult ural
â Ĺ
Ġdark er
th ree
Ġcomprehens ion
Ġdownload ed
Ġnew com
ĠF ine
Ġforecast ing
Ġcoh ort
R ES
ĠSet ting
Ġprivile ges
S equ
Ġbrand ed
ĠCost s
ou p
ĠF ame
ĠCom plex
she ll
ĠC ool
Ġit iner
icular ly
Ġmar ital
ik o
Ġdisrupt ive
ĠCP U
Ġinfer ior
Ġinv oice
or able
ĠAct s
ĠDec ision
N O
amb oo
Ġcre ations
Ġtaxpay ers
Ġshall ow
ear chers
Ġaccum ulate
Ġdr unk
an cies
ĠL anka
est one
Ġconsist ed
c red
Ġatt r
Ġp ant
Ġfe ared
OU R
Ġsp oofer
ĠD raw
Inc re
ĠMarg aret
ĠS ams
Ġw oven
S am
Ġcommun icated
ew orthy
Ġill ustration
Ġtempt ation
wind ow
Ġroof s
Ġenrich ing
er ie
Ġbl oss
Ġpharm ac
ĠParam eters
sh ould
ĠF ly
Ġpreval ence
Ġcous in
ĠMar vel
s aving
Ġrun ner
ĠTy pes
Bel ow
om i
m us
Ġc iting
Ġthank ful
Ġgroom ing
Ġrem od
t ent
S oft
ĠFl ore
Ġsil k
re lu
ĠĠĠĠĠĠĠĠĠĠĠĠĠĠĠĠ ĠĠĠĠĠĠĠĠĠ
ial og
ĠWhe never
osex ual
t ml
charg ed
Ġcy l
Ġbelie ver
Ġactiv ate
oh y
met ry
y ll
Ġbus es
Ġlad der
` .
al ine
def ined
Ġpr ince
F ound
sk i
l it
M en
ic ient
st at
Ġpion eering
Ġsyn chron
Ġt ile
Ġpo ker
Ġbree ze
th ora
k ernel
ju ven
T P
(' /
ĠExcell ence
ĠC red
ev olving
Ġ19 45
sh adow
Ġl ion
ĠM ent
Ġeld ers
Ġlow ered
Ġexperiment ing
a uses
Ġd io
Ġacadem ia
Ġcult ivated
ĠC ab
ĠP ad
Ð ½
l ied
k m
Ġcomm ence
op hers
en es
m oil
ĠB ear
Ġp our
Ġconqu er
Ġmim ic
ri k
Ġmurd ered
Ġjo kes
function al
ĠN ar
ĠTh inking
Ġunit test
ĠK ash
ann ers
ĠBlock chain
ogn itive
omm end
OD O
med ia
ĠConst ant
Ġreward ed
ustom ed
ĠSn ap
Ġse ize
Ġsynthes is
Ġlist ener
Ñ ģ
ver ts
ĠPolit ics
ĠReg ion
Ġp oured
Ġwork outs
Ġstr ides
St atus
ii i
S O
am el
Ġdecor ated
hel per
c ience
Ġd y
V A
! ).
Ġpron ounced
Ġschol arly
Ã³ n
ine e
Ġreson ated
ĠSpirit ual
ĠPers ian
b efore
E p
__ ":
Ġqu ad
Ġcoc onut
Ġing en
n c
Ġa ura
Ġhes it
with out
dra wn
Ġfat ty
Ġtend encies
Ġic ons
ĠE lement
Ġtwent ieth
Ġtur b
ĠViet namese
Ġtaxpay er
ĠPTS D
Ġfavor ites
ed u
Ġunder gone
Ġsuccess or
Ġexceed ed
Ġl ined
bi as
it iveness
ĠGem ini
et a
Ġins ist
Ġapp ar
Ġres ide
Ġautom ating
Ġesc aped
osp ace
ah o
Similar ly
Ġdon ate
ish ops
ilt ers
ĠEm ma
ĠFour th
b us
Ġdeep est
~~ ~~
Ġes p
ĠPar ad
ĠE dition
ĠSt age
ĠRequ est
Ġeconom ists
al er
Ġse rene
Ġsuspic ion
Ġshel ves
) ).
Ġl ane
im ag
Ġdes cent
em porary
occ up
Des ign
Ġbicy cle
Ġro pe
Ġcal ming
Ġinstitut e
Ġv inyl
R ober
ou ble
Ġto dd
Ġevent ual
Ġfav ored
ĠLast ly
Ġche f
Ġm ice
Ġdebt or
z heimer
ĠColl ins
ster dam
port ed
Ġdecor ative
ĠConnect ion
Ġpresum ably
Ġ1 10
Ġroutine ly
ish a
Ġinsp ir
Ġblood y
ĠPr incess
ĠD ating
Ġremember ing
Ġeat en
N G
Ġnum b
Ġ6 7
Ġun fore
oot s
col lect
ie re
Ġrespect ing
Ġlingu istic
ĠCh ile
Ġreflect ions
om as
act ivity
ĠT ool
ĠM ap
Ġexp osing
Ġnutri ent
ĠCh ain
Ġc ough
stand ard
Ġlive li
Ġ197 7
ĠCon vers
static method
Ġcivil izations
K S
Ġsecret ly
Ġdial ect
Ġeth ic
Ġdish on
Ġquestion na
Ġbel ly
Ġcand y
out ing
Ġple thora
Ġcos mic
ĠEconom y
Ġtim ber
t z
Ġa kin
ĠBr un
Ġun just
ĠÂ »
Ġarbit rary
Ġrecover ing
Ġstra ins
ĠArchitect ure
Ġinsure r
p al
Ġfasc inated
ut ing
H ar
l av
s ort
Ġhard ship
ĠSpot ify
Ġk not
p resent
ener gy
Ġstaff ing
Ġdig ging
Ġch lor
ĠH az
Ġrec reation
ĠO w
Ġshare holder
in qu
Ġpers istence
F riend
' }
ur ations
ĠMur ray
in os
B esides
Ġcalc ium
Fin ancial
Ġlear nt
Ġconce ived
ĠS ent
ĠCh oice
Ġâ Ĩ
ĠMad rid
Ġcont amination
Ġborrow ed
Ġp seud
Ġgl am
20 12
Ġpharm acy
Ġconvers ational
ĠJim my
Ġthe or
ĠF isher
ig g
Ġmot ives
Ġlau ndry
Ġback end
Ġrefuge e
p oke
Ġimport s
Ġp ap
Ġbe am
Ġad hering
lic op
Ġtest osterone
as ers
Ġcapac ities
ers ion
Ġroll s
plot lib
ĠL ost
Ġpref ix
b order
c p
Ġthick ness
ĠF ro
Ġheaven ly
dir name
ĠZ one
Ġrepe ating
ĠM atch
cle ar
irming ham
Ġindel ible
st orage
ĠUS B
Ġdeterm in
Ġtrou bled
Ġdef enses
ĠProtest ant
Ġterrit orial
Ġspe eches
Ġtre k
tr ust
Hand ler
ĠGrow ing
Ġsanct uary
ĠPu erto
cript ions
st ru
Ġenact ed
ĠEnc ourage
Ġteam mates
ĠInteg ration
ĠF ounder
ĠTra ck
Ret urns
Ġn ucle
ĠBrand s
Ġprob able
c ross
Ġlab s
ĠNew ton
Ġvari ants
ĠL it
co ins
Ġprovin cial
Ġl enses
st ery
ĠPhil osophy
ĠW ant
Ġmiss ile
Al ong
let te
Ġpick le
Ġsu ck
. :
d egree
j ar
Ġbra ck
Ġthrow s
G reen
own er
ĠPost ed
iv able
Ġlon eliness
ĠClick Funnels
ĠPro blem
ĠPlatform s
G P
Ġcl ips
M AN
ĠC amb
ĠIdent ity
Ġstud ios
OR S
i w
ĠPrem ium
Ġ ip
Ġopp ose
Ġt ide
Ġ6 8
Ġthe e
Ġmaster y
Ġmagn et
Ġimp osing
Ġdiam eter
Ġt s
OL D
Ġpart nered
ĠT ob
enez uel
udden ly
Ph oto
ĠNurs ing
Ġdispro portion
En h
pack age
ĠL arry
N OT
Ġdry ing
Ġbom bs
Ġexist ential
or ce
ĠTransport ation
Ġsw itched
Ġwitness ing
Ġpot atoes
Ġminor ities
I ts
ĠMil an
Ġcomplement ary
iv ism
Ġsp acious
ĠInt roduction
ĠInvest ors
sec ured
Ġlength s
Ġclear ance
f rames
Ġwar n
C or
Ġwh istle
Ġassum es
ĠCap itol
S ER
umb ai
Go vern
Ġbl ast
ĠSt orage
empt y
ĠCompet ition
g reat
ĠO pp
Ġch ore
ĠAss istance
Ġcontract ual
D ist
Ġd ip
ĠDak ota
ip ation
Ġaffil iated
nder ing
Ġfrank ly
Ġtur moil
ĠI l
Ġcred ited
ing les
ra ment
Ġestab lishes
ĠTe acher
Ġs ocket
ve t
Ġres ervation
Ġch ick
est ly
Ġemp irical
in arian
Ġutil izes
Ġinter im
det erm
exp ression
Ġveget able
ĠEmb race
ryst al
b uffer
support ed
Ġconv ictions
Ġmis use
infl ammatory
Ġbour geois
T erm
ĠMaterial s
Ġauthor itarian
ĠT un
Ġoverl ap
ĠPlay er
ĠRe agan
Ġc ups
ĠTe achers
Ġcomput ational
ĠRuss ians
Ġdu ct
Ġsp anning
ĠInit ial
Ġ196 5
F E
Ġtext ures
Ġwe ed
Ġc md
Ġcatast rophic
re str
j ah
ĠAt hens
Ġdam n
ĠM ine
Ġc ram
unct ure
Ġintrins ic
old ing
ur ous
Ġsculpt ures
Ġforecast s
Ġswe pt
alth ough
ram id
uc ing
ĠCom prehensive
he im
Ġgentle man
Ġtum or
c ook
Ġj aw
ĠPitts burgh
Su ccess
Ġdep ressed
Ġn aval
ĠF ramework
te x
Ġp addle
20 13
Ġuncertain ties
ĠLaw yers
ĠExper ts
ĠXia o
oo lean
ĠB row
ĠG am
ĠAth let
ĠIn v
Ġsem inars
Ġexce eds
Ġteen age
Ġt mp
ĠC risis
ĠIS O
C s
Ġhe licop
Pro gram
Con f
in burgh
Ind ex
r ational
ĠNep al
ĠM all
Ġf ats
ĠL oad
ĠDemocr at
ĠÂ ©
pre p
ĠW atson
Ġvigil ant
Ġdet rim
ĠI an
N Y
ĠJud a
ĠP erm
ver ages
ĠP eters
ach t
Ġgar bage
H ello
ĠOl iver
Ġra ys
Ġpo le
Ġ6 1
ien na
Ġgluc ose
and ing
ĠBelg ium
ĠJer ry
Ġab used
Ġrest ing
Ġ196 4
Ġf og
|> .
Ġcustom izable
ĠD ow
t uple
_ (
Gl obal
ĠL odge
Ġroll er
Ġhead line
B ro
itut es
Ġexquis ite
ang a
Ġinc arcer
V I
Ġdism ant
te chn
Ġvision ary
Ġn aming
p se
pract ice
Ø §
Ġmin ers
Ġdem ons
ĠB ath
Ġmod eration
Ġoper a
Ġin security
Ġsupp lying
'] [
ĠSc orp
Ġto mb
Ġbe es
ed it
Ġfore see
Ġexpans ive
Ġst igma
de ep
Ġnews letters
Ġbi om
Ġm elt
Ġnom inated
l ated
Ġblue print
down load
Ġinaccur ate
Ġconsc iously
Ġback ward
Ġcancell ation
ĠHis pan
Ġre claim
Ġregul ating
Ġhy dr
Ġinf lict
Ġair lines
Ġon set
b ai
Ġint ra
Ġmar riages
Ġcompr ises
ĠH ait
lim it
Ġbefore hand
IL ITY
Ġwar rior
Add ress
25 5
D s
Ġdistract ed
ĠRo lex
á ¹
Ġdream ing
c d
ĠSpecific ally
Ġpit falls
ell i
Ġca ffe
Ġgradu ating
ĠBar celona
iar ism
iv ial
rown ed
M ap
Ġimmort al
vol ume
ĠR idge
ĠL O
Ġast hma
ĠSt atus
Ġdrain age
ĠS hen
Ġdemonstr ations
M art
ĠCra ig
Ġsh ades
Ġeduc ator
ĠImport ant
im ination
ĠGr iff
ĠAr ist
om atic
Ġper me
ĠAr g
Ġneighb oring
ĠW E
Ġdetail ing
iduc iary
Ġproject ions
Ġcolon ies
Ġe cc
lu x
h ou
Ġc ried
20 10
Ġintertw ined
down s
is ans
run ning
Ġint oler
t imes
V AL
optim izer
Ġrem inis
Ġdiss ertation
c irc
Ġadvis er
Ġb ent
S at
C am
Ġdepend ency
ä »
ĠCl ay
ohy dr
Ġph ishing
Ġg ly
eg le
ĠIdent ify
Th ird
Ġste er
pro perties
Ġaug mented
Ġat he
Ġtur bul
Ġback yard
ĠProg ress
Ġbl oom
reat ment
ev a
ĠRem oval
Ġfact ual
Ġdeb it
Ġst aring
Ġline up
Ġpre aching
ĠM T
ĠL ex
Ġacc ustomed
ĠSing le
ra ises
ct x
w ra
ĠAltern atively
Ġper ipher
A ust
ĠR ange
Ġbe ats
Ġcru c
Ġdetrim ental
Ġcon grat
Ġsett lers
Ġ1 30
Ġ" \
Ġb aked
Ġwa ist
Ġg ems
Ġresear ched
ĠDel aware
in clude
urn ed
Ġright ly
Ġ19 00
Ġbl ends
ĠP oll
ĠW ol
Ġtempt ing
ps hire
Ġsh ines
Ġv on
ĠAn im
que ue
Ġprophe cy
Ġinter mediate
ĠI L
J o
AR Y
ĠC ult
Ġcan cers
E ss
ef it
Ġwhere in
ĠF al
Ġref using
Ġexceed ing
Ġreal ms
Ġper secution
ros pective
M arch
ĠF ight
ĠTe a
Ġrul er
in vest
ĠDou ble
re view
dis play
Ġgrant ing
æ ľ
V R
Ġhas ht
Ġsafegu ards
Ġblow n
S ystem
en code
re v
ĠH ud
S pecial
Ġfur ry
Ġr ushing
Ġsp ices
Ġm u
ĠCent ers
To ken
ĠLe ave
Ġshout ed
br inging
ĠProv iding
Ġen qu
clud es
Ġgar lic
Ġdisadvant age
ĠRest aur
Ġb ore
it ures
Ġapp re
ai ro
ĠSy mbol
c i
ĠPrim ary
Ex ecut
Ġprep ares
and om
O ptions
ĠApp ly
Ġelimin ates
Ġcatast rop
ĠEnter tainment
ad vert
Ġsub process
Ġ18 00
ĠEv idence
Ġrul ers
Ġhop eless
Ġsp y
ugg age
Ġout ward
ĠJ iang
Ġfort nite
ĠLiter ature
Ġnot eworthy
Ġrust ic
ĠWhats App
Ġbi ased
ĠScient ific
ĠTreat y
ro be
j our
Ġcondem ned
Man ager
et own
Ġbe verages
Ġlack ed
ĠInteg rity
ru le
Ġinter vals
Ġmon itors
ĠProject s
bel ief
Ġcooper ate
ĠNob ody
Ġwas hed
ĠEffect s
F our
Ġacc ol
ĠC abin
ent ity
Ġt ense
ĠI F
Ġhandb ag
Ġbar rel
Ġinf amous
ĠHall ow
ud s
ĠCh i
Ġepid emic
Ġpain ters
Ġbo oth
Ġ12 8
Ġgest ures
ĠP oor
Ġo v
Ġanal ogy
Ġdesc ript
Ġredu nd
per forming
represent ed
Ġit eration
Ġninet eenth
Ġcur b
TY PE
ĠG ot
Ġthink ers
Ġdio xide
Ġdiss ent
m ember
Ġl os
S l
Ġw oke
ĠAl zheimer
ĠLet ter
P lay
Ġprev ailing
ist ine
ref erence
Ġf t
Ġer ad
Ġscript ure
Ġthere after
ĠNob el
Ġfl ames
Ġtrans act
Ġhe ater
commun ications
Ġdeal ership
ĠArk ansas
ĠEv ans
ĠRec ently
Ġumb rella
ĠS ell
Ġexplos ive
ĠCert ificate
er vers
h unt
Ġch im
ĠAdv ance
Ġfun c
P ut
ĠBo ost
ĠLaw yer
ĠN A
t aking
Ġinter rog
Ġv ag
Ġtransc ends
ĠCath olics
Ġmetab olic
J une
ĠN um
ĠHom es
pl anes
res et
A h
Ġint roduct
ĠSt orm
ung le
Ġrab bit
Ġan k
Ġabsor ption
or ically
ĠDecl aration
Ġt asked
Ġconf ron
ĠCal cul
R est
ĠA ges
ĠAct ivities
Ġbra ke
En s
Ġretrie ve
'] :
Ġpreced ent
og ene
Ġl ining
work er
Ġtravel er
ĠSe an
miss ible
Ġ7 8
N ET
pp e
Ġph osph
Ind eed
insp ired
pie ces
Ġbul lying
ir i
th reat
Mod ern
." ,
Ġt ier
Ġunfore seen
Ġdown side
ĠDen mark
ĠAgric ulture
ĠSud an
Ġins ult
ĠPan el
Ġsett ling
ĠD ynasty
Ġsn ack
Ð Ĥ
G raph
d t
o os
ĠA ld
Ġvel ocity
Ġspr ings
Ġpul se
Ġextract ed
ĠRon ald
Ġpert inent
W ant
Ġ7 6
bor ough
oura ble
ĠCl ients
Ġbudget ing
Ġre juven
Ġlun gs
ĠAssoci ates
ĠN ad
Ġred es
Ġprofess ions
Ġsun set
ĠPl aintiff
am y
ĠTrans fer
Ġdecre asing
Ġrecon struction
b uy
Ġmot if
Ġple a
ĠAn swer
S outh
Te chn
Ġcur se
Ġha cking
Ġu b
ĠVen ice
ĠĠĠĠĠĠĠĠĠĠĠĠĠĠĠĠĠĠĠĠĠĠĠĠ ĠĠĠĠ
A ction
Ġantit rust
Ġintegr ates
ĠH ack
ĠMo z
Ġvolunt eering
Ġcool er
Ġsh aking
ĠSur v
st airs
ĠHealth y
Ġunlaw ful
in arily
ĠH alf
g it
Ġmisunderstand ings
Ġun ic
Ġsc anning
F low
ĠA uth
ĠP rad
and o
Ġm igrants
ĠAdvant age
Ġprot otype
Ġ9 8
Q uality
Ġhy pe
ĠL ion
Ġacad emy
arn ation
ch oice
Ġ7 7
Ġquarter ly
en ic
Ġfib ers
Ġneighb our
Ġpolit ician
Ġcoll apsed
Ġs aint
Ġth irst
Ġrecogn izable
in ational
ĠR is
Ġcl an
ĠWal mart
æ ķ
oc aly
Ġide ally
r oute
Wh ite
Ġshed ding
ĠDel ivery
ĠV enezuel
Ġcomp ression
ĠB irmingham
ĠD ental
Ġcon gest
ĠSc reen
Ġv om
ĠL ing
/ .
Ġel imination
Ġh ated
ĠB enn
Ġban ner
process ing
ri ans
ub ric
Ġviol ate
Ġpain ter
Ġb ang
le ys
Ġenlight enment
W atch
d river
els h
om er
Ġstim ulating
ĠL an
ĠR uth
P rom
feed ing
ĠClin ic
Ġg y
Ġterror ists
Su per
ĠRegular ly
Ã© s
mod ules
s ers
Ġheav ier
g pu
whe el
ĠAut hent
Ġacoust ic
ĠCh arter
H i
G ER
ĠG un
Ġcounter feit
od ia
f ramework
ĠAm sterdam
ĠCitiz ens
Ġastrolog y
A pril
c ott
Ġmaster piece
uck ed
requ ired
r ators
Ġqu art
Ġm ines
ĠB ak
Ġswe eping
Ġpin point
Ġrev ival
ne eded
Ġcol ony
n osis
Ġcapt ivate
Ġst agn
ling ton
struct ured
ha o
Ġ> >
ĠC reation
Ġexp ands
Ġp umps
Ġch unk
Ġopt ing
ĠAr n
Ġenfor ced
ĠVar ious
Ġconfront ation
ric ular
ĠWell ness
Ġd ir
Ġco herent
Ġsu ms
ĠSee k
B u
Ġint ends
W ater
Ġspl end
ĠF eng
Ġdist rust
Ġblank et
ĠMichel le
mem ory
1 20
we g
Ġ 000
UT H
ilib rium
D ream
ĠRe ach
al ph
Ġsur plus
ĠV AT
ĠT X
ĠMult iple
ĠM ix
ut ers
ĠSustain ability
Ġcontext ual
Ġsear ched
Ġf ocal
ĠTechn iques
Ġreg ression
Ġdoct r
con dition
arc ity
ĠF itz
ĠL l
ill o
ĠK aren
er ick
Ġseek ers
Set ting
F amily
p ipeline
c in
Ġaston ishing
Ġbron ze
Ġcollect or
ĠF ROM
re aching
am as
Ġs ailing
she et
Ġpick up
ĠBr ig
Ġch iropract
Ġsan ction
ĠTrust ee
Ġdimin ished
Ġ25 5
Ġcompos er
Ġt ant
lu g
ĠOsc ar
ĠJ ama
Spe aking
Ġwh it
New s
Ġsat isfactory
od us
Ġspot ted
Ġh ints
Ġs age
Ġind ef
ĠMess iah
gh ai
ĠCons ervation
Ġforb idden
Ġmark er
Ġtax able
Ġp yl
Ġdivers ify
Ġend ured
Ġped iatric
Ġcont am
ĠReport ing
ĠCat hedral
Ġw itch
AB LE
Ġeth os
ĠSt alin
Ġasc ertain
ĠE lection
ĠOnly Fans
W E
M iss
Ġ9 6
m el
Ġdoub led
Ġform ulated
est on
Ġb er
ĠCh ang
ĠPat ients
accept able
Ġre n
ns ic
B ES
Ġmitig ating
Ġembod ied
ĠC arm
pro p
Se pt
ĠTe leg
L U
wh y
o ffic
p ick
Ġend point
tim estamp
L R
Ġslow ing
ut t
Ġaccus ations
Ġspirit ually
if est
ĠInvest ig
Ġdilem ma
olic ies
Ġgad gets
pre m
Ġmortg ages
Ġillustr ations
Ġkid n
Ġrespond ent
Ġref ining
ĠMur phy
Ġs id
Ġnight mare
int o
ann on
Ġ8 8
Ġcl ue
Ġinqu ire
v ars
em ade
Ġiss uing
Ġnom ination
ĠAd just
Ġcapital ize
back ed
ĠPot ter
Ġsp inal
Ġsof ten
ĠF ailure
ĠHigh way
Ġsuperf icial
Ġvisual ize
ific ance
Ġcryst als
ĠB uck
Ġn as
Ġc ott
ĠBar ry
h ole
gener ator
Ġbelong ed
sh aring
12 8
ĠImpro ve
Ġinvestig ators
be y
Ġrem oves
Ġpro claim
p b
ĠSk in
Ġderiv ative
m ess
Ġparad ise
Ġfab ulous
hand le
ol ith
e ered
P op
Ġmiss iles
Ġunder w
ĠBaby lon
V ideo
h ad
ĠB A
Ġuns afe
Ġstress es
co h
ĠA wareness
Ġgl oss
ĠType Error
Ad v
ĠK os
tain ed
Ġmeas urable
Ġinvas ive
ĠCirc le
Ġadvantage ous
ib an
aster y
Ġdress ing
F urther
u pp
Ġsu ng
im ming
Ġampl ify
Ġnost algia
Ġcompliment ary
Ġrev ital
ĠCh ase
amm ers
Ġview point
Ġbox ing
be cca
Ġ" -
ĠHallow een
Ġtime out
rad es
Ġp anc
IT E
arent ly
h ook
Ġat omic
Ġcr ude
Ġor bit
Ġestablish ments
ĠL ives
Ġsocial ism
Ġadv ising
Ġbetray al
Ġel astic
Ġwar riors
Ġpos itivity
ĠAdvis or
ĠEd inburgh
rupt ion
Ġab usive
Ġur ging
ĠM umbai
Ġe uro
Ġc av
Ġv oy
Ġrecip roc
Ġqu eer
Ġfool ish
Ġconstruct ing
Ġtroublesh ooting
west ern
T I
Ġwh ites
Ġple as
' {
Ġachie vable
f an
ĠK urd
Ġpuzz les
Ġsl ides
Ġorient ed
Ġafore mentioned
Ġbook ed
ĠMc Donald
ĠW ait
ĠD iversity
ie ce
he x
Ġselect ive
Ġrandom ly
ys on
Ġcompl ained
ĠĠĠĠĠĠĠĠĠĠĠĠĠĠĠĠ ĠĠĠĠĠĠĠĠĠĠĠĠĠĠĠĠĠĠĠ
ĠPer ry
ĠP E
roll ment
Ġfe ast
che my
Up date
Ġvirt ues
k ar
Ġendorse ment
Ġdiscipl inary
ĠN av
Ġinterpre ting
Ġcompens ate
ĠTh r
Ġst air
Ġsl ots
Ġcheck list
ĠCoun ter
Ġt attoos
ĠF ul
Ġh tml
ĠMet al
Ġmon uments
am ount
ĠRich ards
re lease
ic ator
her ic
Ġ40 1
Ġun ite
Ġsp a
ĠQur an
ĠCo aching
ĠInf rastructure
Ġsm iling
Ġadjust able
hes is
Ġpsych ic
ĠEss ential
oc ative
Ġne uros
ĠW onder
Ġ6 9
Ġunc overed
st ant
Ġtun ing
Ġdec ree
Ġgard ening
ash i
Ġcon ventions
Ġdis gu
Ġshort ages
Ġal i
Ġpost p
Ġgl or
ĠA zer
Ġcommun ist
hand ed
ĠAc cept
Ġm ate
ĠB anking
ern s
ĠSec ure
success ful
f iction
ĠAcc ident
20 11
Ġnational ism
Ġsubsc riptions
ĠD M
Q ue
Ġdu o
Int roduction
cl uster
Ġur ine
Ġham mer
are a
ĠDar win
Ġupgrad ed
it ous
Ġcom ics
Ġmess y
Ġpromin ence
ut able
Ġget attr
t ax
er rors
ĠC M
AN NE
ĠFin n
Ġm und
ber ries
V s
Ġrest ruct
f ty
Ġn erves
ĠVen us
Ġreb uilding
Ġcust od
Ġar thritis
com b
Ġm alf
ĠVeter ans
Ġn ause
Ġsk etch
Ġacclaim ed
Ġbenef ited
Ġele ven
Ġoccup y
ĠG ov
Ġk in
Ġreinfor ces
Ġlivest ock
Ġdecl aring
Ġfire arms
Ġgood bye
ĠSams ung
Ġworld view
Ġpersu ade
Ġbread th
Ġhur ry
ĠN athan
ĠC elt
Ġmaneu ver
Ġcont empt
Ġinter disciplinary
Ġimprison ment
ĠPar ks
Ġso ber
ĠTor ah
Ġtrain ers
Ġconvenient ly
Ġrival ry
Ġprec ip
P olicy
Ġmaj estic
ĠB ir
spe aking
ĠCond itions
Ġevol ves
roll er
Ġcer amic
oun ge
ĠAll ow
Ġflaw ed
Ġcross fire
ĠSil icon
Ġlaw makers
Ġobsc ure
oll o
ĠRep orts
Ġresent ment
im eter
Ġjo ins
Ġfamiliar ity
Ġsuper market
ĠInj ury
Ġsw all
ĠMont ana
M ind
ĠNo ah
Ġf aint
Ġun even
Ġa il
b ands
ĠAr c
Ġcl ash
---- --
bl ue
m ile
ext ract
____ ____
ĠCorinth ians
ader ie
qu ant
Ġjoint ly
Ġsimpl ified
i ots
ĠPray er
Ġclean ers
ar aderie
l ings
W omen
rat io
Ġmarket places
Ġk et
Ġres olutions
Ġmigr ations
Ġmon sters
ĠIm mediate
J ob
ĠU g
log in
Ġf ade
Ġtechn ician
ĠT ODO
w id
Tr ump
Ġhust le
am ina
ĠJess ica
assert True
Ġnot ices
Ġdivers ification
el se
ĠVal ent
fund ed
ov o
Ġtoler ate
ox y
T ry
ĠMon itoring
ES CO
Ġbrain storm
Ġdiplom acy
ri pp
ĠMor ning
Ġd ire
ker as
Ġtr ump
ody nam
Ġesc ort
Ġproduct ions
Ġw ipe
ĠM ist
ĠSe qu
izar re
atic an
uten ant
Ġpro state
Ġcomp ress
with standing
oint ed
Ġobject ions
Ġdis connect
Ġterr ific
Ġtheir s
Ġdis contin
ĠM ob
Ġprompt ing
ĠIce land
Ġsub mar
Ġt ed
Ġsym pathy
Ġh ats
fig ure
ĠR ising
M icro
Ġgrand parents
som ething
ure rs
Ġe ch
Ġpersonal ised
Ġcoord inator
Start ing
ĠClear ly
Ġrep s
ĠGard ens
Ġcontinu ation
E U
Ġad ept
ĠCub an
ĠSt rength
Ġfram ed
Ġblog gers
af ety
ĠKit chen
Ġfast ing
Ġdefin ite
ĠĠ čĊ
ele ction
ĠB O
ĠK le
im pro
0000 0000
ĠWood s
ĠSales force
Ġremark ably
ĠS eg
Ġstimul us
Ġline age
h um
Ġs ir
Ġdepend encies
ĠN ancy
Ġcalcul ating
ĠCertain ly
Ġin effective
Ġr ifle
ier ra
ĠJ up
Su pp
Ġa h
ĠN uclear
Ġhier arch
set t
ĠRe ce
ram a
ĠEqu ipment
ha ul
ĠH orse
Ġsum mon
Ġguard ians
Ġcon ced
Dan iel
Ġintegr ations
ĠJ os
ĠT ow
, -
ĠHel en
Ġp aving
St ay
Ġâ Ķ
B it
es ar
G L
Ġrepair ing
Ġtim elines
ĠN LP
Ġdet ention
Ġkn ives
Ġper ks
Ġnons ense
agg ering
ĠW ire
Ġfasc ination
b ind
ĠRe form
ĠIsa iah
gener ate
Ġ7 3
ĠHer o
ext ra
m un
ĠS end
Ġtempt ed
Comm unity
ĠChan el
rec ogn
Ġ å
ĠAd obe
aa S
ĠCrit ical
N avigating
ĠJuda ism
ĠJosh ua
Ġl ymph
ĠTim othy
es ium
Ġout we
Ġid ol
Ġdecre ases
ĠAdv ice
F ace
ĠInter view
} .
P ract
ĠNut rition
ĠApplic ations
Ġpres ently
land o
ĠU pper
Ġrad i
Ġh i
ĠB rief
Ġsha ft
Ġveter inarian
ĠS ugar
ĠJun ior
Ġfilm ing
ĠC roat
e ffic
Ġbound s
art en
iqu eness
ĠL ay
ĠRequ irements
ĠJohn ny
du p
Rec ogn
and y
ĠArch ives
Ġdra fting
Ġmerg ed
) "
ĠColumb us
ĠQu arter
Ġ[ [
Ġtransform ations
it an
fl ags
ĠOcc up
Ġall iances
Ġexpress es
Ġsick ness
Ġj am
ĠNe il
10 1
Ġrecon nect
Ġessential s
Ġmor ph
Ġexpend itures
Ġr ugged
is se
Ġhum il
Ġro ster
Ġbureau c
ag les
ĠGood s
Ġrep roduction
Ġprof icient
(" --
amp a
ĠT odd
Ġtrack ed
ĠN am
ĠTurn er
ĠSpe aking
Ġar row
rish na
Ġz oom
Ġback wards
Ġpriorit izes
Ġwater proof
Ġground work
F ollow
Ġcam araderie
Ġm ol
Ġweigh ing
ĠS ag
t ors
Ġam ateur
ĠD R
Ġ8 2
Ä ±
Ġtrans plant
ĠRec ent
Ġ196 3
Ġover load
te in
but ton
Ġmyst ical
ĠAm en
A ir
Ġoblig ed
ant i
ĠHam pshire
organ ized
Ġ7 4
Ġspin ning
ine es
pt oms
Ġsubsid iary
is ol
Ġover flow
Ġad ren
Ġre iter
ĠN i
Ġreg imes
Ġamb assador
per cent
ĠW ine
Ġhead ache
s ets
Ġknock ed
sc ores
ĠĠĠĠĠĠĠĠĠĠĠĠĠĠĠĠĠĠĠĠĠĠĠĠ ĠĠ
ĠTh or
log s
Ġtwe et
Ġref uses
Ġworks pace
ĠHol land
ĠExt ra
Ġp ound
Ġpill ar
Ġmarket er
Ġphilos ophers
Educ ation
ĠR aw
Ġbl ur
Ġl uggage
ĠP le
est hes
ĠS ize
Ġun rel
ib eral
Ġpreced ing
ĠYOU R
m any
o i
id ate
c ategory
m ot
Ġac ne
Ġbur ial
Ġdivers ified
ĠRe velation
Ġun anim
Ġnot orious
ĠP i
ĠL abs
sh ire
ĠW ays
Ġsel ves
ĠAs set
Ġas ylum
ĠPh ase
Ġpe pper
ĠB inance
L in
h all
ĠOrig inal
Ġscal p
J ew
Ġch ats
Ġc yn
Ġdrive way
__ .
Ġsw ap
ĠL ever
ĠD egree
Sec urity
f ounded
Am azon
Ġtermin ology
ĠN ode
Ġcompan ionship
s ay
F eb
p it
time out
Ġdr illing
Ġ194 8
Ġb ush
ĠL ack
Ġprovin ces
role um
ĠC atherine
ĠNot es
Ġche w
Ġexch anged
Ġpay able
P Is
ĠApp eals
Ġdiet s
Ġprosper ous
Re view
Ġspr ink
ĠDem ocracy
emit ism
pro gress
ĠSecond ly
Ġgreet ed
Ġlever aged
ĠFin land
cl i
Ch apter
Ġcompar ative
ĠJO ANNE
ĠProcess ing
à ¸
Ġc ables
( **
Ġsolid ified
Ġd welling
ĠD im
ĠAccount ing
s ervices
ĠN ike
g ot
ĠT rip
ple mented
ĠJOANNE UM
M att
ĠBal ance
/ {
ist ries
Ġcan al
ĠS ah
der r
N orth
Ġab rupt
ĠSCO BES
ched el
B uy
Ġst unned
Con text
Ġmar ble
Ġden om
Ġs ab
ass ed
ach i
Ġencrypt ed
tra ined
Ġsign aling
Ġrich ness
Ġje opard
Ġpenet ration
ĠR ice
B o
Ġcompar isons
ĠB iblical
Ġvent ilation
Ġwe aker
Ġhold ings
play ing
Ġlear ner
Ġeven ly
## #
OR Y
Ġyouth ful
F uture
ĠF a
oy s
ĠK irk
Ġop io
ĠH TTP
ĠWhere as
par able
Ġ' \
Ġbl acks
ĠBeaut iful
p ages
Ġpo ore
Ġdeploy ing
un ique
pl ing
Ġs our
Ġarchae ological
Ġfl ock
ĠGree ks
ĠFor ward
AG S
ĠMy th
Ġ9 7
Ġpain ts
L ess
ĠTer ry
B P
ĠFor bes
Ġdef ended
) /
Ġpersonal ize
Ġimp ulse
Ġgot ta
y les
ĠS hip
ĠM alt
C ould
Ġassert ed
Ġexplo ited
Ġdegrad ation
Ġpublic ity
Ġcoll ar
B ank
pr im
ĠSh aring
Ġwas ting
Ġpus hes
Ġo un
ĠMerc ury
ĠP ure
ĠL ith
Ġspont aneous
P ower
Ġr ip
co ord
Ġfragr ance
Ġe ighth
âĶĢâĶĢ âĶĢâĶĢ
ĠWell s
un ed
ĠM ak
Ġ3 50
Ġsens ations
on aut
Ġproject ion
Ġpat ents
Ġcleans ing
Ġart istry
Ġmount ing
Ad am
ĠOm egle
ĠS ony
ĠTra ffic
Ġalt ar
Ġbeh old
Ġcre ep
ĠFund s
ĠEx hib
ind a
Ġc ove
Ġw ag
Ġup bringing
ĠR io
Ġtime frame
pan ies
Ġd rought
ater nity
Ġinf erence
Ġ- ---------
Ġeng ra
Ġoff enses
ows ki
ce ans
Ġfilm makers
Ġprol iferation
Ġcou ch
Sp ot
: \
Ġinterven e
Ġawak ening
con vert
ĠH ello
pro gram
the ir
esty les
Ġpl aus
Ġprocess ors
Rel ated
um ed
ĠKar l
C ore
Ġcheck point
Ġadm ired
Ġbond ing
ĠPs alm
Ġconflict ing
ĠMorm on
Ġ8 4
Ġback links
ĠChel sea
ĠR ic
coh olic
Ġemp athetic
l ang
ĠB eg
Ġdict ate
Ġdispl aced
Ġvib ration
Ġf ixtures
res ources
P arent
Ġsad ly
ad ins
check point
Ġperform er
Ar ray
ĠSpecial ist
Ġout set
Ġband width
uk i
cl amation
ĠJ uan
Ġco ff
im ir
ch ant
Ġbr ass
on duct
Ġhel m
Ġgr ind
ST R
Ġcaffe ine
Aug ust
Ġrent ing
Ġbureau cr
Ġst ared
ĠD ru
ĠTe ach
ick ets
Ġaccol ades
g ae
Ġopt ed
ĠAdvert ising
Ch oose
ĠEng age
ĠK ir
res olved
ĠRoof ing
Ġsu g
ĠEp isode
Ġh alls
Ġregist ering
ĠCam eron
ric orn
Ġassert ion
Ġpropri et
` ,
ide os
P eter
ĠTh an
S ure
ĠF REE
Ġinflamm atory
Ġw ishing
ĠV ienna
Ġvalid ated
Ġer osion
ĠEx cept
Ġwr ink
P y
ĠEurope ans
ĠS ummary
Ġt ended
u uid
Ġrep aired
ĠPrinc eton
Ġpull s
Ġsustain ing
ĠSt ars
B atch
Ġveter inary
Ġconf irms
ĠR ivers
Ġinf ilt
Ġw olf
ĠBre xit
ĠImpro ved
ĠLe v
Ġhous ed
Ġbr ides
ĠHarr ison
et ra
Ġpr inter
Ġpo ets
Ġentire ty
Ġsub missions
ĠW es
A K
Ġfl ies
Ġsun ny
ĠManufact uring
Ġmult inational
Ġso othing
e or
Ġgrass roots
pe at
Ġre ap
Ġsh ipment
Sh ort
Se lect
Ġcl usters
Ġ196 6
as per
Ġat oms
g ie
B al
or ity
ari at
Ġo ak
Ġbl ended
Acc ount
ĠA ren
Ġreact ing
Ġlong ing
ĠUn ique
Ġpol ite
ĠBas ically
ah n
Ġcl ergy
Ġe Bay
Ġdisg ust
z el
ch y
Ġprim itive
ĠF ig
ER Y
? !
Ġc ite
are tt
ĠCoal ition
Ġmes othelioma
Bl ue
Ġvol tage
ĠL ocated
ĠM ing
Ġacceler ation
or ie
start swith
ĠFlore nce
ĠSuccess ful
Ġenric hed
ra g
per ing
Ġvacc inated
Ġl ith
Ġindul ge
Ġam ino
ĠNorm an
Ġrad ically
Ġsu pra
class method
C opyright
l ip
ancell or
Ġunst able
am ents
Ġg um
emic onduct
s ix
Ġsc arcity
Ġvill ain
c ular
Mat thew
W ARE
Ġs ql
E lect
Ġacqu aint
OC K
ĠPur pose
Ġm ism
ĠBuff alo
per ature
uff y
Ġbl o
con n
Ġcollabor ated
Ġcand le
Ġ9 2
Ġpro se
ĠG oth
ĠSol omon
Ġpo ignant
Ġdispos ition
ul as
ĠPub lishing
Ġel ites
Ġwed dings
ĠHud son
L im
ĠC el
Ġproceed ed
ĠDevelop ing
IS A
ĠD rop
Ġso y
ĠCon flict
ĠPlan et
Ġvine gar
ĠCom ment
S EC
Ġfreed oms
Ġc ents
cuss ions
Ġlife cycle
ĠTH IS
ribut ions
out ube
Ġinnoc ence
Ġincent iv
the m
Ġtow ers
ĠS aints
ĠW HO
Ġind ict
Ġp estic
ot le
Ġpermit ting
re pl
ĠKe ith
ĠHung ary
Ġhomeown er
any on
com pet
Ġup wards
su pp
Ġadd itions
Ġl ump
ĠCover age
Ġcont ention
ve ctor
ĠJ i
und ing
ĠR out
Ġf iduciary
run ner
Ġhere in
Ġhands ome
Ġass im
Ġdismiss al
ĠT ut
Ġp acks
Ġmed al
Ġded uction
Ġdeliver ies
Ġgrand children
ĠC ause
ĠProfessional s
ps es
Ġhom etown
Ġexped ition
pack ages
ĠAud io
ER R
Ġt read
sy mbol
P H
Ġreve red
Ġfree zing
ĠColomb ia
ub a
Ġsh iny
ĠP is
Ġmund ane
ĠiP ad
Ġtast ing
he astern
Ġst aggering
ĠD VD
Ġethnic ity
Ġperiod ic
t oo
h im
ĠAzer bai
G T
Ġcompet itiveness
Ġsurge ons
Ġcop ied
ĠDis covery
Ġengage ments
ĠW elsh
Ġstret ches
B B
ons ored
vers ed
_ {
Ġpast e
Ġcheap est
con cat
r type
M al
iz a
ĠRecogn izing
ĠE agle
r l
Ġboard ing
Ġantib iotics
Ġorganiz ers
Ġbo ast
Ġstatut es
pe er
ĠProt ocol
ĠF amilies
ĠOper ation
dim s
ing es
ĠK enn
ĠB ag
ĠCamp us
F ocus
ear th
Ġqu ir
Oct ober
ĠAlex and
Ġhabit ats
Ġg rie
Ġmod er
qual ified
Ġde af
y ards
iling ual
Ġded uctions
âķ Ĳ
Ġinter play
Ġaccount ed
S EO
ĠPal m
Ġdispar ities
br aska
Ġs ized
Ġbund le
Ġb izarre
ĠS ame
ĠF O
Ġsuff ers
Ġtransition ing
tle ment
Ġmush rooms
Ġoverw atch
Ġant ique
Ġrel ocation
Ġsteal ing
ĠV lad
se min
Ġcomfort ing
ĠWhe el
set ter
b irth
Ġimpl ant
Ġentrust ed
ĠIraq i
Ġrec ons
Arg ument
Ġuncon ventional
ĠUlt imate
Ġsp ouses
const ruct
it ize
Ġheav ens
c hens
Ġquestion able
Ġspons orship
ĠCh rome
ĠB less
Ġp ads
est ial
Ġphys iological
ĠBern ard
ĠW ag
Ġsk ull
ev ents
Ġrem n
ol t
Ġd ermat
ĠPrinc iples
Ġadvent urous
ĠE ff
N ING
g ow
ĠM ack
Ġ3 65
Us ers
Ġto es
Ġ9 3
Ġs oda
ĠCol on
Child ren
Ġmed i
Ġp ains
ĠO P
ĠK id
Ġs ulf
ag og
op ts
ĠCo hen
Ġprogress ed
Ġsubsid ies
Ġadvertise ment
Ġreact ors
writ ers
Ġdef iciency
Ġir rig
Ġpay load
ĠMat hemat
An aly
Ġgl ue
s ummary
vis it
gu ard
M ethod
ĠCon cept
Ġfra gments
Ġparagraph s
ĠE P
L ocation
av g
ĠHar bor
ĠFact ory
Ġsurvey ed
Col umn
Ġrecon struct
Ġk ay
Ġjud ging
Ġtrend y
Ġrob otic
Ġprepar ations
Ġportra its
ĠV atican
Ġant agon
Chall enges
Ġor ph
ĠF oster
Ġ7 1
Rober t
om p
Ġ âĢ
ĠC it
Ġdupl icate
ĠEnh anced
v ic
ĠEns uring
D eb
Ġhon oring
Ġembark ed
Ġfam ously
Ġobs essed
Ġ ).
Ġun iqueness
com plete
Ġrepet ition
Ġfart her
Ġperiod ically
Ġpartic le
ĠS ME
ĠM essage
Ġrem embers
Ġric her
ĠAg ile
(" \
Ġemb ro
ĠBroad way
Ã £
ĠBack ground
ĠNet works
Ġp ork
Ġdis placement
ĠCon versely
Ġw reck
we i
Ġbes poke
ĠN an
Ġ[ ],
CA A
Ġcontract ing
Ġub iqu
vent h
ark ov
Every thing
Ġprison er
consc iously
Ġpo etic
t ops
ĠF ew
" }
Ġdiff ering
M ike
Ġra y
ext end
h n
Ġb end
pro vo
ĠRem ove
ĠLind a
J on
Ġo wing
ir teen
Ġsol ace
Ġ{} ".
Ġm ansion
Ġacceler ating
ĠF it
W he
Ã¡ n
Ġr ider
As k
ĠCD C
Ġcar n
Ġt am
Ġveget ation
Ġstr ives
Ġad hes
C urrently
Ġindividual ized
Ġmem o
do ing
Ġaw ake
ĠĠĠĠĠĠĠĠ ĠĠĠĠčĊ
ail ability
Ġprinc ip
Ġastr onom
Ġmon ks
ĠJo an
Ġfun nels
ĠB I
S F
ort ium
EX T
Ġdict ators
Ġj ugg
ear ly
g rown
ĠCollabor ation
ĠMill enn
Ġover d
Reg ardless
Ġdiscipl ined
ĠJ ake
Ġl ubric
Ġdig estion
Ġprosecut or
Ġw ary
Ġauthor itative
Ġen semble
ĠInt o
å Ĳ
th reshold
Ġaccident al
Ġta pping
Ġnew born
ple ted
Ġup grading
Ġcr ushed
ĠY un
t ake
ĠS L
ĠHe aling
ion e
Ġransom ware
ix els
ĠRog ers
ĠF ern
Ġpl ots
Ġsacrific ing
Ġvig or
ur ls
% ),
Ġsc i
ĠPro of
Ġover th
valid ation
Ġgam ma
inter val
stan bul
ĠToy ota
ĠCost a
F unction
Ġincom es
u er
Ġsent enced
Ġund es
ex c
Ġcommand ed
Ġimmense ly
len ess
Expl ore
Ġmem oir
Ġshow down
Ġhand ic
inc re
H z
ĠE dd
Ġdeleg ation
ĠNash ville
Ġ" ...
Ġun matched
ĠMin i
bi ased
contain er
ĠA verage
sequ ence
Ġattent ive
Ġunexpected ly
Ġhuge ly
ĠCanad ians
Ġaccount ant
ĠP ret
d ump
Ġbre wing
sm all
ĠEd wards
iche ver
igh bor
Ġsal mon
ĠReg ulatory
ĠB ou
âĸ Ī
Ġinter course
u art
ateg ories
Ġcomp ass
Ind ia
uss ia
n one
L ay
oun ces
ĠVol ume
Ġdetect ing
Ġcamp uses
ĠSh aw
Ġmiscon ceptions
ĠEss ay
ĠCl ose
Ġl ays
j ava
ay an
A part
Ġsk et
ĠB ald
Ġcancell ed
t race
Ġbag gage
Ġpsych iatric
att acks
ĠIde as
Ġdigit ally
Ġwip ed
ĠB rist
Ġoversee ing
ag ain
Ġpe aks
ed ar
Ġfor ge
ĠFeed back
Ġun acceptable
N ovember
ĠGand hi
ĠSte vens
Ġapp end
ĠY uan
Ġgar ments
craft ed
J uly
Rep ort
Ġr uth
ĠS ites
Ġdraft ed
Ġh alt
fl ag
develop ment
Ġ7 9
Ġcarb ohydr
Ġfoot steps
Ġl amp
Ġparliament ary
ĠR ud
ĠStep s
ĠVerm ont
Ġpri zes
Ġcost ume
Ù İ
Ġ196 2
Ġpre ach
Ġtast y
Ġetern ity
EN S
ĠMar riage
ĠPro du
ĠF T
Ġarm ies
Ġl ust
Ġwe aving
ĠScholars hip
itut ions
ĠPrinc ipal
Ġsc ram
Ġlif estyles
ĠG OP
Ġindu ce
b inary
ĠA j
Ġw ield
C AR
Ġst arter
Ġne o
add r
Ġobs ession
C I
An n
Ġdirect ories
sk ip
O ld
Ġfram ing
Ġsign atures
ĠPh one
Ġexh ilar
ĠSand ers
um atic
Ġinf est
Ġinv oices
Ġsuper hero
Ġmedic inal
* :
ĠAccording ly
chie f
Ġvers a
ĠOver view
Ġscript ures
- %
W ould
t ools
Ġsh ark
ĠK um
f u
Ġcl og
Ġdest ined
Ġsuper v
Ġappeal ed
Ġpl edge
Ġcs v
ĠT ol
s pecial
ĠT ab
Ġbit es
ber y
Ġse w
Ġg ases
ĠP ink
comput e
ĠRe ed
Ġbrill iance
' },
Ġreserv ations
Ġgut ters
ĠCont emporary
AS H
o ct
Ġsem inar
Ġf etch
Ġn ort
Ġ14 0
pat hetic
t ar
ĠTy ler
ĠRich mond
Ġv est
200 9
ĠGab riel
Ġpr istine
Ġreper cussions
Ġsim ulations
Ġfurn ish
us age
M uch
ĠArt ists
Ġjoy ful
Tra ining
Ġhear ings
Ġ" _
Ġsl im
Ġ_ ,
Ġinvestig ative
ĠGu cci
Ġpal p
ĠApp s
Ġbroad en
Ġexerc ised
ĠAlber ta
or ate
E mail
method s
rit ious
Ġform ulation
Ġunder water
ĠC ant
Ġpray ed
Ġa venue
Ġclin icians
Ġcl iff
Ġapp les
ipl ine
lass es
Ġprob ation
Ġhyper t
res a
ĠR ush
p ent
ĠKu bernetes
T EST
ĠEx cel
b ucks
Ġinc umb
ĠG on
Ġst amina
ĠCom ing
m ag
Ġpun ished
Ġdist raction
ref lection
Ġair plane
w ave
Ġbroadcast ing
ind uced
k ill
road s
ĠH annah
ĠC anyon
Ġselect ions
Ġun secured
Ġimmers ed
Ġoccup ational
ĠGra de
Ġequ ilibrium
Te chnology
Ġch ill
ar an
Ġign orant
ĠBoy s
ĠR osen
ĠJ SON
ĠUN ESCO
Ġadm its
Ġmult id
Ġdies el
Ġmonop oly
Ġrest s
Ġhigh s
Ġdemocr at
at he
Ġat om
Ġstake holder
Wh atever
ĠT ao
ĠH idden
ĠCon text
ull ivan
Ġle agues
Ġsp elling
ĠRel igion
f ashion
Ġout fits
min ent
on ce
Ġfront ier
ĠTal iban
at ched
Ġex cerpt
Ġplag iarism
std out
Art icle
Ġal ph
ĠV ed
b box
ĠF err
ot ed
law s
ĠGl as
al an
ĠRel igious
Ġdi arr
ĠM ira
Ġf res
ĠAny way
kl ore
ĠGovern ance
ak ra
Ġhur ts
ĠN g
: %
ĠDeb t
(" /
Ġmat plotlib
Ġsupport er
il dup
ll a
ĠLib eral
Ġobs ervers
C urrent
ĠE ra
ĠG T
æķ °
ve c
Ġpar a
ĠH orn
f ood
Ġdesign ation
str ateg
(' \
ĠChen g
Sm all
Ġcomp osite
Ġw ander
Ġinterrupt ed
ĠComp ensation
Ġmet all
ĠWe i
Ġpic nic
ac ial
ĠK yle
Ġredu ctions
ys ics
Ġlaun ches
ĠGu arant
Ġintimid ating
op ening
Ġeconom ical
ĠFood s
ent ric
Ġpip elines
ĠLabor atory
Ġun paid
ĠIm ages
P ool
Ġ8 6
Ġo ath
C lear
Ġmot ions
Ġde ception
Ġeconom ist
Ġinfring ement
bet ween
Ġret ains
ĠOtt oman
pat ible
Ġtransl ations
Ġskept icism
Ġ16 0
ĠE PA
Ġpan or
Ġpart ition
L oss
Ġpre requ
weg ian
Ġp H
Ġair ports
Ġfost ered
Ġmira cles
ah l
Ġcart oon
reg ion
ig a
ĠTrans parency
tern s
ĠCommun ities
s in
ĠMont real
ĠW ords
ĠShan ghai
ad der
Ġv ain
Ġbl ades
Ġunre asonable
ĠG ay
Ġcrack ed
Ġvoc als
et ically
iqu id
ĠFore x
Ġdoctor al
Ġview points
ĠB our
Ġcris p
prising ly
G I
Ġquarter back
è ¯
Ġmot ors
Ġhe irs
Ġenhance ments
med iately
ĠId aho
) }
Ġsub set
Ġhom eland
Intern ational
str ate
act ed
so ver
oe ing
Ġmod ular
ĠSat urn
Ġdisrupt ed
Ġan arch
Ġprogram mers
ĠRes olution
rib ly
in ctions
Leg al
ĠProb ably
ĠMatt ers
h arm
Ġb amboo
Ġpe an
Ġb ru
ĠL ate
Ġinf ants
ĠMem ory
Ġapp liance
Ġge ometry
Ġfor ged
ip y
Ġret al
sc ription
Ġswe ep
g ard
ĠP interest
Ġapprent ices
ĠP ill
FI LE
Ġinterview ing
ar ations
Ġs ixty
Ġli ken
ĠPhot ography
ĠCh and
Ġmicro phone
Ġrevol ves
o ing
act or
ĠC MS
T ip
per iod
Ġmand ates
Ġinform ational
Ġtre mb
S erial
ĠĠĠĠĠĠĠĠĠĠĠĠĠĠĠĠĠĠĠĠĠĠĠĠ ĠĠĠĠĠ
Ġmechan ic
t ab
ĠF itness
Aut om
ĠP PC
Ġhomes chool
Ġmicro bi
ĠB att
Ġus ability
n ull
Th ings
Ġsol itary
com ings
Ġinform s
Ġreprodu ce
ĠRem ote
Ġadul thood
ger ies
ĠCEO s
Ġapp arel
Ġlau ndering
b ial
Ġpre view
Ġexpress ly
Ġmet res
ĠAr ctic
Ġpred ators
ĠD ry
comp ile
C redit
en z
K ing
ĠL ed
ul ators
ĠSy nd
Ġavoid ance
et erm
Ġbomb ing
ĠEthiop ia
ĠS AP
ĠEl on
ĠE RP
ĠS old
Ġwor s
Ġcompet encies
L ab
ĠEld er
Ġey eb
ĠVe hicle
ren ched
ĠH earing
ĠP OS
Ġdisp ers
Ġimagin ative
ĠU h
m iddle
Ġsent iments
ĠAl ban
Ġrecru ited
ĠVinc ent
g rowth
at ics
d ependent
Ġresid ual
Ġblow ing
sp oken
P ot
Ġcatastrop he
ĠY am
Ġk ills
Ġyour selves
C M
ĠAr med
Ġannounce ments
Ġsav vy
ĠPear l
Ġcalcul ator
Ġsc ra
Ġover time
ĠB ee
ad os
G M
Ġforth coming
ĠNich olas
ĠDo or
Ġhe ars
Ġaer ial
ar ial
y aml
ast rous
Ġitiner ary
S al
ĠFort une
ĠRegist ration
p k
Ġfashion able
Ġav id
Ġsc ans
Ġfault y
ĠG aming
Ġ8 3
Ġ196 1
C t
n ik
ser ies
Ġsummar ize
ill es
R om
ov able
S ar
ex ception
ang ular
ĠJere my
Ġsystem atically
Ġcoll agen
ĠE ight
op edia
Ġ25 6
d ie
it ory
Ġtire lessly
Ġsc rub
ĠIndust ries
app er
Ġinsert ed
agn etic
ĠBr us
def ense
leg al
ĠWild life
Ġb ilateral
te am
Ġtw isted
Ġsuper st
Ġmot ive
Ġhom emade
ch t
Ġhe els
Ġw ires
Ġun rest
S il
Ġal tering
u pload
Ġsp ike
Ġrehe ars
200 8
ĠWe ather
set ting
ĠN ine
Ġsh irts
Ġv ault
appro ved
r ase
ĠJ ur
Ġbapt ism
Ġs igh
Ġdem ise
ĠJul ia
Ġnegot iated
lu ence
he id
ĠV entures
az i
Ġse q
B ill
Ġfil tering
Ġant is
Ġmor ally
ull ah
Ġprogram med
Ġpyl int
iv o
dat abase
ĠG ran
ĠSu ff
] +
ĠAir lines
ĠV o
Ġpal adins
ure r
Ġdiscount ed
Ġfrequ encies
f p
Ġlean ing
ĠD B
Ġshar ply
Ġdisappoint ing
Ġdown ward
Comm and
Ġbu ildup
ĠExpl oring
ason ry
Ġcont end
Ġaff irmed
encod er
Ġobs erver
ĠSt ruct
Ġscrut in
Ġo ct
ner g
Ġunlock er
r ights
Ġreferen ced
al ign
Ġintrig ue
Ġhero ic
ĠOrig inally
Sept ember
ĠHy per
ĠBut ler
p id
Ġconting ent
Ġround ed
B ooks
Ġgra ms
Ġcon n
ĠLuck ily
c reat
ĠHar vey
ost ics
F ood
ĠC ad
Ġ8 7
ĠN J
ĠComput ing
Load er
Ġpsych ologists
] ],
Ġspir al
Ġrefere nd
le en
Ġder ive
ĠETF s
ĠS id
|| ||
Y ear
Ġsw ords
Ġiron y
ĠE instein
ĠTrust s
vis or
Ġash amed
ĠMon itor
Ġtr ivial
Ġin advert
aret te
const ruction
ĠRe lease
Ġh alo
Ġnut ritious
Ġendors ed
Ġg t
Ġ9 1
od s
Ġ9 4
Ġf ills
Ġreal ism
Ġtox ins
ĠAd ult
Ġemb edding
des ign
p olitical
an as
Ġins ol
ĠCond ition
Ġhalf way
Te am
ĠX u
Ġweak ened
call back
ĠS ession
ĠPro file
Ġreplace ments
Ġstory line
sp an
Ġsuper vised
n x
ĠCar bon
eng u
Ġengine ered
E s
Ġh ath
Ġspokes person
Ġdocument ing
ĠW el
he ster
Ġsom etime
Ġcabin ets
Ġthy roid
sing le
C ome
Ġunder pin
Ġs urn
c ity
Ġbol ster
Ġc ensus
ĠW end
Ġmicros c
iy e
ĠMort gage
Ġf onts
Ġneur ons
Ġover r
ĠBro oks
param eter
Ã ł
ĠNe braska
ĠS au
Al tern
ĠM t
Ġcoord inating
Ġag gra
Un iversity
Ġrat ios
ĠK l
ĠP H
gu ided
ĠG R
Ġschool ing
Ġr ash
Im plement
u int
ĠJup iter
ĠG iving
ĠA A
Ġvolunt arily
Ġward robe
N eed
Ġindu ced
ĠInvest ments
ĠL ore
ĠR av
---- -
Ġcat ers
ange red
Ġref lex
ĠPrep are
ĠR T
ĠN y
ĠO z
Ġreb u
Ġreson ance
keep ers
ĠP ills
Ġd ynasty
J apan
ĠRepresent ative
Ġcoord inates
pro duction
exp and
abb ath
Ġafter ward
man agement
Ġsole mn
Ġcl utter
ĠAccount s
ĠAn xiety
Ġpres idents
ĠEx am
ĠMet ro
Ġtub es
a is
Ġhour ly
Ġcompos itions
g om
d ollar
Ġhyp ot
Dep ending
Ġins ider
Ġspec ulative
ĠTw enty
Ġart isans
Ġdefend ers
r b
Ġatt ire
de al
Ġcounsel ling
Ġsw ings
Ġrestrict ive
M ad
han ie
Ġopt ical
Ġsu ed
ĠM aur
Ġl id
m ighty
Ġlapt ops
ĠLux ury
Ġcr ush
Ġscream ing
ir al
ĠSav ior
P ython
ĠScript ures
Ġcomm end
Ġas ym
Ġ( (
ad ian
ĠV I
ract ed
Ġconcent rations
ey e
ĠSur gery
Ġ8 1
Ġrational e
om o
Ġmid night
= ["
Ġconfirm ing
Ġvast ly
ĠTer rit
ĠOr lando
ĠPat ient
pro to
pro fess
Ġatt ained
c ra
ĠS weet
Ġfinger print
D ifferent
ĠElect ronic
cur ricular
Ġtw ists
Net work
em ia
f acing
Ġhel met
ĠBl ake
Ġge ared
ex ceptions
ĠSS L
Ġcourage ous
/ '
arm ed
H ost
B rit
ĠGuid elines
re pr
ĠM R
Ġdis semin
Ġsegment ation
ĠL is
Ġmotiv ating
Ġbarg aining
ĠC ities
Ġup right
f a
ĠAb original
Ġhall mark
ĠAsh ley
H on
Ġsm iles
Ġcens orship
ĠRepresent atives
Ġcrit erion
Ġmean while
ĠJ azz
Ã© e
ĠM illion
ĠShe pherd
Ġsn akes
Ġkind ly
Ġex ile
IC S
Ġb ark
Ġmon key
ond e
Ġexam inations
Ġsy ll
Ġse ated
bal anced
ĠHispan ic
Ġstream lining
Ġst a
Ġb acterial
ĠMar io
G s
C reat
Ġd uck
F ast
ĠConserv ative
f ilters
Ġmira cul
en able
B LE
i ob
ĠD ed
ĠR ah
Ġplug ins
Com put
Ġg reens
Ġdist ort
ograph ies
u ber
Ġcom f
Ġco erc
Ġdistribut ing
Line ar
ĠB ert
Ġred ist
ĠMarc us
ĠE fficiency
ĠPhill ips
though t
it as
Ġdis astrous
Ġf encing
Ġext r
het ical
Ġev al
ĠB ass
ĠO THER
ĠP D
get Logger
ĠHop kins
Ġclass ics
Ġcorrect ed
Ġref in
OR K
S an
Ġer upt
Ġh ilar
Ġspell s
Sh are
e q
Ġreg imen
Up on
Ġpost ers
ĠZh ou
ĠPow ell
r ill
Ġdisc ourage
rop olis
IC O
ĠQue bec
Ġty r
ĠGP U
v ie
Ġdr ums
Ġrun ners
ĠAmb assador
Ġz odiac
Ġforeign ers
........ ........
inte gr
Ġv icious
Ġstewards hip
Ġcontin ual
ĠU P
ĠCh arg
Ġproced ural
ĠCon v
t ol
ĠChamp ion
Ġrelie ved
N um
ĠS ierra
^^ ^^
ä º
ĠWall ace
int ers
Ġover c
Ġnarr ator
ĠNap ole
Ġso b
Ġart works
Ġ' %
duc ive
DE FAULT
R NA
T otal
Ġbroker age
P red
Ġcul p
Ġconstitut ed
Ġunfold ing
ĠR ates
reg ist
ven ile
Ġ8 9
Ġconfig urations
Ġgl anced
Ġunve iled
Ġfear ful
Ġ erg
Ġhes itation
ĠSh adow
ĠOffic ial
Ġdress es
et tes
J im
p air
Ġshort comings
Ġv amp
l ash
ĠTre k
Ġr ats
Ġst al
Ar ch
} '
Ġgr ill
R ad
ĠS r
ĠM eg
att ack
EN CE
w ould
in ja
Ġloud ly
Ġneck l
Ġlong time
Ġexplo its
Ġk icks
ĠK il
ĠCru z
ient ial
De cember
Ġgen eal
Ġbo il
Ġat roc
ĠF urn
ĠNG Os
ĠCom par
ĠEngine ers
Ġded icate
ĠJul ie
Ġinstruction al
Ġwe ighed
Ġguarantee ing
Ġ194 7
Ġve in
C ross
, )
Ġconserv atives
Ġtempor al
Ġsupp ressed
Ġcourse work
C ra
Ġembarrass ed
Ġye ast
ĠN as
In valid
Ġc emetery
Ġgen ome
ĠMethod s
ri en
n est
ir ate
Ġpat io
ĠOut side
uk a
Ġbl iss
Ġwar mer
Ġstat ues
c oll
ĠTrans formation
ĠPre vent
Ġprogress es
ĠG i
Ġpe as
third s
S ummary
. /
opath y
Ġcaf es
Ġsc are
ĠD ipl
arett es
Ġre charge
ĠC ort
Ġwind ing
ale y
ĠN est
Ġc age
P ack
ag ne
state ment
Ġbu ys
ĠAff ordable
av il
ĠV P
Ġsh attered
ĠA ur
Ġpropos es
Ġarom a
Ind ividual
Ġassass ination
Ġover stated
ol ia
ĠEmb racing
ect ive
Ġcr ashes
Ġpredecess or
Ġdistribut ions
D ATA
ĠStud ios
ĠR oute
US D
cript or
Ġhesit ant
J ul
Ġe lic
ĠVal ues
Ġplay ground
evalu ate
Ġcher ry
Ù Ħ
ĠT ag
por a
Ġappro x
Ġcher ish
ĠHe at
ĠT ail
Ġopen ings
Ġto e
Ã º
Ġemb ry
Ġmater nal
Ġin ward
Ġtow ing
ĠB ranch
pp ings
Ġallow ance
ĠT aurus
Ġdilig ently
Ġadvoc ated
Ġpl asma
Ġunivers ally
Ġimpart ial
Ġdist ancing
ĠF ees
ex ist
ĠDou g
Ġterm inate
Ġdel ic
Ġappar atus
Ġmon arch
Ġsl ope
% ).
() ))
ĠU nd
Ġmom s
met ics
ĠBrist ol
w au
ĠM ul
Ġallerg ens
ĠHug hes
F rank
provo king
C rit
Ġl r
Ġsym pathetic
Ġcand les
ĠKash mir
Ġlandl ords
Ġdi ary
Ġtest ify
Ġhur ting
ĠMaj esty
Ġexc urs
az ed
Ġfix es
ĠImm igration
ic us
ĠF ut
Ġrevolution izing
c ision
ĠAmeric as
Ġphys ic
op a
D ear
Ġattack ers
Ġcum ulative
av oid
ĠCyber security
Ġor th
ĠEx ercise
l ived
Ġsal ad
m ort
Ġearth ly
Ġdisreg ard
Ġdiscoura ged
ĠAny thing
Ġadorn ed
ĠR F
ĠIn put
ĠU T
ĠR ent
fol io
âĹ ı
Ġplan ners
Ġje ans
S N
Ġter ra
Ġorgan ism
Ġo ste
um i
Ġbattle front
Ġl ur
(' -
ĠAp ollo
em br
Ġwild ly
Ġoutwe igh
ĠL anc
o ise
Ġsw itches
M oving
Read y
Ġrest art
ĠK ill
Ġcomp uls
war ning
Ġrestruct uring
Ġre dd
Ġcost umes
Ġsh orts
ĠPres idential
Ġbl amed
Ġpolic ing
Ġwand ering
Ġcon ducive
Ġregul ator
Ð² ÐĤ
ĠCons idering
|> ,
Ġrede em
Ġmonument al
a verage
ell s
Ġflags hip
Ġeleph ant
f air
int ensive
ain er
Ġrel ational
Ġincorpor ation
Ġpr incess
9 00
FOR M
Connect ion
ĠAuth ors
ĠSt o
comp onents
in ety
Ġsequ el
il ia
Ġar ma
Invest ing
Ġbi ote
L T
ĠRel ief
Ġtow el
Ġtemper ament
ord ered
ĠP ool
Ġcl auses
get ter
bn b
Ġcompl aining
ellect ual
ot ions
Ġst ellar
Ġinspir ational
Ġprotest ers
Ġunderw ent
Ġpupp ies
ĠForm er
Fe ature
ĠV IP
ĠNaz is
ĠI stanbul
ĠLeg end
Ġh ollow
Ġb um
Â §
yl an
Ġra pport
vid ia
ick er
ĠP ul
Ġpal ette
Ġambig uous
io let
bl ood
Ġshr ink
Ġmembr ane
ĠT iger
d umps
Ġupl ift
ish i
ric ks
Ġun related
Ġwork places
iv ar
ustain able
Ġconvey ed
Ġtrust worthiness
ĠChe ap
IS E
å ħ
intend ent
> </
ĠUn ity
Ġcont amin
Ġnon profits
Ġd aring
ĠFell owship
ĠDan ish
Ġharm less
ĠM I
ess ential
Ġinform ing
ĠEx actly
Ġins ign
Ġelev ator
rim p
Ġbattle bit
Ġembra ces
ip es
Ġco ats
ĠBu ying
ĠS low
w ild
ĠS ister
S chool
Ġsupp ression
ĠEmploy ers
c ases
ĠPress ure
ĠZ el
h al
back end
c ro
n ative
end ants
dat asets
Ġdis connected
Ġtour ing
drop out
ĠCap ricorn
crit ical
ĠAfric ans
Ġpop ulated
T ree
ĠN ixon
Ġgal axy
Ġd ock
Ġbra kes
Ġreact ed
ĠB od
em p
Ġaccess ory
Ġcounsel ors
Ġant iqu
Ġhand ler
Sc ript
Ġimpair ment
Ġpriv at
Ġpsy chedel
ĠCal vin
Gener ally
ĠF lu
ĠD ent
Ġbud d
Ġp ity
ĠL akes
M el
x ic
Ġbenef iting
L ord
ĠSub ject
Ġmis erable
W ord
Ġsc aff
Ġsign ify
Ġdimin ish
Ġu l
Ġdisc ord
h ipping
St and
oc ese
Ġrecomm ending
Ġsp ill
ur g
ĠA RE
ĠCl are
Ġd ug
Ġdownload s
rupt cy
Ġstick y
Ġterm inated
Ġphenomen al
Ġreimburse ment
ĠH O
min ster
ĠContin uous
Ġdr ift
Ġwith drawn
ĠHope fully
V ICE
reg ulated
Ġk g
Ġisol ate
in as
s static
Ġv iability
Ġdisag reement
ĠN I
Ġneurolog ical
ĠGl en
b rain
ĠD ennis
ĠCons umers
Ġhe aled
Ġorganis ational
St op
ĠSc ar
Ġest e
sq rt
Me et
ĠG arc
ĠRepl ica
ĠBeng al
Ġpun ct
Ġcan ine
Ġbout ique
n om
Ġwa iver
eth ical
Ġhuman ities
Ġgr im
ine a
Ġprest ige
AM P
PO ST
s ided
Ġt arkov
Ġadmin ister
Ġy og
ĠF o
Ġensl aved
UL L
ç Ķ
Ġroyal ty
ĠT amil
Ġr all
Ġst ove
Ġescal ate
reg ulation
ĠFl ash
Rec ently
s ol
Ġind ications
ard on
P erson
m illion
M ary
Profess or
Ġassert s
Ġrad ius
Ġsel dom
J P
Ġ Å
ush i
B ob
ĠTh ought
G ive
r il
Ġt x
Ġfel ony
arch ing
ĠTh reat
ver bs
iss ue
ĠClaim s
ĠAlf red
Ġcontract ed
Car thy
ĠNor wegian
U B
ian e
Ġresemb les
en h
Ch ange
m oney
Ġcock tail
ĠArt ist
Spe c
W as
Ġreg istry
Ġfest ive
ĠJam ie
Ġinflu x
ĠY emen
Ġench anting
Ġbl unt
ĠL LM
w ere
ab e
Ġnause a
ĠC re
Ġreass urance
Ġsh amp
Ġglobal ization
Ġdi agram
Ġwe ars
Ġlabel ing
Ġdownload ing
s ampl
Ġcomp ares
Ġexpl oded
oub t
In formation
ĠHar per
Ġres ides
/ "
pos itive
Ġunreal istic
Com panies
ĠProv ider
gom ery
Ġo vere
govern ment
Ġdom ination
Ġab ide
Ġware houses
Ġunfold s
Ġsqu ee
D M
Ġmo vers
ur ate
Ġintern ships
Ġtext ile
Ġun locking
mun ition
Ġdeleg ates
Norm al
Ġcont ested
Ġsp ider
Ġoff enders
Ġto ps
Ġir rational
Ġdeleg ate
Ġimpl ants
ĠIn g
Ġpro be
Ġback pack
unc iation
r ina
Ġburn s
Ġem path
Ġs ighed
ar ious
Ġa z
Ġshell s
Mus ic
Ġpast a
Ġtar ot
ĠA V
k u
FT WARE
Ġpatri arch
ĠFact s
Ġaggress ively
ĠScorp io
ĠTr ial
var iable
f ra
Ġno ises
Ġst ab
Im plemented
pro ps
b ly
Ġenzy mes
Ġdissatisf action
Ġcredit or
SI ZE
Ġbid ding
ĠLuc as
Ġcompr ising
Ġpion eers
ol an
ĠG roups
wau kee
fe at
B orn
ĠG y
ĠMain taining
t ically
ĠDream s
ĠAm anda
pr us
or b
Ġf ox
Ġlat ency
Ġhub s
Ġsupre m
ĠBry an
Ġnit rogen
ĠP att
Ġhoriz ons
ĠIn vent
ig ger
ĠIncre ase
d one
Ġcinem atic
eal ing
Ġsnap shot
olog ic
Ġopp ressed
ĠAr ies
p d
() [
Ġst rap
Ġref rain
requ ires
m ass
Ġhead phones
ol ation
Ġover he
ĠNe uro
th ren
Ġcour ty
ĠE t
P ORT
b log
Ġdecl ares
ĠHill ary
not es
ĠRoman ia
( ['
Ġadv ises
Ġbarg ain
ĠC arr
ĠB und
Ġdist orted
Ġhook ed
press ure
Ġfrustr ations
is i
ĠMod els
V ery
Tra vel
Ġentertain ed
se ys
Ġm ish
L ater
Ġupload ed
Ġexpress ive
Ġmain land
Ġtut oring
Ġcow ork
Ġt in
F inal
But ton
ĠPoint s
Ġim minent
ort ment
ĠĠĠĠĠĠĠĠĠĠĠĠĠĠĠĠĠĠĠĠĠĠĠĠ ĠĠĠĠĠĠ
Ġantioxid ants
mess ages
oc ations
Ġadvis ers
sub ject
Ġtext books
ĠO UT
lay out
ven cy
ĠImpro vement
Ġnot icing
ut ton
ĠN urse
Ġconfig ure
Ġpre n
ĠPict ure
Ġrep r
Ġp enny
ĠSte in
N othing
c orrect
ĠInter ior
u pper
Ġech oes
develop ed
Ġimp aired
ĠPet e
Ġd ots
ĠM ans
ced es
ĠSex ual
Ġtw ins
Ġequ als
Ġb ishop
Pl ace
Ġflood s
ĠAdv oc
Ġs odium
AR K
Ġcr unch
Ġbu cks
Ġsubur ban
ĠBrus sels
Ġl odge
Ġtra cing
ĠGlas gow
h s
A ud
ĠA F
Ġfright ening
Ġh ay
Ġancest ral
Ġqu iz
Ġd ancers
RE AD
ĠRes pect
Ġanonym ity
Ġadvert ised
Ġsuprem acy
ĠJ ar
Ġdivor ced
Ġcyber cr
Ġviol ating
ĠRet irement
N T
Ġhard ships
u ated
ĠEth ical
ĠBloom berg
Ġcreat ively
Ġgut ter
Ġmel ting
Ġsh ingles
ĠGen eva
Ġmanip ulated
âķĲ âķĲ
Ġp ouring
ĠSp encer
ĠSign ificance
an ing
Ġredef ine
_ ,
Ġelev ation
Ġcush ion
w orm
an alysis
ĠM end
Part icip
Ġpersuas ive
Ġres igned
Ġhunt ers
Â ©
Ġtra ps
Ġpl ural
ĠSche me
Ġnumer ical
Ġl ament
ĠR A
ov ak
Ġab oard
Ġh ooks
ĠParticip ants
Ġproport ions
ĠH M
ĠWW E
Ġsqu eeze
[...]
