#version: 0.2
Ġ t
Ġ a
i n
h e
r e
o n
e r
Ġt he
Ġ s
a t
Ġ o
Ġ c
e n
Ġ w
e s
i t
n d
in g
o u
o r
Ġ p
i s
Ġ f
Ġ b
a n
a l
Ġt o
Ġ m
Ġa nd
e d
Ġ in
Ġo f
a r
Ġ d
č Ċ
i on
i c
l e
o m
Ġ h
Ġt h
a s
en t
â Ģ
Ġ y
Ġ e
Ġ re
r o
i l
v e
Ġ l
c t
Ġy ou
s t
Ġ n
l y
e t
Ġ g
Ġ is
i d
Ġf or
Ġ T
Ġb e
c e
u t
o t
Ġ I
i m
s e
u r
o w
at ion
i g
Ġ on
Ġth at
r a
Ġ u
âĢ Ļ
o l
v er
c h
a y
it h
Ġs t
Ġ S
Ġ A
i r
Ġw ith
Ġ it
Ġp ro
Ġ C
l l
er s
a m
es s
a d
Ġa s
Ġ he
i f
Ġc on
Ġa n
Ġw e
u l
Ġa re
Ġw h
m ent
Ġo r
k e
Ġyou r
Ġc om
at e
g e
il l
Ġe x
p p
a b
t er
Ġh a
Ġd e
he r
it y
Ġ M
Ġc an
Ġs u
es t
i ve
o re
o d
Ġ P
Ġ B
ĠT he
i es
or t
u s
Ġs e
ig h
l d
q u
an t
Ġ v
u re
a c
Ġ W
e ct
Ġn e
r om
is t
a in
o p
i al
u st
i v
Ġ en
Ġa t
Ġ H
t h
Ġ r
n t
Ġa l
Ġc h
o c
e m
Ġ D
ar t
o s
Ġha ve
Ġn ot
Ġ F
Ġ âĢ
Ġs h
a nd
u n
u m
igh t
Ġ le
Ġf rom
e l
Ġ R
Ġth is
re s
en d
Ġw as
u d
Ġb y
p er
r i
ou t
Ġ E
om e
ion s
k ing
Ġs p
Ġ L
Ġp l
Ġa b
p t
o st
al l
Ġw or
ou r
id e
Ġa d
Ġcom p
ar d
Ġ G
Ġthe ir
Ġw ill
a re
ou ld
f f
Ġ (
Ġa ll
r ou
al ly
Ġm a
g h
a ge
Ġin t
i e
Ġ im
t her
i z
an ce
Ġu s
in e
Ġd o
Ġ N
ab le
o o
e re
Ġw he
i p
Ġ 1
Ġ j
c c
Ġ O
Ġ 2
or m
a ct
a g
Ġg o
as t
Ġthe y
âĢ Ŀ
Ġ k
p l
ic e
Ġcon t
d u
Ġm ore
Ġh as
ation s
T he
Ġin c
Ġm e
ĠT h
ou s
ic h
an s
i re
k s
Ġt e
s o
Ġo ut
ig n
on g
in d
Ġb ut
e ar
im e
i ke
i b
at ed
o g
Ġre s
e c
f orm
en ce
Ġa pp
r y
r u
Ġs o
Ġm an
on e
e p
ver y
Ġc l
Ġim p
Ġu p
Ġf e
ul t
Ġ U
Ġal so
ic al
ĠâĢ ľ
ĠI n
re at
ac k
Ġof f
a p
Ġab out
a il
Ġwh ich
it e
Ġo ur
Ġo ther
Ġu n
ve l
Ġon e
Ġl ike
Ġp er
it ion
Ġwh o
a ce
i le
Ġ J
Ġ Y
Ġd is
Ġe v
Ġ qu
a ch
er v
0 0
Ġan y
ĠI t
Ġthe m
Ġt ime
Ġt ra
Ġp art
t e
Ġs a
Ġp re
or s
res s
Ġne ed
ar k
as e
ar y
n ow
i a
ent s
am e
ct ion
ou nt
Ġa cc
u e
Ġpro v
ay s
Ġt a
Ġh is
Ġs ome
Ġe m
Ġcom m
an c
ĠTh is
ing s
' s
a v
Ġm y
re e
Ġhe l
Ġo ver
a u
Ġthe re
Ġp e
Ġwhe n
as s
Ġ if
o se
Ġhel p
en s
nd er
Ġt r
Ġre c
ment s
Ġit s
u al
Ġm ay
Ġint o
b er
or d
Ġa r
if ic
Ġg et
Ġin d
Ġ ro
Ġcon s
Ġh ow
x t
Ġwh at
Ġwor k
Ġs c
Ġa g
Ġbe c
Ġne w
il d
il ity
n e
u b
it ies
at er
Ġk now
oo k
re d
Ġ K
rou gh
l ic
op le
Ġex per
ĠS t
l ud
Ġ2 0
Ġthe se
o y
o ve
Ġy ear
Ġd es
if f
en c
l ow
o od
at ing
i ous
ic es
f ul
ou gh
an g
Ġth an
Ġhe r
Ġbe en
Ġad d
c ess
Ġp r
Ġma ke
o b
ĠC h
Ġpe ople
o v
Ġe ff
n ing
on d
in ess
Ġj ust
Ġa ct
is h
on s
Ġu nder
t ing
ver s
pp ort
Ġ V
w n
Ġu se
Ġb et
Ġinc lud
at es
Ġin v
Ġwe re
Ġpro du
is e
ic k
Ġh ad
or y
ou nd
Ġs erv
c k
i ence
a k
Ġre l
Ġw ould
ers on
Ġd iff
Ġth rough
l es
Ġs y
ĠW e
in t
us iness
Ġb u
Ġm ost
au se
ure s
Ġin ter
Ġc ol
Ġa m
Ġre g
Ġre p
al th
Ġsu ch
he n
Ġwe ll
ur ing
le ct
t ain
Ġn o
ir st
Ġ ke
ul ar
ra ct
Ġc o
w e
f ter
Ġex p
Ġon ly
ĠâĢ ĵ
ow n
Ġas s
ra m
Ġe very
ark et
ro w
o f
Ġb l
ol d
it s
ent ial
Ġb usiness
ot h
j ect
rou nd
Ġat t
Ġp os
e f
r ic
r it
ib le
Ġre m
Ġde c
Ġp erson
se l
p le
Ġw ant
st em
Ġwhe re
if e
ĠY ou
Ġsh ould
Ġre qu
al s
Ġse e
he d
in k
b s
ust om
ol og
Ġsp ec
h ip
i an
an ge
vel op
at ive
g et
Ġman y
Ġw ay
i ent
Ġin form
Ġev en
Ġh igh
t en
Ġin s
Ġ ra
Ġs he
Ġ 3
Ġf irst
Ġp h
an y
Ġc ould
Ġdiff ere
t s
ie w
Ġt w
Ġs m
et h
il y
Ġst r
ow er
Ġtr ans
Ġr ight
l i
Ġm arket
ĠH e
Ġa c
Ġf in
Ġse c
ch n
er m
Ġ |
h at
a w
as ed
at a
f ore
Ġb ack
Ġprov id
ad e
y s
y p
re n
Ġ ent
m er
Ġin st
I n
Ġg u
Ġpro cess
Ġp o
Ġhe alth
ation al
f t
is s
l ine
e g
Ġst ud
Ġc ustom
c es
w ard
Ġsy stem
p h
Ġo wn
Ġs ign
Ġl ong
al ity
Ġde velop
ic s
Ġad v
u ch
Ġdis c
ur n
g an
Ġl oc
Ġgo od
en er
e ver
Ġb est
id ent
Ġimp ort
iz e
Ġs et
s s
Ġf l
Ġprodu ct
Ġo pt
. âĢĿ
Ġm ed
Ġf ind
Ġst art
ri b
n ess
Ġle ad
Ġbec ause
Ġta ke
Ġ very
Ġsu pport
st and
he s
Ġyear s
Ġsa id
Ġdes ign
Ġth ose
Ġa fter
Ġc re
Ġpro f
Ġf u
ion al
p ect
Ġtw o
Ġwor ld
Ġte chn
e ll
ĠI f
iv es
Ġthe n
Ġen s
Ġpl ay
Ġcomm un
u es
Ġinform ation
ĠA nd
Ġs im
Ġdiffere nt
om m
t y
ar ch
Ġc are
Ġg reat
on t
Ġa v
i et
Ġd et
Ġd ata
Ġd on
Ġs k
ot her
Ġwh ile
Ġv ar
Ġv is
u ally
Ġeff ect
Ġm od
Ġc ar
b le
Ġl ife
Ġc le
at h
ĠP ro
Ġs ur
Ġdo es
Ġm on
Ġp ol
Ġp res
iz ed
Ġexper ience
ol ut
Ġex t
ter n
Ġm uch
e w
Ġbe ing
u p
er g
Ġa ut
a ir
it al
) .
Ġall ow
Ġbe fore
Ġd own
Ġh ome
Ġha nd
Ġpro g
Ġcomp le
it ed
ol low
l ed
Ġc he
ag es
in es
t le
ĠThe y
Ġn ow
Ġm ain
v ing
Ġre f
v en
i qu
i ed
Ġv al
er ing
Ġt yp
Ġb r
te xt
Ġimport ant
Ġe as
Ġh im
Ġf am
Ġus ed
Ġar t
Ġsu b
Ġin f
ar m
ro p
Ġen d
| >
< |
end of
endof text
oc k
sel f
Ġp ur
ic t
ĠU n
k es
Ġd id
d ay
ce pt
o ol
Ġm in
Ġe ach
we en
or k
Ġrequ ire
Ġfe el
iv id
c ed
Ġto o
Ġprov ide
iv ing
ĠA s
as h
ate g
Ġsh ow
Ġag ain
ab ility
Ġb oth
Ġte am
Ġ 5
Ġn um
Ġm ade
ere d
Ġd ay
Ġe ar
l ess
Ġ1 9
Ġre ad
a ke
T h
Ġbet ween
pl oy
Ġ 4
Ġfor m
Ġinc re
Ġs oc
i enc
Ġl ook
at her
ĠF or
Ġinv est
d ition
Ġf ollow
ĠH ow
ur al
âĢ ľ
Ġf act
Ġle ar
en ef
Ġm em
Ġp ay
Ġc ur
Ġc ost
Ġpart ic
Ġ "
Ġ20 2
e e
at ure
Ġg ener
Ġunder stand
Ġde f
Ġc our
Ġg row
Ġ ed
ra nd
ic ally
c om
Ġres ult
Ġde p
Ġc ount
Ġc all
Ġ20 1
Ġres p
Ġke ep
al e
Ġb o
Ġre al
id er
Ġen g
n er
Ġpl an
Ġo p
Ġa round
Ġor gan
Ġwith out
Ġinclud ing
n g
in ing
Ġex pl
ire ct
Ġis s
Ġcon f
t ed
v iew
Ġch ar
Ġf un
Ġserv ices
od y
Ġa w
Ġp ub
ĠB ut
Ġd r
ant s
Ġg l
im es
Ġo b
olog y
Ġs om
at ch
Ġex am
cc ess
Ġma king
Ġpro t
am p
Ġus ing
as on
Ġacc ess
in s
Ġimp ro
, âĢĿ
ere st
en g
Ġhe re
Ġre t
c er
ivid ual
Ġm ight
Ġp ot
v es
oo king
Ġbu ild
Ġpos s
i o
' t
Ġd uring
i x
n ect
Ġof ten
Ġch ild
) ,
Ġper form
Ġsa f
d er
u c
ĠA n
n ce
ru ct
Ġm ust
v ed
re ad
w ays
ent ion
ri end
Ġperson al
Ġ $
Ġle g
Ġpl ace
Ġth ink
Ġb enef
if y
Ġp ower
Ġcomp any
Ġcont in
Ġprog ram
Ġ -
Ġw ater
Ġind ividual
ĠA d
age ment
g g
Ġpro per
Ġl it
Ġs ame
Ġst and
Ġgo ing
l ing
Ġst ill
o ver
Ġp at
ro ss
ir on
ou se
en se
ĠR e
Ġle vel
a ve
Ġapp ro
Ġre ally
ĠA l
rou p
m s
Ġl ar
Ġp rom
Ġl ot
in ce
ch ool
Ġs er
Ġc or
ist s
an k
Ġp ract
Ġth ings
Ġon line
ort s
Ġfe w
Ġoff er
Ġbet ter
Ġint erest
Ġto p
i vers
Ġc er
Ġprof ess
Ġth ough
Ġst ate
es p
Ġpro ject
ĠW h
Ġbe l
Ġc reat
Ġ ide
Ġwe bs
et s
Ġd ist
Ġf ound
Ġpo int
Ġa ff
Ġwith in
oc us
ĠS p
Ġs it
ĠThe se
Ġr is
Ġpre v
Ġf ree
c on
Ġneed s
Ġadd ition
it ive
Ġc a
el s
Ġind ust
Ġem ploy
i ents
as es
rib ut
ar s
are d
Ġsm all
a z
ill s
Ġl aw
ĠS h
Ġav ail
ate ly
v iron
ĠThe re
Ġserv ice
Ġo per
Ġsu ccess
Ġha pp
Ġde m
r ation
in ed
Ġl ast
iz ation
Ġstr ateg
âĢ Ķ
Ġpot ential
re nt
Ġs ay
is m
Ġspec ific
Ġre st
Ġcom e
Ġqu est
Ġt est
b ers
Ġ ess
W e
Ġre du
Ġcon nect
ial ly
Ġ est
Ġsign ific
I t
Th is
is ion
ro l
Ġto ol
us s
e x
Ġprot ect
eth ing
anc es
i er
at form
. <|
Ġre se
th ing
Ġal ways
iv en
Ġc ap
a h
Ġg ra
Ġsu pp
Ġc ent
one y
Ġens ure
Ġp op
l and
ou n
ĠS o
00 0
Ġf ocus
Ġpro ble
Ġmon th
iqu e
I f
Ġen h
Ġcre ate
ort h
Ġb re
Ġp ass
Ġl ist
Ġop en
os s
c ial
Ġd irect
Ġsu re
ur ity
it ions
ĠâĢ ĺ
Ġwe e
Ġh um
Ġsom ething
t he
Ġsoc ial
ĠW ith
Ġen viron
Ġact iv
Ġt al
Ġacc ount
Ġch o
Ġe qu
Ġapp lic
Ġcont ent
at ures
iet y
Ġab le
Ġch all
Ġavail able
Ġ 6
ĠE x
Ġr un
Ġke y
Ġl ess
Ġan other
Ġre ce
Ġnum ber
Ġfam ily
ie ve
Ġinter n
Ġle t
r is
Ġsignific ant
Ġf il
ight s
e ad
Ġpl atform
Ġg roup
Ġfin anc
Ġt reat
mer ic
c l
pport un
re am
Ġm at
Ġth ree
ater ial
. .
ard s
ent ly
Ġeffect ive
Ġproduct s
Ġf ac
Ġpub lic
ie ld
end ing
Ġbe h
ĠC om
Ġm us
g er
p or
erg y
Ġt ry
Ġch ang
ĠI nd
Ġw om
Ġinclud e
ne y
Ġb ig
ib ility
Ġl ove
Ġf ood
ut ure
Ġ ve
t o
Ġvar ious
W hat
r al
Ġ ident
Ġp ost
i or
ĠN ew
Ġ &
Ġme et
ver n
Ġcons ider
Ġo pportun
a king
Ġb rand
Ġcon st
Ġwebs ite
Ġp ut
w are
ĠP l
Ġw rit
ĠA r
f ort
b e
ĠT o
Ġqu ality
Ġt erm
Ġe l
Ġm et
is hed
in ation
Ġinv ol
Ġimp act
Ġg ame
Ġc ase
Ġb ro
ĠHow ever
Ġlit tle
Ġs olut
e ed
Ġspec ial
Ġoff ers
Ġess ential
ĠA meric
Ġl ooking
Ġm aterial
Ġgo vern
Ġh ard
Ġenviron ment
Ġh ist
ĠD e
o ad
Ġ1 0
ot e
ĠI s
ag ing
Ġbec ome
Ġde v
Ġloc al
enc y
Ġor der
Ġwor king
Ġan al
Ġl and
Ġe le
Ġs chool
Ġg ive
Ġim m
Ġs al
j oy
il ities
Ġch ange
Ġb ody
ra p
Ġm oney
a ut
Ġagain st
o ot
ain s
d e
ic le
Ġcomp an
Ġf riend
re en
Ġpartic ular
H ow
Ġ Q
Ġhe ad
he re
u nd
Ġimpro ve
Ġt re
if ied
Ġst ep
Ġwh y
Ġc ult
ĠâĢ Ķ
Ġm ind
Ġne xt
Ġcer tain
Ġindust ry
Ġcommun ity
Ġdevelop ment
Ġf uture
it ing
Ġre le
k ed
ur ther
Ġd ig
g in
ĠW hen
n ed
o id
Ġme ans
Ġrel ations
Ġfinanc ial
Ġj ob
Ġl im
Ġrese arch
A s
Ġcl ass
Ġ 7
f ect
r ies
Ġd i
or ies
Ġexam ple
ĠC l
c o
n s
ĠB y
Ġs l
m e
Ġne ver
ir d
pp ing
h or
Ġt ru
c ent
i um
ar ing
con om
Ġm ove
am es
Ġa ir
Ġcur rent
Ġl ight
Ġqu ick
ic ation
iz ing
Ġm ov
Ġfu ll
Ġm ult
oo se
Ġse ver
Ġe lect
Ġcustom ers
l ish
Ġen joy
our ces
Ġma kes
Ġbu y
m an
Ġcont rol
ĠS he
Ġexp ect
Ġrep ort
ĠTh at
Ġare a
Ġfe atures
Ġiss ues
ur y
ill ion
our s
Ġcle ar
Ġcom es
Ġs ince
Ġv iew
c ing
Ġposs ible
Ġexper ienc
Ġed uc
it ut
ĠW hat
p ort
Ġd ays
Ġcle an
or ing
ab ly
Ġt urn
Ġo ld
w ork
Ġen ergy
Ġstud ents
ac y
Ġb ased
Ġdet ail
Ġa ud
ent al
at s
Ġother s
um p
em s
re t
eth od
Ġb as
Ġfu nd
Ġv ide
iss ion
Ġeas y
Ġman agement
Ġk ind
Y ou
Ġcompan ies
Ġp ain
Ġg r
Ġun ique
Ġso ft
Ġlar ge
Ġ 8
Ġac ross
ĠS c
a x
ivers ity
W h
Ġme an
a im
Ġsever al
Ġcustom er
l u
ĠC on
oc i
em ber
Ġtechn ology
as ing
Ġaw ay
Ġcour se
r on
Ġadd ress
Ġcomp et
Ġrelations hip
Ġeff ic
s c
Ġopt ions
pt ion
p os
Ġn at
t on
f or
in al
ĠY our
Ġresp ons
n ers
Ġ Z
Ġha ving
Ġstr ong
Ġto get
Ġh ig
Ġtoget her
Ġperform ance
Ġm ar
Ġto day
Ġchall eng
Ġcomm on
ĠO n
u g
ord ing
are nt
l f
as ter
Ġn et
ĠA t
ward s
r ist
W hen
us h
Ġmain tain
Ġchild ren
Ġg ot
Ġc ru
Ġpres ent
Ġcomple te
Ġne cess
is ed
ĠT r
o int
end ed
Ġd ra
or n
ĠB e
Ġo cc
Ġsp ace
Ġen c
Ġus ers
Ġt imes
Ġre view
iv ed
f act
Ġbenef its
ab or
Ġwee k
ff ic
ap e
Ġro le
2 0
Ġm ethod
Ġsec urity
y le
Ġsec ond
ore d
Ġe conom
Ġs ol
og n
Ġpol ic
ec ially
Ġf ore
k en
ĠG od
Ġt em
Ġal ong
Ġris k
at or
Ġmarket ing
er n
ire d
Ġth ing
Ġ 9
Ġs ite
Ġr ange
Ġper fect
j or
in c
is ing
ĠT e
ĠA ll
Ġprofess ional
Ġmem bers
ll ing
Ġprovid es
i od
Ġval ue
Ġcons um
Ġj our
Ġa ch
Ġhum an
Ġs w
Ġp ast
Ġ esp
led ge
Ġgrow th
et y
Ġf r
s ide
op e
Ġd am
ĠB l
Ġmed ia
ĠU S
Ġcon cer
Ġappro ach
Ġpr iv
Ġact ually
Ġph ys
Ġn on
anc ed
ip s
n ov
Ġindividual s
Ġro om
m it
ur ance
Ġwhe ther
Ġu nt
Ġcom b
in a
Ġde li
Ġp a
Ġd ue
Ġfollow ing
le t
Ġn ame
Ġtool s
du ct
Ġst ay
ĠC omm
Ġ2 00
Ġknow n
Ġp ri
Ġp ar
f er
Ġb ook
Ġcomm it
Ġwor d
Ġl ive
Ġc rit
ac es
Ġcount ry
Ġsh ort
read y
m in
Ġsystem s
Ġs ing
Ġwom en
âĢ ¦
id ence
Ġrec omm
oo ks
ul ation
im ate
Ġenh ance
Ġl ow
Ġev ent
ĠS e
Ġgovern ment
Ġta x
pp ed
ver age
Ġf re
m b
s p
Ġpur ch
Ġw ar
Ġc red
c y
ĠC an
Ġesp ecially
d ing
Ġsh are
Ġs ide
Ġc r
Ġem ail
Ġche ck
Ġam ount
c le
ou th
p s
Ġare as
Ġma jor
Ġe y
Ġcon d
Ġvis it
Ġc amp
Ġh old
Ġs ays
Ġresult s
b o
S t
ra ph
Ġh ouse
Ġal ready
Ġen ough
i res
ĠA I
n ot
ure d
Ġdig ital
Ġw in
Ġm om
Ġpop ular
le ment
ĠC ol
Ġget ting
F or
Ġchar act
e es
Ġint eg
p r
Ġam ong
o or
ir m
Ġwor ks
Ġdo ing
Ġre ason
Ġcru cial
Ġnat ural
at ic
ĠO r
ot s
Ġpre p
Ġcont ribut
Ġw al
Ġf urther
ĠP h
ĠM an
ĠE n
Ġde l
Ġtra ining
Ġbusiness es
Ġbr ing
Ġallow s
Ġdisc uss
Ġrec ord
Ġbe aut
ri ed
Ġtyp e
id s
Ġan t
Ġass ist
ob al
Ġne ar
od e
ver se
i ate
Ġst ory
il ar
Ġme as
oc u
if t
Ġd one
Ġp ress
Ġbe gin
ic ult
Ġleg al
Ġhelp s
Ġper iod
a pt
a ff
ĠIn st
Ġcol le
Ġincre ase
er t
' re
Ġ vers
ens ive
ar get
Ġdoes n
Ġhe art
ĠS u
Ġfun ction
Ġse lf
g ed
Ġret urn
i ans
Ġm il
os p
Ġw ays
Ġp le
Ġde al
Ġe ver
an n
on es
b r
The re
b y
Ġan n
os ing
our ce
Ġlear ning
Ġm en
Ġcl aim
id es
o h
Ġcol l
Ġaut hor
Ġf ar
Ġus er
Ġf our
ou ra
p ro
Ġlear n
ĠA pp
Ġcom fort
ĠCom p
Ġex ce
Ġear ly
Ġsoft ware
Ġcont act
Ġsk ills
Ġse arch
Ġunderstand ing
Ġbuild ing
sel ves
ĠR es
av or
Ġaut om
Ġunt il
Ġin it
res ent
Ġprovid ing
Ġl o
Ġtra vel
g es
it es
p ly
Ġsaf e
Ġdid n
ĠCh rist
Ġon ce
Ġyour self
Ġc al
Ġprev ent
Ġsit u
ra y
Ġyou ng
Ġlike ly
Ġm ot
Ġab ility
Ġknow ledge
Ġle ft
Ġwe b
it her
Ġpr ice
Ġch oose
Ġproper ty
Ġvide o
Ġcall ed
Ġhist ory
T o
Ġw r
os ed
Ġtra dition
a i
Ġre pl
ful ly
Ġdet erm
ur s
u se
Ġapp ear
le x
r ing
Ġdiff icult
c hes
Ġstud y
Ġph ot
m ost
Ġc ut
s w
Ġhig her
Ġl ine
Ġc ity
Ġ ut
Ġest ab
a f
ific ation
Ġta king
ĠO ur
ver t
Ġmus ic
Ġnecess ary
ĠD o
Ġevery thing
Ġproble m
Ġf ace
Ġc ra
Ġsaf ety
Ġpri or
Ġcost s
ĠT ra
Ġm ess
ĠE ng
Ġaff ect
Ġtr ust
ip le
Ġhapp en
Ġsome one
ap s
Ġp ort
Ġle ast
Ġquest ions
Ġex c
Ġb it
Ġactiv ities
ĠS erv
Ġoff ic
an e
at ors
iv ity
Ġreg ular
ie f
Ġav oid
Ġreg ard
Ġtreat ment
Ġrequire d
est s
Ġb al
t ers
Ġt arget
ir c
ist ic
Ġcl ose
ĠO ne
Ġcond itions
Ġdesign ed
Ġmonth s
Ġent er
Ġchang es
Ġd ocu
Ġb at
Ġrec ogn
al f
w ay
1 9
h ing
ill ed
Ġh ours
Ġsp e
Ġcol lect
Ġf ield
og raph
Ġover all
e al
Ġinf lu
ĠC ont
Ġpol it
Ġsim ple
er c
ĠI m
A n
Ġass oci
ct or
Ġstart ed
om es
g ing
ir t
ĠA m
Ġopt im
ric t
ĠL e
Ġor ig
Ġin nov
Ġmed ical
id d
Ġex ist
end s
c rib
th ough
ra in
. "
Ġthough t
u nt
Ġcho ice
re ct
Ġca us
Ġf it
ro om
er al
u ed
ĠF r
ĠWh ile
ang u
Ġde b
Ġdem and
p art
Ġ1 8
Ġpartic ip
Ġquest ion
Ġs ound
Ġreg ul
Ġexper t
Ġst ruct
Ġh ot
er y
Ġsk in
in king
ren g
Ġre ach
ag ed
en e
Ġcomple x
l ished
Ġde ep
1 0
il t
E R
Ġl oss
Ġw ide
Ġinst all
Ġte ll
u rop
5 0
ĠP r
Ġsu per
Ġneed ed
ĠC o
y n
Ġst ore
Ġres ources
Ġne g
Ġsu st
Ġse ason
Ġsolut ions
Ġchalleng es
Ġa ge
c hed
Ġquick ly
u ll
a pp
Ġpos ition
Ġsim ply
Ġdo g
Ġc ame
er r
Ġf ul
Ġl a
Ġc ou
Ġent ire
Ġm illion
g o
Ġs ense
Ġext ra
Ġem b
Ġg iven
Ġens uring
on y
t ime
Ġc ause
Ġproble ms
ĠS ome
Ġtyp es
ĠM ed
Ġo il
Ġevery one
Ġcont ract
is ions
c ri
g le
Ġ i
x im
Ġv ol
Ġsust ain
Ġmaterial s
ne w
Ġte xt
ro du
Ġcreat ing
Ġan sw
Ġse x
Ġopt ion
Ġ1 2
Ġmin ut
Ġn ight
Ġcl ients
Ġwho le
i able
Ġar r
Ġsal es
ĠN o
Ġlevel s
ot t
Ġsu gg
Ġl ater
Ġse en
Ġjour ney
Ġs at
Ġy et
u fact
Ġt as
l t
Ġdec ision
un e
Ġa ction
Ġsu m
Ġfriend s
Ġs le
l s
j ust
u ck
Ġw ind
h old
ĠAmeric an
Ġl iving
Ġinter act
le y
Ġterm s
ru ction
Ġp ack
Ġev ents
i k
olut ion
Ġb ar
Ġc e
l ight
Ġmin im
urop e
Ġins urance
ĠM ar
ĠUn ited
Ġhow ever
Ġab ove
Ġp ie
ac ks
Ġeduc ation
Ġsing le
Ġopportun ities
cl us
Ġpro b
hen s
Ġaddition al
Ġf ail
Ġinclud es
ĠR ep
Ġatt ention
Ġc y
ĠC ar
ĠC ent
at ory
ro ll
Ġrem ain
Ġsim ilar
Ġw a
Ġst reng
Ġlead ers
ĠM y
Ġgu id
Ġbre ak
Ġeng ine
ious ly
Ġcontin ue
l er
Ġp arent
ĠUn iversity
Ġ3 0
Ġw on
Ġrep resent
Ġbel ieve
ab les
Ġl if
Ġart icle
Ġapplic ation
is ter
b ack
her s
Ġup d
Ġredu ce
Ġcharact er
Ġf all
Ġem ot
Ġlong er
Ġfact ors
al u
Ġto t
Ġf low
Ġse lect
Ġthrough out
he ther
Ġide a
v ant
Ġ [
Ġve h
ress ion
p ar
Ġprovid ed
Ġs ens
Ġphys ical
Ġsm o
Ġp ers
Ġgl obal
Ġmod el
Ġrequire ments
ĠA fter
ul es
E O
Ġtoo k
Ġmat ter
b ased
Ġus ually
l oad
Ġc irc
Ġst at
v ent
ĠA ss
Ġach ieve
Ġ X
Ġopportun ity
ĠE urope
Ġanal y
ou d
Ġcred it
Ġvar iety
s h
at ives
Ġcon vers
au gh
ĠH ere
Ġj o
n ces
ir it
Ġth ird
Ġtradition al
ĠW or
Ġpos itive
Ġinvest ment
Ġexpl ore
Ġadv ant
re me
Ġr ather
Ġpolic y
Ġc ases
Ġag ree
Ġb ud
Ġab s
Ġob ject
Ġis n
ob ile
Ġse em
av ing
Ġgo als
c are
Ġl ay
f ace
Ġpract ice
ĠC ons
Ġres pect
Ġsub ject
Ġl angu
Ġw orth
Ġeas ily
Ġcons ist
it or
Ġ z
un ch
el t
olog ical
Ġiss ue
Ġimp lement
il i
Ġw atch
Ġf ive
ri p
ow s
er ous
Ġas pect
Ġg ain
c ome
Ġp age
Ġc ard
Ġ1 5
iv al
Ġman ufact
Ġac cept
et imes
ienc y
ys is
Ġbl ood
Ġd ed
Ġg en
Ġl ower
em ic
Ġenc oura
y ond
Ġstrateg ies
ail y
he t
Ġwe ight
um m
ĠG u
Ġexce ll
Ġpr im
Ġst ress
Ġbeh av
ĠS ec
ive ly
Ġe ither
ĠS y
Ġlead ing
Ġl og
Ġs ize
Ġmod ern
Ġr ate
r ant
Ġstrateg y
Ġrece ive
Ġcan not
Ġst aff
Ġrecomm end
B ut
ec ut
Ġst e
is c
ir ing
Ġnew s
. ,
C h
pl ay
Ġh y
i ol
Ġemploy ees
Ġmult iple
Ġdam age
Ġas k
Ġapp ly
Ġfe ed
Ġt ou
Ġprodu ction
op s
ĠH is
Ġproject s
Ġg round
if ul
Ġma ch
Ġha ir
Ġin j
is es
en ing
ol l
Ġthem selves
Ġd est
Ġany thing
ere nce
res h
Ġident ify
min ist
Ġinteg r
Ġn ature
p ose
Ġatt ract
Ġr out
ĠR eg
Ġgener al
Ġco ver
Ġprom ot
Ġw ent
he ad
z e
Ġper cent
w or
Ġc oun
Ġf oot
A T
ov ed
A nd
Ġprogram s
Ġorgan iz
ĠU s
O ne
Ġre d
Ġal most
Ġass ess
or por
g est
Ġcomp ut
a ign
Ġto wards
end er
ur ch
Ġta kes
Ġexperienc es
ter m
Ġma g
Ġe t
Ġcare er
Ġbeh ind
Ġta ken
Ġaud ience
ct ions
Ġmom ent
Ġfe ature
Ġsolut ion
Ġst yle
S o
Ġl at
Ġtre nd
ru g
Ġimm ed
Ġtry ing
Ġqu ite
Ġright s
ĠA g
Ġem erg
Ġd om
ĠE m
âĢ ĵ
oo gle
W ith
Ġbe low
Ġtru e
Ġeffic ient
s y
Ġparticular ly
Ġincre asing
Ġtrans form
Ġ .
Ġoff ering
Ġpart ners
ip ment
Ġtra ck
Ġup on
p ut
ac hes
re hens
ĠF rom
it able
Ġh ost
o x
Ġdetail s
u ff
Ġa im
Ġwrit ing
Ġl ives
Ġcount ries
I N
dition ally
ĠM ay
Ġg ames
d d
Ġaw are
Ġf ast
Ġout side
Ġword s
Ġfor ward
Ġread y
ĠSt ates
ĠN ot
rop ri
i ver
Ġprofess ion
Ġs ent
Ġf avor
Ġacc ording
Ġw ond
E S
pl es
in ks
ove red
on st
Ġb i
Ġpriv ate
ĠD r
Ġcoll abor
Ġm iss
Ġpre c
Ġtal k
Ġcont ain
as ons
Ġnet work
iz es
ĠK e
Ġit ems
Ġintern ational
ast ic
Ġcommun ication
l ike
Ġex erc
m ber
Ġca pt
r ast
e xt
re w
Ġoff ice
Ġthe rap
Ġfr ont
w ise
m ing
en n
Ġch at
re c
ĠA f
ĠIn tern
Ġm or
ĠA ct
Ġplay ers
Ġind ic
Ġpart y
Ġpract ices
ag er
Ġt our
t t
Ġel se
Ġc ell
Ġminut es
Ġhe av
c king
um e
Ġcre ated
w w
Ġre v
Ġdr ive
ill ing
Ġle ave
Ġpoint s
Ġrel ated
Ġro ad
Ġins ide
Ġdis e
om s
Ġto ld
Ġcult ure
Ġsub st
ic ro
Ġeffect s
ĠC he
Ġbud get
Ġit self
r s
Ġse ll
u ge
Ġm ass
er ve
Ġrec ent
Ġacc ur
ic les
ĠC O
A R
an ks
g ra
Ġcrit ical
Ġsh o
w here
u x
ĠHe alth
Ġsugg est
Ġcamp aign
Ġbeaut iful
Ġut il
Ġpat ients
Ġorgan ization
Ġd ate
s u
ĠF l
op h
Ġhealth y
it ch
Ġref lect
Ġsec ure
H e
ĠM e
Ġdeli ver
ub lic
Ġgu ide
b ook
Ġb ad
ĠP art
em pt
Ġsle ep
av ig
Ġcom ing
Ġdirect ly
Ġsuccess ful
ĠSt ate
Ġplatform s
ĠJ oh
Ġd aily
Ġ1 00
Ġcons ult
Ġn orm
Ġcon dition
ro wn
Ġal tern
er a
ĠC al
Ġan im
Ġst ream
Ġ ill
ĠQ u
Ġo pp
Ġh ope
Ġc ry
Ġsh all
anc ing
Ġman age
Ġinvol ved
Ġp ath
Ġeconom ic
in ary
Ġas ked
Ġst ra
Ġfre qu
ach ing
Ġdef in
Ġf ig
Ġcour t
Ġsat is
Ġint rodu
Ġplan ning
Ġon es
t ies
Ġprob ably
Ġsitu ation
Ġser ies
Ġr ates
Ġex act
Ġso on
b all
ac ed
stand ing
Ġcol or
ĠA cc
Ġtyp ically
Ġh alf
re et
Ġde ath
Ġd ou
Ġallow ing
rehens ive
Ġstep s
Ġph one
and s
um b
ect ion
Ġval u
o ice
Ġloc ation
air s
h ood
m ed
Ġres id
Ġpl ans
ic ations
Ġad just
3 0
iqu es
Ġwant ed
c ast
Ġlangu age
o le
Ġqu al
a ur
ep end
ten ance
at t
ĠM in
Ġins p
Ġrequ ires
ĠA b
Ġshow s
ide red
st er
c ks
Ġpre d
Ġl ink
Ġbe yond
Ġpolit ical
art ment
Ġf ire
Ġb ed
Ġeffective ly
ĠG oogle
Ġex cept
Ġpl ant
Ġn ut
p re
g round
Ġfin al
Ġhigh ly
o on
Ġassoci ated
Ġs we
Ġpurch ase
Ġdec isions
A l
Ġv iol
Ġwh ite
s pect
Ġexcell ent
le ction
on se
Ġg ir
Ġequ ipment
Ġbl og
Ġpower ful
ĠW hether
Ġp ick
i ation
Ġn ational
Ġcon duct
ĠP res
Ġbu ilt
I D
Ġsp eed
ĠN ational
Ġh arm
Ġ ur
Ġsp irit
Ġanal ysis
Ġbro ad
Ġo bs
Ġh on
Ġbenef it
Ġc at
Ġg am
Wh ile
Ġpro ced
Ġmean ing
Ġpress ure
ĠP e
he l
ĠF in
Ġf ram
ĠP er
ĠA ust
Ġbl ack
is on
Ġadd ed
Ġcons idered
Ġv ac
ar ies
O n
A N
Ġs ix
Ġnot hing
Ġ Â
Ġfil m
w h
Ġc am
it ation
Ġpay ment
Ġlim ited
Ġprotect ion
Ġprog ress
Ġm ention
Ġ19 9
Ġdev ices
Ġf resh
Ġde g
Ġf a
Ġm atch
Ġsupp ly
Ġmethod s
Ġce le
for ce
Ġstand ard
Ġgo al
h ib
re g
Ġgroup s
Ġrequ est
Ġb ase
Ġspe ak
Ġapp ropri
Ġst op
Ġsit es
Ġide as
Ġgrow ing
ĠI nt
O N
un g
Ġrun ning
Ġ1 1
se qu
ĠS outh
Ġdocu ment
Ġapplic ations
ĠD ep
Ġ 0
Ġp en
Ġst ru
Ġincre ased
Ġ '
Ġhand s
Ġsu bs
Ġs low
Ġrem ember
ar ant
Ġtou ch
ak es
ab ilities
Ġc op
Ġm ental
ial s
Ġm obile
Ġbec ame
Ġany one
Ġp ict
Ġc and
Ġinst itut
Ġpur pose
Ġth reat
an a
Ġdes crib
olog ies
ĠB u
Ġor d
id ed
.. .
Ġorganiz ations
Ġdra w
Ġl i
ĠF e
Ġd rug
Ġ5 0
Ġp an
Ġcon cept
Ġcomp on
v est
Ġ202 4
n a
ic ated
Ġf lex
Ġtem per
ere nces
ud e
Ġj ud
, "
Ġext reme
Ġd iet
Ġw all
Ġsy m
Ġeff ort
Ġpart s
ĠG l
Ġeas ier
sy ch
om ing
li er
B y
Ġeff orts
ict ion
Ġex ecut
Ġcor rect
ens ion
Ġv ia
Ġad apt
Ġbal ance
Ġb ur
Ġ ing
ut h
Ġpa per
Ġinst ead
Ġev alu
Ġstreng th
Ġl ab
ar ily
ĠWor ld
ĠS m
ol ic
Ġmem ber
Ġma xim
Ġu lt
Ġpre t
Ġcomp rehensive
Ġsc he
Ġn avig
Ġstud ent
Ġeffic iency
Ġtot al
ad a
Ġintern et
enc es
ish ing
or age
Ġad minist
Ġag o
Ġins ights
ĠY ork
Ġb ank
ĠJ ust
ĠP re
Ġh ol
Ġide al
Ġob tain
Ġad vert
Ġs ource
Ġco ol
o ber
Ġra d
ĠD on
Ġactiv ity
ed eral
Ġland sc
Ġinc ome
ad es
it ary
il le
Ġexp ress
y l
Ġdev ice
Ġt able
Ġu nd
Ġestab lish
Ġsa ve
Ġrele vant
pl ace
Ġet c
ĠR ec
av es
Ġcer t
f riend
Ġth inking
A t
Ġsa w
ĠAf ric
Ġown ers
Ġparent s
Ġey es
Ġm ix
se c
w ord
ib ly
r ate
1 2
ĠM ore
Ġvalu able
ens es
ĠB o
ĠIn c
ag n
Ġev idence
ess ion
Ġg iving
Ġgo es
am ent
Ġprofession als
Ġth r
Ġrece ived
' ve
m ore
Ġconnect ion
Ġsignificant ly
im in
Ġg ives
ear ch
en ge
h a
ĠC ity
O R
Ġwee ks
l ation
Ġl ic
Ġrelationship s
Ġhist or
Ġresp onse
A S
Ġs il
Ġsm art
u le
qu ality
ant ly
Ġcap ital
Ġ2 4
Ġresp ond
cri ption
Ġcomm er
Ġdiffere nce
Ġprocess es
Ġpre m
ĠO f
Ġtechn iques
it c
Ġf air
ĠInd ia
Ġey e
Ġd ream
Ġf ight
ĠM arket
Ġhealth care
Ġt ail
Ġansw er
al es
ch an
Ġcl ient
Ġse par
Ġful ly
Ġcomplete ly
Ġ1 4
Ġaff ord
al ing
Ġt ips
y ing
A C
Ġoper ations
id ing
o very
Ġm is
Ġar ch
Ġsom etimes
Ġhe ld
l ig
Ġd ark
ĠSt ud
Ġf elt
Ġch ance
Ġmain tenance
Ġpat ient
Ġadv anced
Ġmeet ing
Ġris ks
Ġbe gan
Ġar g
Ġimport ance
Ġcontin u
Ġexperienc ed
Ġpat tern
Ġregard ing
al y
Ġtrans port
Ġre asons
Ġcon ven
Ġ ver
Ġm ale
Ġem p
ĠM any
Ġ1 6
ĠH er
am s
Ġd ri
Ġele ments
es c
Ġbo ost
Ġbl ock
b or
ĠU K
Ġpre fer
Ġexpl ain
ac hed
I S
ec ause
Ġrespons ible
ist ics
ell ig
h aps
idd le
Ġens ures
Ġbo x
Ġt it
ĠN orth
ous ly
pp er
Ġal ign
Ġpro pos
ĠA re
Ġe p
ĠAmeric a
ĠN ow
ĠS oc
Ġpr inc
Ġteam s
Ġcou ple
Ġorig inal
ĠCh ina
Ġpr ices
Ġc ross
Ġk ids
Ġfeel ing
ĠR uss
es e
Ġs n
ly ing
Ġd ry
Ġh it
Ġveh icle
ce ed
Ġpa id
Ġdown load
Ġsc reen
Ġsu ff
Ġbo ard
am ic
n al
Ġac qu
Ġd iv
as c
ĠH ar
Ġdist ribut
Ġse ems
Ġatt empt
Ġm other
Ġd ur
P ro
il ies
l im
' ll
he st
Ġl ost
Ġpre f
ĠServ ices
Ġad op
O ur
Ġset ting
il s
Ġhe at
ĠB ar
Ġcon c
Ġus es
Ġlat est
Ġst ates
Ġdem onst
Ġre ve
Ġcar ry
Ġre nt
ĠL et
Ġexpert ise
Ġro b
ĠAd ditionally
Ġstru gg
k er
Ġadv ice
Ġread ing
k y
ĠD es
Ġse ction
Ġmod els
Ġwork ed
Ġpe ace
Ġw arm
Ġa verage
Ġstand ards
Ġcommit ment
umm ies
E D
Ġl ed
Ġhelp ing
Ġst age
ĠT w
ter y
ĠP ar
Ġstart ing
id ay
Ġc ash
er ia
ĠH igh
Ġappropri ate
Ġg reen
Ġc ook
i ately
I T
ir th
Ġinclud ed
Ġto wn
Ġh or
Ġf ix
bo ard
Ġh uge
Ġtrans act
E x
Ġocc ur
ĠO ff
Ġexp and
Ġgu arant
Ġcomfort able
Ġple ase
ic ing
Ġsu n
Ġdo or
Ġgreat er
Ġv irt
ĠB usiness
a ks
Ġf irm
Ġinvest ig
Ġw ood
A d
ĠC our
Ġnot e
Ġf ra
Ġf at
il es
g ar
Ġpl aces
rough t
Ġwom an
b d
Ġwr ong
am m
Ġl ib
Ġpart ner
ĠA ut
Ġapp eal
Ġconst ruction
Ġl ate
' m
Ġexpect ed
Ġmov ing
Ġconcer ns
ent y
Ġclean ing
y ear
re l
Ġcommer cial
r ated
/ /
Ġt ast
Ġt en
Ġcommun ities
Ġadv ance
1 1
id ge
I C
Ġser ve
Ġplay ing
Ã ©
Ġind epend
Ġ2 5
ĠJoh n
Ġcurrent ly
enc ies
Ġelect ric
ru pt
i os
hip s
ra el
ic ip
Ġhapp y
Ġsee king
Ġsp orts
ash ion
Ġn ar
âĢĿ .
Ġcele br
Ġexist ing
Ġf arm
Ġsp end
Ġtrans fer
Ġreg ion
p ris
Ġstra ight
Ġreg ist
Ġ202 0
et er
Ġsp ot
Ġwrit ten
Ġdisc over
Ġdevelop ed
Ġl ack
Ġpret ty
Ġact ive
anc y
ron ic
Ġdeterm ine
E N
Ġnum erous
Ġgra du
Ġp et
m ission
Ġst orage
ain t
Ġcult ural
Ġsmo oth
ĠU se
Ġadvant age
ĠAust ral
Ġ202 3
ĠAr t
ĠM r
ff ee
Ġr ules
Ġst ories
iven ess
Ġgener ally
Ġb reat
The se
I s
Ġimmed iately
os ure
ve y
ite ly
Ġb ab
Ġtas ks
Ġbehav ior
Ġt ur
iv il
ĠM ost
Ġhand le
Ġsur round
Ġtra de
m a
Ġtru ly
Ġ1 3
Ġnot ice
Ġb ag
Ġdi verse
ĠC ount
en ed
Ġg old
Ġwork ers
Ġinter view
Ġstruct ure
ff ect
friend ly
in o
Ġvers ion
m on
Ġtra ffic
d om
Ġlim it
ĠThe n
Ġs ong
ch ange
Ġset t
ĠThe ir
Ġcor por
Ġpart ies
Ġb us
Ġcomp ared
Ġenvironment al
or g
Ġ1 7
Ġv ict
ĠS chool
Ġte ac
Ġdise ase
ĠA ir
i pping
Ġad ult
ru it
e v
up s
Ġpie ce
Ġsh ared
pt oms
Ġing red
Ġfam ilies
Ġwond er
Ġout d
Ġref er
? âĢĿ
Ġchall enge
Ġh osp
Ġs qu
Ġapp rec
Ġs end
: //
Ġinform ed
ic a
Ġbas ic
ative ly
ac ity
ĠB r
Ġb all
Ġbel ie
Ġdeli very
Ġrem ains
Ġprodu ce
az ing
ĠW ar
Ġinc orpor
om p
Ġcomput er
Ġinvol ves
ĠG e
Ġpres ence
Ġcertain ly
ĠD is
ĠS EO
A fter
Ġreview s
Ġcent er
Ġde ad
Ġchar ge
ĠPres ident
w ide
ĠE ven
Ġf ear
Ġh ous
Ġsoc iety
Ġrep ut
Ġc ode
Ġpolic ies
Ġprim ary
ef ore
Ġrel iable
Ġb ra
Ġlar ger
Ġme chan
ĠR em
f ree
b on
Ġfor mer
ĠN et
Ġr ich
Ġmach ine
Ġinit i
ĠS w
Ġb ooks
us ed
Ġmeas ures
ĠG ener
Ġexact ly
1 5
le ase
Ġmove ment
b ody
ĠL aw
Ġdr iving
Ġrec ently
Ġvis ual
Ġwebs ites
ph as
m y
Ġt er
Ġra p
Ġexerc ise
Ġp sych
ven ue
ĠPro f
Ġest ate
Ġrepl ace
ĠT H
Ġaspect s
ĠW ill
Ġinflu ence
form ation
ve re
ĠG erm
Ġfind ing
ĠM c
Ġal one
Ġtra d
ĠJ es
Ġim age
ough t
Ġ4 0
Ġcolle ction
Ġtest ing
Ġact ions
Ġsay ing
ĠIs rael
Ġd yn
o ff
Ġcl in
Ġcl imate
Ġch ann
be ing
ap an
ĠR ed
Ġim ag
Ġc ateg
Ġg as
Ġv oice
Ġd ating
Ġser ious
Ġv ital
Ġwal k
Ġprev ious
Ġm ount
Ġg ard
Ġlaw s
Ġdis play
Ġmy self
Ġinterest ing
ify ing
Ġne igh
Ġinterest ed
ruct ure
oc ks
Ġ202 2
s et
Ġtechn ologies
Ġexper ts
Ġlo an
a res
Ġsp read
g ram
Ġfavor ite
Ġemot ional
it ect
Ġtechn ical
Ġv ib
Ġro of
Ġl ooks
Ġte le
ĠS te
Ġval ues
ĠComm un
Ġche m
Ġrel ig
Ġa part
ĠP ark
Ġt im
in ct
Ġsc ient
Ġcand id
Ġoff ered
Ġb rought
un ction
ĠJ an
ĠTe chn
Ġe th
Ġwas n
Ġeng agement
A L
Ġstud ies
Ġrem ov
am ed
Ġa head
Ġbec omes
Ġdep ending
Ġget s
over n
ar ter
Ġrel ax
ĠS im
olut e
ĠF irst
ĠE d
Ġach ie
Ġd ang
Ġhe ar
Ġfor ce
ĠServ ice
ĠBl ack
Ġb an
Ġsustain able
Ġim pl
Ġdevelop ing
Ġmaintain ing
Ġrele ase
Ġs ources
Ġkeep ing
Ġwr ite
et ic
o k
ur t
. )
Ġth ous
ĠE very
row s
o ke
Ġinst ance
Ġ202 1
b an
Ġrec ip
Ġs old
Ġr ound
Ġbas is
Ġmeas ure
Ġhim self
Ġt end
Ġcomp li
ĠTr ans
Ġmess age
Ġf ost
ĠM us
Ġsee k
Ġk new
ffic ient
ĠB rit
Ġb ott
Ġbegin ning
ĠA c
ĠH ouse
Ġmil itary
am ple
l ies
Ġb rain
Ġre act
Ġse ctor
Ġsym ptoms
Ġhe ard
erson al
ĠM on
Ġded icated
Ġuse ful
Ġv ary
Ġt rip
ĠP a
Ġassist ance
ĠW est
ĠF ace
e k
Ġfund s
Ġregul ations
Ġre ality
Ġvis ion
T hat
pr ise
v al
oy al
Ġtrend s
ash ing
Ġac ad
Ġinst ruct
l ines
Ġsur face
du le
Ġcreat ive
Ġsum mer
ĠV al
ul ate
ĠU nder
Ġbeaut y
Ġcompet itive
Ġlandsc ape
us ion
ang ing
ĠComp any
Ġst y
u ary
ic ate
her n
im ately
go ing
Ġn ation
ĠT V
Ġint ellig
ĠO ver
d own
Ġwe ar
Ġredu cing
ĠJes us
Ġeng age
ĠEng lish
Ġs ort
Ġcry pt
Ġpers pect
Ġsc ience
op er
Ġf ather
Ġco verage
Ġestab lished
eng th
z y
Ġstat us
Ġem phas
Ġst ri
ore s
Ġcons id
Ġfe es
Ġprom ote
ord er
O S
ĠD irect
Ġcontin ues
im ent
Ġmarket s
ut e
i ra
Ġst ock
Ġw ild
Ġsc en
Ġare n
Ġpl ants
Ġcl oud
ĠO nce
Ġprocess ing
und red
Ġear n
Ġrest aur
Ġdefin itely
Ġmon it
Ġeconom y
Ġapp li
Ġloc ated
s es
ĠJ apan
Wh y
Ġatt ack
ĠC le
Ġ ir
Ġdeg ree
ĠJ u
Ġmor ning
Ġtal king
Ġinc red
ĠEurope an
Ġres ist
Ġh ar
Ġturn ed
Ġm ark
Ġf em
itut e
6 0
ress ive
D o
r an
Ġlead s
Ġmanufact ure
c il
Ġinterest s
Ġdec ided
Ġh tt
ĠC ustom
Ġwe ather
Ġw ish
if orn
ur ies
Ġcirc um
o e
du c
Ġfe et
mit ted
b it
Ġprovid ers
ĠD ata
itc hen
re st
it iz
ĠTr ump
i ance
Ġallow ed
v is
r ight
Ġcho ices
rast ructure
Ġback ground
Ġfeed back
Ġtra ding
Ġcont ext
ĠE l
Ġleaders hip
Ġg ave
Ġsex ual
Ġinnov ation
Ġev ol
Ġform s
Ġcl ick
om en
Ġm id
ĠE ar
lic k
g ment
Ġb illion
am a
Ġdep end
oc r
Ġh ab
Ġlook ed
el ines
How ever
Ġcap acity
Ġco ffee
Ġ19 8
Ġe at
ĠCour t
ĠDe velop
Ġf ashion
Ġsy mb
r ative
ĠWe ll
Ġbec oming
Ġan x
Ġreport ed
ate ver
Ġapp s
oc ol
ar c
ent ure
Ġnorm al
ĠCent er
Ġ esc
Ġclaim s
S p
pos es
Ġop in
Ġass ets
Ġl oad
Ġc ris
Ġthere fore
re ed
Ġp ages
iforn ia
Ġfe ll
Ġschool s
ograph y
it ude
am in
Ġsur v
Ġwas te
ar a
Ġrem ove
Ġaltern ative
Ġg ar
Ġhigh light
ĠK ing
Ġplay er
The y
Ġcontribut e
Ġocc as
Ġh omes
Ġtherap y
ĠO ct
Ġproper ties
Ġlit er
Ġbrand s
Ġf ile
Ġf ine
r ial
E C
Ġpub lished
Ġcal c
ic ks
Ġtr uth
Ġconsum ers
Ġim ages
Ġsol id
Ġextreme ly
S h
Ġemploy ee
Ġnum bers
A ll
Ġb irth
ĠC oun
Ġrep orts
ific ations
now n
Ġam azing
Ġpro p
H ere
Ġp ush
1 8
clus ion
Ġfa ith
h ouse
Ġ /
ib ilities
ke y
Ġpass ion
Ġcl os
Ġcol d
te e
Ġprinc ip
Ġprovid er
Ġ err
Ġn ice
Ġl ines
Ġpract ical
ĠU p
r im
iss ions
ĠCh ar
ĠO ther
Ġd rop
Ġm ist
r ig
z z
o ly
Ġchalleng ing
Ġsa v
Ġret ail
Ġh undred
Ġcoun ter
ĠD ay
Ġproper ly
Ġc ore
Ġm aster
ĠIntern ational
Ġpur poses
Ġl oved
d ed
Ġwe l
Ġwant s
r ary
por ary
ĠM ake
Ġother wise
ac ing
ĠB ro
Ġm o
Ġsp ent
Ġsign s
ra w
ĠG roup
Ġcon v
Ġstrateg ic
Ġpo or
ag ue
Ġhelp ed
il it
Ġfocus ed
Ġs en
Ġnet wor
he nt
or ough
Ġingred ients
ĠEx per
Ġrep air
ĠD em
ĠC B
ul ated
Ġrem ind
Ġcompon ents
Ġenhance ment
ic ial
g en
i ant
in y
Ġguid ance
ĠCan ada
h ol
Ġinnov ative
Ġf ederal
Ġmention ed
Ġto ward
Ġdocu ments
t ics
ast s
ĠO ut
Ġsu itable
Ġadd ing
Ġenter tain
ĠAss oci
ĠG et
ĠM arch
Ġcaus ed
Ġchang ed
ili ar
V ID
Ġmay be
i pped
ĠG o
Ġant i
Ġstate ment
Ġsh ape
Ġpr int
us es
Ġcop y
m ar
az on
Ġjob s
ub e
Ġh our
ĠE ach
Ġw at
ĠAl so
Ġv ot
het ic
Ġg e
Ġm icro
N ow
ĠCal ifornia
ĠSy stem
ĠFace book
Ġpop ulation
Ġear lier
Ġinvest ors
Ġact ual
Ġwa it
Ġconf idence
ĠPl an
Ġplay ed
il ing
Ġinit ial
Ġrap id
ĠD av
Ġgl ass
Ġ #
Ġtas k
Ġcho osing
oth ing
Ġse am
h am
Ġdetail ed
ib er
Ġd en
od ay
ĠIt s
tern al
Ġfl u
Ġcent ral
Ġconf irm
Ġe c
Ġcircum st
ct ors
ri ef
M y
Ġfore ign
it ors
ic ed
Ġeng aging
Ġf ans
an ch
ĠA v
Ġal though
ren ch
it ness
ĠC or
ak er
ĠB est
at ically
ra ce
Ġper haps
pr il
Ġpref erences
Ġp ow
Ġchang ing
Ġtemper ature
Ġcompli ance
Ġl ux
Ġg ummies
Ġcolle ge
Ġarch itect
Ġ201 9
Ġcan cer
or ation
Ġdo ctor
ĠP ol
Ġext ensive
ra d
Ġr ise
is ation
1 4
b u
Ġsh aring
c he
ist ry
Ġident ity
Ġnear ly
Ġaccount s
Ġsl ight
Ġsmall er
Ġencoura ge
2 5
Ġman aging
ĠMan agement
Ġinf rastructure
es tern
u gh
Ġrecomm ended
Ġbab y
Ġtr ial
Ġprep ared
ra ft
Ġal le
Ġpriv acy
ĠDep artment
Ġcontin ued
Ġvide os
Ġdou b
Ġpol ice
e per
Ġapp oint
Ġdes p
ol f
ic ine
Ġacc ident
ĠG overn
Ġs ou
Ġconsum er
ĠB ecause
com es
w ood
Ġadvert ising
oc al
Ġfl oor
Ġspecific ally
ĠSt r
Ġt rou
Ġfig ure
Ġful f
M S
Ġconsid ering
ĠSe pt
Ġmot iv
h y
Ġc ivil
r ont
omm od
Ġconf lic
Ġrec overy
ĠI T
ĠP al
un n
ĠM od
Ġan c
Ġabs olute
Ġd oll
ed s
h us
ĠInd ian
Ġorig in
R E
com ing
Ġsh own
Ġcomb ination
ĠA ug
ove mber
erv ation
Ġinj ury
Ġfin ally
Ġwho se
Ġheav y
as k
ĠPro gram
e qu
Ġst uff
An other
b and
Ġdi agn
Ġc overed
or row
Ġc bd
Ġrout ine
Ġtra in
ines e
Ġpo ol
S ome
P S
ĠW ork
Ġhig hest
est yle
ess ions
Ġagree ment
Ġexp ensive
d r
ĠJ une
ĠP ay
Ġoffic ial
and emic
Ġrespons ibility
Ġneg ative
Ġdec l
Ġl ength
Ġrem ote
Ġseam less
Ġcall s
ch ol
Ġsim pl
Ġbuy ing
Ġass ign
Ġra ce
Ġcap abilities
Ġt ri
ric s
Ġp ull
y er
Ġob v
âĢĿ ,
Ġsche dule
U n
b ur
Ġview s
Ġsymb ol
Ġf urn
l in
n es
ĠP at
ond on
Ġm ission
c ious
ĠRes earch
ĠS an
Ġregular ly
Ġlear ned
Ġpie ces
P h
Ġfun ctions
P A
ire ction
Ġk itchen
l ife
ren cy
Ġpay ments
Ġprior it
1 6
U S
um s
ag ram
Ġvisit ors
Ġtal ent
od es
N o
er o
ound s
1 3
ienc es
Ġwill ing
ĠL ear
Ġclear ly
an i
ĠL ord
ĠCount y
Ġsee ing
Ġimpro ving
Ġob lig
Ġconnect ed
Ġk n
Ġre venue
Ġth orough
Ġold er
ĠS en
Ġro ll
Ġwor ry
Ġse lection
Ġfu el
Ġinc l
Ġjo in
Ġaccess ible
ĠS k
Ġdec ide
Ġdesign s
Ġimpro ved
Ġprom pt
Ġf ab
ag ers
Ġspirit ual
Ġcompet ition
Ġf ol
al ed
Ġlar gest
Ġch urch
Ġpattern s
Ġr an
mer ce
Ġg ather
Ġm iddle
Ġcon sequ
a ult
Ġag ency
Ġcour ses
Ġappear ance
ell ing
ĠPe ople
Ġpl ays
a j
t ion
v ision
Ġl ad
Ġlead er
f ol
i am
Ġins pect
Ġexp enses
Ġf ish
Ġrecord s
Ġaccur ate
Ġ19 7
Ġc ards
ĠIn s
Ġ201 8
al d
Ġfund ing
ce mber
ĠA pril
Ġinvol ve
A M
Ġb ond
Ġcould n
Ġcircumst ances
Ġhappen ed
Ġs on
Ġsc ale
erv ed
fact ion
Ġnavig ate
as ure
Ġtrans p
hus i
Ġs ale
Ġsp ending
ĠAl though
Ġb oy
Ġhelp ful
Ġex change
Ġsh ap
Ġaut hent
ĠH ome
1 7
Ġde lic
m p
ĠC are
Ġ6 0
ĠAn y
Ġent husi
Ġvirt ual
Ġcl ub
f low
Ġcommit ted
l a
Ġintern al
Ġacc ommod
Ġse lling
c les
ĠWh y
un ately
Ġdeb t
Ġhapp ens
Ġown er
g n
Ġw ed
Ġatt or
Ġatt end
pt ions
Ġchem ical
ĠOct ober
Ġsatis f
Ġt ried
Ġpro te
Ġpict ure
Ġm er
Ġmajor ity
Ġc itiz
se e
Ġgood s
Ġshow c
Ġl ose
O T
Ġb ath
ĠN e
Ġadvant ages
Ġfac ilities
Ġprof ile
ro te
Ġgener ation
ic on
Ġcomp l
os is
Ġcent ury
rel ated
Ġgr ant
Ġh op
Ġbe g
ic king
Ġoper ating
ac king
b l
un ning
ĠDes ign
Ġsur pris
p en
Ġmonit oring
os ition
Ġfre ed
augh ter
Ġt ick
ĠN ovember
Ġconsist ent
Ġafford able
Ġexc iting
ĠJan uary
Ġl abor
oun ced
Ġcol ors
ĠE duc
ild ing
âĢ ¢
ĠJu ly
Ġb ul
ugh t
est ic
ail s
Ġwe ak
Ġbig gest
Ġf ant
ĠE v
pre ne
Ġcare fully
Ġp ills
Ġpred ict
Ġval id
ar ge
it ure
ĠD el
Ġbat tery
ar i
Ġoutd oor
ĠCh inese
f it
ĠL ondon
Ġd ress
Ġfact or
ĠR el
k nown
Ġth us
o om
Ġsett ings
Ġfollow ed
re prene
Ġpl enty
Ġpersonal ized
Ġmov ie
Ġb and
Ġf aster
al t
id ents
Ġcomp lic
Ġphot os
2 4
Ġfrequ ently
Ġann ual
ĠCO VID
es ter
Ġexpect ations
Ġ ,
ĠSoc ial
Ġeduc ational
Ġacad emic
m at
Ġcollabor ation
ĠS ur
un k
Ġm ill
Ġp andemic
Ġqu ant
Ġb ound
Ġp u
od ies
Ġcomple ted
ĠSept ember
qu e
ĠB et
esp ite
Ġex clus
ul a
B e
Ġex cess
Ġear th
ger y
Ġrele ased
ĠÂ £
Ġcaus es
Ġm ent
i ers
ĠAm azon
ul ations
Ġanx iety
ur d
Ġw ife
Ġv ill
idd en
ut y
r ition
Ġle aving
id a
Ġlot s
Ġout comes
ri age
Ġte aching
Ġd irection
ar ian
Ġg rand
Ġcomp ens
ĠM ich
Ġl inks
Ġconvers ation
er ies
Ġleg is
Ġfac ilit
Ġke pt
Ġinstall ation
Ġcharact ers
Ġinflu enc
Ġj oint
ĠS ince
ĠJ ew
ĠV is
Ġsp aces
Ġpotential ly
Ġmov ed
m aking
Ġb ill
e ah
Ġsho pping
ĠAfric a
Ġa id
in ting
Ġel imin
Ġra re
- -
Ġgam ing
Ġ2 1
Ġwh atever
Y es
Ġon going
Ġt ree
Ġbr ings
Ġsu gar
ĠL a
Ġtail ored
ĠIn formation
Ġlif estyle
ĠL eg
Ġr ule
is hes
Ġsitu ations
Ġthough ts
b ing
Ġv it
Ġen ab
Ġv ir
Ġm ort
Ġun c
E T
el ine
Ġsh op
u k
Ġwe alth
ĠRep ublic
m as
ĠSp ec
ĠRe ad
Ġen able
urther more
g y
Ġsec ret
Ġveh icles
ĠDe cember
Ġsupport ing
ĠAug ust
Ġrep e
em y
Ġadv is
Ġproced ures
Y our
Ġbl ue
Ġintellig ence
Ġfood s
Ġtit le
Ġrest rict
Ġfam iliar
Ġcre ation
cept ion
Ġhy d
Ġte ch
Ġp ray
out s
Ġprem ium
ĠPro t
Ġw rote
ip l
Ġtast e
ĠE ast
Ġset s
Ġresid ents
Ġc ast
Ġdes ire
A P
Ġf an
ĠIn ter
ĠAustral ia
Ġinstitut ions
ĠCol le
Ġcell s
Ġstand s
Ġla unch
Ġfe e
Ġg ift
Ġa ward
om pl
ph one
Ġtrans ition
Ġguarant ee
4 0
Ġflex ibility
ĠPl ay
ĠP ort
ĠS ub
Ġupd ates
ĠB el
Ġcon cent
Ġex hib
Ġthous ands
Ġindepend ent
ul ner
u ro
Ġmanufact uring
Ġsubst ant
Ġaware ness
Ġfeel s
Ġh om
Ġcomp ar
ĠChrist ian
Ġest im
Ġfor get
it ter
Ġdog s
Ġf ill
Ġse vere
Ġpro spect
Ġ ign
Ġdist inct
Ġswe et
Ġso le
Ġsc ore
Ġgard en
ing ly
Ġbott om
ur ally
b ed
Ġdec re
) :
O U
Ġemerg ency
y m
ĠIn vest
Ġpro ceed
in ner
Ġme ant
Ġsc ene
Ġro ck
ĠH ol
ĠL ike
2 00
Ġbat tle
Ġpl aced
Ġfin ish
Ġvers at
Ġpl us
ĠG ood
Ġperspect ive
Ġcorpor ate
Ġfam ous
Ġse ven
r ical
Ġarg u
Ġ201 6
Ġ201 7
Ġsc hed
Ġlet ter
Ġfound ation
Ġsatis faction
Ġreput ation
Ġc as
Ġcom ment
Ġun it
Ġredu ced
Ġprodu ced
Ġwind ow
i j
ri pt
Ġinv ent
Ġspec ies
ĠA P
um an
Ġpres ident
ĠF rench
Ġbel ief
Ġst ar
Ġe ight
D A
Ġdesp ite
Ġele v
Ġr at
Ġpain t
Ġconnect ions
on om
Ġvol unt
Ġhtt ps
ĠBrit ish
Ġmot or
Ġadv oc
all s
U nder
Ġsh oot
Ġproced ure
ad d
Ġanim als
Ġinst ru
Ġinteg ration
Ġserv ed
Ġdisc l
Ġon to
Ġdirect or
os en
Ġincreasing ly
Ġle aves
d es
in ated
Ġve get
ĠG reat
f ield
Ġpass ed
Ġc row
Ġadminist ration
Ġwin ter
C an
Ġch ain
ĠCoun cil
Ġfram ew
Ġp ark
Ġprep are
ĠD ec
Ġcam era
Ġhistor ical
am b
Ġbet ting
Ġso il
Ġexam ples
Ġoper ation
Ġfl o
or ge
Ġb orn
ĠS at
ĠKe ep
Ġsepar ate
ĠSec urity
Ġdisc ount
Ġroom s
ak ers
n y
C on
ĠPro v
I m
ĠD uring
Ġde eper
Ġcy ber
Ġg one
Ġdis app
ck now
Ġindust ries
ffect ive
ĠP ersonal
if ts
Ġd at
ĠG old
co hol
Ġro les
land s
2 2
id ential
Ġopen ing
Ġa est
al k
ĠOn line
Ġb rows
ĠG reen
et t
Ġc ities
Ġmet al
Ġcut ting
we ll
Ġmess ages
ĠFe b
Ġult imately
Ġrob ust
ĠO b
Ġgir ls
Ġloc ations
Ġbro ther
ut ion
dd en
ra b
ĠWe b
Ġjour nal
ĠProf ess
i ors
ic o
Ġimprove ment
ĠBo ard
yp e
ab in
Ġserv es
Ġmem ory
Ġhot el
Ġam b
Ġv ulner
ĠL ife
Ġre new
Ġh us
Ġp al
Ġb ird
ĠW ashing
Ġj oy
ĠD ist
Ġknow s
ag s
Ġdet ect
are n
Ġcar bon
Ġmo ist
u gg
hold ers
9 9
il ed
Ġconven ient
ĠS af
p ass
m osp
ĠThere fore
Ġgra ph
Ġlist en
as y
Ġauthor ity
Ġe ating
Ġwa iting
ĠTh rough
Ġbr ight
O nce
Ġsh ift
Ġe ase
Ġknow ing
Ġman ner
Ġfreed om
Ġc atch
Ġd ro
o es
Ġcris is
Ġsol ar
ap ter
ĠT ake
Ġgir l
Ġsu it
ĠA N
ic ians
Ġsu dden
Ġsp l
Ġneg ot
ĠA nt
Ġup gra
Ġguid elines
ĠGener al
Ġdou ble
Ġvac c
Ġenh ancing
ĠAt t
Ġp ip
Ġw itness
Ġman ager
Ġs ession
re es
Ġvict im
Ġcont ains
ĠAcc ording
A I
Ġs essions
Ġd ram
Ġart ists
in ations
ĠâĢ ¦
ĠRe view
ĠF ound
Ġman aged
Ġt err
Ġn ames
Ġmon itor
Ġhon est
Ġset tle
Ġour selves
ĠF ree
a per
v ention
Ġag g
Ġclass ic
Ġdri ver
ĠT ur
os es
ĠB ank
Ġsk ill
Ġen ables
Ġbreat h
Ġacc ompl
ĠWh ite
el ess
p oint
Ġw id
IN G
Ġminim um
ĠM et
Ġhosp ital
ĠColle ge
Ġlo ans
f ord
Ġmult i
ĠCB D
ĠI I
Ġun f
Ġdec ades
Ġbenef icial
Ġtr ig
Ġslight ly
Ġent ry
Ġthan ks
ĠInst ead
ĠT ex
I ON
Ġdyn amic
P l
ĠW ater
Ġmaxim um
ric ult
Ġdescrib ed
om b
Ġent reprene
ĠW ind
Ġres ource
Ġsu sp
h ab
Ġl iqu
Ġemploy ment
Ġdef end
Ġparticip ants
E L
Ġappli ed
ĠSt art
ĠChe ck
Ġtra cking
Ġt ight
Ġworld wide
ĠU k
Ġgu ests
C C
ĠS ee
ĠM or
ĠCons ider
Ġprec ise
ing er
le ar
Ġf av
Ġra ised
Ġbel ong
Ġcont em
ĠY es
se mb
Ġtest s
Ġpay ing
Ġno vel
Ġprof it
Ġb on
Ġclass es
Ġapp e
Ġf illed
m en
e y
ir ation
Ġv ast
ĠH el
Ġag encies
Ġre tain
ri er
ment al
Ġat mosp
Ġinvest ing
Ġtransact ions
b al
use um
Ġint ended
roll ed
ru ary
Ġmat ters
Ġ x
Ġa cknow
l ast
ĠComm ission
Ġj ump
ig ital
ĠM ain
M ore
Ġover w
Ġre in
g or
ĠC ap
Ġ2 2
Ġarr ange
ro id
Ġas king
Ġprotect ed
Ġst o
ĠP ost
ĠInst agram
act ive
Ġpr icing
Ġevent ually
Ġgener ate
Ġconst antly
oc king
Ġdec or
Ġaffect ed
Ġres ol
S he
Ġconcer n
Ġl oyal
ĠWashing ton
Ġpre gn
Ġs and
Ġm outh
Ġsh ot
ĠM a
Ġv s
Ġcl ar
Ġreport ing
Ġfor ces
Ġtop ic
ĠCh urch
ĠC ong
ud d
Ġm ere
ar ation
Ġst ick
ir ms
Ġnot es
Ġra in
Ġse a
Ġneigh bor
Ġfail ure
Ġ er
Ġn amed
n el
ĠE U
Ġpromot ing
Ġfil es
ĠD ef
Ġdep ends
Ġres il
Ġha ven
Ġcampaign s
i ability
Ġhouse hold
Ġshow ing
Ġadd s
ĠR et
Ġtreat ments
r ating
Ġel ig
Ġ201 5
E M
A re
Ġcar s
Ġvib rant
ĠT ime
Ġart icles
Ġwh om
Ġsupport s
ĠP ower
bo x
Ġsav ings
ĠDevelop ment
ĠM at
Ġassess ment
Ġw ine
ant ic
om an
Ġexpl oring
Ġexp osure
st ate
P R
ĠPa ul
a el
Ġanc ient
ĠL ook
Ġprincip les
y stem
Ġun less
ce ll
ĠB ra
Ġdist ance
ĠI N
ov es
Ġtre es
ĠW ord
i ot
D on
ĠAssoci ation
Ġstart s
ĠL ead
Ġfeel ings
ific ial
ou nce
Ġmin or
Ġindust rial
L et
Ġhous ing
Ġrev olution
Ġb rief
R e
Ġcon clusion
m es
Ġep is
Ġwed ding
v ille
Ġstore s
Ġsen ior
ang es
ĠP lease
ww w
Ġst ake
Ġprev iously
Ġp od
Ġpresent ed
Ġsustain ability
Ġorgan ic
U s
F rom
I P
Ġanaly tics
Ġsh ipping
Ġwould n
Ġread ers
Ġmus cle
Ġann ounced
Ġocc up
Ġcl im
Ġph il
ĠF am
Ġat h
O ver
Ġk id
ĠSu per
Ġrese arc
Ġsp ect
Ġele ment
Ġincre ases
Ġput ting
Ġopen ed
ĠI P
Ġfriend ly
Ġit em
ĠS a
Ġinvest ments
le ts
p e
Ġun ivers
Ġinj uries
Ġb urn
ĠApp le
Ġs ac
ro ad
A pp
Ġst ated
ĠEduc ation
Ġex ternal
Ġfl at
Ġcitiz ens
Ġhe aring
Ġcra ft
ĠInst itute
ĠCon f
in ating
Ġfunction ality
ĠOff ice
Ġopin ion
t ra
if ies
p et
Ġconst ruct
Ġrecommend ations
Ġr id
Ġte eth
l ock
Ġmil es
Ġmom ents
Ġpur su
Ġwe ap
Ġwonder ful
ĠRuss ia
ĠSu pport
Ġnetwor ks
n et
u ine
Ġsp ort
Ġmonth ly
i pp
Ġlux ury
A cc
re te
â Ĥ
Ġre ward
Ġrel atively
Ġcom ments
ĠComm it
5 00
Ġrelig ious
ĠDav id
Ġg ender
ĠDirect or
z ing
Ġlay er
Ġre ached
Ġd u
Ġport fol
Ġte ach
ind ing
Ġrecogn ize
ĠFl or
Ġsur gery
Ġro ot
Ġhus band
Ġpl astic
A D
Ġdiscuss ion
Ġb ow
2 3
8 0
ot hes
ĠS ing
Ġed ge
ĠTex as
ee ch
Ġp ump
Ġcreat es
Ġele ction
Ġsw itch
ig ration
Ġinstruct ions
Ġclin ical
ĠS om
Ġtransport ation
ĠF ore
Ġla un
n ame
Ġappear s
Ġp air
f unction
Ġresult ing
Ġpost s
ĠIn f
Ġch ances
oc ation
Ġm ut
Ġcy cle
Ġdep os
Ġimmed iate
Ġc ooking
chol ars
Ġteac hers
Ġf est
Ġoper ate
ic ity
M any
st on
Ġbring ing
Ġgl ob
iv ate
co in
ĠIntern et
ĠM icro
in ter
b re
Ġwal king
gor ith
ĠPro duct
Ġproduct ivity
Ġemot ions
Ġ2 3
h i
ĠP C
Ġchar ges
Ġa p
Ġsub mit
g age
Ġ ice
Ġsens itive
s on
w ater
Ġto w
k ay
Ġupd ate
Ġg un
le ments
ĠFeb ruary
Ġst reet
n am
ĠSt reet
Ġk ill
Ġvol ume
Ġdef ense
Ġsur vey
Ġ9 0
Ġdrug s
Ġ king
ĠChrist mas
Ġdr ink
Ġsurround ing
1 00
Ġscient ific
Ġdep th
Ġcommun icate
Ġ8 0
Ġun s
ĠD et
ĠS l
Ġwatch ing
Ġspe aking
Ġant icip
Ġfl avor
Ġsound s
Ġviol ence
Ġinter face
enef its
Ġreason able
Ġseem ed
t op
Ġefficient ly
Ġkind s
Ġst ability
Ġco ord
ĠT est
Ġun w
ĠAd d
Ġpict ures
l ights
Ġe gg
Ġeffect iveness
Ġsh ip
Ġd ial
ĠGovern ment
Ġintrodu ced
Ġmar riage
Ġflex ible
ell ow
Ġcor ner
Ġchann els
Ġscen ar
Ġexcept ional
oss ible
ens ions
L C
Ġbut ton
Ġcr im
ce l
of t
Ġcont rast
g al
ĠC ost
ĠM ac
C l
Ġal cohol
word s
Ġabsolute ly
Ġrel ief
Ġstate ments
Ġfem ale
Ġfit ness
ĠI S
Ġoverw hel
ĠT re
ov ing
Ġfor t
Ġmost ly
Ġm al
ĠM al
Ġyou th
ĠOr gan
Ġcompens ation
C om
Ġtop ics
oc ur
rou d
ĠAn ge
l amm
Ġpos itions
Ġsh ar
ĠNew s
A r
Ġatmosp here
ĠM ex
Ġshow ed
Ġn or
Ġposs ibly
Ġend ed
Ġen force
Ġapprec iate
Ġstand ing
c raft
Ġadult s
ĠM em
m et
ro y
Ġs an
p ret
N ot
Ġregul atory
Ġclose ly
Ġtrans l
Ġ :
C O
i xt
Ġconsum ption
Ġdep artment
ĠC ur
Ġprote in
ĠPro ject
Ġentertain ment
Ġst im
ĠOn ly
Ġsuccess fully
ĠTH E
Ġqu arter
Ġthan k
Ġanim al
ĠP ublic
Ġra ise
Ġkeep s
Ġth ick
Ġinf ect
Ġcreat ivity
Ġwar rant
Ġar m
T S
f ront
ĠRuss ian
Ġbig ger
! âĢĿ
Ġst ret
anc ial
ĠR ight
Ġhold ing
Ġ +
r or
B C
fort unately
Ġsc r
Ġdemand s
Ġcomb ined
ĠJ e
E n
c ons
Ġwith d
Ġserv ing
Ġord ers
ĠCon st
y a
Ġgen uine
cer tain
St ep
y c
Ġal b
Ġste el
Ġdistribut ion
ce ler
Ġ201 4
lud ing
xim ately
Ġpack age
Ġconf ident
ĠH y
Ġsp ring
Ġsupport ed
Ġqu iet
Ġresist ance
Ġatt ribut
. âĢĻ
B A
Ġadv enture
Ġany where
Ġm it
Ġf asc
Ġident ified
z a
Ġass um
Ġautom atically
Ġfurn iture
Ġphot o
oun ter
er ation
Ġdoub t
T e
ĠAfric an
ive red
Ġsupp lement
Ġatt acks
an ing
Ġr ide
Ġdiffere nces
Ġdest ination
ord ers
ĠY ear
Ġfl av
Ġtechn ique
Ġgu y
Ġme al
Ġoptim al
Ġiniti atives
res p
Ġmed ium
ch ain
Ġsty les
ĠT oday
ab et
Ġper man
ual ity
Ġun iversity
Ġ- -
Ġst ation
Ġd ys
Ġnot ed
Ġal gorith
Ġattor ney
Ġcrim inal
Ġag ent
Ġfoot ball
Ġparticip ate
Ġart ist
Ġdevelop ers
Ġmed icine
Ġupd ated
Ġch osen
Ġengine ering
Ġun its
Ġhand ling
om et
Ġlist ed
Ġhe aling
ĠJ er
Ġfin ance
Ġsh ares
Ġd ental
Ġjust ice
ĠA C
ion ally
Ġ2 7
Ġl uck
Ġf le
erv es
Ġfield s
l ook
Ġche ap
Ġinteract ions
Ġrecogn ized
Ġdang erous
h and
Ġtot ally
ĠCh ild
Ġret ire
m ail
ad o
Ġ2 8
ĠF ood
Ġdeal ing
Ġa f
ap ers
Ġ icon
Ġcons ent
Ġelect ronic
w hat
Ġde le
Ġb odies
Ġfac ility
Ġst unning
Ġnut rition
Ġbuild ings
Ġlight ing
ĠS ol
Ġan g
Ġde ploy
Ġconflic t
Ġfore st
Ġdisc overed
Ġdep art
Ġposs ess
in ent
Ġclos er
Ġremov al
ress ed
Ġcomm and
R O
re qu
os ystem
Ġh idden
Ġbl end
Ġsur f
Ġpol l
Ġcommon ly
Ġconven ience
Ġus age
Ġrem ark
Ġhe ight
am ental
ĠS und
Ġdes ired
Ġrestaur ant
Ġb ot
Ġenviron ments
âĢ ĺ
Ġp un
Ġsy n
Ġgreat est
ĠC EO
Ġcl osed
ĠD isc
Ġfac ing
og a
Ġcaus ing
Ġconsequ ences
Ġapplic able
Ġcan n
R A
ĠM iss
Ġcandid ates
so ft
us hed
Ġentire ly
Ġp ill
Ġgu ys
ans ion
or ter
ĠS al
Ġfra ud
Ġnut ri
Ġass et
Ġf ruit
Ġeng aged
ĠUs ing
Ġrece iving
g ers
ĠFlor ida
Ġsh ut
Ġco vers
Ġaud io
Ġconsider ation
Ġdeterm ined
ag o
Ġn urs
ĠC am
ĠB re
h ow
i at
Ġhol iday
Ġte a
ro s
2 1
ĠU N
Ġmass ive
Ġcar ried
Ġframew ork
Ġde als
Ġg ear
ĠM o
Ġd ivid
ĠL ong
Ġb anks
Ġgu ess
ĠDem ocr
I L
ĠO pen
Ġteac her
Ġthem e
Ġauthor ities
Ġbus y
ĠH ist
ĠCh at
ic it
Ġcomp rom
Ġtra il
ĠC lick
Ġprim arily
Ġminim al
pect ed
Ġre ly
b ut
Ġperform ed
ĠB efore
ĠGl obal
Ġfocus ing
S T
um in
ĠB oth
ĠAmeric ans
Ġrecogn ition
Ġfin ished
um ber
Ġdo ors
augh t
Ġdel ivered
Ġhold s
l or
Ġfab ric
Ġreturn s
âĤ ¬
Ġobject ives
Ġbe ach
G et
Ġabs or
ĠR ob
ist an
e er
ĠEx p
Ġreal ize
Ġautom ation
l ist
Ġc ater
ĠG ra
Ġliqu id
ĠW al
Ġs now
k a
Ġneighbor hood
Ġdoll ars
f ast
ĠF orm
se y
ĠE lect
Ġpan el
ĠS ch
ol es
Ġd er
ĠM ag
n ight
is ms
u it
at in
B efore
Ġp roud
Ġintegr ated
Ġconcer ned
ĠI d
Ġfunction al
Ġext ended
ĠW estern
w ith
Ġh unt
ĠR iver
Ġfor g
Ġ2 6
ĠWe bs
ĠAd v
Ġstrugg le
Ġcre am
Ġwel come
Ġsu fficient
Ġincred ible
wh ile
on a
Ġl ights
ick en
om a
Ġrun s
Ġsc ript
Ġstay ing
ĠO F
Ġag ents
ĠH ot
ĠS et
ou nder
Ġeven ing
r um
Ġse m
ens ity
Ġlic ense
ĠMarket ing
Ġt ough
ic ian
Ġ rom
Ġve ter
Ġme at
as p
ri an
! !
Ġro t
Ġd ied
um n
ĠS am
ĠTr ust
Ġtyp ical
Ġint ent
Ġconvers ations
ĠGerm an
room s
Ġaccur acy
Ġsupp li
Ġregist ration
Ġcapt ure
Ġwall s
ul ing
Ġcare ful
Ġbuy ers
ars h
ĠSt ar
Ġemp ower
ĠRe al
Ġl ies
ĠDo es
Ġenab ling
ĠCommit tee
C ont
Ġappro ved
Ġp ure
Ġbeg ins
I V
Ġco oper
ind er
Ġph ase
ĠFr iday
igh ter
ĠO h
Ġimplement ation
Ġwide ly
Ġad s
Ġcoun sel
ĠB ig
ĠW here
Ġ7 0
Ġwind ows
ĠCl ass
u el
ĠM ad
Ġexc ited
Ġform at
ot al
Ġmeet ings
Ġdat ab
d en
a e
Ġo x
Ġnat urally
ic he
Ġdri vers
Ġpartners hip
Ġd aughter
ð Ł
ĠM ount
Ġfl ight
Ġoffic ials
Ġres on
t hen
Ġur ban
ĠB it
i ations
ĠTechn ology
Ġsp o
ĠEng ine
Ġpurch asing
ĠC amp
ĠK now
Ġreg ional
ĠCong ress
Ġimp ressive
Ġequ al
N A
Ġportfol io
y ers
I M
ce an
us ive
we ight
Ġsw im
Ġreturn ed
rap y
out hern
it age
b ling
as er
Ġec osystem
S A
ĠSc ience
Ġt act
ĠUn ion
Ġcrypt ocur
ĠL im
Ġg re
z en
ĠV ir
ĠJ ames
Ġf irms
Ġselect ed
Ġsubstant ial
Ġamount s
Ġtur ning
Ġdes k
ra ine
Ġcap able
u nder
Ġrem oved
Ġappro aches
' d
Ġc art
Ġfund amental
Ġvis ibility
ĠM ary
Ġdis s
Ġcrow d
ul ed
Ġmot ion
Ġd im
Ġoper ational
Ġrent al
ĠFound ation
Ġposs ibility
Ġfant astic
Ġhundred s
Ġs izes
a it
ĠPl us
Ġtransact ion
Ġpro of
Ġt ap
Ġsit ting
Ġperfect ly
ĠL ib
ĠJ our
Ġmem or
ĠCommun ity
Ġill ust
Ġ201 3
Ġmeaning ful
Ġo dd
ult y
Ġc up
og ue
Ġconf erence
Ġchann el
res ents
Ġsp eech
Ġappro ximately
Ġfix ed
Ġbro ken
Ġdef ined
r ich
s hip
Ġse at
Ġg ent
ri ers
Ġregard less
F in
Ġcompon ent
Ġqu ot
Ġsugg ests
Ġman agers
ĠStr ateg
ĠG r
Ġlab el
Ġext ent
Ġlaun ched
at ural
Ġser ver
ĠK ore
el f
Ġch air
Ġra nd
Ġt ack
ul ating
Ġtem pl
M ost
Ġlist ening
ĠEar th
Ġhappen ing
Ġ19 6
Ġenh ances
z er
Ġhum ans
ĠF ort
Ġtarget ed
ĠS T
ĠM aster
le vel
Ġlaw yer
Ġsupp lies
ĠJ o
Ġtax es
u ard
ĠGerm any
ĠPh il
Ġlim its
Ġstruct ures
Ġleg it
Ġag reed
Ġph arm
Ġs oph
Ġch arm
Ġdis h
Ġun ex
ĠF und
il iate
Ġis land
ĠR ich
Ġmod e
Ġ201 2
ĠSt ep
ĠT or
Ġemail s
Ġob st
Ġab use
Ġreg ions
Ġag ricult
Ġl ived
Ġregist ered
ĠSt and
ĠEng land
Ġdom estic
Ġresearc hers
i us
re ate
ĠB ay
Ġthe ory
Ġimp ossible
ĠH all
ĠP et
Ġout come
Ġevery day
Ġj u
Ġattract ive
ad s
ak ed
ĠD igital
Ġmil k
ne ys
Ġco ast
for ward
Ġpropos ed
Ġtell s
Ġmed ication
ing u
Ġac id
Ġappe ared
et ary
Ġdise ases
Ġg rown
el lect
Ġoptim ize
Ġcall ing
Ġab ilities
Ġd iversity
ĠT op
Ġsk illed
Ġrand om
D r
ra g
Ġsho es
Ġspecial ized
ĠAn other
Ġad m
I A
Ġr ub
Ġrep resents
ĠR ef
Ġmov ies
Ġmag n
ree k
Ġad equ
E very
Ġmill ions
ĠM il
Ġe rect
Ġansw ers
Ġdeep ly
Ġlic ens
ĠUS A
os oph
Ġb ike
Ġh ire
Ġh iring
Ġins ight
Ġexclus ive
Ġfol ks
Ġutil ize
Ġpur s
ĠCustom er
Ġfil ter
id en
C A
Ġworks h
Ġmiss ing
Ġill ness
Ġv ote
Ġsou l
Ġconst ant
w rit
Ġreplace ment
Ġperson ality
Ġal t
ĠH ave
ĠAs ia
i est
c ont
ath y
âĢĻ .
all ed
aren cy
Ġinter pret
t a
Acc ording
own ers
Ġmach ines
C ons
wh ich
Ġaddress ing
T ube
Ġtre ated
ĠP en
Ġw ire
ag ues
Ġch art
ĠSpec ial
Under standing
Ġdeliver ing
Ġfollow s
ĠS il
Ġfr ust
Ġwithd raw
Ġin put
l ong
Ġli ability
Ġ ille
Ġfail ed
Ġwin ning
Ġsu c
ĠG en
Ġthreat s
Ġexplain ed
Ġexper iment
Ġconduct ed
Ġme als
ĠIs land
Ġ era
Ġfram e
Ġdis put
ort hern
i ated
part y
Ġath let
ĠP ract
w ing
F irst
ĠMore over
Ġcontinu ous
dition al
Ġst one
Ġselect ing
Ġelect rical
v ity
Ġwor se
ĠL ake
ex ample
Ġy es
Ġcl othing
k i
Ġdel ay
Ġlink ed
Ġac celer
S c
D e
Ġm and
ĠWh o
ĠJapan ese
ony m
Ġm ob
Ġloc k
Ġredu ction
Ġfor ced
A b
ĠRem ember
Ġt iss
n o
Ġs ides
Ġfac ed
ĠTw itter
ĠM art
dr iven
Ġbelie ved
Ġcr ime
Ġcharacter istics
Ġhab it
ri e
ĠCent ral
ĠAcc ount
ĠReg ular
erv ing
ĠL ab
Ġth row
Ġtra ined
in ate
Ġinteract ion
Ġact ively
Ġreg ister
ab is
Ġrep airs
P T
Ġachie ved
Ġse qu
Ġpod cast
Ġwrit er
Ġrapid ly
ĠInd ust
ĠI D
Ġle ver
Ġa st
ac c
ĠS un
Ġcont ro
Ġjo ined
T ra
Ġavail ability
int s
in ning
Ġutil izing
ĠPart y
Ġcomm ission
Ġrefer red
com merce
T r
Ġpen is
Ġcra f
Ġdisc ip
Ġst re
Ġun like
Ġenh anced
Ġtransform ation
ĠP ri
N ew
Ġapply ing
Ġdis rupt
Ġsign ed
Ġref erence
ĠQu est
Ġmit ig
ĠEn ergy
g ent
Ġcomp at
ĠMed ical
Ġimplement ing
Ġst able
M e
Ġt on
ĠFr ance
Ġch amp
w orth
ĠN F
Ġv ent
L e
r ations
Ġcateg ory
Ġ201 0
Ġsuc ceed
Ġaim s
ĠA ccess
ĠB ack
I nt
ang er
Al though
Ġv end
ĠL it
st e
ĠSund ay
ĠEx pl
et her
ep ing
Ġsp ons
Ġobv ious
ĠCh oose
Ġcollect ed
Ġd ie
Ġun certain
Ġminut e
S e
Ġjud ge
Ġre ject
ĠA ff
al le
ĠAc ad
Ġsk y
an ish
Ġst rict
i verse
ot ic
Ġorgan ized
Ġ iron
Ġsignific ance
ĠMed ia
Ġwork place
Ġaccept ed
m ark
ĠW omen
ĠCl ub
Ġprov en
Ġdys function
Ġre b
Ġsum m
ock et
Ġele g
Ġk illed
Ġdiscuss ed
ĠEm ploy
et ime
and a
Ã ¢
Ġgu ard
Ġintegr ity
ĠTh ose
ograph ic
Ġv en
us ing
Ġperiod s
l o
Ġb orrow
Ġfact s
Ġstrong er
Ġinvol ving
ĠKe y
Ġbag s
Ġexp ression
ĠB en
7 0
Ġg od
Ġper m
Ġcompl ain
Ġinsp ired
i i
os h
Ġequ ipped
Ġunder st
Ġprior ity
Ġmembers hip
b les
L E
Ġb act
ĠP olic
Ġr ig
Ġqual ified
Ġaddition ally
Ġman ual
9 0
Ġcrit ic
ĠFin ancial
! <|
ec ess
Ġachie ving
Ġr ough
ĠA rab
m m
k in
Ġrem ed
Ġiss ued
ad ian
abet es
ant a
Ġdelic ious
Ġdel ight
Ġm ood
k ers
Ġbal anced
Ġp ed
Ġpopular ity
Ġturn s
Ġdist rict
olut ions
Ġincred ibly
Ġsong s
Ġun able
Ġh yp
Ġmar ried
ĠL and
ĠA lex
Ġmanufacture rs
Ġcons cious
Ġless ons
ow nt
Ġemploy er
Ġperson ally
Ġalong side
ber g
ĠH am
ĠB ill
ĠPro per
Ġne ck
ir ty
ĠS ign
Ġremain ing
Ġtrust ed
ĠC reat
Ġrout e
Ġimpact s
ot a
ren ce
Ġconc rete
ĠYou Tube
Ġpr ison
ĠC R
Ġd ance
ond ay
ĠR oad
Ġvis iting
E ven
Ġmoist ure
ĠAn n
Ġpen al
Ġhab its
in i
r ates
Ġcrit eria
4 5
Ġport ion
Ġart ificial
Ġpriorit ize
Ġenc ounter
Ġbe at
3 5
ĠF ollow
Ġ5 00
Ġm old
R eg
Ġact s
ĠTe am
Ġimag ine
Ġno ise
b our
ĠIs l
r as
I nd
ĠH uman
Ġresid ential
ĠT erm
al se
Ġres olution
ĠL ight
Ġhost ing
Ġplan et
Ġweek end
vent ional
and er
Ġcandid ate
T H
ĠL ou
Ġcateg ories
Ġl osing
sec urity
ĠF urthermore
Ġ201 1
Ġher self
ĠMich ael
Ġgain ed
oura ge
Ġdom ain
Ġed itor
resp ond
Ġmount ain
ĠE ns
ord s
Ġdur ability
Ġcontem porary
ĠE xt
ĠA M
Ġsol ve
or a
Ġpro ve
Ġcl othes
Ġprefer red
Ġin qu
Ġevalu ate
Ġinter ior
Ġs cholars
Ġfor th
ĠC ard
Ġexecut ive
Ġbo at
Ġinstall ed
ĠL o
ĠDe v
P N
ĠC ert
Ġcommun ications
Ġrestaur ants
Ġta ught
ĠT em
uc lear
Ġint ric
ĠO pt
Ġdis p
Ġyoung er
Ġpar am
Ġtrou ble
Ġma p
Ġarchitect ure
r ance
Ġenjoy able
Ġposs ibilities
Ġb low
st ream
Ġaltern atives
lud ed
ree ment
Ġpub lish
Ġunex pected
Ġhigh lights
R em
ĠCon nect
Ġcal m
R ead
Ġgr ass
Ġis ol
Ġpro s
less ly
Ġm el
Ġprep aration
os ite
Ġsecond s
ĠFr anc
Ġd inner
* *
Ġalb um
ere nt
Ġform al
Ġversat ile
Ġdis pos
Ġn orth
Ġter rit
Ġt ank
Ġded ication
Ġwe aring
Ġhard ware
a id
Ġredu ces
Ġy ield
ĠN eed
f e
Ġrestrict ions
Ġpack aging
Ġdest roy
Ġst ead
Ġc aught
ĠM ark
Ġris ing
Ġc abin
Ġaut o
Ġme ets
Ġmort gage
Ġinvestig ation
Ġsuff ering
ĠRep ort
Ġgent le
Ġran king
Ġtru ck
ĠIm p
og rap
Ġint ense
Ġsearch ing
Ġsub sequ
Ġph r
ĠAb out
al a
end ers
Ġfocus es
ĠN ig
Ġcook ies
ĠB ur
ed ing
Ġd ive
P C
Ġhor se
st one
Ġinvent ory
Ġelig ible
ĠB rand
Ġlast ing
itut ion
Ġem issions
Ġc ere
F A
ad ing
Ġslow ly
Ġdream s
Ġfil ms
Ġinc ent
Ġind eed
ĠUnder standing
Ġresil ience
S ince
Ġprot ocol
ĠO ffic
ĠD ub
Ġnecess arily
ra id
Ġimprove ments
Ġr ing
ĠR ober
ĠE conom
Ġemb race
Ġmen u
Ġbroad er
Ġsupp osed
u ce
O L
Ġequ ity
Ġwhen ever
Ġ2 9
Ġdur able
Ġconsist ently
Ġevalu ation
Ġbe ar
Ġemerg ing
ĠIns urance
ĠWebs ite
ĠI ran
ĠQ ue
ĠBe ach
Ġexerc ises
Ġanaly ze
Ġindic ate
Ġb ought
Ġfig ures
Ġlegis lation
Ġdec ade
Ġas p
Ġc os
form ance
Ġs outh
Ġend s
h an
S u
ĠFam ily
Ġretire ment
Ġconvers ion
Ġs in
Ġerr or
Ġloss es
Ad ditionally
Ġdr iven
ĠA ud
Ġsur ve
Ġma il
ĠB as
am ples
Ġte lling
Ġg rew
ĠO per
ch ing
um es
Ġsm ile
ĠMin ister
ĠJ ud
Ġhosp it
ĠP ress
Ġmove ments
ill a
ĠUk raine
Ġprom ise
Ġpo ly
Ġar ms
ĠL in
Ġsqu are
Ġsaf eg
Ġhe ro
ot o
Ġre form
y e
Ġext ract
et te
Ġnear by
Ġhous es
es ides
ĠB al
ur day
ĠMicro soft
Ġobject s
Ġco ach
Ġn ative
ĠB ook
red it
ru ption
Ġg ro
ĠK en
ĠM er
Ġinteract ive
Ġin ner
Ġp il
Ġper mit
Ġepis ode
Ġexperienc ing
Ġconcept s
Ġdi am
Ġemb ra
Ġstraight forward
l ined
y ou
Ġ3 5
Ġelectric ity
ĠD iv
Ġowners hip
Ġcent ers
ĠM ass
Ġenjoy ed
ip e
ĠSec ret
Ġst ored
Ġc ul
Ġint ellect
Ġf ly
Ġmaxim ize
Ġappro val
er ate
ĠBl ue
J ust
Ġext end
Ġsur prise
c ies
Ġout put
Ġmed ications
Ġu pl
Ġmat t
Ġrequ ests
Ġf old
ĠAn aly
Ġautom ated
Ġacc omp
ar r
Ġmag ic
Ġstream ing
Ġidentify ing
ow ered
Ġsa ving
Ġrec over
ĠWind ows
he red
br id
an o
re p
Ġdig est
d ate
ul ous
ul s
W hether
Ġfulf ill
Ġenter prise
Ġconf ig
Ġwhe el
am ics
ld er
Ġf ro
Ġpolit ics
Ġdiscuss ions
am ing
ĠTh om
Ġwell ness
ĠTw o
Ġcontribut ions
Ġcon ver
Ġcorrect ly
ĠB i
Ġh orm
Ġar rest
ĠF il
ĠL ink
Ġstreng then
Ġprof ound
og ether
D uring
ĠD espite
ĠB er
Ġbrows er
Ġfight ing
Ġd ining
Ġplan ned
Ġrespons ibilities
Ġgreat ly
Ġfost ering
% .
yp es
Ġsc ope
ĠH im
Ġperman ent
Ġerr ors
o ices
Ġcomp are
Ġcontract s
d o
Ġsudden ly
Ġd ust
Ġapp arent
Ġha z
Ġexp ansion
ĠF ederal
ĠS uch
semb ly
2 6
Ġj ur
o osing
Ġfav our
Ġrad io
Ġoffic er
Ġacc ord
Ġfrequ ent
ĠCont rol
Ġimm une
G B
Ġmanufacture r
Ġim per
Ġs ending
Ġmus cles
ĠS er
Ġeth ical
ĠAr ch
Ġbl ess
Ġdam ages
k et
Ġsupp lements
Ġcomplic ated
Ġminim ize
Ġf if
Ġcrypt o
ĠTh us
ri a
Ġg olf
ĠCar ol
Ġin ject
Ġst ages
Ġn om
Ġnar rative
Ġreve aled
O f
Ġaf raid
ĠV ol
h ors
ic y
ĠR est
Ġnews let
Ġd uty
ĠW ed
Ġreach ing
Ġsubs cription
in n
Ġemploy ers
Ġb read
W here
Ġfl ood
Ġdemonst rate
ry pt
Ġprotect ing
Ġexist ence
r id
Ġlarge ly
Ġs ight
Ġact ing
Ġfell ow
a o
Ġb ills
ĠS ite
Ġgu est
ĠAnd roid
Ġover come
Ġarr ived
Ġterr or
Ġsc al
Ġent ered
Ġg ut
rom e
Ġs ick
Ġpain ting
Ġaccompl ish
Ġphil osoph
as ant
if ting
Ġaud iences
Ġn ine
Ġpres ents
Ġcor respond
Ġenforce ment
B l
Ġt one
m eg
Ġinsp iration
Ġmat ches
Ġexpl ains
B u
ĠT O
Ġstake holders
Ġt ro
iet ies
Ġflow ers
Ġcas ual
Ġtransp arency
Ġsto pped
Ġprevent ing
Ġto x
Ġperform ing
Ġshe l
Ġsole ly
Ġdec ent
Ġult imate
Ġlib rary
Ġcert ific
Ġsp r
Ġprodu cing
ap ing
Ġremark able
ĠAd minist
Ġoffic ers
R es
ĠC y
Ġsubs crib
Ġsafe ly
ĠE qu
ĠA S
Ġpercent age
ĠCont ent
Ġinc ident
Ġinf lamm
Ġmere ly
Ġtemper atures
ĠSm ith
ĠPro cess
Ġunder t
ĠT om
Ġ200 8
Ġvis ible
ĠSec ond
Ġdam aged
Ġbound aries
Ġz ero
âĢĻ ,
Ġk ick
Ġbre ast
c ol
ang ed
Ġse ctors
ĠGe orge
Ġtechn ological
ĠSp irit
Ġreal ized
ĠSu pp
ĠDist rict
Ġrecip e
2 7
Ġshar p
ĠM ot
Ġaccount ing
â Ħ
ra cy
ĠRe v
ĠU lt
Ġcomb at
Ġp hen
Ġtw ice
ĠW ood
Ġbeh alf
ĠG rand
ogn itive
i en
ass ion
Ġbas ically
ĠJew ish
ĠTh ank
Ġar ray
Ġrel iability
C omp
Â ®
Ġnar row
g u
th at
Ġf o
um a
ĠY et
ic ious
Ġdeg rees
Ġharm ful
Ġdis m
p erson
Ġ3 1
ist ent
Ġf ert
az ine
ĠD iff
Ġaest hetic
ĠB at
ĠExper ience
op y
ĠCont act
Ġrec ruit
u ct
Ġmer ch
Ġcur rency
ĠBit coin
Ġtest im
Ġtele vision
Ġmem ories
Ġlimit ations
Ġchar ged
Ġthem es
Ġch ronic
Ġmain ly
u a
Ġref ers
ĠA D
i ary
Ġp ace
ĠL ast
ĠProfess ional
re ens
v an
cri pt
Ġexp osed
Ġgra b
R S
Ġw ww
2 8
e ffective
Ġille gal
g l
is co
Ġsal t
ut or
Ġrecord ed
b i
Ġloyal ty
Ġ4 5
ĠU t
ĠM onday
Ġappoint ment
ĠF ire
ort ion
Ġreflect s
Ġrequire ment
Ġmist akes
Ġthe r
Ġf alse
Ġfore cast
Ġdep ression
ĠEn h
Ġle ts
6 5
Ġeng ines
Ġbre aking
ĠAut hor
Ġnot iced
ĠT ax
Ġf ishing
Ġn one
ro gen
Ġb ooking
ĠCol or
ĠAN D
Ġsc an
P r
al ian
ĠL u
Ġunderst ood
A m
Ġjud gment
ĠVal ley
Ġfe at
Ġentreprene urs
Ġk ne
on ge
Ġple asure
pro of
Ġobtain ed
I G
Ġf ru
Ġst orm
Ġcontrol s
Ġorgan is
F i
Ġfair ly
ĠTh anks
Ġdra g
ĠM el
L ast
Ġocc urs
ĠH ill
Ġadop tion
Ġg ap
Ġev olution
C H
in er
Ġhe ating
ĠT im
Ġess ay
ĠL ove
Ġdescrib e
ig en
ol a
cl ass
ĠB ible
ĠEn viron
Ġd ates
l aw
Ġr iver
Ġinter f
ĠEn ter
is her
Ġch ief
it a
Ġtr ick
ĠEx ecut
Ġexpress ed
Ġinf lation
Ġcompet itors
Ġpar king
Ġp ra
ĠM ax
st ep
Ġmatt ress
Ġh ook
the less
ĠCol l
Ġst ars
Ġal ike
ĠGu ide
Ġparticip ation
Ġmet rics
ĠS oft
ĠAt l
m ade
ĠCan adian
u ous
Ġtext ure
or ous
Ġinf ection
Ġerect ile
ust ain
Ġrespons es
Ġspl it
is dom
Ġv an
ic ago
Ġunder lying
is d
Ġsuper ior
Ġpurch ased
Ġimm ers
Ġb en
ĠApp lic
ocol ate
Ġm ir
2 9
Ġus ual
Ġsp ots
ĠM rs
Ġconsult ation
ĠT imes
ĠC ode
Ġevol ving
Ġdi abetes
Ġdes cription
Ġadv ent
ĠAg reement
Ġvill age
ĠHe ad
O r
Ġg all
ĠI r
Ġsp oke
or ce
3 3
Ġdis hes
Ġfew er
Ġj ack
Ġar ts
Ġw ider
âĦ ¢
ĠMex ico
Ġent it
Ġsur ge
ide o
Ġw et
ĠC r
Ġfost er
or al
Ġsign al
Ġto oth
Ġref und
Ġestim ated
Ġsuggest ed
Ġbon us
ter ies
Ġear ned
ĠG ard
Ġte en
Wh o
ĠLear n
ĠVir gin
c ers
Ġincorpor ating
Ġd ownt
ĠPolic y
Ġt iny
ful ness
ar n
Ġcann abis
ĠAustral ian
m akers
Ġstri ke
ast ers
Ġoblig ations
) ;
ĠC ult
Ġleg acy
Ġle verage
Ġappeal ing
C omm
Ġ200 9
Ġch icken
ra ction
Ġper ce
Ġs ought
gy pt
Ġe co
Ġser iously
ĠG row
Ġset up
ist ant
Ġhard er
ĠC at
Ġconcer ning
Ġcol our
R ec
Ġenthusi asts
ĠR esp
Ġexc ite
it ar
ĠIm pro
Ġr ank
Ġp iv
Ġpurs ue
Ġra w
Ġcolle agues
en a
anc er
P s
is k
Ġfinanc ing
u ction
p ay
u ing
ĠNet work
wor ld
Ġesc ape
ĠCh ief
ĠT our
ĠV ict
lud e
Ġobject ive
ĠC D
Ġm ild
Ġgovern ments
P ress
7 5
ĠLear ning
Ġche cking
ĠD i
Ġpers ons
Ġthr ive
Ġint u
Ġsh ock
Ġsy nt
ĠC all
ĠSoc iety
Ġgener ations
ĠMus lim
Ġincorpor ate
l ooking
Ġblock chain
ĠB iden
ur ities
Ġout s
T A
Ġre wards
ĠSc ott
ĠSat urday
ĠF ind
Ġd ent
Ġcont rolled
s he
re ction
Ġann ounce
Ġhome owners
r ants
ĠV er
Ġpass eng
v y
Ġveget ables
Ġmov es
Ġdatab ase
ĠH R
Ġst ain
iv ating
ĠP ot
I I
Ġfollow ers
Ġdocument ation
ag on
pp ers
ĠH aving
Ġbro wn
Ġout standing
Ġauthent ic
ĠE nd
Ph one
Ġn ations
ed ge
ĠT reat
W ell
Ġ2 000
Q u
Ġcent re
c her
Ġoffer ings
Ġaff iliate
Ġcontribut ing
cri ptions
Ġinc hes
i king
Ġpass ing
Ġbath room
Ġu pper
ĠS up
Ġb le
Ġinit ially
Ġn uclear
Ġdr inking
it t
ĠC orpor
ĠM useum
c an
Ġform ed
ĠSaf ety
Ġpurch ases
Ġsu spect
Ġfacilit ate
" .
Ġacqu is
Ġrepe ated
Ġin n
pro fit
ĠC ath
Ġtarget s
Ġtest ed
ĠN or
Ġenjoy ing
se ct
EN T
Ġhistor ic
h ost
ur ning
Ġal ter
ĠWith out
v in
ĠAv oid
av y
Ġbut ter
Ġj ew
Ġnorm ally
ĠP eter
p at
ĠN on
e en
Ġbr idge
ĠSom etimes
Ġpresent ation
as m
Ġtal ked
ĠM ont
ob by
unn els
O C
Ġmix ed
ĠM iddle
Ġc rop
P e
Ġprec ision
Ġprep aring
Ġha ck
Ġdeb ate
Ġacknow led
Ġdo ctors
ph ones
Ġb order
ĠP an
Ġg ate
Ġexcess ive
Ġimplement ed
Ġlike wise
Ġcustom ized
Ġcomp elling
nov ation
im p
ol it
Ġmus ical
Ġweap ons
ĠPar is
Ġinst ant
Ġnutri ents
ĠO ld
Ġfind ings
Ġall erg
Ġvulner able
d ep
Ġobv iously
ĠL ist
sp ec
Ġrelig ion
ĠD own
O ther
an ies
ĠLe ague
Ġchemical s
C he
Ġcre w
Ġvis a
Ġkey words
Ġcert ification
Ġiniti ative
Ġem pt
Ġtem porary
Ġsac r
Ġoverwhel ming
Ġsuppli ers
Ġpro hib
ĠE gypt
Ġaddress es
Ġpsych ological
ĠL os
O M
Ġstre ets
Ġd il
Ġwrit ers
Ġhy per
ĠMan ager
Ġman if
ost er
ac hel
Ġreact ion
ol ving
ĠProt ection
L A
Ġpregn ancy
Ġimpl ications
Ġphot ograph
olog ist
Ġinstitut ion
Ġprov ision
Ġdesign er
ha ust
Ġcomplex ity
ic an
Ġs ad
Ġcomp ly
Ġbelie ves
Ġexpl oration
Ġas ide
in f
Ġse gment
Ġag es
Ġsome body
Ġdevelop ments
Ġshould n
Ġdra in
ool s
Ġgener ated
Ġleg s
ĠRe qu
Ġun p
ap es
Ġm ine
Ġaut hors
Ġcomple ment
Ġwork flow
Ġacc um
Ġwork force
inc luding
T C
ĠL ocal
Ġf its
Ġh all
Ġexcite ment
Ġh ur
Ġtick et
ĠCh amp
in ity
Ġcert ified
Ġle ather
Ġmark ed
Ġcompar ison
Ġs ister
p m
Ġbehav i
Ġpan els
og s
ĠJ ack
ĠSh ould
Ġun n
Ġequ ally
Ġaccord ance
Ġchar ging
Ġrec ording
ĠM ill
Ġwal ked
Ġch apter
Ġb old
ĠCh icago
Ġintrodu ction
Ġsp ark
ĠS um
Ġintellect ual
ĠP rom
ĠHel p
ĠTra ining
ot he
Ġbr ush
Ġland ing
re al
Ġst ood
Ġtime ly
B S
Ġent ering
Ġwor st
Ġse eds
Ġcommit tee
Ġown ed
ĠPal est
tain ing
Ġh urt
ĠUs er
Ġban king
R C
Ġcons ists
Ġhon or
g s
Ġcelebr ate
istic ated
ut ies
Ġresol ve
Ġencoura ges
Ġbact eria
Ġreal m
u an
Ġher itage
Ġclar ity
Ġstrugg ling
Ġexpl o
ĠL LC
Ġscient ists
Ġpe ak
Ġvir us
Ġy ellow
Ġdepos it
Ġl apt
ĠR ock
Ġadequ ate
ĠR o
Ġspecial ist
Ġacc idents
U R
Ġfarm ers
Ġw ise
Ġessential ly
Ġro ots
Ġr ural
om in
atch ing
Ġhe s
Ġt ip
ĠIt alian
Ġint ention
Ġfasc inating
il st
ĠComm on
ĠMus ic
ur ation
oc racy
Ġdefin ition
el ing
S ec
er ts
Ġaccess ories
Ġdecre ase
et o
Ġvictim s
Ġjur isd
w ear
Ġess ence
z il
ren cies
Ġne ut
Ġlangu ages
on ed
ĠY eah
Ġg ifts
Ġse ctions
O W
Ġl unch
Ġheav ily
t r
Ġfac es
ĠE st
ĠR oman
Ġsl ot
U p
ac he
re m
al ysis
ĠG ame
Ġf ib
ĠS ales
M A
ĠB rown
Ġmiss ed
rent ly
Ġrec yc
en ess
Ġremain ed
D S
Ġup coming
Ġsh ad
Ġy oga
Ġor al
Ġopin ions
Ġdifficult y
Ġcarry ing
on ic
Ġvers ions
ĠSp anish
ĠSh op
Ġvac ation
Ġopp osite
ĠD en
Ġflav ors
ĠJoh ns
Al so
Ġsafeg uard
T V
Ġsm ell
ac ific
ĠBu ilding
W or
Ġvict ory
v a
Ġsome what
Ġdisc om
r d
es sel
ul um
re y
Ġbird s
ĠSh ow
ig an
ĠFr ank
Ġelimin ate
ĠGe org
Ġ3 00
ĠAut om
Ġs ample
The n
Ġfra g
ĠJour nal
Ġsil ver
ang ers
Ġ *
o ors
ur b
Ġcamp us
K e
Ġpr inting
ĠM ult
Ġconnect ing
Ġdef ine
Ġp it
ĠF act
og en
li hood
er as
Ġreve al
od ing
Ġsettle ment
ar ks
Ġth in
n oon
Ġra il
st s
os c
ll a
ec k
ĠB enefits
Ġar ise
Ġo kay
ĠCl oud
Ġr ating
_ _
ĠP ak
ĠS qu
iz er
ut s
Ġprof its
ues day
Ġcon ventional
now ned
M an
Ġcult ures
? "
io x
Ġz one
Ġthorough ly
Ġt all
Ġalgorith ms
Ġphen omen
Ġsurf aces
m al
y an
end ar
Ġt rib
Ġaffect s
Ġgam bling
Ġoptim ization
Ġobst ac
Ġprom inent
Ġintrodu ce
Ġdraw ing
Ġun lock
ĠH osp
Ġind ex
ur a
ĠG ummies
Ġremov ing
app y
Ġsoph isticated
Ġbelief s
Ġfl our
Ġtravel ing
Ġsurpris ed
Ġsche me
Ġdur ation
Ġdef e
H S
ĠAs ian
.. ..
ĠCons ult
Ġexpand ing
p age
Ġcollect ive
b et
ĠMay be
Ġaim ed
Ġfour th
Ġm ig
rol og
Ġdesign ers
Ġto ler
Ġbas ket
Ġco aching
Ġprinc iple
Ġsuff er
Ġicon ic
ĠW all
it ate
ĠN ever
Ġw isdom
in em
g i
ĠF ed
Ġ id
Ġli kes
Ġorigin ally
Ġs hed
Ġcol on
ĠExecut ive
Ġsubject s
Ġprogram me
ĠPre m
Ġp in
Ġdiscom fort
ĠO il
Ġexpl an
ĠD I
ĠN ext
Ġsumm ary
urs day
Ġcover ing
Ġjew el
ist ers
le ep
Ġpow ers
az z
ĠTra vel
ĠQuest ions
Ġsupport ive
Ġearn ings
Ġpartners hips
Ġrepresent ation
ĠJ oe
ĠE ss
Ġtransp arent
Ġadjust ments
ĠI ll
Ġfrequ ency
aw ay
Ġshowc ase
m arket
Ġlad y
Ġbuy er
ĠR ad
ĠM en
Ġaddress ed
ap ore
Ġargu ment
ĠR ights
Ġpl ug
Ġhead s
Ġcontinu ing
ĠS and
Ġconsider ations
Ġstudy ing
Ġn ob
l ers
ĠF uture
Fin ally
ĠInt eg
ĠLou is
Ġencoura ging
Ġreg ulation
b orn
Ġgra de
ĠA ward
ĠAcad emy
Ġbox es
Ġlay ers
ign ed
Ġex haust
Ġex ch
Ġopp on
Ġdec line
at o
ed ia
p ie
Ġm ur
Ġstud io
Ġtiss ue
Ġb are
ak en
Ġexam ine
Ġprogram ming
n ic
u is
ĠQ uality
Ġass ume
Ġh ub
Ġperson nel
ul f
Ġarr ive
Ġimp ression
P lease
ĠM S
Ġfil ed
Ġdra wn
Ġf ake
Ġfound ed
ĠB ab
Ġse ed
ir us
ĠAnge les
ple te
th rough
as tern
Ġal ive
em ploy
Ġla id
Ġun us
Ġevery body
Ġconfirm ed
Ġhealth ier
Ġorgan isation
Ġvis its
ĠSup reme
Ġqu ote
Ã ¡
it is
ĠJust ice
Ġbl ind
Ġco at
Ġl ift
Ġair port
Ġadd iction
Ġaccess ibility
Ġgra ce
Ġwat ers
Ġfall ing
Ġche ese
Ġw ave
g a
ĠT ry
ĠHist ory
Ġt ables
P er
umb ing
Ġc ognitive
Ġprof iles
f l
D espite
i ating
Ġadop ted
aint iff
ĠTh ough
Ġreput able
Ġsh ops
aut hor
Ġgrant ed
Ġdra ft
Ġencoura ged
li ament
ors hip
Ġegg s
ĠBe ing
Ġper mission
c omm
Ġlet ters
ĠIt aly
Ġbot tle
Â °
ent ed
Ġsubst ance
we et
iz ations
ĠF est
Ġlegis l
Ġperform ances
ĠS ection
Ġche cks
Ġst uck
ir cle
b acks
Ġl ie
ĠL i
ĠP M
bur g
Ġatt ach
Ġ19 5
Ġsatisf ied
Ġcryptocur rency
se ll
Ġsuggest ions
ĠA p
Ġthous and
Ġs our
Ġpropos al
Ġpost ed
Ġpro active
Ġp ets
he m
Ġweek ly
Ġobs erved
on na
f all
ou l
Ġadvance ments
ur ious
ĠW ild
ĠT er
Ġk it
Ġexcell ence
ecess ary
Ġjo ining
Ġrepl aced
ond s
nes day
Ġi Phone
Ġrequ iring
Ġintegr ate
Ġoff ices
ov en
ĠI re
pr int
iv als
ĠH aw
Ġlog o
Ġprocess ed
ĠCent re
Ġ =
ĠChild ren
ĠC ra
Ġoccas ion
ut ter
Ġr ice
ĠId ent
ĠFin ally
ers hip
ĠSt ay
Ġb one
Ġgradu ally
Ġfru its
es ome
ĠD ou
Ġfore ver
H igh
Ġpr ide
B est
ĠSm art
ĠL ive
r ator
Ġd ivers
Ġl augh
ĠH and
Ġc odes
Ġinf o
sc ale
Ġbehav iors
Ġn urt
In st
Ġc ock
Ġsa ved
4 4
the re
Ġv essel
Ġdev ot
Ġind oor
id ity
our se
Ġl au
st ers
Ġestablish ing
ch arge
Ġlegit imate
O P
b el
v as
Ġincl usive
Ġpl ate
Ġ200 7
ĠN Y
Ġne ither
ĠS ar
Ġsub mitted
Ġconst itut
ro g
Ġliter ature
Ġfall s
Ġev il
Ġinter vention
B ecause
Ġinflamm ation
Ġc ats
Ġprov isions
est ed
C E
ant ed
Ġmet ab
onge vity
Ġextra ord
9 5
Ġagree ments
Ġequ ival
ĠS olutions
ĠT ru
Ġtrans mission
Ġglob e
ĠAg ain
Ġ( âĢľ
Ġbreak fast
ĠEns ure
Ġperm its
Ġcra ck
Ġlever aging
p ower
Ġemphas is
iz z
Ġread er
ĠUn like
e ers
pp y
ĠH oly
Ġentit led
Ġphot ography
or se
ct u
Ġir rit
Ġpassion ate
D F
Ġdang er
ĠV iet
Ġpick ed
Ġcry st
Ġfeat uring
Ġst ocks
Ġcost ly
Ġmin ing
et he
ĠR E
Ġmar gin
Ġafter noon
is p
Ġdist ingu
ĠP R
Ġmor al
Ġmass age
Ġl oves
Ġodd s
Ġf ing
Rem ember
g ency
end a
ail ing
ĠImp act
Ġmy th
Ġseamless ly
Ġcl osing
Ġfeature d
ĠA R
Ab out
it ivity
Ġmind s
Ġdyn amics
Ġwas h
ĠC A
Ġfind s
ĠP ut
Ġlif etime
Ġcour ts
Ġclaim ed
Ġaccur ately
ĠS S
Ġtick ets
ĠW ay
Ġt ab
Ġdiscount s
ly wood
Ġinsp ire
Ġcon g
Ġstr ange
Ġpro sec
Ġn iche
Ġfac ulty
ĠE S
Ġre nowned
Ġpack ages
Ġ202 5
Ġindic ates
Ġdiagn osis
ĠG ar
e le
Ġliter ally
Ġdis orders
Ġdel ve
igen ous
Ġcons erv
Ġun iverse
st ery
ĠThom as
I F
C o
oc ated
Ġoccur red
8 8
Ġd irt
ever al
P art
ĠBra zil
ĠWh ich
M P
Ġevery where
Ġadminist rative
ĠRober t
Ġtrig ger
Ġlaw yers
Ġoil s
ĠPr ime
Ġbre aks
Ġnetwor king
g ical
Ġhapp iness
Ġdr inks
if orm
az a
Ġlat ter
Ġalle ged
r at
ĠE p
Ġdet er
Ġpass word
Ġart istic
af e
ĠE V
Ġr anging
Ġch ocolate
Ġinspect ion
Ġatt ached
More over
Ġorganis ations
ter ior
Ġdeterm ining
Ġmemor able
ĠL og
D P
Ġgradu ate
Ġab and
C S
w est
g ener
An y
w o
ĠSing apore
Ġnot able
Ġch ose
rib le
iz able
Ġunivers ities
ult ane
ĠJ ose
Ġman ip
Ġt ag
Ġform ula
ĠW rit
Ġupgra de
Ġexp ense
ĠY OU
Ġd uties
à ¤
ric ted
er als
Ġexce ed
Ġshoot ing
Ġun ion
Ġdis order
ĠStud ents
Ġsome where
Ġprev ention
ĠCarol ina
Ġret ention
Ġdis pl
ol id
s ite
ĠDub ai
e ut
Ġdifficult ies
Ġbar riers
O D
ĠW atch
Ġintric ate
Ġlad ies
Ġdirect ed
ĠG al
Ġcontain ed
ixt ure
Ġt un
Ġdom in
i h
Ġrepresent ative
se m
ĠT it
Ġend less
Ġab und
ĠT own
Ġapp lies
ĠE nt
Ġlaw su
k ins
Ġwarrant y
t able
Ġlay out
es h
ĠPl atform
Ġund ers
ĠS n
Ġext ension
Ġst rain
Ġdiv orce
Ġcam eras
E A
Ġcooper ation
Ġmar ks
Ġinqu ir
ĠPl ace
ĠIre land
Ġcomp assion
Ġvis ited
Ġfr anch
ĠUs ers
Ġc oc
Ġupl oad
Ġnewslet ter
ĠSt at
ĠCh air
Ġmaintain ed
Ġsu its
Ġst ro
T oday
mon th
ĠSystem s
Ġquant ity
Ġparticip ating
au c
ric ulum
Ġair craft
S ee
ĠSp ace
Ġinterview s
Ġtw enty
Ġacqu ire
em ed
ĠD u
ions hip
Ġwhere as
Ġt ang
ound ed
Ġsp ray
Ġrel ation
ag ine
U N
3 4
ĠT al
b ration
ĠC redit
C ar
Ġm ac
Ġrelax ation
S im
Ġbreat hing
Ġl oose
Ġj e
Ġcut s
Ġent ity
ani el
Ġemploy ed
Ġtra cks
a ver
ĠBu ild
Ġse es
ĠL ow
o ch
Ġrest ore
Ġo cean
ple ment
Ġdef ault
ĠSm all
as hed
Ġb ars
Ġinst antly
Ġneigh b
b ot
ĠJohns on
Ġsal ary
Ġscenar io
com pass
Ġcon vey
om ach
Ġprofess or
ĠC reate
ĠC ond
Ġtack le
Ġdet ection
Ġben ch
ĠA T
or gan
Ġsty lish
ĠC P
ch ar
ĠVirgin ia
Ġbre ed
t ical
Ġtrad itions
ĠJ im
ĠJ ob
Ġnew sp
ĠSp orts
ĠVict or
Ġ â
Ġweak ness
Ġcount y
ĠC ross
Ġaccommod ate
Ġt ension
Ġpow der
ĠT uesday
Ġpriv ile
m ans
Ġl oud
ĠWord Press
3 2
Ġimpro ves
ole c
Ġend e
Ġinfluenc ed
Ġmist ake
ĠP ass
Ġcou ples
Ġstrength s
Ġbr ill
Ġrat io
Ġbl ank
ĠE r
y gen
om y
ur se
Ġadvert ise
Ġprompt ly
Ġdr ives
c ar
ĠE mb
Ġhy brid
Ġmind set
re ts
I R
Ġgu itar
Ġgen etic
ĠA L
ĠTh ink
s le
Ġapart ment
ult s
ĠSu ccess
ĠC S
ĠCath olic
ut ch
Ġsurv ive
ear ing
Ġenc ount
Ġmed itation
ĠKing dom
Ġview ers
Ġp apers
L ike
ot ive
i pt
3 6
Ġhor iz
Ġautom atic
Ġ7 5
Ġbl ocks
ĠWe ek
Ġgovern ance
Ġconf idential
Ġar my
ĠP ack
Ġcap ability
ĠPh ys
Ġstream line
Ġempt y
Ġed iting
Ġpull ed
Ġbur den
F urthermore
Ġt or
Ġlicens ed
Ġra ising
Ġch a
Ġwild life
ĠSecret ary
Ġavoid ing
Ġrom antic
ra q
Ġwar ning
Th rough
Ġcool ing
ĠStud ies
an while
ĠA ri
AT ION
Ġcomb ine
um ing
Ġco al
Ġord inary
az e
Ġc able
ĠF ather
Ġdis ability
w in
Ġpr ime
Ġtrad ers
Ġheart s
Ġan onym
Ġal arm
Ġ ram
ow ers
Ġqual ities
Ġstat istics
Ġperspect ives
ist ed
Ġbet s
ĠC up
ast e
it ative
Ġcount less
Ġstrong ly
Ġmechan ism
Ġto ile
Ġpush ing
um er
Ġwere n
Ġsubsequ ent
Ġbat teries
Ġvit amin
as hes
du ate
i as
Ġinfect ions
Ġclass room
Ġnurs ing
ov id
Ġinvolve ment
ĠR oyal
ab il
ĠTh ursday
Ġinstru ments
ĠP oint
Ġathlet es
Ġpray er
Ġprom ises
Ġchild hood
Ġwe igh
Ġ ?
Ġphot ograp
Ġsh ower
Ġ @
% ,
ĠB ang
Ġcraf ts
Ġg ains
Ġrel ative
ĠIn it
ĠAg ency
am ins
Ġwant ing
te en
Ġaff ili
ĠL ED
Ġspecial ists
Ġwas hing
Ġth read
Ġbehavi our
Ġh ate
Ġaest het
Ġgu ides
at re
" ,
vent ions
Ġe ager
ber t
ĠYou ng
K ey
Ġadop t
Ġopp osition
Ġh ang
Ġgar age
Ġsu ns
Ġp itch
it z
Ġstruct ural
ĠSe a
Ġcontract or
ĠInc re
Ġmechan isms
Ġprospect s
m o
ell ed
Ġsign als
ĠM ach
Ġtri ps
au nt
oc ial
ĠCle an
Ġpoint ed
Ġche st
In c
Ġ200 6
Ġun known
Ġform ation
Ġro w
Ġgold en
Ġacquis ition
Ġdisc overy
ĠE mer
Ġcontro vers
Ġreal istic
Ġattempt s
Ġl ongevity
Ġref uge
Ġpl acing
Ġr u
ĠC ast
Ġv enture
ĠAr my
Ġexpand ed
Ġproduct ive
Ġatt itude
ĠOr der
Ġgather ing
Ġpiv otal
Ġcontinu ously
ĠL atin
ĠSoft ware
ĠSen ate
Ġde ck
ĠF arm
it arian
id ays
ĠSt ore
Ġutil ized
Ġcontribut ed
gra de
Us ing
Ġscenar ios
Ġpromot es
Ġf iber
Ġbe er
L ear
Ġpres crib
Ġto m
Ġpay roll
m ind
Ġex ists
4 8
ly mp
ist ance
Ġcon vert
Ġp ounds
Ġemerg ed
Ġany more
Ġconsist ency
Ġfl aw
Ġver ify
ĠD am
n ings
Ġphilosoph y
i ac
, âĢĻ
Ġevol ve
ĠL t
Ġroad s
Ġact ors
Ġtal ks
Ġse ats
Ġc ake
Ġd ash
oo f
Ġc her
Ġinst ruction
Ġmess aging
Ġam en
Ġexp ort
Ġun com
ud es
ĠSc ot
ĠH en
Ġy e
Ġgraph ics
Ġcon ce
ous es
ethe less
Ġmob ility
3 8
B I
Ġbirth day
y ard
Ġboy s
Ġphys ically
m art
Ġshe et
Ġsleep ing
ib l
Ġsubs id
Ġbond s
Ġaccording ly
rim ination
Ġh at
Ġcontain er
ĠE th
Ġintu itive
Ġswim ming
ĠCont in
Ġequival ent
Ġrequest ed
ic ating
Ġre ar
Ġbroad cast
ĠAr ts
Ġ ðŁ
ĠI de
Ġcons ervation
Ġtempl ates
Ġor ient
im al
3 7
Ġser vers
ĠWed nesday
ĠRepublic an
Ġpublic ation
Ġpract ition
Ġacknow ledge
Ġg ym
Ġshap es
et ers
Ġdef ect
Ġev ident
lim ited
A meric
Ġmotiv ation
Ġput s
ot ton
Ġachieve ments
Ġfil ters
Ġcontribut ion
Ġhar vest
ĠIm port
Ġhot els
Ġsmo ke
te ch
Ġcomple tion
Ġcos m
ĠW i
ict ions
Ġdro pped
Ġtarget ing
Ġw aves
ĠAdminist ration
ĠI raq
Ġjewel ry
ust er
Ġsched uled
w ar
Ġcompl aint
Ġmarket place
art ers
s ized
av en
Ġsim ultane
Ġo ught
Ġen emy
Ġexecut ion
Ġpro port
Ġst omach
Ġl ists
ap ed
ig ation
Ġrecip es
Ġscen es
b a
Ġabs ence
Ġconv in
ĠOb ama
Ġpromot ion
3 9
Ġab road
Ġoper ates
Ġcontract ors
ĠV ideo
an es
Ġbat t
spec ific
Ġhtt p
4 9
Ġexam ination
ĠGeorg ia
Ġunus ual
Ġcollabor ative
ĠS earch
Ġbo ards
ĠM id
ĠLeg al
Ġelect ron
requ ently
Ġheav en
ere n
ict ed
Ġint ake
Ġsurv ival
Ġprotect ive
Ġent ities
Ġr ush
Ġstr ing
Ġb id
s uch
Ġshould er
Ġnew est
Ġar bit
pris es
ost on
Ġshap ing
ĠWill iam
Ġord ered
Ġextraord inary
Ġh arsh
Ġt ub
Ġnew ly
Ġres ort
ĠTerm s
Ġopp osed
Ġf lying
Ġacqu ired
Ġdism iss
Ġversat ility
Ġsecond ary
ĠCh all
Ġut ility
ag en
Ġrel ating
Ġrenew able
Ġsp in
Ġmut ual
ge l
Ġn u
Ġcal endar
ĠO R
ĠPh ot
Ġdistribut ed
ĠF air
te lling
ĠBu y
Ġn erv
Ġwork er
ad vant
Ġcyber security
Ġpl ot
Ġimportant ly
Ġh ole
ou b
Ġres idence
ĠG reek
h t
Ġg ram
ĠC bd
w an
ĠProfess or
E ach
i ams
Ġ3 6
W S
ick et
Ġdemonst rated
Ġse asons
Ġro se
Ġbut t
Ġgain ing
ĠDis ney
Ġest imate
Ġdiv ision
y al
Ġworksh ops
Ġassoci ation
ili pp
Ġhe ll
Ġstret ch
Ġdial ogue
Ġsc ores
Ġcent uries
ĠCap ital
Ġr iding
ail able
Ġtrou bles
b ar
Pe ople
Ġcertific ate
Ġground s
Ġf inger
Ġexper im
Ġcra zy
Ġelect ions
Ġf ounder
ĠSim ilar
Ġto ys
b ell
ĠD id
Ġop ens
3 1
Ġinstru ment
Ġvend ors
orm al
Ġle an
Ġpres erve
ĠR en
Ġdoll ar
Ġtit les
Ġcomp act
ĠF ull
ĠCR M
Ġt ired
ĠOffic er
Ġfest ival
Ġf er
j i
or ry
Ġassist ant
Ġtail or
Ġretail ers
Ġen compass
Ġwork out
Ġres ume
Ġinv ited
Ġcl ock
C ustom
bu ilding
Ġdist ract
Ġen l
Ġw ake
Ġtra ve
Ġaffect ing
he alth
esp read
ĠLink ed
Ġatt ending
Ġf ur
hy th
ac ies
ĠCo ast
Ġdisapp oint
Ġfil ing
! )
Ġrepresent ed
ĠIsrael i
Ġhas n
ĠPr ice
Ġa er
Ġres c
Ġret urning
ĠUn fortunately
erv ice
Ġvers us
ĠS eries
F unnels
b ow
Ġlove ly
Ġspeak ers
ĠTe le
Ġf illing
ĠKore a
ĠO lymp
ĠChar l
Ġmin i
rodu ction
Ġident ification
Ġsa uce
Ġg iant
Ġoccas ions
j a
Ġsuff ered
ou red
ĠP acific
ĠS ir
Ġoblig ation
Ġsub tle
ĠP ur
fort able
Ġprom ising
z ed
Ġincl usion
Ġdivid ed
ir l
Ġnavig ating
Ġsp ir
Ġgr at
Ġcele bration
ĠZ eal
Ġalign s
Ġsold iers
last ing
Ġla wn
ĠM ess
ĠPalest in
du ction
Ġbu ll
F e
ĠB udd
ĠDI Y
ĠS av
ĠAm ong
Ġapprec iation
Ġp ig
li x
Ġ200 5
ĠP o
Ġtact ics
Ġcur ious
dep th
Ġdevelop er
ĠS on
Ġestablish ment
Ġexcept ion
roll er
at hered
it ting
Ġra c
il ly
Ġdefend ant
ress ing
iv acy
Ġhol istic
Ġ ...
Ġover view
Ġindepend ence
Ġd ipl
Ġcomple ting
Ġassign ed
ĠF ac
Ġrespect ive
f its
Ġo w
Ġterrit ory
Ġmanif est
ĠFest ival
el ly
E P
us al
Ġlight weight
ĠM ike
Ġobs erve
Ġrepe at
ĠC ook
Ġamong st
ĠP op
ĠMart in
Ġdeb ris
olog ists
ut ical
Ġinj ured
Ġprec ious
ĠK ar
Ġrep ay
ul pt
Ġstruct ured
ĠS outhern
Ġm as
O h
M ay
Ġpu zz
ĠMe et
ĠAl ways
4 7
ĠN OT
Ġaud it
Ġspeak er
Ġover se
Ġtr ials
Ġengine ers
a wn
Ġlist ing
Ġdelic ate
Ġless on
Ġk il
Ġvacc ine
Ġhas sle
Ġatt ended
ĠHot el
ĠG ames
ĠT ik
ĠComp anies
Ġaw esome
Ġcontribut es
Ġdeterm ination
m ony
enn is
Ġthere by
E m
Ġwond ering
un a
Ġanaly zing
st ar
alu able
Ġentreprene ur
Ġl ens
p owered
Ġelev ate
ar ly
Ġagg ressive
Ġph ones
Ġfavour ite
Ġant ib
Ġdifferent ly
ĠPak istan
Ġcom ed
Ġmitig ate
gh an
Ġli ked
Ġst ations
Ġstead y
d ef
Ġmount ains
id ers
Ġcreat ors
Ġunn ecessary
Ġwid espread
ĠLe vel
Ġvot ers
Ġdiff er
Ġconsult ing
ĠM ur
Ġc ro
Ġglob ally
mans hip
ĠN ov
Ġre hab
Ġresult ed
ĠZeal and
U se
Ġcomput ers
ĠL ee
âĢĿ )
Ġview ing
ĠF ar
ro ph
il ation
ĠJ ul
al i
Ġpres cription
ĠH ard
Ġbre ach
ĠHar ris
Ġflu id
Ġad verse
Ġvol at
f rom
Ġox ygen
Ġarg ue
Ġauthor ized
Ġa wards
ĠR am
Ġ199 0
ĠCl in
ĠSt ill
ian a
Ġgr ate
Ġinst ances
Ġprecise ly
l ive
ish ment
Ġinvest or
ĠWor ks
Ġvis ually
asc ular
Ġaccept ance
Ġprot est
a fter
Ġhospit als
Ġreact ions
e fficient
Ġbur ning
Ġremind er
G o
Ġlog istics
| |
Ġsc reens
ĠNig eria
ĠV e
St art
Ġ vert
Ġm useum
ĠJe ff
Ġm ic
un icip
os a
Ġpo et
ĠV PN
c ure
Ġbro ker
ĠSp ain
Ġcur riculum
Ġarrange ments
Ġconsider able
ĠM att
Ġfact ory
u um
Ġtr im
ens us
Ġbu ck
Ġsmooth ly
in ch
Ġconsum e
Ġ1 50
Ġwat ches
ĠT ips
ic ide
Ġt utor
wor ks
Ġb oss
Ġsign ature
Ġtre m
ĠPart ners
Ġ3 2
ĠSc he
Ġfunction ing
Ġper mitted
ver ty
ĠA ng
Ġaut onom
Ġsh ots
ĠCol umb
Ġpl aintiff
Ġsent ence
Ġtreat ing
cl aim
ber ry
un ity
Ġagricult ural
ĠB on
e ven
ĠS M
aw are
Ġpo verty
Ġwat ched
Ġtra uma
av a
Ġprotocol s
ĠO meg
Ġp ul
ut en
el come
ĠN atural
Ġam end
Ġ4 8
Ġlet ting
Ã Ń
Ġwor ried
R L
ĠLin ux
is er
Ġfl ash
Ġdistinct ive
f ire
Ġh ide
Ġw est
ĠBe h
Ġprior ities
ĠLt d
Ġreward ing
Ġdis aster
5 5
Ġwin ner
ĠD ark
Ġdesign ated
ater al
Ġin sect
Ġdesign ing
Ġpar ad
ig ure
Ġmed ic
ĠSp ring
Ġimm igration
Ġrepl ica
umm y
ĠA ction
Ġinv as
Ġamen ities
Ġcan cell
Ġs ke
b ooks
ĠPer formance
Ġpublic ly
Ġlike lihood
ĠH on
Ġvar i
ĠF A
Ġnerv ous
t es
H A
C D
Ġg aps
T ake
M ake
ment ed
Ġp ushed
Ġw are
ĠB oston
Ġhar ness
oid s
ĠIndust ry
ĠS ustain
Ġc ow
Ġen orm
Ġdes ires
Ġin ev
ir ts
7 7
ĠCh ris
U T
Ch oosing
Ġleg end
Ġse al
ĠMich igan
Ġlapt op
Ġrec on
H ave
ĠM obile
ĠHosp ital
Ġstr ive
Ġobstac les
Ġcompet e
Ġcompat ible
G ener
Ġtravel ers
Ġcred its
Ġneut ral
Ġsaf er
Ġtem pt
Ġoptim izing
Ġindic ated
ĠColor ado
p ack
Ġext ends
Ġdes erve
Ġmet ic
ig ue
ĠB ud
ĠM oney
Ġb ol
ĠLim ited
Ġover look
Ġun iform
Ġdiet ary
Ġval ued
Ġconst ra
Ġint im
Ġt um
Ġembra cing
O s
Ġcomb ines
ĠP sych
Ġoper ators
R I
Ġplace ment
ĠMod ern
Ġpregn ant
ĠRel ations
ĠTur key
Ġrare ly
Ġdo se
Ġdescrib es
ĠCh ange
Ġh oney
Ġgame play
ĠL ad
Ġcred ibility
Ġres ident
ĠFor ce
Ġdel ays
Ġrepresent atives
Ġcustom ize
Ġh am
ĠJ ones
ap se
Ġv oc
Ġany way
Ġe lder
ĠS elf
Ġs ed
Ġmotiv ated
enc ing
R P
ĠC ivil
ĠF our
Ġconcent ration
ĠF ocus
p o
Ġdiv ine
ret ion
Ġrec re
Ġref rig
t aking
Ġmechan ical
or ic
s en
Ġd ad
Ġsp ouse
Ġread ily
Ġtour ism
Ġluck y
am ber
ĠV an
Ġbel oved
Ġv ine
Ġspec ified
Ġpack ed
ĠCont ract
Ġbed room
Ġhop ing
Ġbro ke
V AC
Ġr ust
ay a
Ġexpl icit
Ġarr ival
le te
ia h
ct ure
Ġref res
Ġtim ing
ĠInt ellig
acks on
ace utical
Ġper ception
Ġend ing
Ġt ire
Ġdepart ments
ont o
Ġclub s
Ġsatisf y
Ġra cing
d em
Ġaward ed
ĠMin istry
R ep
iat ric
Ġam pl
F ollow
Ġreve als
ĠD ream
Ġst ays
Ġm olec
reat ing
ĠWill iams
Ġj un
ĠV ar
Ġprodu ces
Ġed ition
ĠSp e
Ġsc ar
Ġhuman ity
onom ic
A ut
ear s
or rect
u ana
Ġspect rum
Ġconduct ing
Ġfl ag
ĠSe lect
Ġse g
Ġas ks
Ġche aper
Ġdeli vers
Ġsh orter
Ġpub l
To k
ĠM ind
Ġintegr ating
it ual
Ġso f
Ġpromot ions
Ġtest ament
Ġaccommod ation
ĠMed icine
ĠM ah
eut ic
ĠLit tle
Ġven ue
Ġcul inary
ĠFe atures
c end
Ġvirt ually
Ġun cle
ĠN orthern
Ġcomplic ations
Ġb aking
ĠD C
Ġconnect ivity
Ġw rap
Ġl ip
Ġcare ers
ĠRich ard
ĠCom pl
Ġvit amins
Ġseason ed
Ġn ose
r ine
Ġreg ime
ĠH D
Ġconflic ts
Ġs od
Over all
Ġimm ense
Ġpeace ful
ors es
Ġent rance
ĠUS D
ĠD og
ĠM ic
f ers
Ġweap on
ĠPer haps
Ġdem ocracy
Ġcomput ing
Ġl iver
Ġcopy right
Ġhop es
Ġsupp lier
Ġin he
Ġmon etary
Ġmag azine
Ġforg ot
Ġhunt ing
ĠS P
ĠLinked In
Ġelect ed
Ġ âĢĻ
ĠP u
Ġmur der
ĠJ on
ann el
ĠB ow
ist ing
Ġfeed ing
con nect
3 00
c alled
Ġflu ctu
Ġwh ilst
ĠInst all
Ġtele phone
ĠMed ic
Ġl aser
ĠAs h
Ġear ning
angu age
d rop
ĠF riend
mer cial
Ar t
m ond
4 6
Ġw ins
on ing
ĠN ight
Ġv ig
Ġapp et
ian o
Ġke ys
Ġb ust
Ġbar rier
Ġqual ify
Ġp up
Ġp ose
Ġfun ny
ĠP ain
ad or
ĠD NA
Ġhighlight ing
ĠW he
ail ed
he mat
Ġm ixture
Ġpl umbing
oy s
Ġinv aluable
Ġinvest ed
ar io
ĠPh ilipp
Ġle ak
Ġeleg ant
ro t
ul ator
ocr atic
ĠK h
Ġcapt ivating
ĠTe ch
Ġstud ied
Ġk illing
Ġquot es
Ġvar iations
ag raph
ĠL abor
Ġg onna
ĠBet ter
ĠAre a
ic iency
oc ate
ste in
Ġgro cer
ow ing
ĠTh ree
Ġsign ing
ann a
ĠC H
Ġestim ates
esp an
Ġpil ot
st yle
if ted
Ġalle v
Ġsc rew
ĠV eg
em ies
ug s
g ain
ans as
Ġins ulation
Ġh iking
ĠProduct s
Ġm ile
Ġmult ip
Ġp icking
r ite
ĠAn alysis
Ġhighlight ed
Ġwor ship
Ġcomp osition
Ġgrate ful
ĠMem bers
Ġju ice
ĠOh io
Ġm ature
ĠEngine ering
Ġag enda
r us
ĠO N
Ġdisplay ed
Ġint rig
Ġobtain ing
enn y
Ġal umin
ĠV iew
ĠAir port
ĠT ype
Ġpar ks
Ġpoll ution
Ġt ours
Ġwor n
Ġb unch
ĠK ong
ĠJew s
ĠL uc
ro at
Ġle ague
Ġprincip al
ate ll
anc he
Ġinv ite
Ġcontain ing
ĠAnaly tics
Ġ200 4
ĠHe art
Ġgrow s
Ġrem em
hold er
Ġte ar
Ġleg ally
Ġshe ll
ĠC C
Ġsimultane ously
Ġp est
Ġref lection
j ud
it er
Ġsun light
ĠH ong
ĠFranc isco
od ge
Ġint imate
Ġs ne
ĠM A
Ġke en
Ġelse where
Ġguarant eed
Ġsell er
erm an
Ġple asant
ER S
ester day
h our
Ġad mit
Ġfa ult
Ġbow l
ĠJer sey
in ar
ou ch
ob e
ĠAl tern
Ġintellig ent
Ġgl ad
Ġl y
D es
ĠR om
Ġphr ase
ĠO k
Ġb ene
ex p
ĠM u
Ġattribut es
Ġemb ed
Ġd ump
Ġmin ister
ĠR O
pl ed
Ġvar ied
Ġunivers al
Ġpop ulations
Ġback l
Ġex terior
Ex pl
i ov
H aving
ĠEm p
ĠV en
Ġe ast
Ġwood en
ĠN ote
Ġfre el
Ġrepresent ing
ĠS U
Ġg athered
Ġagricult ure
Ġy eah
Ġne uro
h ire
Ġconf ront
Ġrespons ive
r ick
Ġl ake
Ġimm ig
Ġt ied
v ol
ĠN ame
wor king
ow ed
Ġattor neys
ĠChar les
Ġjurisd iction
Ġass ault
Ġcomplex ities
Ġcor on
B enefits
Ġprof itable
ent h
Ġuncertain ty
Ġdiscuss ing
Ġsmo king
ĠV ill
Ġh ung
Ġadvoc ate
i y
ĠE astern
Ġdec iding
Ġfun nel
ĠDemocr atic
Ġp ocket
Ġal ert
worth y
Ġstart up
ab led
Ġsubst ances
iv ation
ĠFin ance
Ġinteg ral
Ġo ven
it u
Ġyour s
Ġpl ain
ĠP S
Ġassess ments
Ġc ourage
Ġdepend ent
Ġsmart phone
Ġemb ark
C T
Ġv oices
Ġstri king
ĠAs ked
Ġam id
ry ption
Ġag ing
Ġgot ten
oh n
ĠE vent
Ġimmers ive
ay lor
Ġs amples
ij uana
Ġver ification
int age
Ġview ed
] .
ĠDiff erent
Ġ198 0
Ġfranch ise
ĠBrit ain
ĠA z
Ġinnov ations
Ġch ains
ĠN ations
Ġfle et
Ġhand y
Ġsp an
Ġres erve
erv ations
ĠAss ess
Ġcapt ured
Ġindic ators
Ġassoci ate
Ġ4 00
last name
Ġy ard
ly n
N ext
Ġrest oration
ĠG all
ĠH VAC
Ġevol ved
Ġwal let
Ġ6 5
Ġaccount ability
or ks
Ġmake up
ur ring
Ġneg lig
Ġcr imes
av ed
Ġcomp ris
or ial
ĠF re
ĠC N
r ators
n ament
ĠIsl am
Ġbo asts
Tr ans
ay er
ar ity
Ġadv ised
Ġse ar
Ġunc over
Ġunderstand s
Ġattract ions
ĠC ase
z ona
Ġst rip
est y
E d
ac on
ĠEconom ic
Ġunlike ly
ĠO wn
board ing
Ġbr anch
Ġflow er
pie ce
Ġ Ã
Ġg ently
w er
ĠB lu
Ġlandsc apes
anc hes
Ġr hyth
ud i
min ute
Ġinflu ences
4 2
ĠChrist ians
Ġtransform ed
Ġshowc asing
Ġrad ical
Ġsymbol s
ut er
Ġroof ing
at i
ob b
Ġtox ic
ential s
Ġprev ents
Ġpref erence
Ġknowledge able
Ġlux urious
Ġn ights
Ġhol es
er tain
w as
ĠSh are
iox id
Ġsurround ed
Ġcal ories
ul ent
A dd
re ach
Ġv ice
Ġple ased
ĠI ss
ĠM aterial
Ġapplic ants
C ol
ĠH old
is a
ĠC F
H is
ĠAtt or
Ġexplan ation
ĠMount ain
Ġplan e
Ġab st
Ġun for
Ġfin ances
Ġspect ac
z es
G A
Ġdispl ays
Ġat tain
Ġun author
Ġdram atic
Ġdisc rimination
Ġrecruit ment
Ġfin est
ĠD an
Ġguarant ees
Ġhol idays
ĠPol ice
rou s
arent s
ĠC ru
ĠAs k
Ġinterpret ation
Ġst em
j o
cept ions
ry ing
Ġmir ror
Ġan ger
Ġshap ed
Ġdil ig
M ar
ĠB ox
r ings
Ġdiscip line
Ġcollabor ate
Ġsol o
ĠB an
D isc
vis or
Ġpat ience
Ġdis advant
ĠO p
Ġenter prises
M C
Ġpros per
ĠSen ior
Ġorganiz ational
Ġfem in
Ġinstall ing
Ġgr ants
Ġhead ing
Ġmet ers
Ġgener ating
ĠEar ly
ĠP ers
Ġsell ers
Ġs outhern
c hers
ect ed
Ġrelax ed
Ġm oon
Ġappli ances
Ġprint ed
ĠM ethod
osp el
Ġwrit es
Ġtransfer red
ch o
ĠL ine
Ġdeb ut
if ier
c a
Ġpath s
Ġsh ield
ĠJ ackson
M r
ĠTh ings
Ġle ase
Ġguid ed
ĠConf erence
ĠT urn
Ġappoint ed
Ġsw ing
Ġd ual
Ġc uis
Ġact or
Ġexpl os
Ġdemand ing
Ġtom orrow
Ġsing les
Ġmin erals
Ġstrugg les
ĠOpt im
ĠIr ish
Ġt ons
Ġmy ster
Ġrece ipt
T op
Ġc ircle
ĠB a
th is
Ġcustom ization
gi ene
Ġdest ruction
Ġex em
isc al
ĠT ools
Ġprov ed
ĠP ub
Ġvar ies
Ġas sembly
Ġle af
Ġbe ings
Ġro yal
Ġaff irm
Ġrece ives
act ion
ĠTik Tok
Ġreview ed
L S
Ġm erg
Ġcons olid
ĠA ge
he ast
Ġdecl ared
Ġl oving
Ġdes per
in ery
Ġrout es
f oot
ĠPri or
ro duct
ĠGrow th
Ġclean er
m ith
Ġcomp lim
Ġfo am
Ġth inks
Ġg ay
Ġwith stand
Ġstory telling
ĠN umber
Ġinvestig ate
oub ted
ios ity
Ġdestroy ed
Ġrest ricted
Ġrec all
E F
r un
ĠH a
Ġincent ives
Ġbul k
av irus
Ġmil est
bo ards
ĠIm m
Ġharm on
enc ed
ĠL at
ĠArt icle
Ġaccomp an
irt ual
ĠProper ty
o T
Ġdisc retion
Ġ200 3
Ġpost ing
ur ches
Ġbrand ing
ĠC ovid
ĠOr ig
Ġsec uring
ĠQue en
Ġanticip ated
iz za
Ġnavig ation
Ġdisput e
Ġscreen ing
Ġcomplain ts
P re
i aries
Ġbu ff
in ction
Ġphotograph s
ĠC a
ĠSw ed
Ġpro long
Ġback up
ĠD ar
Ġcl oth
it ches
ĠExpl ore
Ġinsp iring
ĠS anta
Ġint ensity
ĠB ell
Ġdeath s
Ġcor n
Ġhad n
Ġpasseng ers
Ġwal ks
Ġt ill
Ġenorm ous
air y
Ġcar pet
ffic iency
ap h
ĠApp ro
Ġoff ensive
il ty
Ġsw ift
ĠL iving
Ġtrans lation
Ġcere mony
Ġvot ing
Ġre verse
Ġsens ors
Ġwh oles
Ġconscious ness
Ġcheck ed
van ia
Ġsurround ings
is ure
achel or
Th ank
ĠPlan ning
Ġc inem
Ġdrop s
Ġbr id
ter ing
ĠComp et
Ġcompan ion
Ġsurve ys
Ġlif espan
ay ing
Ġloc ks
m ates
Ġrough ly
ĠStand ard
ĠDemocr ats
Ġspe aks
ĠE ffect
d s
Che ck
m n
ist ical
Ġhe al
Ġstay ed
Ġp ink
Ġbe aches
Ġcollect ing
ĠJ ac
ĠPr ivate
oubted ly
Ġtrem end
Com merce
ĠWor king
St ud
Ġass ured
d y
ĠViet nam
Ġassign ment
ĠRes ources
ĠB eg
Ġgr id
Ġr itual
Do es
Ġalgorith m
P al
ĠU r
se ction
Ġh its
Ġprev al
Ġadv ise
Ġdis ag
Ġneg lect
il a
ĠAdv anced
ĠJ un
ĠO x
Ġs orts
Ġcelebr ated
ĠâĢ ¢
Ġmeas ured
Ġi OS
Ġw ard
Ġfarm ing
Ġfulf illing
Ġann ually
ĠD aniel
Ġspeed s
Ġtransform ative
Ġuncom fortable
v iously
Ġaesthet ics
Ġc ust
Ġingred ient
ĠAnd rew
ĠF OR
ĠD ue
Ex per
Ġl ung
Ġalign ment
cy cle
ĠJose ph
Ġdirect ors
Ġdel iber
Ġpublish ing
nd rome
Ġport able
form ed
Ġw ra
Ġfert il
ac her
Ġsc ulpt
red ict
Ġtalent ed
ĠHol lywood
ĠGu ard
s ight
Ġautom otive
S om
Ġh o
ad ium
Ġpe ers
ĠO ptions
ĠTra de
L ooking
Ġkey word
Ġbuild s
Ġrein for
ĠN ut
ĠK n
ab lish
Ġrepl acing
al o
att oo
h ou
Ġvary ing
ĠStud y
Ġa rom
Ġcorpor ations
Ġw estern
ĠSt ock
Ġden ied
Ġevalu ating
Ġt ort
ĠPr ivacy
Ġcontact s
j u
Ġc otton
Ġro lling
ak a
Ġl iable
Ġtestim on
Ġfing ers
Ġhand led
ĠGard en
Ġfirst name
Ġbreak down
Ġcomprom ise
il itation
Ġ5 5
Ġn urse
Ġfl ights
ĠAP I
y r
ĠE ll
Ġconf usion
Ġcoun cil
ĠH ub
Ġlow est
M ed
Ġwarm th
Ġtoile t
Ġm ask
Ġprospect ive
Ġfat igue
ĠT ri
ĠSte ve
Ġperce ived
Ġbe ans
ĠO S
Ġadvent ures
Ġland l
Ġpe er
ivers ary
ĠR ose
Ġn orthern
0 1
ĠDon ald
C R
k ind
Ġover night
Ġinc idents
ĠPract ice
Ġin her
ĠInt erest
Ġgr asp
Ġwire less
Ġpenal ties
l aim
Ġca ution
Ġrele ases
act er
ri or
Ġh ip
ac ious
Ġper pet
Ġcur ve
Ġa ids
Ġst er
un ate
Ġbasket ball
Ġconc luded
Ġcraft ed
Ġret reat
ĠVis it
ment ation
Ġd ict
ES T
Ġtherap eutic
Ġn od
Ġst ops
a S
iv ities
get table
Ġste am
ĠAri zona
Ġexhib ition
yl vania
he nd
at ers
ĠStud ent
6 6
A ss
ĠTor onto
Ġst ack
ad el
p ace
am ine
Ġsh ifts
br idge
ĠEnviron mental
Ġo d
Ġpain ful
c hest
h ar
Ġdirect ions
Ġan gle
ĠK im
Ġrein force
ĠL y
ĠGold en
ĠAll ah
Ġsure ly
Ġear s
GB T
Ġport ray
ĠR a
Ġstr angers
ĠEvery one
Ġmod erate
Ġfac ial
Ġpen et
Ġtra ils
Ġtempl ate
hy d
Ġpre ced
Ġa qu
t ail
o ir
Ġrecommend ation
Ġproceed ings
Ġsec ured
inc are
get s
ĠInvest ment
the w
ĠM oon
ĠLib rary
ĠIntellig ence
ĠF ord
ĠQu ick
w all
Ġ200 1
c ut
Ġmain stream
ĠM D
Ġarrange ment
Ġbrill iant
Ġdiscl osure
Ġhost ed
Ġorgan ize
Ġflo ors
mind ed
ĠSt an
Ġsched uling
uck y
pl ant
Ġoutd oors
N S
le g
Ġg rip
Ġinv iting
Ġen roll
Ġvolunt eers
Ġpursu ing
Ġfoot print
Ġprop ri
Ġdis abilities
ira ble
Ġprodu cers
Ġloc ate
Ġwithdraw al
Ġdim ensions
Ġansw ered
Ġpar alle
Ġd os
Ġneed ing
ĠCorpor ation
ad ed
F C
Ġflo oring
Ġrel ate
b est
G E
ul ates
ĠD ie
Ġworksh op
Ġtem ple
Ġind irect
ĠL ic
Ġc rown
Ġclin ic
row se
v ard
epend ent
Ġ3 8
pt ic
Ġimag ination
v ance
Ġlo vers
Ġcirc uit
Ġt ends
ĠS ky
ig ious
Ġcomb ining
Ġ197 0
Ġsome how
Ġt ape
ord an
Ġreflect ing
ĠD aily
are r
Ġachieve ment
Ġdispos al
Ġbrother s
P M
Ġsched ules
ĠE asy
Ġranking s
the y
Ġacc used
amp s
iv ated
B oth
form ing
Ġcreat ures
F requently
ĠE state
Ġunders c
ĠPr inc
g iving
r ust
ĠB ad
Ġb ub
Ġbackground s
Ġb ite
ĠIsl amic
Ġout fit
h oot
F ree
L P
Ġenl arge
Ġtherap ist
Ġvac uum
Ã ¼
Ġphys ician
Ġqual ifications
Ġtour ist
Ġp ion
ĠCle aning
ĠEn c
ĠNF T
Ġmarket ers
Ġminim izing
Ġb ones
av al
as ures
Ġpass age
Ġh orses
Ġdram a
ĠAf ghan
Ġstart ups
Ġcont est
Ġasp ir
Ġcharacter ized
ost ic
Ġtrad em
Ġdest inations
Ġref erences
Ġrefrig er
Ġfost ers
Ġco ins
Ġhost s
Ġins ure
l ining
re f
ask a
Ġvolunt eer
ĠB ob
Ġkn ife
Ġlawsu it
ast ing
ol is
in du
Ġalign ed
ul in
Ġt ender
ĠX ia
ĠWe ight
Ġrob ot
Ġseason al
Ġbene ath
Ġsp ell
Ġrat ings
int erest
ns ylvania
Ġre ven
ĠI ce
or ient
Ġloc ally
Ġaff airs
ĠM ember
Ġcont ents
c am
Ġw ages
Ġant ioxid
Ġhaz ard
ĠN E
4 1
yp ically
Ġdele g
T ime
Ġso ap
Ġg ig
ES S
Ġh anging
Ġt ie
ak h
Ġwhere ver
Ġauthent icity
Ġnutrition al
Ġtour ists
ĠU V
Pro f
Ġle aks
! "
Ġoccas ionally
ĠH or
Ġsurpris ing
H D
Ġaim ing
Ġl enders
Ġtim eless
Ġcar ries
ath an
R el
d oor
Ġag ed
ill ance
Ġimp ress
Ġre nder
ur able
Ġm ath
h ome
Ġgraph ic
Ġagg reg
Ġunfor gettable
Ġde emed
Ġalle g
ĠMedic are
Ġpass es
ĠApplic ation
Ġf ed
Ġcar ing
Ġdiscl ose
ĠStrateg y
ĠV it
Ġcirc ulation
ĠDiv ision
ĠAuthor ity
T M
Ġgen re
Ġstream s
se lling
Ġtra its
ab i
Ġen rich
Ġb ass
Ġh un
Ġreflect ed
Ġcompat ibility
ins on
Ġconserv ative
Ã ³
ĠP age
ol ly
Ġang ry
k ens
Ġscr atch
Ġint r
gra duate
ĠInd ividual
Ġsk i
Ġtrans fers
Ġtown s
che ck
E ng
ĠN ature
Ġreg ards
Ġen emies
Ġmetab ol
Ġtreat s
ĠâĢ Ŀ
Ġenab led
ĠSe ason
he im
ĠV ice
Ġkne e
Ġmag ical
Ġde ce
Ġref ine
Ġw ishes
Ġin hib
ation ally
ram e
Ġbel t
Ġb io
Ġref used
Le vel
Ġb ands
Ġpar agraph
ĠM s
Ġy ards
am ination
ĠAd am
iam i
ĠElect ric
Ġsett led
our cing
P P
ab eth
Ġcontain ers
ĠD O
Ġ200 2
Ġbab ies
Ġanc est
ass ment
Ġkn ock
Ġsu ited
ĠT ai
Ġwel coming
ab b
ĠEnh ance
Ġind ul
Ġmatch ing
Ġattempt ing
Ġrec ru
Ġtro ops
Ġtransform ing
hes ive
l ass
Ġdev ast
ĠB ul
Ġrecyc ling
Ġdipl om
Ġg au
il er
us hes
ĠTh ird
Ġwe ird
Ġaccept able
Ġr uling
E E
ĠM other
W ill
the ning
Ġ3 3
Ġcol umn
ĠH u
ĠClick Funnels
Ġa x
on ut
ĠKore an
Ġgard ens
Ġw age
Ġland s
Ġvar ieties
Ġhead ed
Ġor g
ĠW H
Ġter rible
ĠExper t
qu is
ĠTrans port
Ġsens itivity
ĠH as
Ġt ies
Ġconstruct ed
rib e
Ġsur gical
ĠS us
al ities
ple x
f lix
L Y
Ġcou p
ĠHen ry
Ġdesk top
Ġbr anches
Wh ich
Ġs li
S ub
at tle
Ġmy stery
ino is
Ġemp athy
Ġpr one
cons cious
Ġth y
Ġenc ryption
C lick
Ġre ass
Ġad mitted
Ġinter ventions
Ġviol ent
ipl inary
Ġdisput es
Ġign ore
ĠF oot
el ve
Ġf iction
eng es
ĠC ub
ov iet
ff e
Ġwhe els
Ġm igration
Cons ider
Ġsh ine
ĠC over
ĠC hen
ĠEx change
ard less
Ġhe nce
Ġcomp ound
ant h
bre aking
ĠC irc
Ġsem i
ĠSt ory
ĠS her
Ġt ar
Americ an
ĠC ash
ĠA h
Ġbegin ners
Ġ âĤ¬
ur red
Ġesc al
Ġapparent ly
ĠN at
Ġlab our
int on
d isc
ous ing
Ġany body
ĠT aylor
M s
Ġdef ensive
Ġsustain ed
Ġcur iosity
Ġar med
r ong
ĠUS B
ĠH ou
ĠPre p
Ke ep
Ġco zy
T P
ell er
N ote
Ġcop ies
Ġ3 7
ĠReview s
ĠP A
Ġrub ber
ĠB ased
D is
ann y
Ġcan cel
Ġbi ological
ĠC apt
ĠSh ort
k o
ĠR h
b ound
Ġposition ing
Ġrelax ing
Ġmar ine
ĠI V
B et
ĠCommun ication
Ġfear s
H er
Ġcl icking
C B
ĠB rad
if ice
ĠTreat ment
4 3
Ġr um
Ġcar rier
Ġund oubtedly
row ing
ĠM uch
m atic
Ġrep et
Ġvert ical
Ġspo ken
ĠPen nsylvania
Ġenvironment ally
ĠR ather
Ġtext s
Ġeleg ance
0 5
Ġgu ilty
iv a
Ġlear ners
Ġcritic ism
employ ment
se x
Ġnecess ity
ĠB ody
AR T
Ġprogress ive
Ġm unicip
Ġstru ck
Ġrespect ively
Ġan ch
Ġaccompan ied
ĠR isk
Ġsu ite
Ġex it
iet al
Ġrespond ed
h ot
Ġj ury
Ġmin istry
Ġmod ify
Ġphenomen on
Ġg reet
C L
Ġpract icing
Ġreason ably
ure au
am i
ĠU A
Ġor ange
ĠR ome
Ġy esterday
Ġarchitect ural
Ġmar ijuana
ĠH ig
Ġt rop
Ġdemonst rates
Ġimpact ed
Ġprodu cer
Ġmeas uring
arm a
mar ks
Ġoffic ially
b ered
on ly
ĠCom b
ĠB ol
Ġnegot iations
Ġthe ft
Ġur gent
Ġaccess ing
Ġviol ation
M ain
uc ks
Ġres erves
ĠDr ive
Ġcr ash
est ion
p ress
Ġt ong
Ġposs ession
ut es
Ġh oly
Ġargu ments
clus ive
ĠM aking
writ ing
it ations
Ġsee ks
Ġelig ibility
Ġexclus ively
Ġmind ful
aw a
Ġca ut
aunt ing
Ġad here
m aker
Ġp ad
8 5
Ġhy giene
ĠS ex
T able
it udes
ĠK ent
i ar
Ġengine er
Ġce iling
Ġarg ued
Ġprote ins
ĠL GBT
âĢ¦ .
Ġprom ised
ain ed
v ation
G u
Ġsil ent
Ġart work
Ġwe lf
Ġpart n
Ġtw ist
Ġout lined
Ġsle ek
Ġaccompl ished
Ġc oding
Ġn it
d ers
ĠDep ending
ĠN ic
Ġret ro
Ġintrodu cing
U M
y es
S S
Ġabsor b
8 00
ĠEvery thing
ĠFollow ing
Ġwelf are
ĠColl abor
Ġp m
ast y
ik i
ĠDe b
Ġsc rap
ro c
Ġqu eries
ĠMod el
Ġsh ips
ĠE sp
ĠG ive
ĠBl ock
i ology
ĠThe rapy
ĠScot land
J ohn
U L
is an
Ġsupport ers
ru b
w a
Ġr ational
ĠUk rain
Ġsh ade
re ated
Ġbe ef
Ġunauthor ized
Ġhit ting
Ġexch anges
r imin
Ġpers u
Ġbo ots
Ġident ical
Ġparam eters
ĠMc C
ĠPol it
Ġreson ate
ĠR ole
Ġmis con
b ro
Ġconsum ing
He alth
Ġincorpor ated
Ġunf old
Ġautom ate
in th
Ġseem ingly
ond er
Ġg ross
v o
Ġadvis or
t age
ric ts
Ġorgan izing
Ġre aches
ĠE T
G PT
ĠF ield
Ġcamp ing
Ġappet ite
Ġcharm ing
he art
Sp e
% )
ĠInd ones
Ġab ortion
Ġn ic
d ney
m issions
ĠBro ad
Ġsing ing
Ġinter pre
ĠConst itution
Ġcru ise
Ġt u
Ġregard ed
Ġcook ed
Ġun pre
ĠP erson
Ġto ken
Ġfail s
Ġir re
Ġback ed
Ġsynt hetic
Ġhard ly
Ġg est
Ġinfluenc ers
In vest
Ġpursu it
c ur
Ġcon j
ĠK at
ĠInd eed
Ġprotect s
ĠFore st
Ġp ays
Ġr anges
Ġconvers ions
Ġfif th
ugg ed
ĠU RL
f ish
at oes
Ġst urd
Ġm g
Ġchamp ion
ĠP y
Ġsec rets
Ġg orge
Ġpri ze
ĠC T
Ġbank rupt
Ġre im
Ġcuis ine
Ġcryst al
Ġve gan
4 00
Ġra b
Ġder ived
bre ak
Ġpropos als
ĠT ogether
Ġch urches
Ġfro zen
Ġbas ics
Ġst abil
er ted
Ġpre st
ĠD rag
c ling
Ġch ips
Ġcomp ounds
Ġanal ys
P ay
Ġre vers
Ġmet als
ĠRepublic ans
Ġcont amin
i ang
pl aces
er ge
b ury
Ġb iod
Ġn ail
Ġad mission
ĠReg ist
ĠF low
re hend
Ġcalc ulated
Ġl es
Ġanticip ate
ĠAttor ney
r ange
ĠPart icip
Ġpet ition
iov ascular
own ed
Ġfree ly
Ġpres idential
Ġpartic les
Ġform ats
Ġac ids
Ġattract ing
O V
ĠSim ply
Ġvend or
Ġnob ody
ĠVal ue
Ġl ighter
Ġexp end
tr ans
ĠTur k
Ġtru cks
Ġworld s
ir atory
ĠH air
B ack
Ġp or
Ġsubscrib ers
Ġt ent
Ġrecip ient
ropri ate
Ġinstitut ional
Ġt we
Ġinc orrect
Ġfor ums
ĠCy ber
o in
Ġcoord ination
e ering
ĠM ove
Ġher bs
Ġcle ans
Ġd ies
ost ing
ĠA st
Ġload s
ĠTH C
Ġsecure ly
Ġbuild er
ol ves
ab s
Ġbe ll
Ġmoment um
Ġepis odes
et ed
Ġemphas izes
R ed
s is
ĠO K
Ġende av
Ġs atell
Ġbre w
ĠEm ail
ke eping
ch anging
Ġvol umes
ĠIn novation
Ġspecific ations
ant ing
ĠCol lect
ĠOver all
Ġoverse as
Ġoper ated
Ġin e
Ġg room
im m
iz abeth
Ġh ired
Ġdele te
ot es
sem ble
Ġmeasure ment
Ġfund ament
x y
h op
Ġnot ing
Ġnewsp aper
Ġto mat
Ġd imin
ĠF ox
Ġl ender
ĠSil ver
Ġbo ot
Ġhes itate
Ġconsult ant
Ġpenal ty
Ġg low
ĠD yn
Ġhousehold s
ĠSp ot
res hold
Ġflow s
ĠSaf e
ĠG ree
Ġd iving
Ġther mal
ĠM iami
d a
ĠS oviet
ĠB esides
Ġbenef ic
Ġsequ ence
o vers
Ġfail ing
Ġt ires
ĠBro ther
Ġun limited
Ġadvance ment
ĠD rug
Ġmus h
at able
Ġadop ting
Ġst ones
Ġsatisf ying
Ġpromot ional
. '
Ġprescrib ed
are t
re ne
Ġbare ly
Ġtem por
Ġsk incare
bu ild
ĠOrgan ization
Ġcollect ions
Ġchar ity
Ġfin ishing
Ġle isure
iot ics
ĠAut o
Ġbeg un
Ġpres erving
Ġdigest ive
Ġsu p
Ġcryptocur rencies
B ased
if er
Ġfun n
Ġcomm od
ĠW as
ris on
ĠPro p
Ġparam ount
b ec
Ġbl ame
ĠEn joy
Ġappoint ments
ĠIll inois
Ġregul ate
Ġguid ing
Ġpip es
ĠS A
it zer
Ġwell being
Ġalumin um
Ġve t
ĠR ay
Ġ1 20
ĠT able
Ġharm ony
ĠF DA
âĢ ³
ĠWith in
Ġtechn icians
Ġsec urities
D R
ph a
th od
ar on
ĠD iet
Ġra ces
Ġmod ified
Ġz ones
f are
ĠExp ress
h u
Ġf ier
Ġsepar ation
ĠL A
Ġdecent ral
ĠH ope
Ġmand atory
Ġst ir
Ġlab els
ĠDef ense
Ġd aunting
ĠM ale
Ġc ure
Ġdead line
Ġc ig
ĠPh D
Ġsacr ific
Ġmat hemat
Ġin hab
Ġenlarge ment
z ens
Ġ >
Ġra cial
Ġshould ers
EC T
ro ck
ĠR od
Ġtr ies
Ġed ges
Ġfund ed
O ut
Ġfant asy
ĠF a
Ġtim eline
Ġdeploy ment
ĠG P
Ġf ence
Ġv intage
Ġre lying
Ġche f
Ġf iscal
um bers
Ġbott les
Ġindepend ently
Ġpresent ing
Ġsens or
Ġk m
ĠO cean
Ġcomp aring
G l
con f
Ġste ep
Ġform ing
ĠBe aut
Ġassess ing
Ġeth nic
ĠTre nd
Ġf ut
ain e
or ious
Ġannounce ment
in ance
Ġboost ing
Ġrecogn izing
ĠHaw ai
ĠSimilar ly
Ġpr on
Ġpip e
ĠHe ll
Ġinst inct
ĠMan ufact
ĠB ull
Ġadvoc acy
Ġcontro lling
Ġbed s
Ġexecut e
Ġdevot ed
per or
Ġcorpor ation
ul ously
ĠP RO
ĠOf ten
Ġelimin ating
ĠSt aff
Ġdes criptions
Ġcontin ually
Ġapprec iated
Ġvessel s
Ġcraf ting
Ġphr ases
Ġma ps
ĠDe ep
ri x
Ġfavor able
ĠJ ordan
9 7
Ġ1 000
Ġco aches
Ġglass es
ĠD om
ĠP DF
Ġhor ror
Ġf oss
Ġann oy
Ġvisit or
i ro
cl osure
Ġexp ed
is ers
Ġport al
in ator
Ġgener ous
ĠDown load
Ġfore front
w art
Ġprec aut
Ġhorm one
Ġunw anted
Ġc ord
Ġtast es
ĠF all
er b
ĠO nt
ĠC and
S et
S ocial
ĠR on
ĠShop ify
ĠPort ug
Ġinter rupt
ĠSqu are
ĠD ocu
ĠF lex
Ġthr ill
ĠNF L
ĠB all
B M
Ġpsych ology
el a
Ġst eal
wh o
os it
ĠR un
U D
c ase
Ġtestim ony
Ġ3 4
ĠSa udi
Ġcounsel ing
Ġgrat itude
ĠColumb ia
Ġloc ked
Ġpat ent
Ġte ars
Ġcustom s
a ired
Ġar c
v able
Ġloc als
ĠA wards
if iable
Ġmusic ians
Ġlib eral
ĠOmeg le
Ġconfirm ation
in st
Ġclim b
Ġed it
ĠHar ry
Ġunder go
Ġcat al
t ered
Ġg ri
Ġt attoo
Ġbr ick
ĠO pportun
Ġsa ves
ol en
ĠN ear
h ave
Ġto kens
ĠMain tenance
Ġinn oc
ĠF ast
Ġremed y
Ġacc red
Ġconstra ints
Ġm ater
Ġempower ing
E G
Ġconnect s
ĠN eg
Ġcounter part
al g
Ġreject ed
ĠSar ah
Ġold est
ĠV ery
Ġ9 5
ĠC ancer
ils on
Ġcomplim ent
ĠFore ign
il ton
ograph ical
ĠMal ays
op t
ĠBe yond
T wo
Ġcol ours
ĠS ure
Ġproport ion
Ġsl ots
Ġf et
Ġsusp ension
Ġtre asure
Ġch ol
Ġoff ense
Ġrhyth m
ĠC as
Ġinspect ions
so le
Ġbu nd
Ġoper ator
ĠN AS
Ġb om
ĠR ub
Ġam ple
el le
Ġelectron ics
reg on
n ormal
Ġcompar able
Ġthr iving
Ġfall en
Ġexplore s
P D
Ġb orders
gg ed
Ġhaz ards
Ġadv ances
Ġend orse
p orts
Ġsh ifting
Ġsoc ietal
Ġsen iors
Ġpow ered
Ġhe mp
Ġb ump
pl an
Ġarrest ed
ĠNet flix
G ood
u ity
Ġsurve illance
ĠPar liament
es is
Ġ19 60
Ġblog s
E X
ĠB ush
Ġrepeated ly
ĠL oss
Ġcitiz en
Be ing
Ġconf used
Ġcondition ing
an z
Ġallev iate
ĠC ore
Ġre ct
Ġup set
D ata
Ġg ad
Ġcris p
Ġm ales
unn el
Ġin ch
Ġh ood
Ġdram atically
Ġtremend ous
Ġen erg
Ġfe as
ĠL ew
Ġpharm aceutical
Ġpublic ations
ast ed
Ġad min
Ġs ink
Ġs orry
Ġcompet ing
ĠF urther
ĠC V
p an
Ġp ests
Ġgl ory
P ersonal
Ġenjoy s
A v
ĠL as
Ġult ra
Ġport ra
Ġpolit icians
Ġbelong ing
Ġaccount able
Ġpositive ly
Ġtr icks
Ġlog ic
ĠA mb
ne ll
eg ree
Ġacad em
Ġg em
we ek
ĠCle ar
Ġshe ets
ĠPer fect
ver ages
Ġthr illing
ĠJo in
Ġattract ed
Ġthought ful
Ġsimpl er
Ġ2 50
Ġann iversary
Ġb illing
Ġn est
Ġconcent rate
t w
Ġpractition ers
Ġreview ing
ĠL ux
er ry
N et
ke l
Ġcell ular
Ġnutri ent
ail and
Ġresil ient
Ġcomp os
Ġtable ts
A A
ĠNever theless
p aced
Ġapplic ant
C ur
ĠH ence
ĠV ers
Ġcorrespond ing
6 7
ĠCh apter
ĠR oom
Ġcont rary
Ġreson ates
Ġcrop s
Ġcolor ful
Ġl ips
Ġbehavior al
Ġma j
ĠG iven
eng er
o en
Ġr ib
Ġeffort lessly
ĠIm plement
ĠEmp ire
Ġcontem pl
Ġpu lling
Ġk iss
ick ed
B ook
Ġre cept
ĠSy dney
Ġpip eline
S ign
ĠRev olution
Ġbi as
ock ets
ĠF red
ĠT en
Ġcolle ges
Ġdefe at
in yl
Ġisol ation
Sp ec
an qu
Ġdem ocratic
up id
ph ia
Wor ld
Ġmaintain s
ĠM P
Ġpra ise
Ġshel ter
Ġcy cles
w ill
Ġch airs
im a
Ġcook ie
ĠOther s
Ġrespect ed
-- --
ĠS everal
Ġel ite
ap le
Ġnurs es
Ġm ira
ĠD ate
r int
m od
a ire
Ġdecre ased
ĠL ess
r ise
Ġint end
Ġth irty
s ur
ĠMex ican
or i
Ġgrocer y
ĠC rit
Ġsh out
Ġadjust able
Ġnot ion
F ans
ced ented
f ts
Ġfund ra
pro f
ĠHou ston
ĠCount ry
Lear n
Ġp acking
Ġem erge
ĠBl ood
ĠII I
ĠUn ivers
all as
Ġelder ly
f ocus
Ġexpl ored
ĠG aza
p ing
V is
Ġbeautiful ly
Ġ Ð
S E
Ġfriends hip
ĠG rant
Ġth reshold
Ġadvis able
ĠSum mer
9 8
Ġfinanc ially
ĠL ind
Ġsubst itute
Ġsl ip
um ph
s ervice
Ġv iable
am ily
Ġtrans it
ĠCl imate
ĠAd vent
ound ing
Ġgra in
Ġnut s
Ġsol ving
Ġvot es
A ct
Ġcomp osed
Ġd amp
Ġcap s
Ġg host
Ġcar p
ĠBr idge
ch ild
Ġn erve
Ġsil ence
Ġdo zen
Ġpo ison
Ġst ains
Ġexhib it
Ġv ocal
e u
Ġ4 2
Ġd irty
Ġrefres hing
Ġsac red
Ġ199 9
Ġlo op
Ġking dom
Ġprofit ability
Ġconcer t
Ġconf erences
ish op
Ġst ere
Ġf ool
Ġgorge ous
ĠImpro ve
ĠBel ow
Ġpress ing
Ġout lets
orient ed
Ġ( $
ĠProv ide
ĠL ar
Ġforest s
Ġcor ruption
Ġjoint s
b ra
Ġend uring
ĠCult ure
ĠC ut
Ġsc ream
Ġdownt own
h ist
Ġco pper
Ġout er
ĠEx cell
rit is
Ġresist ant
ĠA li
Ã ¶
C P
Ġdiscover ing
Ġconvin ced
Ġparalle l
Ġconsist ing
lud es
Ġchat ting
ĠE ric
ĠD utch
Ġfram es
Ġconfig uration
qu arters
Ġbutt ons
Ġshort ly
Ġsh ame
ĠResp ons
Ġeduc ators
ĠB oy
par alle
Ġcabin et
Ġfail ures
D ay
Ġr ings
Ġmerch and
Ġst rap
not ch
Ġmin eral
Ġsn acks
ĠCustom ers
Ġresc ue
M on
D ep
Ġlib er
st ic
Ġout line
Ġcoast al
Ġscholars hip
at ches
Ġfl ags
Ġhum idity
Ġmeasure ments
adel phia
Ġl ying
Ġp orts
Ġremed ies
ĠMe anwhile
Ġhand ful
f ting
Ġp ension
Ġp our
M I
Ġviol ations
Ġdes ert
em ail
Ġrespond ing
Ġneighb ors
Ġcater ing
Ġsturd y
et ts
Ġbase ball
Ġthe ore
ĠV R
Ġoptim ized
Ġequ ality
Ġelev ated
Ġtra ce
Ġd ensity
ĠO s
f irst
ĠJ r
Ġaccomp any
Ġtal ents
ĠTem ple
Ġtable t
Ġlib r
Ġattempt ed
ĠPalestin ian
Ġl ending
ĠSy m
Ġeduc ate
ach us
ĠUt il
sh ore
ĠMach ine
Ġseg ments
ĠRep resent
Ġcapt uring
ur ate
Ġemot ion
Ġdiam ond
ĠAl ong
op es
oster one
Ġcert ifications
Ġcreat or
Ġinquir ies
Ġfor um
ru p
is hers
D PR
Ġsimpl icity
Ġsle e
res istant
ĠSol ar
Ġrout ines
it o
Ġfrust ration
i ative
f alls
anc ers
m g
D id
Ġse vent
M od
ĠS ams
ĠA k
ĠAff airs
Ġblock ed
ĠS D
N T
ĠAss istant
h igh
Ġnon profit
ig er
Ġdent ist
Ġemb arr
Ġemot ionally
Ġsw ord
Ġf les
f eed
Ġc ush
Ġcateg or
ĠB ern
Ġstro ke
Ġaccept ing
Ġsh r
ĠD ur
ĠRep air
le ading
Ġra ises
Ġspectac ular
Ġdig it
be an
ĠG M
Ġref use
ester ol
Ġassign ments
ĠM om
ener y
ne ver
Ġun ity
ĠW in
Ġbur st
othe rapy
Ġdo zens
Ġclim bing
Ġscr ut
ĠN ob
ag an
Ġas semb
Ġtang ible
Ġinflu ential
ĠI oT
Ġfoot age
Ch rist
Ġrad iation
Ġoverwhel med
Ġt ags
Ġoppon ents
ĠD ise
he ld
ol i
Ġball s
Ġimp ressed
ĠHealth care
Ġsub mission
Ġdash board
Th anks
Ġu h
Ġunpre cedented
Ġjournal ists
ĠB ed
Ġbreath taking
b led
ĠE ffective
Ġw ax
ĠF eed
Ġorient ation
Ġquick er
ograph ics
ĠRes erve
Ġh ike
Ġlabor atory
l iness
Ġmod ifications
ĠAust in
Ġass urance
p es
Ġswe at
Ġcard iovascular
T ips
Ġm ad
Ġp ic
ĠT aking
ĠInf lu
paralle led
Â ·
ĠAll iance
B el
ĠO l
Ġres ur
s olving
Ġresol ved
w al
ke ep
Ġforgot ten
Ġmechan ics
elt a
Ġi P
ĠR V
m ate
Ġshad ow
in os
Ġh al
i kes
sec ut
ĠP ast
Ġhum or
Th ose
ienc ies
Ġhospit ality
Ġ3 9
Ġdelight ful
Ġpost ure
ĠDel hi
Ġsurv iv
ap or
ĠC rypt
ĠMa jor
Ġstain less
Ġupgra des
ĠR yan
achus etts
att ered
m ain
ent er
off s
Ġb omb
c or
Ġtrust worthy
P L
F ind
ĠO regon
] ,
Ġpers istent
ge red
ĠFil m
ĠW ould
ĠE le
Ġle mon
Ġcomprom ising
Ġdark ness
Ġcons p
sc reen
Ġr anks
ĠUkrain ian
ĠSp eed
Ġbon uses
Ġworkflow s
Ġfunn els
Ġwe ld
et ics
Ġsum mar
ĠN ative
Ġcy cling
Ġabund ance
E V
Ġbudget s
og y
Ġregul ated
ĠL if
ĠP urch
Ġass ert
ĠR s
ĠS ound
Ġbu zz
Ġca f
Ġelect ro
Ġup front
Ġmind fulness
Ġma kers
Ġar ising
ĠSt ation
r ors
Ġadjust ing
ĠMot or
ĠS H
Ġprop ag
Ġm m
in ite
ĠR out
Ġexecut ed
Ġcon qu
Ġg al
A c
ad ays
ĠIn spect
Ġu m
Ġtour nament
ĠPe ace
Ġfast est
G R
op les
Ġindic ating
Ġd ying
Ġ9 9
ĠAn th
Ġdist inction
Ġgun s
Ġoppon ent
ade qu
f und
ĠL anguage
Ġa ug
Ġconsum ed
Ġsacr ifice
ĠDisc over
Ġre vel
h o
Ġrig orous
Ġb rowse
Ġad he
ort ed
Ġhe d
Ġcommit ments
Ġmother s
ĠMon th
0 8
ard ing
Ġclass ified
ĠBet ween
Ġdiagn osed
ĠS em
ĠSt one
Ġsuggest ing
ĠVeg as
Ġpres um
g ins
Cont act
Ġsu s
Ġrep ly
li est
Ġdraw s
Ä ģ
Ġd airy
bur gh
ĠTh ailand
Ġhand les
Ġcalc ulate
Ġt iles
Ġlit igation
ĠLead ership
B usiness
Ġcoron avirus
Ġre ception
Ġthe ater
ĠOnt ario
Ġn our
ĠProt ect
ĠE sc
w ind
Ġter rain
ĠS C
Ġresp iratory
ĠD ead
arch y
Ġsh irt
ĠT ree
Ġclaim ing
ĠCo oper
Ġs its
Ġd ried
ĠB ase
Ġfulfill ment
iz ers
Ġspecial ize
Ġbu gs
j ac
iff s
ĠStr ong
S C
Ġnurt uring
Ġcha os
Ġvolat ility
Ġto y
ĠS aint
Ġre nd
Ġeas iest
ĠH o
Ġposition ed
ing e
P V
Ġsy ndrome
ic ular
Ġmedic ines
ĠT am
bour ne
ĠArch itect
az ed
Ġtherap ies
Ġframew orks
ĠDo ctor
ĠH appy
Ġt ube
ĠAr m
C reating
Ġemphas ize
ĠV irtual
Ġf ats
ĠMat thew
Ġres erved
g ame
ĠBre ak
l ink
Ġm art
ĠPay ment
Ġman ually
Ġvulner abilities
Ġembed ded
Ġam bit
Ġp izza
ĠA qu
point s
ĠT y
Ġspread ing
ush ing
Ġpain ted
ac co
add le
Ġenthusi asm
Ġworth y
Ġrele vance
Som etimes
ĠY u
reed om
Ġware house
ĠG ro
ird s
Ġded uct
Ġt ale
Ġsoc cer
ĠR og
Ġexecut ives
t est
Ġhyd ro
Ġlim iting
ĠBud get
ĠBar b
Ġsent iment
Ġdis in
Ġintent ions
Ġgenuine ly
Ġch ip
Ġsp are
im ens
Ġte aches
ĠH an
Ġmod es
Ġweakness es
Ġnot ify
ĠAs sembly
Ġcomed y
ĠEss ential
Ġpass ive
at is
b n
Ġremote ly
Ġlif ting
Ġunder m
on al
ĠE D
Ġj unk
ĠConst ruction
Ġnegot iate
ĠB C
are st
Ġgar lic
st op
un ge
Ġsa ke
bu ilt
Ġw ines
it oring
ĠW il
Ġis lands
nes ota
ĠEl izabeth
Ġstri kes
Ġdomin ant
Ġb es
at ar
6 8
Ġdistribut e
Ġr ival
ĠChat GPT
ret t
Ġwork outs
Ġany time
ane ous
Ġeconom ies
Ġveter an
Ġrom ance
Ġun paralleled
Ġlic enses
Ġnot ifications
ĠDav is
T ER
N e
Ġcomp rehend
lf riend
Ġsoon er
ĠR and
Ġcor ners
ĠA ch
ĠAd vis
ĠCour se
ĠOff er
ol s
ĠM ade
Ġhope fully
Ġlaunch ing
sp eed
Ġtrad es
s ize
Ġd ess
se ason
w ich
Ġdef ining
Ġstress ed
0 2
i very
Ġsto pping
Ġtr anqu
Ġdead lines
ĠT R
ĠP ick
Ġapp le
ĠGu id
Ġadjust ed
Ġstress ful
ĠS ide
Ġinform ative
Ġacceler ate
Ġwitness ed
v als
ĠCom mercial
Ġdepos its
Ġauthent ication
Ġbl o
Ġtestimon ials
Ġgener ic
Ġf ought
ĠVill age
tain s
ĠF inal
there um
connect ed
th ritis
Ġatt raction
ar at
ĠSk ills
A B
Ġsmo other
Ġb ree
Ġmach inery
Ġaband oned
6 00
op her
h tt
anc ies
nd ry
ĠWrit ing
ĠA F
ax y
Ġrel ies
Te chn
Ġrefer ring
Ġinhe rent
Ġinter med
ot ional
ĠP od
Ġun fortunately
Ġsm iled
Ġhyd rogen
y cle
Ġste pped
g ov
Ġd ough
Ġcelebr ating
Ġn ails
ĠPr ince
Ġsu icide
Ġencount ered
a ul
all ing
Ġisol ated
Ġsever ity
The ir
ĠInd igenous
Ġcharacter istic
Ġw ars
ins p
Ġwh is
Ġexplain ing
ib les
nt il
Ġliter ary
ĠStud io
RE E
m l
cure ment
ĠEnviron ment
ĠG ir
Ġp el
se en
H el
Ġbrows ing
Ġoff line
Ġass ists
Ġcred entials
Ġgl uc
M arket
ĠB ot
ess ional
ĠM ental
Ġpoet ry
Reg ular
ĠSy ria
Ġadvoc ates
ĠA G
Sec ond
ĠA y
Ġintern ationally
Ġfab rics
Ġtrans mit
ĠH IV
ang le
U I
enn es
Ġro cks
ĠB ureau
ĠPhil adelphia
ag le
Ġsus cept
Ġprohib ited
Ġfoss il
Ġvar iation
ĠN ick
em n
Ġr ic
Ġdang ers
Ġarr anged
Ġh ill
Ġprov ince
Ġeduc ated
ĠSc ient
Ġse ating
ĠW ilson
Ġdo ct
Ġadapt ability
Ġsl ide
Ġsuppli ed
Ġstreng thening
um ble
Ġt une
Ġret ired
ĠStrateg ies
Ġenjoy ment
ot ion
inc ome
Ġsho e
ur u
Ġsche mes
ĠGovern or
On line
Ġb inding
ĠH unt
ĠCo ffee
ĠC ou
Ġtax pay
ĠTe xt
igh th
Ġro d
ĠPhilipp ines
ĠK u
w inning
Ġdro ve
ĠCh oosing
U lt
Ġhe ights
Ġ8 5
ĠE c
ĠSt ream
Ġg el
af ood
get ic
Ġcut e
Ġplant ing
Q s
Ġinc ons
ixt ures
Ġimp osed
bs olute
Ġnorm s
ĠMass achusetts
Ġnever theless
ĠIm agine
ĠT a
Ġin du
Ġg ang
p ur
ĠChe m
Ġth rown
Ġsc oring
Ġsepar ated
ĠDie go
Ġo h
um atic
Ġvacc ines
Ġentertain ing
Ġmod ule
ĠRec ogn
Ġnon etheless
Ġstra w
Ġgau ge
Ġprivile ge
Ġd ancing
Ġaccess ed
Ġemp owers
Ġabst ract
ug ar
Ġsc ored
st ore
ig e
ĠN ation
ig s
Ġlist ings
ris k
Ġacknowled ged
Ġtoler ance
app ropriate
Ġmix ing
Ġ199 8
Ġvir al
Ġexam ined
Bu ilding
Ġdemonst rating
Ġst olen
Ġprem ises
ĠP ath
Ġvar iable
al m
Ġwilling ness
z one
Ġunp redict
ĠK ids
Ġlength y
ĠTra il
pl ing
Ġimper ative
ĠEv alu
Ġlive ly
Ġoccas ional
Ġtong ue
ĠM L
f ather
Ġse min
ĠSe attle
ĠGet ting
b ul
Ġcosm etic
Ġg ast
Ġjack et
Ġen er
Ġjud ges
m all
ĠSc iences
Ġst oring
Ġassoci ations
Ġinf ring
Ġt ennis
ĠB ru
Ġign ored
Ġadapt ed
ĠAtl antic
b es
Ġp atch
ut ing
ix ed
i ator
S te
Ġsub t
ĠS ix
Ġoverlook ed
ĠF un
Ġambit ious
Ġcrafts manship
Ġmetabol ism
Ġfest ivals
ĠVis a
Ġprogram mes
ĠHy d
Ġre nov
ĠM eg
ĠAfghan istan
Ġdepart ure
S P
ĠT alk
ag g
0 7
ĠAd s
ĠBro ok
Ġm urd
Ġeth ics
et erm
pl us
p ot
Ġthe ories
Ġkil omet
ĠT arget
ĠW orth
Ġall ies
Ġdam aging
ĠW ales
Ġpers ist
Ġg ene
re nd
p ool
ch at
Ġpaint ings
Ġwond ers
Ġcommun icating
olit ical
Ġmanufact ured
bur se
ĠMill er
Comm on
ĠDe ath
Ġco in
Ġround s
Ġj ail
g ood
Ġvulner ability
Ġbi kes
Ġkid ney
ĠO ak
ct ic
Ġel abor
ps on
1 50
Ġbal ancing
Ġcare g
Ġallerg ies
Ġstrict ly
o a
0 3
Te ch
Ġsimpl ify
ec onomic
ak i
ĠH om
ĠH ay
ĠVictor ia
Ġneglig ence
Ġo live
Ġj et
l ay
a us
Ġso vere
e em
ig ma
Ġcoc onut
Ġne at
Ġgr an
Ġinsect s
Ġwater proof
Ġstrateg ically
Ġf ate
Ġpot atoes
ĠO cc
Ġthreat ened
0 6
Ġcount s
Ġav en
Ġrevolution ary
Ġveter ans
ĠCare er
Ġindic ator
ĠA B
ĠPr im
O ff
Ġr ated
ĠCont ents
Ġp ants
Ġcustom izable
ĠCl ient
Ġmult if
ĠM and
ĠP it
Ġbul let
in cess
ĠR oof
u gin
Ġdim ension
ĠG h
Ġsmart phones
ibl ical
Ġload ing
ĠTra ck
ĠPl ant
ĠC ertain
ivid ually
0 9
Ġexam s
ĠF ive
Ġshe lf
ĠN az
ĠS leep
e ous
ĠFr ont
ĠD ental
oc a
Ġappropri ately
Ġimpl ies
Ġlegisl ative
Ġfirm ly
un s
e lect
E l
ag a
ruct ive
D ef
ĠSpec ific
Ġp orn
Ġsear ches
ĠB ec
ĠN avy
ĠKe vin
Ġd ign
place ment
Ġoccur ring
Ġorig ins
ĠCreat ive
Ġpasseng er
ĠE ver
I B
Ġ6 00
Ġstand out
Th ough
ĠSh ipping
em p
Ġminor ity
ile y
ĠS ant
Ġattend ance
Ġsk ip
Ġattend ees
Ġtre k
ĠE s
ne ath
ro lling
Ġconst itute
Ġpaper work
Ġfol k
ĠI RS
Ġgl oves
ot ing
Ġcons c
ĠBusiness es
Ġun re
Ġspo kes
ab out
Ġd ense
ĠD a
d on
Ġten ants
Ġbr ut
ĠTai wan
Ġfin ishes
ĠD allas
ĠHar vard
L ife
Ġappro ached
ul us
g ence
Ġtend ency
ĠTurk ish
Ġchol esterol
Ġlicens ing
Ġspecial ty
Ġac ute
Ġres et
ĠR os
ra ge
ĠB h
ĠJ osh
Ġfem ales
Ġanaly sts
Ġcl icks
Ġfit ting
Ġbatt les
ĠAnn ual
add y
ĠMin nesota
Ġhonest ly
av ior
Ġspir its
ĠF L
Ġaspir ations
Ġdist ricts
Ġprofessional ism
Ġref ined
Ġl in
ĠSw iss
b one
ĠM ail
7 8
n atural
ĠSc ript
Ġlim itation
Ġdisc on
ĠS E
Ġvot ed
Ġparticip ated
Ġanx ious
Ġbl ade
ĠW ars
ĠMar c
isc ons
Ġcont roller
Ġins ulin
D ec
ro be
Ġsp a
Ġhabit at
ĠR aj
Ġconsider ably
anth rop
Ġadapt ation
ĠCar l
Ġremem bered
ar ound
Ġlog in
ĠE X
F r
iscons in
Ġj aw
Ġpu ppy
Ġr ides
Ġvari ables
ĠB rian
Ġfarm s
Ġfles h
Ġ3 60
Follow ing
ĠAtl anta
c ost
ion ed
Ġcar go
Ġ verse
omet ric
Ġadjust ment
ist ically
Ġkey board
focus ed
Ġmar king
Ġcust ody
Ġmotor cycle
Ġmet a
pro duct
st orm
) (
Ġdos age
ul atory
ic ts
ik a
itzer land
e z
6 4
Ġw ing
Ġ4 9
Ġmis under
Ġclean ed
Ġtrop ical
imp se
Ġremind ed
Get ting
Ġra ck
Ġcle ver
ĠWhat s
ĠProgram s
ĠMuslim s
ĠBl og
ĠInd ex
ribut e
ĠNet her
Ġven ues
Ġpr iced
Ġcaut ious
Ġpot ent
Ġnot ification
ow a
Ġfacilit ating
usal em
Ġt ens
P res
ĠD J
C al
N E
Ġst iff
Ġsan ctions
Ġout look
Ġproject ed
Ġsuper vision
Ġex empt
Ġphotograp her
Ġroll ed
em ade
ĠS ource
ĠE uro
Ġsitu ated
ĠPrem ium
Ġchart s
Ġroot ed
0 4
ĠSk in
ĠI C
Ġj er
Ġunder ground
Ġfu els
ĠJud ge
ĠUA E
ĠAv ailable
ĠTra ditional
ph y
Ð µ
ĠRequ ire
Ġm os
ĠG PS
Ġcra w
ĠT es
p ed
Ġep id
Ġout reach
Ġco ating
Ġment or
b ase
Ġmerchand ise
Ġlog ical
Ġdu ct
Ġbreat he
w id
Ġtrick y
Ġdeb ts
Ġb od
Ġtra ction
Ġdes erves
M E
ĠN AT
un es
id o
Ġexpect ing
ĠB and
Ġsqu ee
ĠRead ing
Ġr ou
Ġcirc ular
Ġcons ensus
Ġpe pper
Ġbr ide
Ġs chol
Ġeffic acy
Ġdon ations
ard ed
G od
Ġassum ptions
Ġstream lined
Ġqu e
Ġcomb inations
Ġbankrupt cy
Ġresearch ing
Ġexperim ents
if iers
anche ster
Ġc ups
Ġreve aling
de velop
d it
d is
ĠRet urn
oc c
ĠM ust
Ġpass port
Ġhorm ones
K now
ĠV eter
Ġprog ression
Ġgam ers
ĠB uff
Ġf ancy
ĠÂ §
d am
Ġs lic
ĠS MS
L ook
Ġfra ction
Ġbit ter
i op
Ġmagn ific
Ġcoll apse
Ġas h
Ġc ope
m other
c ourse
Ġathlet ic
ĠR ules
O K
Ġprot ot
Ġassum ed
Ġdef ence
Ġf ired
ĠMary land
ĠCons umer
Ġtroubles hoot
Ġcra cks
Ġdeter ior
W H
Ġmethod ology
cons uming
xim ity
Ġterm in
ĠNig er
Ġint ensive
ĠB ooks
or ical
m ap
ĠM oh
ĠC reek
Ġliquid ity
ĠAd just
Ġover t
Ġcou pled
ĠJac ob
Ġload ed
pos ition
Ġmas ks
Ġhom eless
ĠGener ally
Ġf ract
ĠL ooking
Ġimpact ful
ĠRegular ly
Ġpresent ations
ĠPhys ical
Ġsp ine
Ġsing er
Ġhand ed
ĠPlay ers
ĠHig her
Ġgra y
ĠN othing
Ġep ic
Ġun employment
Ġpan ic
Ġsepar ately
Ġall ocation
Ġrepl ied
Ġpredict ions
Ġprov in
ĠC L
Ġtiss ues
ĠCl aim
Ġconsult ants
Ġexam ining
ĠD ra
ĠC old
Ġc ave
ĠRec overy
iff erent
R ef
ĠN ep
Ġmaxim izing
Ġart ic
oc key
im um
Ġp iano
Ġmyster ious
ĠL ater
own er
Ġsou p
Ġind ividually
Ġinfect ed
Ġshowc ases
ĠP oly
Ġfrust rating
ĠE thereum
es ity
ĠLad y
ĠW inter
ĠAm end
Ġgl uten
D C
ĠJ am
ĠSams ung
ane an
Ġac ne
ĠN urs
Ġcult ivate
ĠH un
Ġjournal ist
clus ions
Ġim aging
iot ic
Ġal ien
Ġdist ress
Ġclass ical
Ġex h
ĠSte el
ĠCond itions
e ared
Ġaffect ion
Ġpool s
pat ient
d ays
it ched
Ġfl ip
Ġavoid ed
ĠP il
ain ts
ĠB B
Ġener getic
ĠJ enn
he ll
6 9
Ġsurge on
com ed
Ġacqu iring
Ġ8 00
Ġwid th
lect ing
e an
ĠI ron
Ġcompet ent
Ġbegin ner
ign ment
Y eah
y our
ol ved
.âĢĿ <|
Ġpart ial
Ġout let
Ġm es
ĠT ony
Ġma ker
Ġvill ages
Ġphys icians
Ġdis ruption
Ġind ication
Ġcat aly
Ġneigh bour
ĠEnhance ment
Ġpress ures
Ġr h
Ġdry ing
ip her
ĠP H
? ?
Ġsubsequ ently
Ġqu it
Ġspecial izes
B o
ira cy
T R
Ġc ab
ĠAd vert
ĠK ansas
Ġdelay ed
ov a
Ġb other
Ġrank ed
ĠUlt imately
Ġreg ret
Ġc ited
Ġdu pl
Ġaccommod ations
ĠRO I
Ġsoc ieties
ĠAg ricult
C hat
ol ar
ĠIn j
Ġcrow ded
ribut ion
Ġnar r
Ġactiv ists
Ġfin es
ah a
Ġb icy
Ġmod est
Ġexce l
hes is
od ed
Ġal erts
Ġprecaut ions
Ġtou ched
Ġbu g
ĠTh ai
Ġswe lling
ĠOnly Fans
m ers
sequ ently
ch ron
Ġs ends
Ġmod ules
ĠPh arm
Ġstrugg led
ĠCert ification
Ġtra p
ĠFor um
Ġpriorit izing
Ġrecyc led
Ġmodel ing
Ġl enses
Ġneighborhood s
ov al
Ġalt ogether
Ġupd ating
ĠD elta
Ġpro l
ĠD V
Ġcl ip
Ġbo ats
Ġh ills
r ons
Be yond
Ġlegend ary
Ġimmig rants
ĠCon duct
l en
ĠBer lin
ĠJer usalem
ele br
Ġgreen house
Ġanonym ous
IT Y
Last ly
ess ed
Ġintim id
is ons
Ġdevelop s
op en
Ġact ress
Ġrefuge es
Ġobs ervation
f in
Ġor chest
ĠS ong
Ġinev itable
ĠR ule
at al
Ġtrig gers
Ġpromot ed
Ġman ages
Ġshare holders
ab ul
Ġk et
Ġgl impse
Ġdis abled
Ġp unch
Ġchalleng ed
Ġdisapp ear
Ġw ound
Ġconstitut ional
Ġtow er
eto oth
ĠL iber
Ġsubmit ting
ĠPro ble
app ro
Ġver ified
Ġp airs
Ġbe ars
ĠE M
im s
ĠM ort
Ġprob ability
ĠS ri
Ġsubscrib e
Ġconver ted
ĠK ir
im en
Ġwar ned
Ġworry ing
h ouses
oen ix
ĠSt orage
Ġdeal t
2 50
ber ries
Ġterm ination
ĠK y
ĠCompl iance
Ġm ouse
Ġnation wide
b ots
Ġpl ates
o z
nam ents
Ġad vers
ast ics
ĠD iam
arm s
Ġattribut ed
u i
A F
Ġto ll
Ġnarr atives
Ġvent ilation
Ġs am
Ġgener ator
ĠEmer gency
om ic
Ġwealth y
Ġgod s
ĠJ ane
ĠR us
ĠP ed
ĠG olf
Ġgovern or
id el
Ġmon u
Ġinvestig ations
Ġrehab ilitation
Ġsh ades
Ġre novation
r idge
Ġshort age
Ġher bal
ĠA part
Ġtw elve
5 9
Ġa uction
oll ar
Ġs ons
ĠR ain
Ġ199 6
Ġ vel
Ġprest igious
ĠV A
ĠBab y
Ġord ering
Ġfat ty
Ġunder neath
art s
ist a
b urn
Ġdiagn ostic
Ġup s
Ġmiss ions
Ġen ch
Ġincent ive
Ġdatab ases
Ġsl a
ĠK it
Ġback drop
Ġm im
Ġ4 7
ĠMic hel
Ġeconom ics
on ia
Ġ4 4
ĠInc orpor
Ġw ip
ĠW isconsin
Ġsh ore
Ġdocument ary
Ġde ar
ĠGree ce
Ġcalc ium
Ġrid ers
use ums
Ġsp acious
ĠHer itage
Ġdis par
Ġexist ed
Ġparticip ant
Ġdrain age
ĠCl inton
Ġb in
ĠB M
Ġprot ests
Ġab dom
out heast
Ġalleg ations
Ġcontrovers ial
Ġclos est
Ġst ating
ĠPart ner
Ġcollect ively
R eal
ĠUp d
el ong
Ġden y
ĠR ail
ky o
as ury
Ġprolong ed
rict ion
Ġpos es
Ġthe atre
ad er
8 9
Ġthrow ing
Ġf ame
Ġ199 7
ĠI M
AN D
Ġcont rad
H ar
Ġad or
t ic
ĠLew is
Ġdiscon nect
Ġinject ion
lamm atory
Ġinstru mental
st age
Ġcancell ation
rolog y
ĠN ev
Ġapproach ing
inc ol
Ġr ivers
Ġcool er
Ġopen ly
ĠIndones ia
E mb
Ġsn ack
Disc over
Ġperfect ion
Ġbo om
Ġvisual s
se a
Ġl obby
Ġe uro
Ġhar assment
Ġdist ant
Ġstim ulate
ĠK a
Ġwond ered
Ġtrail er
Ġth roat
ĠT oy
R et
Ġext ending
ĠSustain able
Ġdecentral ized
Ġin adequ
Ġcor ros
ĠApp ly
Ġsubstant ially
ĠVe h
id al
Ġcamp s
ĠSw itzerland
ð Ŀ
ĠKnow ledge
Ġ199 5
ĠB urn
Ġrecre ational
olog ically
Ġsc ent
Ġgra des
Ġboost s
m outh
ĠN a
ĠF resh
Ġchem istry
int end
Ġexem pl
Ġe ternal
Ġtit led
Ġtransl ate
Ġquant ities
Ġnotice able
Ġbre aches
Ġdr um
p ersonal
Ġvine gar
Ġsc am
Ġinform al
s ub
W elcome
Ġpar liament
Ġh iding
ut ory
Ġca ffe
ĠTechn ologies
es y
P ost
ĠN orm
ar king
l ah
Ġg rief
ĠB irth
Ġslow er
Ġmargin al
Ġrem od
ĠT rib
ĠIndust rial
c ard
ĠG DPR
ĠV ision
ĠGl ass
Ġen zy
ĠF le
let te
ĠM ars
Ġsatell ite
Ġtrave ll
Ġrese mb
Ġgall ery
ĠNether lands
Ġrel iance
Ġperform s
Ġt anks
ĠRad io
ĠCar ib
Inst ead
Ġdiv ide
Ġs ail
Ġcollabor ations
ĠPot ential
ju ven
Ġdeploy ed
ĠA venue
ul ative
Ġpur ple
Ġlock down
W A
Ġvol tage
Ġw ings
x ual
ĠS ens
F inding
ĠTechn ical
Ġunt o
Ġl over
ĠCom plete
Ġac res
ĠZ oom
Ġinfluenc er
re ation
Ġext ensions
H R
Ġrel ie
le vant
sh aped
Ġdr one
ic ting
Ġc ub
Ġsport ing
Ġswitch ing
Ġsan ct
Ġlandl ord
ĠPrinc ip
Ġrel ieve
Ġl acking
ĠTest ing
ĠKnow ing
D av
Ġextra ction
There fore
Ġhold ers
Ġh ind
Ġp ond
Ġdist ur
D I
ĠS EC
mer se
Ġmal ware
Ġgra ins
ĠP L
Ġb ay
Ġpres ervation
ir s
Ġcirc les
ĠCult ural
olit an
aver ing
h r
Ġr uled
Ġbl ocking
Ġste pping
g ate
ĠP os
Ġval ve
ĠN S
Ġreven ues
Ġnew er
Ġencount ers
Ġassess ed
Ġb esides
ĠLo an
Ġdisag ree
Ġdecl ined
Ġf ires
ĠT ell
Ġprosper ity
ĠLGBT Q
onym ous
Ġdr ill
Ġecosystem s
Ġgl ance
Ġdeterm ines
Ġcolon ial
comm un
ĠS now
ĠS cholars
ĠIss ues
Ġrefer ral
el and
Ġth umb
Ġo v
Ġvir uses
ĠStep hen
ab ama
ĠC ould
am el
Ġ20 30
lim inary
ĠImport ance
os ures
ĠCol lection
Ġconsequ ence
ĠS ize
Ġoff set
Ġvib e
Ġpri est
Ġconv iction
E v
ĠReg ional
Ġind igenous
H ome
ĠTit le
act s
ennes see
ĠMaterial s
ĠS ac
apt ers
Ġconsid ers
Cl oud
Ġadvertise ments
Ġeas tern
ag ger
ĠCon vention
in ars
ĠP ap
ĠC os
ĠH ills
Ġinstruct or
Ġle cture
ĠZ h
Ġtest osterone
Ġattack ed
ĠK ind
Ġstat ute
Un fortunately
Ġintrig uing
g reen
ar ium
s ource
ĠSchool s
Ġcas ino
Ġstat istical
Ġexpress ions
ou ri
Ġ19 50
ĠIs lands
Ġtext ures
ĠG reg
Ġdet ox
ĠJ ay
ĠF at
Ġsuper b
Ġunf air
Ġhe ater
ĠWh it
Ġdocument ed
or ia
Ġdress ed
c ount
Ġair line
Ġremind s
Ġl uc
ath on
Ġtempor arily
Ġpa ired
Ġimm un
vers ion
or ie
Ġbre eding
ĠC ool
and al
ĠE C
Ġdem ographic
S everal
Ġinstall ations
D s
Ġin k
ĠO bs
ĠM anchester
ĠSt ra
Ġown s
Ġcomfort ably
ĠNot ice
T O
Ġgradu ated
Ġwitness es
man n
ri ver
Ġrepay ment
Ġpuzz le
ix el
Ġprofession ally
Ġveget able
ĠU C
ĠPa per
ĠArab ia
Ġuns ure
F S
Ġen for
Ġin h
Ġbless ed
ĠEnter prise
Res earch
Ġwork load
Ġhistor ically
v i
ĠMag ic
? âĢĻ
Ġon boarding
ĠG as
Ġst ub
ĠO kay
Ġwin ners
Ġment ally
In ter
Ġsu cc
ĠRes ults
opy right
Ġcrit ics
Ġun st
Ġinhab it
ry st
au x
Ġche er
ĠC ell
Ġreform s
Ġs isters
ab lished
ili ation
ĠY e
Ġexpress ing
AT E
Ġfluctu ations
Ġtradition ally
Ġag rees
ĠEd itor
it err
c ult
be at
Ġnice ly
Un like
Ġco inc
Ġcan vas
ĠZ e
unn y
Ġtax i
ange l
Ġw rest
ĠAd ditional
p ost
Ġcabin ets
f rame
De velop
Ġpath ways
Ġgradu ates
n ia
Ġrespond ents
Ġk its
health y
st an
rim inal
ont al
Ġtradem ark
Ġpol ished
Ġv inyl
b rew
cent ury
Ġmal icious
Ġinquir y
Ġsens es
Ġpo inting
P at
Ġover sight
ar o
Ġimpact ing
Ġrid ic
ĠS ay
Ġappe als
sc ribe
Ġcur rencies
ĠPract ices
Ġgre y
i rop
Ġfore most
Ġwr ink
Ġten ant
âĤ¬ âĦ¢
Ġgluc ose
Ġd rew
Ġjournal ism
ot te
Ġl ush
N D
Ġenthusi ast
Ġmagn etic
Ġtr ash
ĠChair man
Ġdefect s
Ġcompli ant
ĠReg ulation
Ġkind ness
Ġoccup ied
ed ed
Ġpreval ent
ĠTrend s
Ġgir lfriend
bsolute ly
Ġdis charge
Ġappear ing
Ġdevast ating
u its
ĠOper ations
Ġrecomm ends
Ġrac ism
ĠEv ents
ĠChristian ity
Ġen act
F riend
H T
ĠW olf
Ġsecret ary
C are
Ġcy cl
Ġadvis ors
ar ia
Ġrep rodu
Ġn ost
res pect
Ġtrave lling
ĠAnt on
u ctions
as is
ĠFort unately
Ġend urance
ĠQ ual
n ut
ĠC ome
ĠCast le
sh ire
Ġconv ince
Ġly rics
ĠTru e
Ġpl ugin
Ġc ables
Ġassist ed
ER E
M aking
Ġb acks
Ġpro ximity
Ġlibr aries
os ph
Ġperman ently
ĠE ve
Ġneg atively
Ġr ug
ĠPay Pal
Ġscal p
reg ation
ĠUt ah
pt on
ĠEd ge
ur ated
Ġperce ive
Ġpract ically
Ġclin ics
Ġ4 3
ĠD ave
Q L
Ġj ar
Ġb its
il ateral
Ġfound ations
Ġemphas izing
Ġre ign
Ġillness es
ut ed
ĠN G
Ġur ge
ĠYou th
A V
ĠCert ified
__ __
Ġbase ment
old s
Ġdon ation
Ġcomm ands
ĠN C
Ġint ro
Ġscen ic
st ick
Ġpal m
Ġm eth
Ġunw avering
ĠIndian a
Ġabsor ption
Ġevalu ated
reg ular
ĠY oga
in et
ĠSa aS
om ed
cent ric
Ã ¨
Ġgar n
Ġpun ishment
iterr anean
Ġut ter
Ġsol ic
Ġinvas ion
os ity
op ing
Ġsurpris ingly
Ġwholes ale
ond ition
Ġdes irable
ing ton
ĠMag azine
Ġher b
Ġwind s
erc ise
ĠF ish
Ġcheck out
Ġto ss
ĠR ap
Ġshe er
Ġte ens
Ġmetic ulously
ric ing
Ġl iv
ĠG ulf
Ġaw a
Ġmoist ur
Ġp ockets
Ġirrit ation
Ġwarm ing
Ġse afood
ĠBel g
Ġlau ndry
Ġopt ional
ĠCorpor ate
Ġorg ans
Ġflow ing
ĠKen ya
âĢĿ ).
ol ine
Ġwra pped
Ġhuman itarian
Ġemerg encies
ĠMalays ia
ell a
Ġinf l
Ġhun ger
oun ge
ĠUp on
ens ation
Ġfier ce
Ġterm inal
Ġbra ce
ĠW y
Am ong
ĠT oo
Ġspons ored
Ġh ier
Ġoutd ated
ac erb
o pping
ĠCon c
Ġafford ability
ĠDise ase
8 7
Ġutil ization
Ġprocess or
Ġdrag on
Ġsens ation
Ġup hold
Ġsimilar ly
ĠM agn
Ġbelong ings
Ġnu ances
Ġbur ied
Ġsc ared
Ġdownt ime
Ġst amp
Ġby pass
Ġ ic
ah u
Ġton ight
ĠJ ason
Ġbrief ly
In tern
Ġconc lude
Ġimp air
avig ating
m ic
ĠK elly
Ġcross ing
d f
ĠR at
20 24
or ph
ĠM as
ĠMel bourne
aw ays
8 6
ĠCarib bean
ĠMan aging
ĠComp uter
A tt
Ġ Ã¢
M us
ĠSche dule
Ġreg ener
Ġaffili ates
ĠR oss
ĠC ape
Ġtw in
ĠOlymp ic
irop ract
L eg
ĠT el
Ġpropri etary
ĠL arge
Ġrenew al
O b
Ġadv ancing
ĠTra ding
Ġwel comed
Ġfound ing
Sim ilar
ĠPro g
Ġquant um
Ġanaly tical
En h
au g
I d
W ork
Ġ4 6
Ġp icks
incol n
ch air
Ġjump ing
Ġansw ering
Ġlast s
Ġrel atives
ĠR u
ĠM ission
f ly
ĠEng agement
ĠCreat ing
tra ck
Ġhung ry
Ġcat ast
Ġover head
F l
Bl ack
ĠJour ney
Ġover see
Ġrec urring
ĠSim ple
Ġconf using
ow een
ĠT ypically
ĠAssess ment
Ġpo em
Ġma x
Ġsuscept ible
ĠSp ort
Ġwor ries
ĠB ry
Ġsc iences
ĠLab our
Ġath lete
ĠPrem ier
A G
Ġeven ly
Ġpart ially
ĠPol and
w he
Ġas leep
Ġsk et
Y et
Ġhe ated
Ġins u
ĠN O
ĠIS O
Ġpe oples
a ud
Ġatt itudes
Ġhop ed
qu al
od d
Ġjud icial
Ġear liest
Ġp y
Ġcertific ates
ĠL ot
am ous
Ġinc on
ist le
ĠWhats App
Ġscal ability
ĠG DP
ĠIn come
Ġbro kers
ĠF reedom
ont in
th ink
Ġbre eds
ĠH ousing
ĠBlu etooth
ĠW W
ĠCert ific
Ġr ul
M in
Ġphys ics
Ġfert ility
5 7
Ġim bal
Ġex acerb
Ġback yard
ĠCon cer
Ġbe verages
Ġemploy ing
p her
Ġcoll agen
th on
ĠCommun ications
pt om
Ġb out
ĠL ower
Ġdef ic
ĠAnt i
inf lammatory
ĠN BA
ij ing
j an
i ants
h ill
it ime
ĠM ix
Ġcur ated
Ġcaffe ine
ĠZ ero
ĠInteg ration
ol er
H L
v ised
Ġd erm
Ġin acc
Ġunder graduate
Ġgu ilt
G e
Ġv ivid
Ġdisappoint ed
Ġw rist
Ġr ally
Ġassist ing
AN T
by e
aj abi
Ġbree ze
Ġconfidential ity
ond a
l ocking
Ġthick ness
Ġble eding
Ġt ones
ĠAr gent
Ġcompliment ary
ica id
Ġpart ly
Ġinfluenc ing
Ġdem o
Ġpay day
Ġlisten ers
ĠEx amples
Ġsafeguard ing
Ġdilig ence
em a
Ã ¤
ru e
b ian
heim er
Ġp ine
ĠH al
ĠM ov
ro it
Ġless er
Ġec ological
Ġcar riers
Ġbe verage
Ġpredict ed
ne g
Ġgo ver
c ode
Ġf ixtures
h ard
ans om
Ġobs ervations
G oogle
rep resent
Ġjust ify
ĠT ennessee
ĠCo ord
Ġn a
ĠG ate
Ġaction able
t an
Ġenc rypt
ĠScott ish
Ġrob ots
Ġste ering
Ġbuild ers
ĠK itchen
roduct ive
Ġinf ant
Ġdat as
Ġm ast
ĠH ur
Ġgather ings
Ġwhe at
l it
s aving
o ked
her ing
ĠOx ford
Ġover ly
A ns
h ma
Ġinv itation
ĠDrag on
Ġtri umph
ĠAl abama
ĠF ram
Ġjour n
Ġcommer ce
p in
osc ow
s ome
Ġde gra
B O
Ġimpl ants
g hed
ĠC art
Ġ4 1
Ġrec k
ĠLe ban
it ably
Ġswift ly
Ġv oid
Ġdom ains
ub ric
ĠD un
Ġban ned
Ġinv is
g ic
ass ing
Ġdistingu ish
ac hers
Ġkne es
ĠVit amin
Ġcap ac
ĠNAT O
Ġtou ches
n ie
Ġdecor ative
Ġwe ed
Ġch ats
Ġess ays
Ġche at
ows hip
Ġtra ject
Ġflo ating
Ġsp ices
ĠO d
Ult imately
Ġemphas ized
Ġped est
st art
Ġgard ening
Ġtur b
ĠD S
ĠT ar
Ġun ited
ĠMed iterranean
9 6
Ġjour neys
Ġph ases
Ġsc ary
Ġfort une
Ġpoor ly
id ering
On ly
Ġencompass es
ĠD omin
Ġcompan ions
S w
Ġoccup ation
Im pro
Ġw and
Ġcent res
Ġtr illion
aw s
ĠE ye
Ġl ap
us er
ĠCur rently
ĠL am
Ġtrig gered
Ġan gel
Ġsusp icious
Ġsh it
Ġch amber
Ġhold er
Ġbreak through
Ġbra ke
Ġun h
Ġtravel s
Ġhome work
P I
Ġsal ad
exp ensive
lah oma
Ġshel ves
Ġtherap ists
ĠIncre ased
t i
ra ined
Ġexperim ental
ĠAmend ment
ĠMor gan
Ġpro curement
Ġsur pass
M M
Ġsho ppers
ĠF an
obb ies
Ġsp at
ĠJe an
Ġb ored
ĠChall enges
Ġmod er
Ġcontact ing
Ġb oring
ĠMet a
ĠMeet ing
ĠVis ual
Ġun ve
ĠWh atever
N C
ment ia
Ġqu ery
ĠS ites
te es
Ġ7 2
Ġe cho
ĠPut in
Ġre juven
ĠDet ails
Ġexplicit ly
Ġgen es
Ġinit iate
Im port
ĠP ear
du p
Ġ ~
ĠP ict
Ġliter acy
Ġpr inter
per formance
Ġcent ered
ĠStand ards
pos ed
Ġpropos ition
g ly
ĠThe atre
Ġhe m
ĠSt yle
ol ve
ĠH ung
Ġsupp ress
Ġcompet itions
ĠTo kyo
Ġvig il
Ġcounterpart s
ith ium
Ġcontact ed
ĠBat tle
Ġe Commerce
op ic
r in
Pr ice
Ġ6 4
ĠF ashion
ri ad
Ġb ases
H z
Ġpump s
le e
Ġcont ing
Ġun ions
Ġtu ition
ĠEst ablish
Ġu pt
ĠN ik
Ġbe aring
Ġward robe
Ġnot ably
hy dr
Ġtheore tical
ugg age
ĠY an
Ġpremium s
Ġsupp ose
ĠR ol
Ġhum ble
Ġjun ior
Ġgen res
augh ters
Ġpat io
Ġg um
amb oo
Ġanim ation
ĠG ab
Ġexcept ions
Ġsh ake
Ġcar bo
Ġdescrib ing
Ġast ron
ĠAll en
Ġshock ed
h as
Ġyield s
th an
Ġb acking
S ur
Ġmon et
k now
Ġrenew ed
ĠS ale
d i
ĠB us
reng th
ĠPat rick
ment ioned
Ġf are
Ġunpredict able
o il
A ccess
ĠK nown
N G
ĠUn it
Ġgover ning
Ġpup ils
Ġed ited
Ġob esity
Ġcomp ress
Ġrecip ients
Ġg ospel
ass ador
Ġrec onst
ĠS ave
ogen ic
an ium
ĠL yn
Ġ199 4
Ġpro st
Ġspot light
ĠNeed s
IC E
Ġburn ed
ĠMar ine
T ypes
o ons
Ã ±
on el
ĠYear s
He y
ad i
ĠL es
ĠT ypes
ch anger
ĠM arsh
Ġexp ans
az ines
Ġr if
Ġh urd
Ġfeas ible
mb re
Ġsh y
ĠCol omb
Ġst ance
Ġrest ored
Ġessential s
Ġlight ly
Ġmil it
com p
l ades
ĠI owa
pre m
Ġdon ors
Ġwh it
Ġinc om
Ġscal able
ĠLe on
Ġcelebr ity
Ġhead aches
Ġs ore
Ġsw all
ĠSim on
Ġcross ed
ĠCan n
ĠB alt
ĠAl aska
ĠCamp aign
Ġresearc her
Ġsp am
Ġadapt ing
Ġfig ured
un ing
Ġbelong s
Me anwhile
Ġpu pp
st ru
IL L
ra ys
Ġouts ourcing
Ġstere ot
ĠChamp ionship
Ġhero es
ĠDel ivery
Ġfr idge
Ġinv oice
Ġto b
b oy
E ns
s l
Ġen light
Ġdom inated
ĠClass ic
Ġc ous
Ġthe sis
ing le
F act
L ead
ĠT ower
ĠL uck
Ġweb cam
ĠDou ble
Ġrel uct
U C
th ur
Ġcon clusions
ĠAr k
ac eted
Ġt ile
Ġcapt ures
ĠW ire
im ents
Ġsusp ended
Ġwal lets
Ġenthusi astic
G en
ĠKeep ing
Ġh obby
ĠK am
ĠT otal
Ġdro pping
s chool
5 6
F T
em an
E ffective
Ġcol ored
Ġbr ides
Ġspec ially
at ter
per t
ra c
Ġshe ep
Ġattract s
ĠTes la
it ives
ĠEqu ipment
O pt
Ġprint s
er ness
ĠF u
Ġfundra ising
ĠC M
Ġtrain er
ĠAct ive
ra cing
ĠP ow
ĠAlex ander
aur a
L a
i ological
ĠY ang
Ġasp iring
ĠFriend s
ing ing
Ġmod ification
Ġretail er
Sh ould
Ġrele asing
ol ph
ĠCost s
Ġdef ines
k ward
ĠLa ure
ĠNut rition
Ġwa ist
Ġspons ors
Ġcinem a
Ġrisk y
Ġcr icket
ĠÂ «
Ġhead quarters
Ġconcent rated
ĠOther wise
ĠSh ar
Ġlower ing
ĠS O
Ġover l
Ġpass ions
ĠF alls
Ġbust ling
yl on
P G
ad ow
ĠPal ace
Ġrespect ful
us cript
Ġfor b
ĠRec ords
ĠD ig
ĠS ab
Im agine
Ġsens ory
Ġdist urb
sp e
Ġantioxid ants
Ġtransl ated
Ġbes ide
Ġwar fare
W ater
Ġdec ides
ĠComp rehensive
Ġp ads
Ġmand ate
Ġimpro per
Ġnow here
ĠPre vention
Ġfree ze
a ft
Ġst atic
ac u
ĠB io
Ġmetic ulous
Ġl one
ĠP V
Ġcor rupt
ee k
ĠAssoci ate
Ġj azz
Ġfix ing
ass ed
Ġan k
ĠLit er
Ġdiscl osed
il dup
ĠM oscow
Ġattach ment
Ġ5 2
Ġsh ipped
Ġp ier
ĠPh oto
id ency
Ġname ly
id y
Ġvolunt ary
ĠEsp ecially
Ġsent ences
i ates
hen g
Ġapart ments
Ġhom emade
. -
Ġread s
v ia
ĠD ays
Ġstat utory
d ale
Ġbiod iversity
ĠAd vant
Ġhazard ous
Ġconc ise
ned y
Ġdigest ion
ĠR ate
âĢ¦ âĢĿ
Ġfit ted
Ġenroll ment
Ġeditor ial
7 9
Ġb ure
Ġimpl ant
ou ver
Ġuncle ar
R ight
5 2
Ġst upid
Ġacc ent
k m
Ġdiscip lines
z o
T erm
ĠA WS
Ġreason ing
Ġright eous
Ġinnoc ent
ĠF BI
bel ie
Ġclar ify
ĠYOU R
w hen
Ġundert ake
Ġfun eral
Ġmob il
Ġut most
ĠS i
Ġl av
Ġsod a
Ġch ick
ĠR ange
Ġan ge
ut her
Ġhoriz on
ol k
ra ham
ric ks
Ġdiam onds
ĠD A
ĠAn ne
ig hed
Ġgu ards
in itely
Gener al
Ġun con
Ġce ase
ĠSur vey
Ġfe ver
Ġtra ins
Ġscient ist
Th ink
ell o
Ġred ef
H ist
C ost
ĠCor p
Ġplay ful
ĠAnge l
Ġbe e
ĠUr ban
Ġassoci ates
abul ary
Ġrel ates
ĠMed icaid
ĠCommission er
ĠO w
ĠI R
dem and
Ġc it
Ġp ant
Ġarg ues
Ch ar
Ġfr ight
Ġcl ips
Ġmy riad
Ġcontin ent
Ġpast e
Ġlif elong
Ġnegot iation
ab el
Ġinf est
ĠS ER
m ir
Ġhyd ration
Ġsour cing
Ġland ed
Ġtouch ing
ĠEnh anced
Ġembra ced
Ġdiscip les
ĠB ah
ĠB BC
Ġpray ers
Ġmanage able
ĠB ath
20 20
Ġins ert
ĠJ ess
Ġcr imin
c ore
Ġundert aking
ĠL incoln
Ġabs ent
Ġh int
Ġ )
Ġcomprom ised
Ġrecogn ised
Ġp ause
Ġafter wards
Ġres h
Ġanalys es
ĠMon itoring
ĠFoot ball
Ġcompassion ate
7 6
Ġspr ink
ĠFed eration
Ġterror ist
Ġit iner
F F
ĠEd ward
ĠV ent
Ġexhib its
Ġm useums
Ġcomp rehens
wid th
an as
Ġsell s
Ġdep r
Ġgram s
ic op
Ġsum mit
c ap
oun cing
Ġst airs
ĠH it
Ġpredict ive
Ġdown s
Ġdeal er
Ġval ley
Ġgener ates
Ġcop ing
C reate
Ġan th
IS T
ens ed
Ġge ographical
gg ing
bor ne
ist ication
Ġexp ose
Ġb ounce
ĠB E
Ġper se
ĠSwed en
Ġare na
G reat
ĠAnd erson
ĠMin i
Em ploy
Ġinher it
Ġincorpor ates
Ġaut ism
ro se
Ġv ag
Ġins ured
Ġautonom ous
Ġst rand
u ke
Ġiss u
Ġbrid ges
E s
Ġident ities
Ġd are
Ġl ou
ĠCh annel
itch ing
Ġconj unction
Ġtra ged
Ġcompet itor
Don ald
Ġdisrupt ions
ĠBe ijing
er k
ab ad
Ġappear ances
Ġbi ology
ĠUs ually
ĠF ab
ĠHall oween
Ġbar gain
ar ations
Ġcorros ion
ĠClin ical
Ġun su
r ateg
Ġabund ant
S ource
Ġmic row
Ġrepet itive
atin um
Ġche w
t ops
E st
Ġman eu
ĠG em
Ġtrans mitted
am iliar
Ġsl im
Ġsh ifted
Ġund et
ĠDe an
Ġdiam eter
Ġteach ings
Ġag ile
ect or
Ġret rie
b low
i per
ĠD ry
Ġan ime
Ġsystem atic
ĠReg ulations
Ġent ries
Ġbless ing
Ġsem ester
Ġpast a
ĠHealth y
ĠPri ze
Ġdeal ers
Ġst aple
Ġdign ity
Ġapp ra
ĠPh one
Ġfib ers
Ġaband on
ill er
writ er
ĠPro b
Ġaud its
ĠRest aur
Ġdelight ed
ĠH um
Ġvalu ation
Des ign
ĠP rec
Ġcl ay
Ġstrong est
Ġplant ed
ie val
Ġbus es
' .
Ġbu ildup
Ġintegr ates
Ġd ip
Ġs ins
Ġimm unity
ĠEx pect
rit ious
Ġd ated
Ġworth while
Ġdress ing
Ġdetect ed
ĠE fficiency
Ġl ag
ens able
Ġha unt
Ġquiet ly
Ġmagnific ent
anc ouver
ĠFact ors
5 8
ĠKent ucky
Ġth rew
Ġc ram
Ġt y
op ard
Ġreim burse
ĠC itiz
al id
Ġill um
Ġdisapp eared
Ġout lines
Ġequ itable
Ġcloud s
Ġse rene
des igned
itut ional
Ġtob acco
Ġpure ly
Ġadminist rators
Ġrel ied
Ġin ability
ĠBas ic
Pl an
Ġrecru iting
Ġfaith ful
ĠiP ad
F OR
Ġanaly st
Ġcitizens hip
Ġcor rection
ĠOk lahoma
Ġjump ed
Ġma pping
Ġtutor ials
Ġpersonal ities
Ġl acks
Ġactiv ate
Ġcand y
w atch
st ock
com pl
D irect
Ġlay ing
Ġw ag
ĠDen ver
al ine
ĠMiss ouri
Ġd oses
Ġanaly zed
ĠPr int
Ġso y
ĠJ oy
Ġsuggest ion
Ġr ushed
Ġfrust rated
Ġencourage ment
ĠStrateg ic
Ġsoph istication
Ġin appropriate
Ġapp ell
op ed
Ġmet ap
ef t
Ġmid st
b ie
Ġinstruct ors
Ġaw kward
Ġcontext s
ĠIs a
ĠPer iod
ĠN ar
Ġprem ier
5 3
Ġjo ke
ĠN HS
Ġox id
Pro v
ĠOr ange
ĠD rop
Ġcelebr ities
Ġcom ic
ĠState ment
and ing
P E
ann ah
Ġcon form
Ġfif ty
om eter
ĠS yn
Ġpre liminary
ĠH ad
We b
Ġre els
Ġent ers
tain ed
f ound
Ġtrans cript
Ġscholars hips
Ġfavor ites
Ġprov ing
N ever
ank a
Ġdi ver
ĠA th
Ġav iation
Ġin expensive
umn i
enn a
ĠT ool
P O
Ġcatch ing
Ġen rolled
Ġweb inar
ĠTr uth
ĠMc K
Ġce ment
od a
Ġqual ifying
Ġpass words
Ġin box
Ġra ys
ĠIn nov
Ġpat ches
Ġst ems
ĠL iver
ĠCapt ain
ibl ings
ut ors
or p
Ġn ov
Ġconfident ly
ĠL ock
ĠHe at
og ram
Ġdem ographics
ĠCoun sel
in ally
Ġautom obile
ĠThrough out
ĠMo ore
l an
Ġlist ened
Ġang les
Â »
Ġbad ly
Ġchar ter
ĠRequire ments
Ġpre jud
ĠSp rings
ĠM atch
Ġarr ives
Ġiniti ated
ĠEmploy ee
ĠM i
Ġexpect ation
IT H
oth y
cc a
ĠPh oenix
ĠD or
Ġcrowd s
it i
ĠSt ories
g ender
ĠH art
Ġpharm acy
ĠChamp ions
ĠIm age
o inting
Ġun ified
Ġinsu fficient
ĠBang lades
ĠLu ke
Ġed itors
Ġcl ause
m ont
G iven
Pro per
ĠChall enge
Ġhigh way
Ġrec overed
Ġassist ants
feed ing
Ġharmon ious
Ġscrut iny
ĠSt op
Ġadequ ately
Ġdest ro
ĠHawai i
ĠRec ord
ke e
Ġpictures que
Ġm erc
Ġstret ching
Cont in
Ġrecon c
Ġen velop
Ġbel ly
Ġw ool
Ġoptim istic
Ġrefriger ator
Ġ199 2
ĠR F
Ġrecogn izes
Ġcal ming
Ġgad gets
Ġcomment ary
Ġse aled
Ġfor cing
Ġmilest ones
Ġdele ted
Ġpred omin
ĠIndividual s
Ġc m
ĠB ring
Ġsou ls
Ġtechn ically
ĠReg ardless
Ġur ine
Ġturn over
Ġphil anthrop
Ġch apters
t ors
Ġint ens
Ġh ards
ĠB or
al so
ĠCom merce
ir ates
Ġadm ire
Ġunc omm
Ġar ises
Ġvent ures
Ġcru el
Ġe rection
Ġmat ched
Ġinvis ible
ĠGir ls
Ġl inking
Ġimag ined
Ġautonom y
Ġalt ered
ĠAn sw
Ġsystem ic
umm ary
Ġendeav ors
ĠG il
Ġtast y
Ġp H
ord able
Ġretain ing
Ġsh amp
Ġprevent ive
Ġlif ted
is ive
Ġsince re
ĠApp s
Ġl akes
Ġpharm ac
Ġamid st
Ġcelebr ations
Ġgate way
Ġch ron
Ġref resh
verse ly
Ġso othing
Ġintrodu ces
he a
Ġsix th
Ġspons or
best os
Ġgradu ation
Ġdoct rine
Ġcorner stone
Ġfacilit ates
ĠSt rip
Ġk ay
Ġpath way
Ġact ed
Ġinteract ing
Ġallerg ic
Ġclass ification
Ġg erm
is l
Ġtal es
5 4
ĠR oy
Ġfraud ulent
rolog ical
Ġtravel ed
Ġevalu ations
IV E
Ġco hesive
ĠB rew
c al
Ġre he
ĠRec omm
Ġblank et
ĠBeaut y
Per haps
pl ess
Ġdesper ate
els on
ĠAnth ony
ĠV oice
ob s
TH E
re ls
Ġm asc
ĠTrans fer
Ġelimin ates
ĠH indu
esp e
Ġimag ery
Ġe commerce
Ġst icks
ĠSec ure
Ġvacc ination
tain ment
ĠF inding
Ġcast ing
Ġcon secut
est inal
ĠH ost
Ġle ct
Ġf riction
ĠFranc is
ĠDe al
Ġconv ention
Ð °
Ġcon sole
Ġdead ly
B L
Ġap olog
iv ia
are l
Ġpat ri
Ġsoc io
In f
Ġgr ill
Ġdis asters
Ġtra pped
Ġ <
Ġab normal
Ġcont ra
Ġsal aries
ĠG ram
Ġic ons
oc ating
ĠTe a
Ġchamp ions
res so
Ġdisadvant ages
ĠSt ress
Ġexc use
ric ane
Ġfreel ance
ĠY ellow
ĠIdent ify
f ounder
Ġpersonal ization
Ġl uggage
f ive
jac ent
Ġfort unate
err als
ĠCo ach
ĠRe venue
Ġcatal og
Ġc ort
v ings
Ġbe es
ĠDirect ors
Ġun law
Ġp anc
ĠAL L
irm ing
Ġrecord ings
Ġcy l
ĠPop ular
ĠMar ia
ud s
p a
Ġinadequ ate
Ġproblem atic
ĠCl ark
esp ecially
Ġtow el
Ġteam work
ĠF em
Ġlong est
Ġforg iveness
Ġtra ct
Ġnut ritious
D igital
ĠCons erv
Ġres ervation
ĠM BA
ĠU I
Ġcoal ition
ĠS W
ĠD est
Ġb er
Ad v
Ġproceed ing
K E
I O
Ġcoll aps
Ġ erg
Ġbill ions
ĠR ot
Ġt read
Ġadapt able
ĠJ oint
Ġweek ends
L ong
Through out
d ings
ĠHam as
ĠF unction
Ġmet ric
Ġsuspect ed
Ġsqu ad
ys ical
ĠSec urities
ĠC ab
Ġbl ends
e ffect
ĠMiss iss
Ġaltern ate
ĠMon itor
Ġl un
or ant
ĠR ent
act ively
w alk
Ġdist ances
Ġoff shore
t or
Ġow ning
Ġpol ar
Ġde er
ir y
he rapy
Ġmar gins
l ad
ĠDisc uss
ĠSum mit
ple asant
Ġd ub
ĠJob s
ĠD oor
e ment
Ġbod ily
Ġdeb it
Ġclear ance
Ġcommit ting
t own
ĠM erc
ĠKen nedy
Ġdraw backs
Ġstr anger
Ġtrans plant
Ġdon or
7 2
Ġlot tery
Ġrep roductive
Ġb atch
ĠPl ans
C ent
B ar
Ġpartn ering
St ar
he w
Ġthreat ening
h uman
Ġun even
Ġinterf ere
I ES
Ġarr iving
b age
Ġcer amic
ed e
C le
5 1
ĠF it
Ġdownload ing
L D
Ġexplo it
Ġje ans
or us
Ġclean ers
D own
ĠSupp ly
sc ape
oc y
Ġcalc ulations
Ġroll er
C all
Ġple asing
ven ience
Ġd in
c r
Ġpl ag
Ġunc ons
P oint
Ġb aked
er ial
Ġind isp
Ġur gency
Ġcl og
Ġinf inite
Ġvit ality
Ġprompt s
Ġcreat ure
Ġimp ose
Ġhapp ier
Ġbl ending
Ġcan ce
Ġbackl inks
an ia
Ġdismiss ed
em ption
W rit
ĠC ow
Ġsub ur
ï ¸
Ġmetab olic
Ġmush rooms
Ġst icking
Ġsof ten
Ġc av
ump s
Ġpodcast s
Ġmag azines
ĠA V
Ġsevere ly
est ry
Ġvalid ation
Ch oose
ĠN i
ĠS ugar
ĠC li
Ġarbit ration
ĠIns ights
ĠGall ery
Ġtraject ory
Ġadvis ory
B T
enc er
Ġmount ed
Ġbra ve
at on
Ġre de
u v
Su pport
as ers
Ġl aughter
Ġprop he
at ched
Ġd ull
Ġsoc ially
Ġbattle field
Ġtight ly
Ġperform ers
Ġdiet s
ĠPro duction
Pl us
ĠP ier
Ġaccred ited
Ġparent ing
ĠM un
Ġsc enery
Ġt weet
Ġhead phones
Ġmar ry
Ġgroom ing
Ġactiv ated
ienc ed
Ġdepend able
Ġm alf
ass y
G M
Ġnod ded
qu es
Ġm ud
Ġsu g
Ã §
ĠRet ail
Ġman uscript
ical s
Ġmult itude
Ġsp inal
Ġex otic
ĠMad am
Ġintegr ations
Ġ199 3
Ġper f
Ġcl osure
n ity
ĠM ir
Ġen cl
Ġsour ced
Ġneed le
ĠI RA
im edia
in se
Ġsal vation
ĠDet erm
ĠR ing
ĠSc reen
ĠTechn iques
Ġweb inars
Ġillust rate
ĠB ron
N on
li ed
Ġmer cy
Ġrel ent
Ġfound ers
ĠImpro ved
Ġto dd
Ġinc urred
ĠC orn
Ġp ile
. ).
ĠTest ament
Ġcrit ically
Ġchar itable
Ġamend ment
Ġelabor ate
Ġproceed s
Ġall ure
zz le
s om
Ġf usion
ĠMem orial
I E
Ġfest ive
Ġbr on
Ġst adium
ain ted
J oin
cl ock
ĠGo als
Ġrecogn ise
Ġcount ing
T T
Ġmilest one
ipp i
Ġdistingu ished
ĠIn v
ĠMay or
Ġp ear
Ġsc aling
Ġnovel s
Ġsurv ived
p aper
Ġmonit ors
Ġkill er
Ġchamp ionship
Ġdisc rimin
f ight
Ġyear ly
Ġnot ified
ĠDet roit
ĠInit iative
Ġcontrovers y
p ublic
6 3
V iew
ĠB Y
Ġmem br
Ġim merse
ĠRes ort
Ġinterf erence
ĠRem oval
iv ic
ĠEffect s
d og
ĠS ep
Ġpo ker
Ġrem arks
a que
im b
Ġprotect ions
ĠCur rent
Ġinter section
ĠInstall ation
ĠW ik
ch i
ĠMain e
ĠS ad
Ġterror ism
F orm
ĠD E
Ġne arest
Ġhyp othes
ĠBeh avior
ac o
B re
Ġuncomm on
Ġindisp ensable
Ġliv est
Ġar thritis
at ories
ĠOpportun ities
Ġfre ight
Ġregul ators
Ġd aughters
m aster
Ġprof iciency
Ġsurpris es
Ġutil izes
Ġd ot
in is
umb led
ach t
AC T
Ġinvestig ating
Ġt orn
we lling
ĠBeg in
l og
Ġconst itu
Ġst air
ĠHe aven
Ġluc rative
ĠB achelor
Ġopt ing
th y
z heimer
Ġappli ance
Ġnewsp apers
ast ically
Ġp ist
ĠS ud
ĠMe chan
it ated
Ġbo oth
Ġalign ing
6 2
b ial
ĠR ick
ĠK ings
iss a
ul u
High Level
OR E
ĠAss istance
ĠV AT
Ġbelie ving
Ġf isher
ĠD M
Ġdiagn ose
ĠTransport ation
ĠSing le
Ġinv ention
Ġg ly
Ġauthor ization
Ġp ork
Ġcomp ression
ĠG irl
itc hens
Ġterrit ories
Ġcle aring
Ġ5 1
Ġref ere
ĠCertific ate
ĠMc G
Ġle ap
ĠEmploy ees
ul se
Ġmill enn
Ġsc ams
Ġmac ro
ĠAg ent
ĠG ene
Ġroll s
ĠChe l
iss ance
ĠIn side
ap olis
Ġstra ins
ĠBr ight
writ ten
Dav id
Ġinvas ive
Ġphotograp hers
Ġappro ve
ĠAb u
Ġtrend y
ĠCirc uit
Ġpubl isher
Ġbub ble
ĠCam bridge
Ġlau ghed
insp ired
Ġsurviv ors
Ġcat tle
ĠD ating
vas ive
less ness
Ġsu ck
ĠCal c
Ġag ility
Ġthr illed
ĠW ang
ĠH ab
ĠThanks giving
St ill
on i
Ġsh ook
Ġen vision
Me et
Ġl ubric
ĠSn ap
Ġm amm
ĠTe ams
Ġmon ster
ĠUnder stand
ĠL ocation
ĠS olution
Ġborrow ing
Ġhed ge
Ġut ilities
Ġnewslet ters
ĠEng aging
Ġind oors
Ġprompt ed
7 00
Ġmar vel
Ġp acks
Ġcentral ized
AL L
Ġchair man
Ġrec ession
ĠO tt
Ġwood s
Ġch lor
Ġnost alg
Ġcollabor ating
Ġinter connected
Ġbra ck
c ient
Ġelimin ated
A ir
F ort
Ġ18 0
Ġrece iver
Ġdownload ed
Ġreg ain
u ced
Ġpubl ishers
ant e
Ġprevent ed
Ġdecl are
Ð ¾
Ġundersc ores
Ġheav ier
Ġundet ected
Ġemp owered
ra h
ĠInd ependent
te in
ĠK han
Ġpress ed
Ġcapt ain
Ġintent ional
ĠG round
Ġcast le
Ġli abilities
Ġsal mon
Ġextensive ly
Ġritual s
ĠF er
ĠAutom ation
Ġempower ment
6 1
ĠET F
Ġadhe rence
Ġpill ow
hydr ates
l ar
f old
ĠCP U
ĠPol ish
9 2
Ġ199 1
d ict
Ġnurt ure
ĠCh anges
Ġcont amination
Ġline ar
Ġborrow ers
ĠV ancouver
c ular
fore st
ĠD ogs
Ġattribut e
Ġrent als
k it
Ġprov es
Ġde mentia
Ġflood ing
ĠAD HD
Ġsuccess es
Ġcontinu ity
Ġfree zing
ĠSh an
Ġun av
Ġconsecut ive
o king
Ġthere of
OR D
ĠC her
9 1
Ġimper ial
er to
Ġpursu ant
Ġper ks
Ġlit ter
ĠN ord
Ġther m
Ġemb ody
Or gan
ĠCon sequently
ĠAdd ress
Ġimpl ied
Ġacc laim
Ġexc luded
Ġdecl aration
Ġinterf aces
ĠE dition
Ġp ec
ather ine
Ġheight ened
ĠLead er
Ġorgan ised
M ax
Ġstim ulation
Ġadmin ister
Ġpos ed
ĠS in
ĠL ag
Ġgl ue
Ġgre ens
Ġvoc abulary
Ġ %
ĠInvest ing
ll er
Ġdefe ated
Ġsc rub
ĠFe el
Ġex quis
ĠW E
ract ice
Ġident ifies
Ĺ ı
Ġground ed
ĠV i
Ġver bal
Ġfle e
Ġres ide
20 23
g rim
ĠF REE
Ġconst itution
Ġp estic
er on
Con nect
ĠEgypt ian
ĠClin ic
Ġprem ature
ĠQue ens
Ġdistract ions
Ġentrepreneur ial
ĠBo ost
ĠR ound
Ġtun ed
Ġc ough
ĠG A
og an
Ġport ions
Ġmerch ants
ĠB ond
Ġ ;
ol as
Ġfu ck
ĠEmb race
Ġcon ve
With out
ar ious
H ub
Ġund en
ĠIran ian
Ġn an
Ġparent al
Ġpractition er
B ay
Ġst ip
ĠConsult ing
Ġrev ised
Ġour s
Ġgra ve
ail ure
Ġvalid ity
ic ut
Ġemploy s
D el
Ġcivil ian
oy d
Ġaccomplish ments
is y
rop olitan
B ooks
Ġbr ighter
Ġgra vity
d irect
Ġaff air
Ġdefend ants
Ġo un
Ġtrad ed
Ġpersonal ize
Ġanch or
ĠG B
Ġbenefic iaries
ĠDu ke
w ick
Ġimp art
Ġ( @
ĠRem ove
Ġram p
Ġh inder
ett ings
Ġcat ers
Ġac ou
ĠRe pl
Ġmerch ant
ĠRes ource
ing les
orth y
ĠZ one
Ġtomat oes
in formation
ĠR y
Ġm ice
ab y
ĠAll ow
Ġass ure
Ġline up
i u
Ġwarrant ies
du e
f illed
ĠW rite
Ġmaster ing
ĠMar g
Ġprison ers
ĠE aster
iz ard
Ġb ind
n ames
epend ence
T aking
ĠBow l
Ġall iance
v ious
ĠK al
ential ly
Ġquestion ing
ĠAct ivities
val ue
ĠF itness
ĠP ent
l ie
Ġele ph
az y
Ġcry ing
Ġplug ins
Ġcle ared
ĠW alk
i ably
ĠDes cription
Ġfor ty
Ġpar as
o is
M ich
Ġhead lines
Ġw ore
US T
Ġj am
Ġcream y
Ġart if
' ,
Ġcult ivation
Ġh ust
Ġs ights
Ġmean ings
Ġatt acking
Ġlog s
ĠS alt
Ġge ographic
Ġsil k
20 22
Ġincl us
ro ts
Ġcheck list
ĠG race
z i
Ġir regular
M L
ĠPro ced
ĠBrook lyn
heart ed
ob ic
ĠM is
ĠP ra
ĠE RP
9 3
Ġpre y
Ġhand b
ig m
ĠDiam ond
Ġintric acies
Ġreject ion
Ġboy friend
ĠFood s
ph ony
Ġcle arer
Ġe ld
d ess
Ġpres erved
Ġadminist ered
ĠUlt imate
Ġsty ling
Ġbal ances
9 4
Ġtact ical
Ġread ings
ĠBanglades h
he ro
ĠAl t
Ġones elf
Ġy og
Int eg
eal ous
s k
er ting
ĠAn na
Ġm esh
an ic
Ġd read
ak y
? )
gener ated
ĠM O
ĠCh oice
ĠD al
Ġtechn ician
Ġun pleasant
Ġmonit ored
Ġha cks
esp oke
Ġbuck et
Ġrent ing
Ch ild
Ġf t
Ġinv ites
Ġm ant
Ġad jacent
Ġexerc ising
Ġpick up
ĠApplic ations
imens ional
Custom er
W ant
Ġview er
Ġw ager
ĠNev ada
Ġteen agers
Ġdece ased
ĠAltern atively
Ġre per
ĠMil itary
Ġexp orts
Ġaut umn
ĠBrazil ian
Ġf ry
ac le
Ġbook ed
Ġamb iance
Ġende avor
Bel ow
Ġemp ire
ĠR ab
ĠM aj
ĠL ay
Ġr het
ĠIn sp
Ġw ipe
ĠP resent
ĠP ope
Ġp ending
Ġhas ht
Ġwe ights
Ġcour ting
per m
Ġamb ition
Ġretain ed
ĠU ntil
ĠM os
Ġdef ending
Ġmat urity
Ġdoub ts
Id ent
ĠAd apt
! ).
ic ates
Ġl ining
thod ox
Ġsc ales
ĠV iol
ĠD ak
ĠAnd re
Ġint act
Ġmort ality
bl ock
Ġassum ing
ĠUnivers al
ĠGal axy
ol t
ĠUlt ra
ĠLouis iana
ĠSen ator
Ġimp e
Ġscan ning
ĠMove ment
em or
ĠArt ificial
Pl ay
ĠCh amber
Ġrot ation
Ġfold er
ï¸ ı
Ġel astic
Ġstub born
ĠT rip
ĠR S
F igure
est eem
A nt
p res
row th
Ã Ĥ
Ġspec ify
ĠN ash
In s
th ora
Ġp ale
Ġnegot iating
Ġyouth ful
eed s
ab a
ĠTre asury
Ġhook up
Ġearth qu
ub lished
ari us
Ġupgra ding
Ġtroubleshoot ing
Ġsla very
E U
ĠAn imal
ĠCh rome
m ount
Ġfair ness
ĠA id
ĠR oc
ĠWork ers
Ġm asters
Ġir rig
Ġalb ums
s ens
Con clusion
I mp
Ġdemonst ration
ĠWell ness
Ġs iblings
ĠRus sell
Ġpro xy
ĠAd obe
ĠHow ard
ĠF irm
Ġ5 4
un ct
Ġsp ont
ĠB apt
H y
Ġsubs criptions
e ks
7 3
ĠP arents
ord on
Ġc el
Ġreal ise
Ġh obbies
ĠCo in
Ġr ansom
8 4
Ġconvenient ly
g overn
Ġun healthy
Ġcon gest
ession als
n ote
em en
Ġmolec ules
re ll
Ġpost er
ĠAl zheimer
ĠMarket s
ist ine
ĠC elebr
Ġun le
qu et
Ġtou g
Ġsol ved
Ġdr ones
Ġcoord inate
Ġg aze
Ġinter ven
Ġwater ing
M aster
t ier
Ġabsor bed
ĠH omes
Ġfulf illed
ĠAdvert ising
Ġrain bow
m ath
Ġair lines
sc ri
Ġ3 65
Ġw ires
ĠRe ce
Ġcareg ivers
af ety
Ġwa ited
Ġsym ptom
Ġwar mer
U K
Ġre un
ĠPolit ical
on ents
Ġaccum ulate
Ġprom in
g one
Ġsuper vis
Re view
so ever
Ġsof a
Ġsim ulation
ĠHun ter
D ue
Ġhere in
ĠLe ave
Ġground breaking
Ġdifferent iate
Ġremov es
Ġl od
ic one
ĠMult i
Ġv om
Ġsc oot
ĠH us
Ġnob le
à ¥
ĠD ick
ĠP as
ym ph
ĠInt el
Ġmount ing
Ġred irect
Ġd well
Ġcong ress
Ġprosec ution
Ġmet er
ĠSom ething
Ġmotiv ate
G reen
ĠE lement
Ġdark er
en z
Ġstring ent
Ġmusic ian
wh ite
Ġbelie vers
O ps
Ġam ended
8 2
Ġsun ny
f ood
am as
Ġconstruct ive
ĠMet al
Ġweld ing
Ġgovern ed
Ġout break
ĠAl b
ĠEmploy ment
Ġfur ry
Ġgl oss
Ġsuns et
Ġobs erving
ve t
Ġrep orter
ch a
E lect
ĠPlatform s
at to
ĠNY C
as ma
im ated
Ġreported ly
Ġlabel ed
Ġbe ating
ag u
re ck
Ġfle w
ours es
ĠB eng
Ġb achelor
à ¸
Ġcush ion
Ġden ial
f i
Ġtransl ates
ĠP el
in arian
Ġro pe
ĠIm med
L ist
Ġw ounds
O pen
Ġexpect s
y cl
Ġroof s
Ġst ove
ĠMult iple
new s
Ġjurisd ictions
Ġpo ised
ĠC ream
Ġresid ency
ĠM C
Ġinev itably
Ġterr ific
Hel p
Ġn aked
ĠA round
ĠD ad
Ġannoy ing
I ts
Ġblog ging
ad der
t wo
hed ral
Ġfl ame
Ġcount ies
Ġbur d
Ġmir rors
oven ant
ĠG aming
ĠShe l
L ocal
20 21
Ġdisp ens
htt ps
un ks
Ġgrand mother
Ġbroad ly
Inc re
Ġcher ished
Ġeth n
Ġsn aps
Ġsp ins
ĠM oving
Ġple thora
V P
ĠC ars
iz on
ĠHam ilton
Ġv ague
P rep
Ġmolec ular
g rowing
Ġris es
Ġca res
Ġp ave
ĠH at
Ġemerg ence
ĠR ace
ene z
ol esc
Ġroad map
i el
m ill
Every one
Ġbet ray
Ġm arch
Ġfab ulous
ĠPod cast
Ġm ock
ĠW ant
ĠB rain
Ġsupply ing
Ġdec ay
ĠCost a
ĠMississ ippi
ĠV IP
Ġbit coin
Ġconv icted
Ġtri ple
D em
ĠI L
Ġs ized
Ġmag nes
pro t
, '
Ġout fits
Ġliber ty
Ġne u
ĠLic ense
ĠC rown
Ġrespons ibly
ĠFa ith
Ġb iblical
Ġ198 9
Ġmanip ulation
Ġundert aken
Wor king
T E
Ġinput s
Ġconver ting
Ġdiscuss es
E duc
ex per
Ġinf er
ĠH E
Ġp ap
8 3
Ġcomm ence
ro st
Ġsp ite
eren cing
Ð ²
Ġbl ades
Ġine quality
it ol
Ġl ing
Ġback pack
Ġdress es
St ate
ĠF igure
Ġhyd rated
AR S
Ġrig id
t hens
ĠB R
Ġworks pace
Ġk not
P ublic
art z
Ġincom plete
ance ll
Ġquot ed
J an
Ġfair y
re nder
m ay
ot on
ĠN ort
Ġbet a
ile m
in nam
sen al
ĠS outheast
ĠIde as
Ġ 00
Ġo k
Ġa we
ĠExt ra
yl um
ĠReg ister
it us
hat tan
Ġfat al
ac cess
be it
ĠD raw
ĠJ a
est ing
Ġlandsc aping
Ġcolle ague
uff y
Ġall ocated
ipp le
Ġentrepreneurs hip
Ġfor k
am ation
Ġover he
v ens
ze ch
Expl oring
Ġchat bots
g on
un c
al ia
ĠE co
ĠPh ase
Ġgood ness
ĠPalestin ians
!! !
umb ai
ĠAN Y
Ġfro st
b ank
fact ory
Ġsmall est
ĠAir lines
ĠT X
Ġreal izing
Ġdraw ings
Ġgood bye
ĠHe brew
ĠPro s
lic t
ĠPortug al
er ver
Ġcl uster
Ġt el
Ch ina
ĠCharl otte
= âĢĿ
erv ices
Ġtransfer ring
sel s
E xt
ĠR ow
Ġp enc
Ġmagnes ium
E ar
Ġkick ed
ĠUs ed
th ood
7 4
Ġdes cend
ĠL em
Ġsettle ments
Ġequ ip
Ġment ions
ĠW ine
Ġdr illing
ĠSU V
ul ators
ut ers
Ġtox ins
ĠE li
im ore
Ġanticip ation
St ay
Ġend ure
ĠS weet
ĠM oses
Ġl ined
Ġbicy cle
Ġst roll
act ions
ĠUp date
Ġball ot
ugg ing
Ġremind ers
ĠR oll
ĠReg ion
ust ers
Ġcere mon
Ġfunctional ities
Ġcur b
Ġu mbre
Ġbure auc
Ġt ensions
ĠNep al
ĠAz ure
Ġqu een
Ġdess ert
Ġcalc ulation
st ud
ĠV in
Ġcou ch
ĠIn n
ĠPat ients
Ġdisc ourse
Ġund erest
le ans
c uss
Ġf ocal
ĠU ber
Ġpra ised
ĠAnton io
ĠStart ing
ĠS ell
Ġlung s
Ġeat en
Ġunf amiliar
ke eper
Q uality
ĠA x
Ġ7 00
Ġfrag rance
Ġconstitut es
B ig
7 1
ĠPos itive
ĠW u
Ġrest oring
ĠJon athan
sec ond
Ġpre view
g roup
ĠF ant
k h
Ġbrand ed
Ġref errals
âĢĿ ),
Ġst ats
Ġtraged y
Ġtra gic
Ġunique ly
ĠG ospel
Ġactiv ist
we alth
ĠRegist ration
Ġcomple ments
Ġext rem
Ġpermit ting
om er
Ġc od
ĠG re
ĠB ing
ĠBrand s
ĠH ind
al one
iox ide
eral d
Ġmart ial
oc ity
20 19
Ġsymb olic
ĠJ en
Ġsoc ks
ĠF lu
Ġg ems
Ġhon ored
Ġreal ities
b rand
ur ous
ĠT u
Ġactiv ation
Ġshall ow
ĠPal m
Ġdef icit
ĠNon etheless
Ġwrink les
Ġp sy
Ġaccept s
Ġrender ing
ĠE PA
ĠL oc
Ġaccident ally
Ġdem on
Ġsp ice
Ġconsp iracy
Ġprot agon
Ġfeed s
ĠC ro
Ġlapt ops
ĠG ent
Ġ5 3
Ġa ston
ĠES G
Ġsn ake
Ġinterview ed
ĠCh ain
Ġd umb
Ġmultif aceted
Ġintim acy
ĠK ate
Ġl id
Ġd orm
Ġgl am
Ġcand le
Lear ning
ĠResp onse
Ġat e
t ails
char ged
ĠSustain ability
Ġc um
g r
Ġf ights
ĠCor ps
Ġst arter
Ġtour naments
ĠH app
B esides
Ġrestrict ion
b ecause
Ġall ocate
mat ched
Ġn ause
ate ur
Ġfe ather
ick ets
Ġdies el
Ġcleans ing
Ġcomp ost
Ġent ails
Ġtrans c
M et
A h
Ġnow adays
av an
ar se
Ġkilomet ers
Ġmicrow ave
ew ork
ĠSub st
Ã Ĺ
Ġresol ving
Ġapp rent
omm y
ĠR is
ĠSur gery
ĠP OS
r ish
May be
Ġbudget ing
Ġhonest y
ĠOb ject
ĠAd ams
ĠWal ker
Ġassum ption
ĠPrep are
ĠAb raham
ĠBl oom
Ġv ape
Ġmunicip al
ĠComm and
op ular
O ct
? <|
g un
ĠL isa
ĠRober ts
Ġne ur
ne x
ĠSing h
Ġpol ls
Ġscript s
ĠRe ally
Ġa ver
ac cept
vel and
Ġoccur rence
m ile
ĠGreat er
Ġpri zes
ĠAP K
Th ree
Ġass ass
Ġconvin cing
Ġtim ber
Ġfar mer
Ġexplos ion
Expl ore
Ġcock tail
ĠB ear
ĠExper ts
c lick
Ġlawsu its
Ġdecor ations
Ġgr ind
Ġdr astically
Ġl ately
or o
Ġminimal ist
ic ion
ĠCrypt o
Ġf ond
ĠIn g
Ġinhabit ants
amm ad
Ġcivil ians
Ġintention ally
Sp ot
ĠBe at
Ġa fore
Ġ5 6
Ġarchitect s
cont ract
Ġ( "
ĠG raph
Ġur ged
ĠS ony
ĠAl ber
Ġvolat ile
ĠPh ill
Ġaggreg ate
ĠGener ation
Ġnot ices
ic as
enef it
ĠAd ult
employ ed
U t
ĠPan el
Ġne ural
N ational
Ġfundament ally
ĠD ance
ĠCharl ie
ro le
Ġcred ible
Ġalleged ly
ĠPort land
Ġf el
Ġcollect ors
Ġover coming
Ġbar rel
whe el
Ġb ru
Ġlight ning
ĠNAS A
innam on
ĠOrgan ic
Ġunlaw ful
ĠR AM
ĠAr men
or ig
ik h
f y
C am
Ġcomp iled
ĠAgricult ure
Ġbl u
Ġha irst
Ġv o
Ġrad ar
ĠS pect
Ġconsult ations
Ġinc oming
Ġexcept ionally
Ġsh ocking
Ġexplo itation
ĠAgain st
Ġsuper market
Ġsm arter
ĠCo al
it ted
Ġcl utter
claim ed
ĠCent ers
Ġre charge
Ġbless ings
ĠEm ily
ĠNurs ing
Ġmattress es
ĠP ad
ĠAcc ident
ĠBal ance
Ġinter course
Ġad hering
Int erest
Ġp s
Ġexquis ite
ac re
Ġcivil ization
ĠSh ak
Ġflaw s
Ġaccum ulation
Ġhel icop
Ġindirect ly
u pt
ĠCo le
ĠConnect icut
Ġsyn chron
S D
Ġdi agram
Ġobs erv
Ġfr ank
Ġlegit im
Ġcal ib
Ġdom inate
ĠPu erto
Spec ial
Ġse w
ĠSt age
ood les
Ġexpend iture
Ġover d
ĠN ich
ĠT ian
Ġres orts
ĠF ra
Ġev acu
Ġch ill
Ġtum or
Ġsw itches
ĠAud io
ĠPurch ase
ĠM all
umb ling
Ġfulf il
Ġop io
Ġfast ing
ĠAnd y
ĠSome one
Ġdemand ed
Ġindul ge
Ġthy roid
Ġmod eration
ĠV ac
Ġse as
Ġ **
Ġinc omp
ĠSet ting
ĠOr leans
Ġsu ng
Ġnew com
Ġopp osing
Ġqual ification
Prof essional
Ġplay ground
fort unate
Ġadminist rator
Ġuncertain ties
ĠEnter tainment
Ġten ure
ĠC ris
e enth
Ġinsure rs
ruct ured
Ġtur key
ĠP ray
Ġlog ging
S k
S M
ĠT ail
Ġg ummy
Ġhapp ily
Ġhoriz ontal
ĠDep uty
ĠMan hattan
Ġfact ories
Ġcapital ism
Ġsyn c
Ġveter inarian
Ġse iz
Ġfriends hips
EL L
ine e
ĠT an
ĠImport ant
Ġsuper visor
ĠC riminal
Ġgrab bed
Ġcoll ar
Ġsh ipment
Ġpro pose
Ġmeant ime
ĠA BC
Ġup side
Aut om
Ġancest ors
Ġparad ise
ĠM ob
gener ation
Ġanim ated
Ġc ens
um en
Ġcontract ual
ĠPost ed
Ġterm inate
round ed
Ġagg ression
Ġ3 50
ĠReport ing
Ġfound ational
Ġform ulated
o os
ĠA ware
ĠC op
Ġpo le
Ġl ingu
ĠM ine
Ġr ugged
Ġcoll ateral
Ġfut ures
ĠC oc
Ġsod ium
C oll
O rig
Ġbefore hand
Ġre build
udd en
ĠP erm
Ġwhat soever
ra ul
Ġpred iction
Ġmed ieval
Ġgra pp
G C
Ġ6 6
ĠW at
Ġra ge
ĠK ay
Ġspr ings
ra vel
L ove
ĠRe ach
ĠO sc
is al
Ġg inger
Ġb ang
ĠA le
ip ation
Ġob ed
Ġdes c
meg a
ĠOb viously
ĠG O
O kay
ĠDo ing
Ġunder going
ai ver
ĠBru ce
Ġm elt
ĠEnt reprene
ach ment
Ġwas hed
ĠS el
Ġspecific s
ĠM E
ĠVal ent
Ġpolit ically
E ss
Ġunder water
Ġspark ed
Ġacceler ated
ĠC abin
Ġr ivals
ĠB ird
ĠB os
ĠR an
list ed
ĠBat tery
Ġportfol ios
ĠIntern al
ĠSwed ish
Ġres ign
Ġpur ity
ĠMost bet
Ġtack ling
Ġrequest ing
ĠNor way
Read y
Ġpot ato
w estern
ĠAcad emic
ĠF ile
Ph oto
Th us
Ġin aug
Ġhack ers
t ype
8 1
ĠNiger ian
Ġterr ifying
Ġment ors
ĠD at
N Y
Ġsex y
Ġpro state
Ġcondition er
ĠP un
Ġsec ular
Ġbra ins
ĠOut door
m are
ĠEns uring
ri ages
ĠL ane
Ġpr istine
Ġnum er
ĠJ ava
ig nt
ĠG ary
Ġquestion ed
Ġshad ows
Ġupgra ded
yp ical
ĠF urn
Ġmot ors
F L
P ar
Ġmathemat ics
o op
Ġopt ical
ip edia
Ġcomm issions
ĠP ant
20 18
ĠW ard
Ġch ase
Ġwise ly
S EO
ĠProcess ing
Ġl ane
ĠP s
Ġinsight ful
ĠAppro ach
l ift
Ġb ail
Ġpract iced
ĠInc lude
ic ient
ĠQ ur
ĠH op
ep s
Ġper ceptions
cel ona
v it
Ġcre ations
Ġn odes
ĠSales force
ĠTra in
Ġarom a
Ġgar bage
Ġsl ave
Ġw iring
Ġreg imen
ĠF ell
ĠP ills
ĠQu ant
S en
ĠInj ury
Ġmitig ation
Ġinvestig ated
Ġdon ate
ĠEng age
ryst al
Ġforecast s
Ġadvert isers
Ġdiplom atic
ud ge
ĠK ajabi
Ġlog os
ĠCond ition
Ġaven ues
ĠG ib
Ġem peror
Ġod or
Inc orpor
ĠLast ly
Ġcand les
Ġdown side
Ġstr ings
ific ant
ĠVeh icle
Ġdef iciency
Ġder iv
ĠAm y
ĠProv ider
ĠL ever
Ġstead ily
Ġsh orts
Ġbrut al
prof ile
j amin
Al ong
ĠB ag
Ġd ioxide
|> -
ĠBeh ind
ia o
ĠRem ote
ri ors
Ġair flow
c reen
Ġhe y
ĠS eg
Ġam ino
Ġfrag ile
ĠOptim ization
Ġey el
Ġexpress ly
Ġt unnel
ol o
reat ment
Ġinfect ious
ĠMus k
Ġfif teen
Ġwild erness
am an
ĠCent ury
disc iplinary
Ġpe el
Ġsup reme
ĠA w
ĠUn less
Ġreport ers
Ġfree zer
â Ĺı
ĠAny one
Ġpursu its
ard o
Ġto es
Ġcris es
Ġrecover ing
Ġreplace ments
Ġsl ice
P aul
ĠToy ota
R ob
ĠEth iop
M ark
Ġjust ified
d ec
ĠWebs ites
ĠJust in
Ġdeliber ately
ĠV o
Ġk itchens
ĠThom pson
Ġhard est
Ġf og
Ġmetap hor
ĠH arm
ĠSo on
Ġsc attered
Ġlaugh ing
ii i
Ġdefin itive
ĠCh icken
ĠP in
Ġwas ted
Ġre n
Ġsanct uary
Ġus ern
Ġtraffic king
Ġveter inary
ĠPy thon
ĠH ug
Ġf ont
Ġb apt
Ġdeb ates
roph ic
ount ain
ĠEx ercise
ĠChe ap
h ole
Ġper t
child ren
amm ers
Ġph osph
e at
Ġk eto
Ġad ren
v ic
Ġselect ions
ĠStat istics
Ġast hma
Ġcoord inated
erv oir
Ġsl ides
ĠMount ains
Ġrecre ation
Ġb ip
ĠL ie
Ġdepth s
Ġl amp
Ġfurn ace
c m
Ġfra gment
Ġfore x
Pro t
d ig
ĠSpot ify
ang a
Ġhome owner
Ġvar iant
ĠS oph
ĠS ettings
ap el
Ġinter vals
ĠAr thur
Ġcheap est
Ġdisplay ing
ĠAl pha
ĠEduc ational
Ġange ls
rim p
Ġdecre asing
ĠTra cking
Ġst yl
Ġlay outs
m us
ĠManufact uring
land o
Ġthread s
Ġexhaust ed
ĠV erm
ry lic
Ġn erves
ĠC zech
ĠG ift
Ġsex ually
Ġpro w
i w
A ug
Ġup ward
re lation
osp ace
: <|
Ġs iding
ĠTra ffic
ĠW ear
Ġser ial
Ġtransport ed
Ġr ider
L M
Ġl ithium
Ġco h
Ġaccess ory
Ġcrimin als
ĠPress ure
Ġover load
im ming
Ġspecial izing
ĠE ither
Ġc ott
Ġpredict able
ĠPlay er
ke ys
Ġsolid arity
av i
Ġmass es
um ers
Ġimag in
Ġband width
Ġamb ig
Ġgram mar
" )
c atching
old ing
Ġenhance ments
W atch
ĠPre vent
ĠCr ime
ĠThe rap
ĠC row
Ġesc ort
est hes
Ġvirt ue
g ae
Pro duct
ĠU X
as ia
ot ed
ie re
Ġa unt
Ġas bestos
ĠCom plex
Ġbl ast
h is
IN E
Ġmer it
ĠW elcome
t ent
Ġbe ats
ur ations
ĠCar bon
Ġpro actively
b order
Ġfemin ine
Ġf li
Ġpal ace
Ġinterpre ted
Ġcarbo hydrates
Ġsc roll
itut es
Ġbeh ave
Ġpred ecess
th a
ass ium
ĠM umbai
Ġitiner ary
Ġdest ructive
Ġtast ing
Ġacknowled ging
Pres ident
ĠAl an
E arly
Ġpossess es
Ã³ n
ĠC AR
ĠProject s
ĠLo ans
T ry
Ġg ates
ĠU g
ĠR achel
Ġfundament als
e ur
Ġh orn
Ġcor rid
App lic
Ġanal og
Ġsimpl est
Ġtouch down
in formed
an ne
Ġintern ally
ight y
Ġcare d
ĠG a
ignt y
Ġstreng thens
ĠFil ip
ĠApp eal
Ġrec laim
Ġin just
Ġgradu al
m i
Ġo we
Ġeffort less
ĠT her
ĠBM W
Ġexpans ive
S uch
Ġex clusion
Ġun fortunate
Ġtrans itions
Ġmaneu ver
ĠMain tain
Ġsp ends
che m
Ġover st
Ġimport ed
p rom
j e
Ġmathemat ical
Ġsold ier
Ġun int
ĠT ed
b usiness
Ġsp here
ev olving
Ġen ric
Ġte asp
ĠInter view
ĠS pl
Ġcourt esy
ĠS au
ĠL eft
ĠZ en
te chn
ĠS ou
ĠN one
Ġderm at
Ġstaff ing
ĠProv iding
ĠHe y
ĠSee ing
Ġdecre ases
Ġarch ae
d egree
im eter
ĠNFT s
lear ning
Ġtrain ers
Ġair pl
ĠN ap
Ġstim ulating
t ings
Ġl oses
Ġhe els
Ġmed ian
. ]
Ġbench mark
at ics
ĠJ ere
ĠOver view
st ones
ĠMor oc
ĠLux ury
Ġdis k
ĠM ason
Ġmis leading
A gain
ĠT ib
Ġbo il
ĠL anka
Ġlad der
um ns
Ġst akes
ip h
ĠP ure
Ġtrib es
Ġmis use
Ġsn ap
Ġh ockey
M at
Ġvari ants
Ġvalid ate
Ġp ound
co h
Ġgrand father
x iety
Ġdetail ing
Ġcompris es
Ġb espoke
ver ance
Ġjourn als
A f
Ġimp ly
Ġdomin ance
ail ability
Ġde hyd
ĠEqu ity
Ġcommod ity
are tt
Ġpast or
Ġb amboo
ĠEnc ourage
Ġlect ures
ist ency
Ġfa ulty
y les
ĠAl most
Ġdish was
ere rs
Ġexplan ations
c amp
ĠWal mart
ĠAdvis ory
Ġbath rooms
Ġantib iotics
Ġatt ent
ict ional
ĠGood s
ere r
St rateg
Ġth c
ood le
K S
ĠAr c
ĠG T
Ġmethod ologies
Ġargu ably
f our
ĠUn ique
ĠLet ter
Ġo mn
pe ople
ĠM asters
end ant
ĠP oor
ĠFirst ly
Ġargu ing
Ġsens ible
Ġmark ers
Ġacc us
Ġhum id
Ġtrib e
ĠDam age
ĠJenn ifer
Ġflav our
B R
Ġp p
l ings
ins ula
ĠL aura
ĠLeban on
Ch all
Ġfoot wear
arm ing
n on
Ġadapt ive
Ġimpress ions
p ath
ĠCar ter
Ġso ak
Ġ19 30
os ion
omet ry
ĠB eth
Ġmar itime
Ġcr unch
Ġcan al
ĠW a
Ġcoll ision
su pport
ĠH I
Ġtap estry
Ġqu arters
in ition
Ġsexual ity
ccess ful
ĠVar ious
Ġstandard ized
lish ing
Ġ198 8
ĠMar x
Ġwed dings
With in
Friend ly
st ory
Ġge op
Ġimper fect
Ġtutor ial
Ġhabit ats
Ġgener ative
c over
ig o
well ery
Ġinv oices
al king
ĠAdvent ure
S earch
Ġdi arr
uc le
Ġamend ments
Ġa pt
ĠM ath
ĠE R
Ġshamp oo
Ġstret ched
ĠSt ick
om i
Ġaffili ated
O A
Ġcal orie
ort al
Ġdirect ory
Ġaw ful
Ġdeliver ies
ĠWe ather
Ġcrack ed
Ġincl ined
Ġus ability
Ġreal ised
Ġrev is
ĠAff iliate
Ġsh iny
Ġdevelopment al
Ġaccum ulated
Ġw it
u z
ĠSe ven
Ġf res
Ġuse less
ĠW ITH
Ġrese ar
Ġh ips
Ġsequ ences
Ġident ifiable
ĠInd ians
ĠC ass
Ġmicro phone
ĠP PC
Ġhor rible
Ġregister ing
ĠCle veland
Ġt ribute
Ġenerg ies
est one
ĠT ap
Ġve gg
Ġintern ship
Ġfl oral
Ġf ade
ĠT ang
Ġautom ating
M c
il ot
ĠEvent ually
Ġ5 8
Ġcr ust
Ġal ly
ĠG host
Ġportra it
) ?
ĠCompet ition
Ġd rought
Ġbeat en
Ġped iatric
Ġchat bot
coh olic
Ġd ilem
ĠW ays
Ġins ist
Ġrel ocation
im on
Ġmod ular
Ġrou ter
Con f
Ġscrew s
Ġapp les
ĠW A
Ġexce eds
Ġrend ered
Ġrec alled
le ys
Ġperiod ically
Ġhead ache
Stud ents
Ġsacrific ing
Ġadvoc ating
Ġs ailing
Ġw ished
S mart
ĠRep orts
Ġlaw makers
u ards
and ra
ĠSp ons
ĠEx cel
P rior
ĠG am
Ġdr unk
Ġ5 7
Ġrap e
ĠRelations hip
Av oid
pro du
pher d
Ġrail way
ĠGo ing
Ġl ounge
ĠCom fort
ĠCons ervation
ĠI F
o ks
Ġstorm s
M a
Ġch rom
Ġmag net
Ġrepresent ations
ĠConsider ations
Ġw aking
g ie
Ġ Ø
G S
Ġch asing
Ġdecor ated
Ġbound ary
ust ral
ĠSpecial ist
Ġconcept ual
Ġhorm onal
Ġintu ition
Ġspread s
Ġt ier
ĠArab ic
Ġreflect ive
Ġunder way
st airs
AS T
Ġtempt ing
Ã© s
Ġsubject ed
ĠP interest
H C
Ġcomp uls
ĠProf ile
it als
Ġgen ius
Ġth igh
ĠW oman
Ġtop s
Ġirrig ation
ĠS end
ĠM es
ĠM ap
Ġburn out
Ġroutine ly
Ġb ush
Ġbet tors
ĠArgent ina
Ġru in
Ġamb itions
Cl ass
ĠPr ices
Ġpan or
Ð Ĥ
Ġdel ves
atto os
ĠSer ver
F ood
ĠF ine
Ġdrive way
Ġun rest
lu x
Ġr ip
Ġtax ation
Ġan at
Ġmyth s
ip es
Ġstud ios
ĠWar ren
hel p
v oc
Ġn as
b its
Ġleg ends
Ġeconom ical
Ġclos et
Ġsubject ive
Ġexc urs
ĠCh an
ĠN ag
ĠSpe aker
Ġhyper t
ĠLiver pool
ĠBalt imore
ĠG ov
Ġform ally
R uss
ĠAn im
o kes
Ġmar ble
Ġon ion
Ġbact erial
ĠP ricing
pro fits
ĠK az
Ġh ose
c at
Ġpo ems
sp ot
Ġwag ering
ason able
ĠAl f
Ġ Î
ĠS R
Ġ1 10
u ces
ĠWi Fi
N avigating
ĠT ask
Ġcomment ed
ĠTh r
art ered
T ip
Q U
Ġrev olves
Ġch im
d el
Ġpe an
oper ative
enez uel
ĠH P
Ġexhib itions
L ink
ĠX box
ĠN am
Ġ q
ht ml
Ġch iropract
ott om
ĠS low
ĠEx am
Ġveget ation
Ġrest ra
ĠL ang
ĠK ath
Ġlaw ful
Ġch ic
ol ition
ĠM T
Ġelement ary
ĠOrgan izations
Ġpresum ably
Ġbul bs
Ġ es
P Is
ert ation
Ġche ats
ĠM ist
Ġsucceed ed
an im
ĠC amb
en h
Ġdisc ontin
ĠBu yer
ĠS L
Ġon ions
Ġhel met
ĠProgram me
Ġsurv iving
P ower
ĠD h
ĠAd ding
Ġu gly
Ġdep uty
Ġconsolid ation
ĠH amp
ah o
l on
ĠR oot
Ġb ent
Ġvan illa
Spe aker
ĠInf rastructure
ĠGu arant
ur ved
Ġconcer ts
ĠRo lex
Ġfig uring
Ġch ore
ar ians
Ġment orship
ĠPartners hip
s ign
Ġe go
ĠK el
Ġinnov ate
ĠLaw rence
ĠF I
Ġafter math
a uses
Ġequ ation
ra cle
ĠS N
Ġrest ing
B rand
Ġcountry side
ine es
Ġsl iding
Ġvot er
th inking
Ġsign ifies
Ġbre wing
ĠIm per
ra wn
Ġpersonal ised
ĠGh ana
ĠD ent
Ġide ally
Ġsur render
Ġstri ps
am ina
Ġfight ers
Ġbi om
Ġan ten
Ġquant itative
Ġ6 2
Ġmig rants
ĠWhe never
ear chers
Ġsw itched
Ġsp icy
Ġair ports
ĠF ees
ĠQ ing
Ġf ried
ay ed
ĠBar celona
Ġther most
ĠH i
k g
ateg ory
ĠG ordon
p arents
Ġbe ast
ĠD ys
us able
Ġemb od
Ġh ats
ĠSus an
Ġserv ant
ĠAdv ance
Ġsimilar ities
Ġproud ly
Ġobstac le
Ġtem ples
ec ycle
Ġdon ated
Ġpreval ence
Ġread iness
Ġexem ption
Ġdev il
w hether
Ġ198 6
r ances
Ġk g
resp ons
ĠD er
ĠR ice
Ġinacc urate
ĠRestaur ant
o j
Ġelect oral
Ġpurs ued
amp a
ĠF C
st rong
Ġexp on
im mer
Ġadm issions
Ġsevent h
Ġreb ell
Ġtra umatic
act ic
Ġrepair ing
Ġcan cers
ĠR idge
ĠProf essionals
Ġdiscount ed
Ġformer ly
F ull
ĠSc ore
Ġassemb led
ĠLeg isl
Wh ite
Ġinhe rently
ul i
Ġcalc ulator
Ġmay or
Ġcontamin ants
Ġnu anced
ose xual
Ġp ou
ĠK id
ĠA aron
ĠFor ces
IT E
Ġadd itions
Ġun belie
ĠHigh way
Ġille g
Ġcarp ets
Ġsp inning
Ġhon our
Ġphilosoph ical
our ced
ĠLe o
ĠProt ocol
Ġcomplement ary
Ġdepend ence
Ġorigin ated
ĠMor ning
Ġto e
Ġres in
Ġacadem ics
Ġred es
s hips
ĠInvest ors
Ġbud s
per ature
Ġsh irts
am bers
Ġexce eding
ĠE at
Ġn ick
ĠFrank lin
ĠR ental
it ures
Ġper taining
r h
Ġlivest ock
E nd
H ead
sh irt
ĠTrans p
Ġadd ict
em porary
Ġstick y
ĠCook ies
Ġgall eries
oc hem
Ġmen stru
ĠP red
Ġpil ots
b oth
M R
um mer
ĠI gn
ĠC MS
ut o
Ġide ology
. ),
Ġl bs
ĠB art
Ġpic nic
Ġproject ions
Ġsil ly
cent ered
C ap
ĠRe lease
Ġad ul
Ġfav ored
Ġgre ase
Ġtrib al
Ġadvent urous
x ic
J u
ĠChrist opher
Ġrec alls
Ġantioxid ant
ĠPsych ology
Ġank le
Ġdeliber ate
Ġsound ed
ĠB aker
ĠO t
ĠT ouch
Ġins ur
ĠK rist
is ode
ed ar
Ġdiv isions
Ġst ark
ĠEm otional
ĠC red
ĠLeg acy
Ġdisappoint ment
ĠM B
requ ency
ri um
Ġspot ted
ues e
Tr ust
Ġam azed
ĠH ans
ĠH az
Ġf iring
Ġbe am
ure rs
Ġlength s
ĠDou gl
Ġgen etics
Ġmanip ulate
reg n
Ġpot s
Ġestablish ments
Ġnar c
Ġcapac ities
raul ic
Ġemb ro
ĠLaw s
Ġencrypt ed
ĠR T
Ġbund le
idel ity
pro cess
Ġridic ulous
ĠT ip
ote chn
Ġment oring
Ġfashion able
Main taining
Ġpropag anda
ic able
ĠO ri
ĠPoint s
ĠSt orm
Ġcond em
ĠSy rian
lass es
Ġ19 20
ĠExcell ence
f acing
Ġinv alid
Exper ience
G old
Ġd a
ĠN elson
ĠMar vel
ĠT ob
Ġgovernment al
ĠPit ts
ĠScript ure
Ġun fore
Ġmos qu
Int roduction
Ġfl ed
ĠSt adium
S l
Ġf auc
ĠOlymp ics
P rom
Gl obal
Ġbright ness
Ġdry er
ru ed
is ol
Y S
ĠZh ang
Ġc ues
Ġdisc oura
uck er
Ġpair ing
ill ery
Ġchar ger
I AL
Ġbl oss
Ġrac ist
Ġles bian
Ġdump ster
Ġtra der
20 17
ver ted
Ġdevot ion
ĠLike wise
Ġdig ging
Ġme ats
ced es
ie ving
op ause
Ġengine ered
ĠS oul
H i
Ġconf ined
ĠAct ually
Ġdefin itions
A g
ĠWild life
ĠDak ota
it ating
ĠFram ework
Su per
Ġguard ian
ĠPalest ine
ĠE gg
Ġpun ish
ex isting
Ġstret ches
ĠW right
met ics
ĠRed dit
names e
ĠFac ulty
un al
ĠGra ham
ĠLead ers
Ġmention ing
Rel ated
Mich ael
craft ed
Ġdial og
ĠL uther
Ġcons erve
Ġbra kes
ĠC I
ĠEm peror
ĠS ent
Ġcryst als
Ġrepl icate
M B
Tr ump
D ate
Tra vel
ount s
ĠBet ting
Ġminim izes
ĠVol unt
Ġ1 30
Ġdeep en
ĠBarb ara
ett es
ĠP ill
ĠLiber ty
ĠSee k
Ġbas eline
Ġpul se
d ation
Ġperson a
ĠGard ens
Ġpartn ered
O G
Ġv ic
Ġex agger
ĠC raft
Im plement
Ġfurn ish
Ġrespond s
ps y
AS E
ul as
uck ed
Ġsh aft
Ġmist aken
Ġweigh ing
Ġneck l
ĠAl bert
ĠCl ar
Ġse aling
S outh
Ġspec ulation
Ġcol umns
Ġcommit tees
ĠP arent
ĠTe aching
Ġdistur bing
Ġrespect s
Ġnit rogen
Set ting
Ġregul ating
W ar
d uty
Ġfirst hand
ĠF if
Ġbre asts
ĠC any
Dep ending
ĠB oot
Ġo ste
ĠSw ift
Ġm ate
Ġco he
S at
Ġrep osit
it as
per forming
ĠST EM
ĠG un
s im
Ġ5 9
pl ate
Ġexperiment ing
ĠC yp
ĠU m
Ġb end
Ġf ighter
ĠA CC
ell ar
Ġins ane
Ġap ost
Im age
Ġlone ly
ĠSt rength
Ġwar nings
Ġo ak
ĠH alf
Ġviol ate
Qu estion
ĠY ah
ĠStep s
ox y
ain ing
ĠPr incess
us c
ĠH erm
Ġpenet ration
l ishes
ĠGrow ing
Ġpuzz les
Ġcompet ence
Spe aking
iv an
Ġthank ful
Ġaccident al
Ġprofess ors
Ġpl ed
M D
ĠDocu ment
Ġtre asures
Ġcomp osite
ĠF al
Ġguarantee ing
ĠW onder
Ġprocess ors
itc hell
Ġtaxpay ers
Ġspat ial
ing es
Ġsy rup
Ġsweet ness
Ġquarter ly
ĠM ode
ber y
ĠSte ven
ĠGuid elines
ĠMad ison
Ġmet res
Ġeconom ically
Ġvisual ization
um erous
b ucks
ĠG OP
ec d
Ġcorrespond ence
Ġflour ish
ĠM ut
Ġill usion
Ġrevolution ized
Ġinvent ed
count ry
Ġinterpret ations
Ġorgan isms
Ġreinfor ced
ĠBr un
im izing
Ġn ons
Ġep it
act ly
ĠHol iday
Ġvib ration
Ġacou stic
Ġstrap s
P H
ĠWe alth
Ġprow ess
Ġnause a
ĠElect ronic
Ġpriv ately
Ġexh ilar
Ġcher ry
Ġste er
Ġrock et
Ġexc av
ĠT inder
id able
ĠH oney
Ġt an
Ġcar ved
ĠHist orical
ĠOff ers
ĠFeed back
Ġemerg es
Ġhor r
ĠB ishop
Ġp ores
Ġen qu
Ġcompris ed
Ġ198 4
Ġsafeg uards
Ġforecast ing
Ġrun ners
Ġpro c
Ġseek ers
Ġrevel ation
Ġcount ed
Ġcult ivating
ĠMe asure
ĠOffic ial
Ġjo kes
Ġsimpl ifies
B as
Is rael
TM L
all ic
ĠB uck
Ġcredit ors
Ġres ervations
Ġqu ad
Ġf art
Ġrevolution ize
In formation
ĠP ink
Ġsh ines
Ġlook out
em ia
ĠAware ness
Ġsovere ignty
OR T
Ġcommod ities
in ates
ĠAP Is
ire ment
ĠCh ron
ĠF o
ĠB erg
Ġpersu as
ĠCover age
Ġlic ence
ĠG er
ond e
Ġeduc ating
Ġmicro sc
Ġgar ments
Ġmim ic
ĠSu ite
ĠP ool
Ġ10 1
Ġtow els
f elt
Ġnation ally
Ġsymbol ism
Ġint ra
Ġz ip
Ġexecut ing
Ġshort ages
ĠP D
Ġdev ote
Ġlow ered
ĠD ash
ĠGu y
f amily
w oman
Ġd awn
ĠV enezuel
ĠDiv ine
Ġforg ive
Ġrep aired
Ġas ylum
Ġl end
Ġbrows ers
Ġadvantage ous
ĠAl ice
Ġse wing
rit ical
Ġfertil izer
Ġrelent less
ask et
Ġper ipher
Ġlocks mith
Ġexp ands
in te
Ġend ors
Ġup wards
ĠPat ri
Ġbal con
Ġland mark
ĠF isher
role um
R esp
Ġperse verance
Ġclass rooms
em et
ĠBen jamin
d imensional
ĠEconom ics
Ġma iling
ĠMat ter
20 15
Ġshowc ased
Ġcertain ty
Ġfl ies
Ġ9 00
ĠIce land
li ver
Ġro ster
ud a
Ġremain der
Ġbrush ing
P F
ĠBu ying
ĠCh ile
ĠL ex
Ġp aving
Ġarm or
ar re
Ġench anting
ĠIncre ase
ĠF ly
Ġon set
ĠEngine er
ĠG R
Ġse ptic
Ġunderstand able
Ġdiss atis
P ut
Ġconc ur
ĠPrim ary
Ġyog urt
ĠAth let
ĠL ost
let ter
Ġaccompany ing
it iveness
Ġre ef
Us er
ĠDec ision
Ġteen ager
n or
Ġsw ap
i pper
Ġinflamm atory
New s
Ġev angel
as i
ĠL en
Ġc akes
Ġham mer
thod ont
Ù İ
ĠP rad
Ġvers es
ish a
Ġ 000
20 16
Ġconfig urations
Ġj ealous
ĠO z
ĠI BM
j our
Ġslow ing
Ġmess y
B ro
er ie
ĠRob in
Ġtub es
Ġqu ir
oc ide
Ġeng ages
ĠK night
ĠOr lando
b in
ĠG ray
Ġmatch making
Ġcor relation
Ġins isted
Ġumbre lla
ĠGra de
ag ging
Ġburn s
h ine
ĠFor ward
ĠK an
Ġdivid ends
Ġapp arel
Ġinst ability
Ġrefuge e
Ġrev ital
Ġblow n
V al
Ġprovin cial
ĠDes k
Ġaccomplish ment
? !
ĠIde al
Ġdesper ately
Ġg ases
ĠChar acter
Ġdownload s
Ġcur tains
fact or
cer t
ĠG rey
ĠBelg ium
ch y
Ġuncons cious
u h
D ifferent
ĠSam uel
Ġviol ated
ar us
o an
arett es
Ð ¸
Ġquestion na
ĠVis itors
Ġ198 7
o ken
im ination
b ad
y ll
Ġinsure r
Ġmed iation
Ġsp ans
Ġrandom ly
Ġdispos able
ĠSh aring
C s
Ġlast ed
Ġtomat o
Th ird
ĠÂ »
Ġsufficient ly
Ġal umni
Al tern
ĠL iqu
Ġafore mentioned
Ġt ant
Ġyoung est
Ġad olesc
Ġtra ces
ĠTh or
Ġpoll ut
Ġall ergy
ĠR ise
Ġhurd les
ĠS AP
Ġcost ume
ĠEx cept
Ġdiff ers
ĠSuccess ful
Ġhead line
ograp her
E urope
Ġqu eer
R equ
Ġflavor ful
ION S
AR D
P ot
Ġfire place
Ġfort ress
Ġdivid end
Ġer ad
Ġw ounded
ĠLuck ily
Ġtransform s
ĠB S
Ġcancell ed
ĠCli ents
Ġstream lining
Ġhost ile
Ġpal ette
Ġacquis itions
on ts
Ġs ch
th al
Ġshed ding
ic hes
ĠDis co
Ġw oke
Ġplaintiff s
Intern ational
ĠQuest ion
g rown
Ġbl ues
Ġon board
ĠSw itch
Ġs perm
ĠD R
od ia
M em
per ing
b ird
Ġg rit
ĠC it
rop ortion
Ġsmell s
Ġris en
ĠCub a
Ġrif le
Ġ198 5
Ġbond ing
Bl ue
ĠÂ ©
ĠF eng
Ġacknowled ges
Ġfil t
Ġuns afe
Ġenrich ing
Ad ditional
ĠR A
ĠThe ory
p ages
ĠRequ est
ĠF ans
pp ings
ĠMe aning
Ġpost p
Ġconstruct ing
Ġform idable
ĠTre k
Ġround ed
Ġdis reg
ĠInvest ig
our t
Ġm int
Ġbi ases
Ġsc andal
M ult
ĠB anks
Ġwho ever
Ġmiss ile
Ġdisin fect
ĠRob inson
esty les
c ook
Ġhust le
Ġthick er
ĠPar ad
head ed
ĠJ in
Ġtim elines
P ort
ĠP ie
Ġple as
Ġtor que
Ġboard ing
ĠUtil ize
Ġmerg er
Ġspread she
Ġsh ining
Ġdirect ing
ĠAff ordable
ĠH end
ĠF ailure
ĠMo z
Ġ6 3
Ġplan es
is ans
ĠDemocr at
Ġgr inding
Ġsam pling
ĠAc cept
Ġ6 7
ĠMethod s
Invest ing
Ġinstruct ed
Ġendorse ment
Ġopen ness
c ul
g ages
irming ham
Ġopt ed
Ġdam n
Ġartif acts
Ġb ots
Ġun e
L L
Ġph ishing
Ġrush ing
ĠCany on
ĠF ill
aret te
ur i
Ġreimburse ment
ĠK ash
en ic
Ġhope ful
head s
ĠRe ality
ĠQ R
ĠP osition
ath ic
Ġreinforce ment
c ounter
Ġmarket places
Ġsal on
Ġusern ame
Ġsh red
ĠEconom y
Ġdecl ining
Ġparad igm
step s
ag les
ĠF ight
ĠPortug uese
Ġcapital ize
Ġposs essions
ag ne
ĠPro of
Ġsynt hesis
ĠAust ria
Ġobst ruct
Ġunfore seen
Ġpl astics
Ġrust ic
rat ulations
Ġstr iving
R ich
ĠÂ ·
ĠMad rid
Ġlaun ches
Ġprep ares
M obile
Ġbed rooms
Ġensure d
Ġaw ak
Ġref ining
ĠCh i
Ġpred ators
ĠCh ase
ĠBudd ha
Ġserv ants
Ġabs urd
ul k
ĠPar ks
ĠAccount ing
ĠStan ford
ĠDec l
Ġredu nd
Ġoptim ism
Ġmom s
ster dam
ĠR ates
ĠT s
ĠGuard ian
ĠSav ings
pie ces
re r
reat h
ĠResp ond
Ġow ed
ĠPark er
Ġ9 6
commun ications
Ġschol ar
II I
Ġinter tw
ĠM ent
Ġcooper ative
ed a
Ġpain ts
Ġun ch
Ġ6 8
Ġdu o
ai ro
Ġredu ctions
Ġwin nings
S afety
Ġcataly st
Ġcelebr ates
Ġpriorit izes
Ġplan ets
Ġinherit ance
iche ver
M icro
Ġs ulf
Ġdesp air
her ic
port ed
Ġp addle
ad os
urn ed
T im
ĠD egree
Ġban ner
ĠRel ief
C or
Ġagg ress
Ġlive lihood
Ġsil icone
we g
ĠSh opping
Ġbe ard
yc ling
ĠViet namese
Ġdet erg
Ġm ul
Ġun matched
Ġtort ure
ĠLaw yers
ĠList en
ĠEm ma
Ġo mega
Ġmira cle
Ġcl ues
ven ient
cont rolled
Ġinher ited
Ġcous in
Ġsing ular
cept ive
Ġdef er
ĠSt ri
Ġwas ting
Ġal beit
ĠMont ana
ĠB ee
Ġpit falls
ger ies
Ġv apor
ĠColomb ia
o pp
Ġv ou
ĠDub lin
ĠBudd hist
Ġland marks
ĠAl cohol
ĠB I
Ke eping
Ġrab bit
Ġpret end
Ġdet rim
ĠSte am
Ġflu ids
Ġel imination
ĠL ion
ub a
Start ing
Ġdegra dation
ĠRead y
Ġspiritual ity
ĠBut ter
ĠLab s
Ġrelig ions
ash a
Ġvict ories
ed uc
V PN
ud ed
ĠArk ansas
ĠGra duate
Ġcollect s
Ġteen age
ĠSp a
Ġsp y
ĠG ran
Ġrem inis
Ġexp osing
D et
ie ge
ĠCap itol
ph alt
is ite
ĠS eller
Ġfilt ration
ne eded
Ġye ast
Ġpay able
ĠR oth
ra ment
ĠEl ite
ĠCon vers
ĠCN N
ĠRen ew
Ġcar b
M arch
Ġnom inated
ĠN J
the med
ĠDr iving
Ġcommand er
ĠH ERE
Ġst aring
Ġcontribut ors
ĠWhe el
ĠTe acher
ĠLaw yer
âĢĿ ?
Ġinqu ire
Ġhat red
Ġorganiz ers
Ġrep s
Ġpredomin antly
Ġden ying
ort ment
Pro s
ĠTh an
ustom ed
us ions
J une
Ġ40 1
Ġtime frame
Ġvigil ant
og ens
ĠIm ages
Ġt in
ĠArt icles
Ġincons istent
Ġgast ro
Ġclean liness
Ġneighb oring
on ial
back ed
J es
Ġev oke
Ġres olutions
icular ly
ĠH orse
Ġadvertise ment
ER T
ĠI l
ĠP enn
Ġgest ure
Ġded uctions
Ġpe aks
Ġsub missions
Ġrev ision
ĠI G
ĠProp het
ĠCD C
Ġimport s
Ġtra y
out ing
s afe
ĠH onda
C ult
Ġun aware
W omen
appro ved
ĠSur v
Ġout right
est ablished
ĠPat ient
Ġfuel ed
Ġreal ization
Ġmedic inal
Ġcommun al
om on
ĠOr d
Ġindividual ity
M en
ĠCamp bell
Ġqu o
ĠUn iverse
Ġpil grim
ĠInst ruct
O B
onel iness
Ġeye b
ĠR ES
ĠH ack
Ġbreast feeding
Ġopen ings
Ġsett ling
th reat
ĠWH O
ĠF el
Ġbra ces
x it
Ġsad ness
Ġretain s
ĠSh i
ĠA ren
ĠT ro
emet ery
t ight
Ġutter ly
om al
Ġphil os
Ġexpend itures
bor ough
ĠBr id
ĠC ards
Ġno ises
ew orthy
hold ing
Ġout rage
ĠE N
Ġcoup on
ĠW ash
Ġver dict
re view
Ġborrow er
Ġtrack ed
Al ways
m el
ĠTib et
Ġdisc rep
ill o
Ġin equ
Ġfl ush
Ġexceed ed
Ġpull s
Ġunderm ine
Ġdetrim ental
âĢ¦ ]
Ġz inc
Ġesp resso
Ġgarn ered
ĠR ou
W he
Ġv aping
Ġbr ass
ras ound
ĠCl ay
ĠAr ctic
ra red
ER Y
Ġmeas urable
Ġprof icient
Ġth under
se arch
Ġchick ens
ĠBapt ist
ĠR io
Ġunw ind
ĠArchitect ure
m ia
Ġ19 40
as a
Ġg iants
Ġbo iler
Ġco ats
ĠMet ro
ĠWed ding
Ġz oom
ffic ial
Ġbegin nings
e very
ĠLi u
ĠC e
ric ular
ĠT ank
ĠK ra
F urther
ĠDen mark
Ġsm iling
Ġru ins
L aw
Ġmar ital
Ġcompens ate
Ġtra ps
g ments
Ġse wer
Ġdisp ers
Ġtyp ing
Ġsh aking
Ġski ing
ĠL ocated
Ġpron ounced
le ton
ĠK eto
ir i
ĠS F
m iss
Ġmin isters
ĠSh a
Ġdisc reet
A lex
it ize
Ġsick ness
Ġ9 8
Ġin ception
w orm
ĠColl ins
ec hes
Ġvisual ize
ĠCand id
Ġfu cking
Ġst un
Ġrhet oric
ĠCitiz ens
am ents
Ġgener ators
F ore
Ġdistract ed
ĠSud an
Ġcomb ust
Ġgl orious
Fin ancial
f ill
Ġp oured
AT A
ĠReg ulatory
Ġachie vable
ĠSat an
ĠD ed
Ġcur s
9 00
C ra
om as
Ġdet ention
ĠT as
Ġw oven
ĠJ ama
ĠS hip
Ġsubsid iary
Ġt ide
ĠGen esis
ron ts
ats on
ĠAssoci ates
Ġcommission ed
1 000
Ġillust rations
W est
Ġreward ed
ĠInter ior
ĠCh a
p ractice
Ġe g
Ġweb page
and el
Ġint ends
Ġfe ast
Ġcomm emor
Ġtrans gender
Ġveget arian
Ġtranqu il
ĠBrother s
us p
Ġit er
ĠWay ne
T w
ĠR acing
force ment
ĠPlan et
Ġfix es
ĠCommon wealth
Ġmaster piece
En ter
ĠSub scri
Ġconsequ ently
Ġwh olly
S ection
ĠP oll
Ġobs c
em it
Ġcoord inator
ĠSpecific ally
un cture
G H
N orth
ce ans
qu er
gh ai
Ġpri ests
ĠO m
aur us
Se pt
sh ot
Th ings
Ġhe ter
Ġup keep
ĠH TML
Bu y
Ġswe eping
Ġestab lishes
Ġb ites
Ġrun ner
Ġscr atches
ĠIndust ries
Ġstat ue
Ġprem ise
ot ics
ier ra
Ġpestic ides
ĠEv olution
ĠCollabor ation
sh aring
Ġign oring
Ġhe ft
ver ts
Ġgreet ed
Cont ent
Ġsurge ons
ĠOmeg a
Ġter ra
Ġinclus ivity
y ards
s m
ĠMain taining
Ġer osion
read ing
Ġinform ational
Ġdep icted
Ġrow s
Ġl azy
Ġannounce ments
ĠMc Donald
Ġdishwas her
ĠZ ion
Ġpupp ies
ĠAccount s
Ġun ravel
Ġlab s
Ġso fter
Ġunh appy
Ġdest iny
ĠH em
ib an
Ġor th
od iac
Ġvom iting
Mod ern
Ġbl ur
Ġatt ire
ĠSe an
FOR M
Ġlandl ords
Ġsuns creen
Ġthreat en
Ġa il
Ġcongest ion
Ġdestro ying
ĠC arm
ĠAb ility
ĠScholars hip
Ġfing ert
Ġlif ecycle
Ġth ou
ĠH ours
e pt
Ġcomprehens ion
Ġcho oses
Ġlif estyles
ling ton
ĠOcc up
ĠOff ering
ĠStud ios
am med
se ud
Ġinstitut e
ĠMor ris
ĠRe form
ĠPro du
Ġfresh ly
ĠJun ior
Ġpol ish
iling ual
de al
end or
io let
ĠJim my
ĠSte wart
ĠM itchell
Ġphenomen a
Ġbe acon
Ġtact ic
ĠL l
ĠCl ose
ĠM old
ot ine
Ġ7 8
Ġemb odies
Ġc ad
Ġcomfort ing
n ational
Ġgeop olitical
Ġscar ce
ĠRog er
Ans wer
S mall
ĠL odge
Ġmor ale
Ġ à¤
ĠSt ars
AC E
ĠMembers hip
ĠStat us
ĠDel aware
main tained
Ġillust rated
Ġhier archy
isco very
Ġcontribut or
Ġdiarr hea
ĠMar ie
Ġl ion
Ġsign atures
Ġha cking
ob a
esthes ia
Ġmaj estic
Ġpot assium
ĠF ried
Ġillust ration
Ex ample
l ists
ĠLar ry
Ġdef enses
B s
Ġteam mates
Ġdoub led
Ġ7 7
sp ring
V er
Ġpill ars
ĠPhil ip
Ġw aiver
Ġbl ended
Ġfacilit ated
ĠJ iang
ĠWind ow
and em
Ġconc ludes
Ġwheel chair
Ġcred ited
Ġoptim um
Ġu l
Ġexp iration
TS D
ĠS we
ĠProg ress
Ġmight y
Ġbom bs
ri ans
Ġcommun icated
Ġfather s
ĠAC T
Ġcra vings
Ġas c
ĠVeter ans
en ch
ĠI an
g uard
Ġburd ens
en es
od s
Ad vant
S am
Ġt ed
Ġref in
Ġmitig ating
Ġqual itative
AC K
ĠF ee
ik o
Ġbreath able
Ġlegitim acy
Similar ly
Ġtrend ing
ĠMu h
ĠVictor ian
Ġt attoos
ĠC IA
ĠE agle
ĠB illy
Ġa kin
S U
roll ers
F ocus
Ġpres idency
Ġprotot ype
Su pp
Ġsquee ze
p op
Ġ6 1
Ġacceler ation
rupt ed
Ġdisadvant age
Ġback bone
Ġth irst
Ġmen us
our ing
co ins
Ind ia
Ġm ould
se ys
iv able
Ġdisc ern
Ġaqu arium
ĠM alt
et own
Ġintr ins
ĠTr ial
Ġta pping
Ġ14 0
ĠN av
conf idence
Ġimmig rant
ĠV iking
Ġrep roduction
Ġampl ify
Ġpat ron
Comm un
Ġber ries
Ġunder gone
Ġje wellery
Ġinter personal
ĠF ear
Ġb ark
F R
uls ion
ĠMarsh all
R est
Ġcan ine
Ġremind ing
Ġsp ear
ri el
Ġw ives
Ġbo ast
1 20
Ġb iz
Ġ7 6
ĠDougl as
Incorpor ating
Ġwh isp
ĠExcell ent
Ġ16 0
Ġmy st
Ġpert inent
ĠTe achers
Ġse ize
Ġint roduct
Ġswe ep
Ġc innamon
ĠG it
ĠA ra
Ġrec ur
ĠWar rant
ĠIdent ity
Ġinter im
H uman
li ers
Ġhon ors
Ġcon cess
Ġd ock
ĠB A
Ġtaxpay er
Ġtradem arks
o ard
âĢ¦ âĢ¦
Ġtrans cend
ĠC E
Ġmemor ial
Ġres ent
Ġrel atable
S H
Ġacc ustomed
Ġperiod ic
ĠFin land
co al
S oft
Ġharm less
h um
Ġinfring ement
Ġinsp ires
ut ation
Ġspons orship
ĠT odd
ĠStan ley
ĠQ in
ĠB irmingham
fe it
Ġth rows
ĠC ircle
Ġobject ion
Ġcr ude
Ġanonym ity
Ġharvest ing
Ġinvestig ators
Ġmon op
ĠFl ash
ob i
qu in
Ġres ervoir
ĠG ill
Ġg ums
Ġdis g
ĠPart ies
ĠTour ism
ĠRecomm end
Ġcontract ing
ĠW ait
ĠNe ither
ĠD UI
F our
ĠSign s
Ġportray ed
Ġfell owship
ĠMat ters
Ġwh istle
Ġsc ram
Ġp ins
Ġwe eds
Ġresid ue
ĠN PR
A pril
Ġreinfor cing
Ġsuper f
Ġske pt
Ġc iting
ĠMan ual
ok u
A part
Ġd welling
ĠG ot
osh op
ĠE P
par ation
et ra
Ġcoat ings
Ġsc ans
Ġup right
spect ive
ĠD iversity
alth ough
Ġcre ep
Ġinf ants
Ġreconc iliation
Ġcock tails
ĠComp ar
ĠCra ig
Ġdiv or
ĠOut look
ob ia
ĠScient ific
Ġad hesive
Ġchar ism
ĠQ atar
Ġgas oline
Ġcritic ized
Ġinject ions
ĠInt roduction
ĠF ul
Ġcalc ulating
Ġc age
ign ant
Ġg reed
Ġyoung sters
ne a
Ġhur ry
Ġaud i
Down load
ĠOrig inal
2 000
Ġprep arations
Ġrum ors
k n
Cur rently
ĠP aint
Ġm our
Ġeng ra
Ġsimpl ified
ay an
Ġchar ities
ĠL ack
Ġexplos ive
Ġmult imedia
Ġneighbour hood
Ġle agues
Ġfire arms
Ġsemin ars
ĠE t
Ġdemonst rations
L im
Ġallow ance
Imp act
ĠK aren
ĠF ounder
Ġdark net
ern and
Ġmembr ane
Ġfilter ing
ĠT ow
ĠSub ject
udden ly
ĠAn cient
x x
Ġspan ning
Ġcircumst ance
Ġfac ets
ĠConnect ion
ab etic
Ġpolicy makers
ixt y
Ġiss uing
Ġtoler ate
J ames
ĠA RE
Ġmut ually
Ġcar n
Ġrenov ations
Fact ors
ean or
Ġflags hip
Ġh ints
ĠContin ue
Ġinstall ment
Ġprint ers
T om
Ġlear ns
Ġver b
nder ing
Ġcoord inating
Ġcult urally
.... ....
ent ry
rie ved
Ġthe at
Ġst amina
ĠPet ers
Ġabdom inal
Ġrail road
Ġdupl icate
Ġmalf unction
Reg ardless
Ġtreat y
Ġexc lude
z el
ron ics
Ġste ak
Ġexam ines
Ġam ateur
icult ural
IG HT
Ġsand wich
Ġblank ets
ĠP T
ad y
ĠAut hent
C M
Ġhel m
Ut il
Ġent icing
L ight
ĠTH IS
Ġc ents
Ġransom ware
Ġintermed iate
Ġdisp roportion
Ġdiscover ies
Ġass ortment
ĠProble m
Sec urity
Ġre el
Ġhe el
ĠJ et
Ġinsp ir
Ġillust rates
up uncture
Ġpump kin
ĠL iability
ĠNot es
Ġdep ressed
hes ion
est ly
Ġl ump
Ġtour ing
ov o
ĠAm sterdam
Ġpray ing
ĠM ak
l am
ĠD river
ĠCreat or
Ġsl aves
Ġsh rimp
Ġ8 8
Ġfl ames
ĠEv idence
ĠL E
cript ive
Ġrain fall
ĠU pper
Ġsur geries
Ġconcent rations
pr ints
Ġ197 9
Ġst igma
Ġap ex
Ġred emption
ĠFam ilies
Ġnom ination
ha o
ĠAlber ta
Ġav oc
ĠM ira
Ġtruth s
Ġse als
Ġprotagon ist
Ġdisc ol
r ide
ipp ers
Ġcit rus
Ġpar ish
Ġerg onomic
cult ural
G overn
Ġblog gers
ĠSh ah
Ġaer ial
V R
Ġmon sters
Ġr inse
M art
Ġcounsel or
ĠNash ville
ĠDV D
def ined
ĠD ow
Ġod ors
ipl ayer
j ah
20 14
A ff
ange red
ĠRom ans
th s
ĠG ather
Ġmagn itude
N eed
ĠPitts burgh
Ġtest ified
Ġprivile ges
Ġser um
Ġcooper ate
Ġcha otic
ĠMed ium
Ġste wards
ĠR aw
ĠHamp shire
ã Ģ
ĠH ood
h ack
Ġirre levant
ĠY am
ĠM illion
Ġpat ents
Ġg ifted
t les
Ġrot ating
Ġ !
ĠRis ks
Ġp als
ĠElect rical
m un
Ġtravel er
S R
b ane
sp ace
Ġnight mare
ĠComp ensation
ĠBuild er
Ġdisrupt ive
Ġan ecd
uk i
Ġepid emic
ox ide
Ġfrequ encies
F ace
Ġpres ently
ustain able
f u
ĠBuff alo
Ġbout ique
Ġsyn onymous
Aut hor
ĠUg anda
Ġsign age
C I
ĠSl ot
EN D
ĠD ol
ĠJ O
ĠWh ole
---- ----
ep rint
L R
red ients
art en
ĠMur phy
oun ces
Sh are
ĠFore x
ll i
Ġgra vel
Ġjack ets
Ġspo il
Vis it
Ġtranqu ility
ĠSym ptoms
ĠX i
Ġdec isive
Ġlif ts
Ġun locking
Ġlear nt
Ġpin point
AS S
Ġinc ap
Ġunden iable
col ored
ĠH ire
ĠC AN
Ġhard wood
Ġremember ing
Ġreluct ant
Ġknock ed
Ġw ishing
espe are
Ġdiss ertation
h alf
ĠP ump
Ġmisunder stand
crib ed
Ġbl adder
Ġc ried
Ġve ins
ro ots
l oss
Ġl odge
ĠFl oor
Ġform ulation
S ure
Ġwhere by
Ġpollut ants
br ush
Ġlog ged
Ġn ode
Ġtoile ts
flow er
Ġt ut
ak ery
ĠC PA
Ġref usal
Ġprejud ice
Ġun real
ĠHis pan
Ġpion eering
eal ing
ĠP le
Ġmiss iles
ĠP ic
Ġgrant ing
ĠPl astic
ĠBul gar
Ġenzy mes
ĠG PT
Ġclim ates
C ase
ĠSche me
Ġmid night
S al
ar cer
and y
ĠFin n
ĠN est
ĠHon or
k ill
Ġl ymph
f ied
th ird
ĠMichel le
Ġmechan ic
Ġneglect ed
p ine
Ġsw ings
Ġbooking s
ĠH ud
Ġtrust s
ĠBlock chain
Ġenc aps
l ove
ĠA verage
Ġn ap
Ġe Bay
Ġvoc als
Ġshare holder
ĠC er
Ġceremon ies
Gener ally
Ġchef s
or ance
Ġvacc inated
Ġconqu er
Ġsh ingles
Ġmiscon duct
Ġcr ashes
ad vert
ĠW ide
Ġteasp oon
ĠL ights
d iv
ĠWik ipedia
Ġkn ives
ĠRe placement
Ġsear ched
fund ed
Ġb ake
ĠHy brid
ĠBan king
ĠG amb
Ġdatas ets
ĠAre as
ĠDis play
ĠOsc ar
Sh ort
Ġins erted
Ġsovere ign
intend o
Ġbi king
ĠW oo
U RE
Ġhot test
ĠL ing
Ġcontamin ated
hand ed
Ġcru c
Ġnot eworthy
Ġfl air
d raw
Ġk icks
Ġlegisl ature
Ġse ized
Ġtransition ing
a a
Ġhes it
ĠInt o
ĠDisco very
ĠEx hib
m ble
ĠChe f
L ive
Up on
int ensive
f at
ĠC el
u cc
en ment
ĠPict ure
ĠF light
S ervice
ĠA er
ĠRec ently
y on
ha ul
Ġcr ushed
um per
Ġe book
ĠE ating
ar an
Ġtw ent
C ertain
Ġflo at
ĠMur ray
Ġsuns hine
Ġset backs
ĠChel sea
Ġbe an
FA Qs
ĠB ou
ĠNet works
Ġre ap
o ing
ĠFund s
Ġfore see
yl ene
arent ly
Ġanth rop
ĠFl ore
ĠInst ant
Ġinter val
Ġt idy
Ġfingert ips
n i
Ġ198 3
Ġpay out
Ġdivers ify
Ġprom o
Ġbl oom
Man aging
ĠMem ory
Ġhel pless
Ġallerg ens
Ġmot if
Ġjoint ly
Ġa iding
Ġgam ble
ĠParticip ants
ĠF ix
Ġrepe ating
Ġv oy
Ġcann abin
Ġextract ed
ĠSupp lement
Ġnov ice
Ġrich ness
Ġqu arant
ĠJer ry
car bon
ĠP ine
ener gy
in burgh
Ġstress es
Ġselect ive
Ġmush room
Ġtax able
o qu
Ġcaps ules
ĠC roat
ĠRelations hips
ĠS QL
rop olis
Ġout we
Ġstrengthen ed
ĠCon versely
Ġwrit ings
ĠFA Qs
Ġcho pped
Ġserv icing
Ġhalf way
or ative
: -
T ax
Ġcol der
ĠCoal ition
ĠC opyright
Ġfin tech
ĠInit ially
ĠE lection
ĠAltern ative
Ġbu cks
l av
Ġ198 2
Ġthr ust
ĠId aho
Ġo z
Ġassum es
ĠMatt ress
Ġsatis factory
Ġmotiv ations
Ġwrest ling
Ġrest art
Ġhome page
Ġspokes person
ir ical
an ed
Ġen semble
M al
OU T
ĠCh arter
Ġshr ink
Ġge ared
ri k
Ġshow ers
ĠR unning
Ġn inet
Ġbenefic iary
Ġar row
ĠImm igration
ĠS K
|| ||
Ġeager ly
Ġadvis er
Ġbrain storm
AS H
ĠL ORD
ĠP F
Ġcong regation
et on
Ġdist ancing
ĠM ong
ĠT ol
th ree
ĠCamp us
ĠB ir
Ġeven ings
ĠP ok
Ġconfront ed
rec iation
Child ren
Ġarch ive
Ġelev ator
ĠE ff
we ed
Ġstart ers
Ġhour ly
Ñ ģ
um at
Ġp uff
Ġfil ming
ĠL akes
ns ic
ĠCrit ical
Art icle
Ġpion eer
Ġsp ike
Ġhub s
in vest
ĠHer o
U E
ex pl
Ġheat ers
ĠSc ar
Ġf aint
b as
Leg al
Ġplan ner
Ġge ography
ke ley
ĠOpportun ity
ĠNorth west
Ġing en
Ġrob otic
Ġcaf es
ĠD im
Ġover time
cri ber
ĠJess ica
Ġsp ill
Ġse l
ĠDev ice
i eth
Ġcom ics
ĠP att
Ġgut ters
ĠRoof ing
Ġstereot ypes
Ġrad i
Ġpsych iat
ĠPay ments
Ġelev ation
ĠSystem e
ĠBal i
ĠD ial
ĠAss et
- $
en ers
Ġexperiment ation
Ġc ivic
Ġbud dy
ĠCon cept
et a
ĠSS L
Ġc ove
ĠAct ivity
Ġhist ories
Ġself ish
ĠExpert ise
ĠBroad way
Ġaw ake
Ġob ey
ĠR ivers
Ġjud ged
ĠN avig
Ġsol itary
ĠK il
Ġpred icting
Ġbo iling
Ġind ef
ĠRec ent
Ġpublic ity
Ġbow el
b ands
Ġentertain ed
or b
Ġrevers ed
Ġd ye
Ġsculpt ure
Ġevol ves
ru bs
Ġindividual ized
Ġflaw less
orig inal
Ġpr ud
ĠO ption
Ġr ats
iar ism
Ġsp ider
Every thing
E mail
om nia
Ġcatast rophic
n osis
ĠS IM
ĠSpe aking
Ġmat rix
Ġattach ments
Ġsign aling
duct or
ach i
ĠS hen
oura ble
Ġprec ip
B N
il ings
ĠH M
ĠG ay
let t
ĠB ris
ost ics
uc ing
Ġheart felt
Ġsecret ly
As k
Ġgar ment
form er
ĠTru ck
Ġsk ate
Ġrese mble
Ġsat urated
Ġspl ash
Ġsubsid ies
Ġf encing
Ġp aved
o ise
p it
Ġg oogle
Ġfl ock
ĠHe avy
Ġalt itude
n an
Ġ[ âĢ¦]
ĠLe af
Ġjo ins
Ġb ait
b irth
Ġtow ers
Ġreven ge
) <|
ĠCle arly
ĠPhot oshop
Ġmort gages
sc ience
ĠM aps
Ġaccount ed
C lear
Ġwe aker
ĠBar n
Ġball oon
Ġaesthet ically
ĠC rystal
ĠB L
Ġcur ves
ĠB und
Ġoblig ed
az er
b ig
Ġb ore
Ġslee ve
Ġquarter back
Ġwar n
Ġgri ev
Ġpor ch
N ovember
ĠImprove ment
Ġto pped
Ġl os
Ġcor p
ank ed
Ġant iv
Se lecting
ĠL an
Ġ8 2
eg rad
cont rol
Ġsc ars
ĠAdvant age
ĠIn vent
ĠC reation
cl ub
L ow
Ġloc king
Ġhyd raulic
Ġpill ows
Comp any
Ġab usive
ĠRes olution
Ġin effective
Ġso ber
Ġapprent ices
is le
Ġblood y
Oct ober
bn b
Ġant ique
agn etic
ĠSER V
Ġbul lying
ĠSh ield
Ġover flow
stand ard
ĠF ig
ĠC ir
Ġcra cking
ĠCann abis
Ġman kind
Ġvolunt eering
Ġconfirm ing
Ġco il
Ġdigit ally
Ġbox ing
u o
ĠQu arter
ĠB ass
Ġrat ios
S il
ĠP ret
Ġ6 9
Ġf onts
Ġt am
ĠEv ans
ĠA bsolutely
ĠProv iders
ĠM onst
Ġrecon nect
Ġded uction
Ġwhere in
Ġwind ing
ĠB orn
ĠOper ating
Ġk in
Ġvol can
ĠExper iment
Ġrout ing
Ġab ras
ĠPe ak
work ers
Ġpractical ity
f ashion
Ġcl ue
Ġsand w
Ġhand made
Ġmar athon
ĠN ike
ĠB oys
Ġp enny
ac ial
Ġcompet itiveness
ash i
ak ra
Ġgra pes
Ġsupposed ly
Ġreceipt s
Ġcraw l
ĠPur pose
ĠH iring
Ġhypert ension
ĠMass age
Ġse ated
J P
Ġwitness ing
Ġt ense
Ex p
Ġde ple
ĠW ag
Ġw icked
if eration
Ġoper a
ĠB O
Ġav id
ĠAch ieve
or ne
Ġanaly se
Ù Ħ
ĠGr iff
ĠDem and
ĠLa unch
ĠFl at
aware ness
Ġj ugg
v ar
cel ain
Ind eed
ĠSol id
c ra
Ġl oneliness
Ġperform er
Ġcar bs
Ġinstinct s
ĠDevelop ing
row ning
ĠT ab
Ġprivile ged
ĠUn cle
Ġperm issions
f lies
ES CO
Ġinc ur
ĠImplement ing
ĠPhot ography
Ġunder w
Ġexhilar ating
Ġaug mented
Ġthr one
ĠT ampa
Pro ject
ĠTh inking
ide os
Ġadd itives
Ġch in
Ġincent iv
20 13
ĠMer ch
agg ering
ĠG on
ann on
worth iness
li ked
ĠF uel
Ġp ushes
ĠS of
st akes
ĠF M
ĠProble ms
Ġglow ing
Ġmar riages
Ġenact ed
ĠGo HighLevel
ĠAdv ice
le ad
ĠCh and
Ġac rylic
ĠSm o
ix on
Ġpe ppers
Ġearthqu ake
Ġ197 3
Ġl amps
Ġconsist ed
rown ed
Ġcapt ivate
Fe b
Ġcard iac
Ġhypothes is
ĠDi agn
Ġs id
Ġrec oil
Ġslee ves
ĠHy per
ĠMil an
ĠH ait
otechn ology
is se
est ions
h ots
G ra
Ġinjust ice
Ġpop ul
Ġcoh ort
Ġover c
Ġspell s
Ġar rog
ĠProt est
Ġve in
ĠBr us
est hetic
ort ium
pro v
ĠL ate
p ared
i age
ĠWal ter
o i
Ġstuff ed
ang ular
ĠH S
ĠR anch
Ġrad iant
ĠEx c
ĠN an
ĠBudd h
Ġsuper hero
Ġcult ivated
r il
cer pt
pos ure
ĠVerm ont
Ġinter iors
Ġdes cent
Ġha ul
ĠCat al
Ġa ura
ĠB ike
ĠNaz i
j ack
ĠCommun ist
L ab
ĠP i
ĠWal king
Ġtr unk
Ġswe pt
Ġpl asma
Ã© e
Ġk ills
P acific
ĠF err
c os
Ġro asted
Ġexch anged
ĠInd ependence
ĠO pp
ĠComm ons
Ġbehavi ours
ig a
Ġintimid ating
Ġappro x
Ġsm iles
Ġspark ling
Ġg n
ĠValent ine
Ġalter ing
Ġf ills
Ġship ments
Ġm all
ĠSy mb
ĠOr thodox
low er
Ġvegg ies
Ġed ible
ĠO racle
S elf
weg ian
D E
ĠTh under
u pp
Ġper me
Ġblow ing
Ġgradu ating
Ġterror ists
ĠW ere
tern s
Ġdra fting
Ġbroad band
â ľ
R ev
Ġpol ite
ĠA ffect
ro b
Ġhunt ers
Ġacceler ating
Adv anced
ĠG ates
ĠP E
ĠO liver
ĠPersonal ized
Ġsurf ing
ad ians
tle ment
Ġshout ed
Ġbud d
Ġfol lic
ruct uring
Ġmo vers
Ð² ÐĤ
Jes us
ĠEvalu ation
Ġd Ã©
Ġelectro ly
Ġdetect ing
ĠTal iban
Ġget away
Ġmer its
ĠEnt ry
b ai
Ġtun ing
Ġp ains
Ġthem ed
Ġdream ing
ĠContin uous
Ġstick ers
respect ive
ĠComp ared
p ers
Ġdivers ified
J o
ĠB ever
Ġdra ins
Ġent rust
ĠOwn er
ĠM I
Ġinf ilt
Ġbid ding
Ġactiv ism
ĠJu an
Ġmyster ies
ipl ined
Ġment ality
Ġupload ed
ĠJohn ny
ine a
Ġpass ages
ic iary
ĠShak espeare
ocr at
ĠBon us
ĠC ourses
Ġf ictional
im ental
ĠGu est
Ġremod eling
Ġcor rel
ĠImper ial
/ .
oc s
Ġv ene
il ib
out ube
Ġsk ull
ĠJ ake
Ġrecept ors
ĠT iger
rodu cing
Ġoccup ational
ĠFA Q
ĠT on
Import ance
Ġtum ors
Ġopp ose
ĠChamp ion
ĠB enn
iction ary
Ġpenc il
ĠP ages
Ġemb ry
Ġas semble
Ġâ Ĩ
Ġdistribut ors
with standing
Ġthere after
ĠExpl oring
in arily
ĠHe aling
Ġje opard
inter rupted
sh irts
C AR
e ing
er vers
Ġdispl aced
Ġrobot ics
Ġbron ze
Ġdism ant
ĠBr ig
Ġcul min
Ġ7 4
app le
iv o
M oving
Ġrepl en
Ġmes mer
ĠS ame
Ġlat ency
Ġinc omes
Bu ild
Ġsaf est
H ello
Ġ9 2
Ġimp aired
Ġvel ocity
ĠPer ry
Ġpump ing
Ġ9 7
ĠG ur
Ġst a
ĠAg ile
ĠS ah
ĠM ig
ĠCoun ter
Ġback ups
sec ution
ĠPot ter
Ġdec oration
Ġh alt
ĠCam era
Ġ197 5
Ñ Ģ
F amily
Ġconf irms
Ġdivers ification
Ġhands ome
Ġu k
br aska
Ġco ff
in stein
ĠGroup s
Ġ198 1
s ocial
Ġstand point
Ġn ort
Ġmasc ul
Know ing
Ġinstruction al
Ġthe ology
Ġpl aque
Ġcost umes
y st
Ġw olf
ĠP est
ĠMer cedes
ĠFl o
US D
Ġh ikes
ĠT ot
ĠNe igh
B eg
int ers
ĠHar bor
Ġunw illing
Advant ages
be h
Ġped al
Ġcrisp y
Ġpedest rian
ĠForm ula
u ation
Ġmurd ered
pl ants
Ġcont ests
ĠG ain
ĠFurn iture
Ġtrust ing
W ould
Ġpropri et
ĠClaim s
Ġwe ars
uss y
Ġdefect ive
ĠShan ghai
ĠAd visor
ĠWood s
Ġheft y
Ġbed ding
Ġmel ting
F uture
im ize
Ġrespect ing
our met
Ġmicro bi
Ġb un
Ġbag gage
Ġrep ent
Ġconsc ience
ĠFact ory
Ġphys iological
C onst
Ġtermin ology
Ġsuper v
Ġhelicop ter
lt ry
Ġlimit less
Ju ly
ĠA A
ĠF R
ĠN ancy
Ġcol oring
ĠR ena
Ġcoup ons
Ġl anes
Ġvis as
Ġo wing
Ġinc arcer
Ġst agn
g ling
ĠKir k
Ġeuro s
ĠVol ume
ĠM t
Ġ197 2
r ill
Ġprofound ly
H ouse
ĠCoord inator
ind a
ex ist
sh ipping
Ġtext ile
Ġopp ression
B E
ĠRout e
Ġc ows
Ġe ighth
Ġl amin
Ġh ues
Ġpsych ologist
ĠN intendo
ar bon
Ġhook ed
Ġcomm erc
Ġrede em
Ġele ven
Ġsuccess ion
Comm unity
int estinal
âĢĿ :
Ġcor al
Ġc ovenant
Ġstim ulus
Ġtop ical
ish i
Ġcomp elled
Ġill umin
et ry
Ġun used
Ġimp osing
Ġcard board
ĠJ os
Ġgest ures
ĠMuh ammad
le v
at hetic
Ġgear s
Ġint oler
Ġb oo
ri vers
S ex
Ġw ander
Ġad ept
Ġ7 3
Ġindu ce
Ġtas ked
Ġprob able
Ġproduct ions
claim er
En joy
ĠMin or
Ġartic ulate
Ġm ines
ĠAy urved
Ġfol iage
F I
ĠMort gage
Ġexhib ited
ĠF ellow
ĠMarg aret
Ġcompar isons
Ġhum ility
ĠEd inburgh
ĠCommun ities
Ġsa us
Ġbr ushes
ric ting
ĠStar bucks
Ġde eds
Ġban ana
organ ized
Ġtempt ation
ĠBar ry
F inal
H ot
V ER
Ġre use
ir al
Ġcommerc ially
Ġbow ls
Ġbol ster
Ġreconst ruction
Wh atever
ĠCh ang
Chall enges
Ġenfor ced
uc king
Ñ Ĥ
Ġ197 8
ip ur
ĠK le
Ġsur plus
ĠComp are
ĠD IS
ĠA im
Aug ust
ĠG and
Ġunc overed
F ast
eterm ined
ĠPrincip les
F O
ĠK um
Ġdown ward
ĠAtt end
ĠMan age
ĠT anz
Ġ196 8
in qu
Ġreprodu ce
Ġsug ars
ĠEU R
Ġtra ced
Ġretrie ve
Ġox ide
er ic
Ġcond emn
V ideo
ĠN ad
ĠBu ilt
Ġtransport ing
Ġdis gu
ĠDeterm ine
b ly
D M
E nt
Ġprovin ces
ĠC ad
bo at
ĠF oster
Ġsuper natural
Ġunp aid
ĠA ld
f ar
ĠV s
Ġlabel ing
Ġint est
ĠN as
D B
G ive
ĠM akes
ĠLight ing
ĠW aste
us ers
A bsolutely
Ġdisapp ointing
ĠM R
ig or
ĠF ew
Ġor ch
be cca
Ġsad ly
Ġh ated
An n
Ġprev ailing
Ġfold ing
s a
Ġappell ant
Ġgrand parents
he astern
Ġprosec utor
Ġs iege
Ġborrow ed
ĠDep ression
20 12
ĠY ale
Ġcirc uits
S y
stan bul
Ġhigh s
Ġador able
ĠInflu ence
op athy
al ore
Ġjust ification
Ġcr ush
Ġpay outs
ĠAr n
Ġdefic iencies
Ġcomplain ed
ĠC ort
Ġup hol
ĠFour th
ĠV ib
Ġlib ido
ON E
Ġd uck
Ġresear ched
oca ust
Ġobed ience
ĠS ummary
Ġin security
Ġview point
Ä ±
L ED
D O
Ind ividual
Ġh ilar
ĠIt ems
An aly
st ra
Ġche ss
ĠCam eron
Ġe tern
ĠGra du
ĠLand scape
ĠRich ards
G s
ri ev
ĠCons idering
Ġexp ired
ĠIs n
Ġunc ont
Ġesc orts
Ġpenet rate
. :
Rec ogn
ĠC re
ion e
Ġtw ists
Ġre usable
Ens ure
ble m
Ġjudge ment
ĠD ress
Ġexam inations
Ġab used
Ġpost ers
Ġcapital ist
ĠG ear
Ġstro kes
Ġ8 4
Ġaw ait
met ry
V ol
ĠTH AT
Ġeduc ator
ĠMov ie
ĠTr inity
ĠRe hab
ĠL aser
Ġadm iration
Ġw anna
b ike
bal anced
Ġkind ly
Ġsustain ing
Ġab rupt
Ġc ogn
Ġunst able
Â ©
Ġst aggering
ĠX u
Ġval ves
ĠD ipl
ect ive
Ġ9 3
Ġmis er
ĠV el
ang o
Ġcart oon
Ġsl ope
ĠA ve
e or
ĠH earing
Ġfo il
Ġcollect or
L ocation
Ġcat ches
Ġmus cular
Ġfresh ness
ĠXia o
ol ia
ĠL P
Ġacclaim ed
IC S
els h
ĠC ities
J e
Ġtempt ed
c ott
Ġmyth ology
Ġsav vy
ĠCh ocolate
we i
Ġce ilings
Ġrecogn izable
s ky
h ad
ĠProv ides
Ġevent ual
ĠJeff erson
ĠM IT
Ġdyn am
est on
Ã¡ n
ĠCru z
ĠP oss
duc ive
ĠC u
ĠS ag
Sept ember
Ġal gae
AC H
ĠHol land
Ġle asing
Ġbroad en
l abel
ai k
Ġfram ed
Ġneu rological
RO M
Ġextract s
ĠBas ically
Ġless en
H and
Ġvis ions
Ġsem icon
ĠMont real
ĠDeb t
Ġhom etown
Ġform ulas
Ġl ime
op a
CA A
Ġun interrupted
Ġrighteous ness
Ġb acon
ĠV ine
Ġforeign ers
Ġtow ing
ĠB rief
ĠRed uction
C ard
ack ed
Ġesc aped
Ġsp elling
Ġign orance
Ġmot ions
itc her
ĠC ant
Ġbro th
Ġcompan ionship
il ia
ll o
art ments
ĠH idden
ĠNob ody
Ġking s
Ġdict ate
Ġshell s
Ġref using
ĠCo aching
arc ity
pris ingly
ĠT err
Ġins ult
Ġmed al
Ġn ucle
ĠS ierra
ĠLabor atory
S O
Ġacad emy
ist ries
Ġairpl ane
Ġresur rection
c orn
ĠH emp
Ġimpair ment
ĠAsh ley
Ġst ared
S an
ĠRec ruit
ĠB our
Ġem ission
Ġrefund s
Ġw reck
iz a
accept able
Ġtar iffs
Ġcott age
c iously
Ġaqu atic
av il
Ġcoun c
Ġdec ks
ĠCru ise
Ġg own
k ets
Ġtrou bled
Ġsh ark
ĠTe en
Ġb ou
Ġrep ublic
Ġ `
Ġdistribut ing
Ġsculpt ures
v iol
Ġind emn
Ġbel ts
Ġse ct
ĠCris is
ĠW atson
ĠTe ach
ĠL ed
pur pose
Ġopio id
Ġremark ably
Ġ| <|
Ġdist raction
Ġsc i
Ġ197 4
Ġab oard
Ġmile age
Ġide ological
Ġlear ner
ĠAn xiety
Ġplan ners
Ġide als
Ġpos itivity
ĠMod els
ĠDev ices
Ġcol ony
occ up
Ġ197 6
ĠT ag
Ġvolunt arily
Ġpiv ot
g ow
Ġg ru
ĠL inks
Ġpour ing
Ġfram ing
Am azon
Ġh inges
Ġimp rison
ĠFlex ibility
ĠL ip
Ġvib rations
ĠB rist
ed u
Ġsk irt
a ith
Ġ196 9
Ġclean up
Ġharness ing
ĠN I
r ush
Ġl ob
e als
Ġflu or
Ġdeep est
Ġsne akers
h arm
Ġr ugs
ĠF Y
Ġfasc inated
Ġcur tain
Ġwh ites
ĠProper ties
W ed
Ch ris
Ġdis pose
a pping
n ite
ĠE L
Ġh ay
Ġsp ouses
Ġref uses
act ivity
Ġche ating
Ġ12 5
ĠAssoci ated
Ġh ollow
Ġpack aged
um ption
Ġfore head
ball s
W ind
d istance
Ġnew born
Ġaston ishing
ĠOut side
at ibility
Ġtodd ler
X X
ature d
Part icip
ĠBer keley
Ġadvers ity
ĠChem ical
Ġcollaps ed
Ġbiz arre
Ġel bow
Ġoutput s
ĠColumb us
ĠL oad
Ġjud gments
ĠCub an
ï ¼
ĠHigh ly
Ġdeterior ation
crib e
Ġrock y
ellect ual
World s
ĠC ats
Ġorient ed
V ery
AN S
Ġprevent ative
Ġw ig
Ġli king
ĠRepresent ative
Ġund es
Ġp add
Ġh ype
ĠBeaut iful
Ġd azz
ess ential
ump ing
Ġconcept ion
ĠDesign ed
Ġsynt hes
udd y
an ical
ĠUpd ates
Ġoun ces
Ġv est
Ġadvert ised
Ġdr ums
Ġeld ers
Ġinn ate
op ening
na pped
con st
ind ers
Ġde ed
ĠTam il
ĠSe lection
IS A
ĠB eck
Ġrespons iveness
Ġ196 7
l inks
Ġro ast
Ġnecess ities
a pped
ĠR av
Ġtra it
B al
L og
Ġclass ics
ĠG i
l ength
ĠK os
Ġterrit orial
Ġcompos er
Ġsymbol izes
ĠR C
Ġgra d
ĠMar io
ĠCra ck
Ġfer ry
Ġafter ward
ĠAud ience
ĠAc ross
Ġprompt ing
Ġaccount ant
Ġst al
Ġcrit ique
Ġr ipe
alu ation
p df
Ġsp oon
C ome
Ġfamiliar ity
Ġentire ty
law s
* :
Ġmean while
Ġthr ives
se min
Ġmin ers
Ġor thodont
ĠSecond ly
Ġhards hip
ĠAss ist
ĠDis ability
Ġgrocer ies
Ġsu ms
spe aking
Ġfemin ist
om o
Ġur ging
Ġcl iff
ĠY un
Ġvers a
i ens
ĠTy ler
f ull
Ġhistor ian
ram id
In it
Ġcon ducive
ĠRich mond
Ġnostalg ia
she ll
Ġc ass
ue z
Ġexce ls
er ol
Ġcyl inder
ir ate
ĠPolic ies
Ġw itch
ĠThe m
Ġstr ives
ĠHit ler
Ġ197 1
ĠK yle
ĠO P
Ġmor ality
Ġcapt ivated
ĠBre xit
m and
w en
ĠMerc ury
ĠHud son
ĠN A
eng ine
Ġgre ener
Ġinf used
Ġsl opes
Ġparagraph s
L ess
V A
Ġde let
Ġshut tle
Ġm isc
ĠFort une
ĠPear l
he res
Ġsn or
ĠBB Q
it le
Ġag gra
Ġjoy ful
ĠVen ice
Ġscream ing
Ġca fe
Ġmand ates
Ġc erv
Ġh alls
ĠRed uced
Ġforb idden
ĠExt reme
Ġbe ers
ad ata
al er
Ġp ix
Ġp ne
ĠQ i
Ġmor ph
ĠBrus sels
ĠE dd
Ġsum mon
roph y
ĠWire less
Ġsp ills
izz es
ot ions
ak u
Ġpo ore
Ġrent ed
ĠE B
Ġindic ations
Ġfrank ly
Ġoccup y
Ġo t
bl ack
Ġrehe ars
ĠD raft
Ġjun gle
Ġmanifest ation
Ġin sec
z hou
represent ed
ric ed
ĠCor on
Ġ18 00
ĠUtil izing
Ġoverl ap
ĠF ame
il m
ens ing
ic ides
Ġimagin ative
Ġcost ing
p aid
Ġminor ities
Ġd ire
ĠTal ent
ĠTele gram
Ġendors ed
ĠTurn er
Ġut er
Ġinf amous
ĠInteg rated
Ġric her
Ġsymbol ize
Ġamb assador
St and
F E
F P
ĠS B
ure r
E asy
Ġpip elines
Ġpower house
Ġconfig ure
Ġcorrect ed
ram a
Ġfe ared
g raph
Ġout ward
Ġdecor ating
Ġl act
Ġst ellar
m ails
ĠAir bnb
Ġne on
ĠA zer
ĠOper ation
aster y
Ġimbal ance
Ġcos metics
ĠNe uro
Ġsubs criber
Ġnot orious
Ġelectron ically
ĠJ azz
ĠGl as
Ġaim bot
Ġult rasound
Ġdeploy ing
me al
ol ation
Ġover looking
Ġarr anging
B it
ĠEss ay
ĠPro tein
ven ile
Ġcig arette
ĠMil k
eng u
ĠMill enn
Ġinfer ior
Ġunexpected ly
Ġgener osity
R ad
ĠTer ry
ĠPub lishing
Ġpreced ing
ĠTh reat
Ġattent ive
Ġslic es
Ġbump s
ub le
equ ipped
Ġz omb
indu ced
Techn ology
Ġsuff ers
Ġsli pp
ĠDev Ops
Ġmaster y
et ically
Sh op
ph abet
Ġbar n
uk a
Ġfart her
fol io
Ġgod dess
Ġen v
Ġ7 1
ĠA unt
ĠGar age
ĠC ause
ĠCont ribut
ĠIP TV
ĠLind a
Ġdipl oma
ĠAm en
Ġisol ate
ĠKe ith
we b
Ġremem bers
ĠE b
Ġpanor amic
wh y
ess ing
Ġpersist ence
an ol
ant i
e ered
Ġsil hou
ĠG arc
ĠB order
Ġhandb ags
i ances
ĠEmb racing
ar is
Ġlib eration
ĠNor wegian
Ġm ol
Ġche es
Ġobs essed
ract ical
ĠR ic
Ġtr ump
ĠHist oric
sh ould
ĠPer u
sy stem
Ġa rose
Ġtravell ers
Ġcar c
Ġprogress es
ĠSh adow
ĠH orn
oint ed
Ġsegment ation
iqu eness
ĠCan adians
C ount
ear ly
Ġv amp
Ġcar rots
Ġhuge ly
Ġm uc
Ġcl usters
Ġethn icity
Ġrestrict ive
Ġ9 4
ĠR ush
Ġdownt urn
ĠU P
amm y
ruct ures
t ax
Ġref urb
ĠInter active
au kee
Ġsub conscious
ĠR ud
Ġdis able
ĠP and
ĠH PV
Ġsung lasses
Ġspe eches
Ġbed time
Ġw agers
ĠNe braska
so ver
in als
Ġdr ift
ĠCor inth
ĠRe wards
Ġemb arking
Ġn asty
Ġster oids
Ġlingu istic
Ġsav ory
h ored
Ġoff ence
Ġvir gin
un ctions
ĠAccess ibility
% ),
ĠR ising
iss an
ol ics
Ġnewcom ers
M o
Ġp seud
Ġexped ition
with out
20 10
ĠEx ample
W C
Ġbe et
ul iar
Ġaer ospace
Ġcontract ed
ĠSp ider
ĠAr med
m ad
Ġspont aneous
Ġconvers ational
ĠG ender
Ġb our
ĠDe Fi
Ġreinfor ces
3 60
ĠRes il
ĠR ico
Ġpriv at
Ġqu iz
P ass
Ġpharm acies
ĠN om
Ġprob ate
Ġcra ving
D ream
Ġsim ulations
threat ening
ĠPur ple
ĠRuss ians
ĠNe il
Ġdesign ation
ĠWell s
ĠOper a
Ġspecial ised
Ġoversee ing
ĠA ur
vere st
Ġcent r
ĠGuid ance
Ġsent enced
V I
ĠCO NT
Ġadv ising
De cember
ĠSnap chat
Ġan ts
ĠAutom ated
ĠAt hens
ĠDes ert
c het
Ġout lining
E ver
ĠIsa ac
Ġ ion
S un
Ġelect r
us ually
Ġmenstru al
Ġtim er
ĠPa id
Ġmarginal ized
Ġpr ince
Ġas certain
Ġsk ies
ĠHope fully
Ġdimin ished
ĠBeng al
Ġbra king
ched el
Ġprotest ers
Ġwhit ening
Ġwrong ful
Ġsens ations
Ġcombust ion
Ġdiscl aim
bl og
ĠN urse
ĠRel ated
O per
ĠC opy
ĠD ownt
Ġreposit ory
Ġsal ads
oc ations
ĠL is
ĠEmploy ers
Ġhand ic
Coll abor
Ġred ness
Ġstake holder
T est
ĠS old
Ġcance led
ĠC ord
Ġhasht ags
S chool
ĠM ack
B en
ĠSpirit ual
ĠStay ing
fund ing
Ġoutwe igh
Ġl ig
Ġtend encies
ĠConst ant
ĠK PIs
Educ ation
osc ope
Ġrepet ition
Ġsuccess or
OU R
ĠRed uce
Fort unately
w ife
Ġtel esc
Ġsusp icion
Ġregul ator
function al
Ġc ate
Ġrep ur
Ġdess erts
ĠRap id
ik er
Ġ8 6
Ġmem oir
Ġmisunderstand ings
ĠPrincip al
Ġinform s
C omb
pl aced
U B
ĠGP U
ĠS chol
Ġlib ert
l ot
Ġcompress or
Ġstun ned
Ġamb ient
Ġoff enses
St ation
Ġsacrific es
st ood
Ġfant as
ĠH yp
Ġad apter
Ġbul b
Ġback wards
ater nity
ĠHe ating
Ġclin icians
Ġmet allic
Ġthe e
N atural
ĠVen us
Ġmark er
T ell
ĠUpd ated
E p
Ġl ord
Ġas phalt
Ġart istry
M uch
T I
Ġbub bles
Ġinc umb
Ġgut ter
qual ified
C opyright
an mar
Ġarch ives
in ational
or ically
Ġreflect ions
ĠHel en
p al
ĠSt ructure
Ġ âĤ
Ġinter change
ĠLeg end
cl ip
Ġal mond
Ġpre requ
ĠS ter
Ġdem ons
Ġbenef ited
ĠSp ark
oll ah
load ing
ĠWeek ly
ing o
Ġpr incess
Ġenvelop e
ĠMot ion
Ġn aming
ie ves
âĢĿ âĢĶ
Ġwork places
Ġterm inated
Ġcon ventions
Ġfreel ancers
ĠRena issance
A ustral
play ing
ĠH our
it ous
Ġl ust
m ons
ows ki
Ġple a
ĠFact s
ĠB elt
Ġbott len
ĠB enefit
ĠAs ide
Ġwrap s
ĠGr ass
ĠLe v
ĠSil icon
Ġroyal ty
Ġf ading
ĠA K
Ġpref ers
ĠMan agers
Ġsan ction
Ġcompris ing
Ġgen ocide
oll o
Ġclim bed
ĠRes istance
Ġtheir s
Ġra iny
ant is
ĠJ ur
Ġlack ed
ĠJam ie
ĠM ul
R ober
Ġbalcon y
M ind
R s
Ġlou ng
ĠT un
ĠSl ack
Ġinfest ation
Ġfull est
ĠN in
Ġauthor itative
Med ical
Ġal pha
Ġtab s
Ġal k
Ġcre ams
Ġmer ge
Ġhere by
Ġthermost at
Ġqu artz
Ġclog ged
ĠSex ual
Ġsurvey ed
ĠMoroc co
Ġor bit
Ġphys ique
b us
L ocated
ĠS ector
ĠG ST
Ġmult iplayer
Ġchem otherapy
Ġv iability
Ġaven ue
Ġcomp rise
Ġsandw iches
y t
Ġadv ises
Ġmis information
J apan
ĠEthiop ia
ri pp
Ġproport ions
Ġsc are
Ġsteal ing
Ġback ward
Ġext r
Ġuncon ventional
ĠC G
ĠV lad
Ġle aning
Ð ½
Ġpig s
ĠS elling
ĠMot ors
Ġcig arettes
Ġprop het
Ġco ated
Ġcl ut
Ġbuff er
ĠT S
ĠJ ar
Ġf ences
Ġadren aline
ĠFor bes
PA A
Ġev apor
im ir
Ġskept ical
b iqu
k ar
Ġescal ate
Ġsub ord
Ġcur ved
g ard
Ġcompet encies
M ac
Ġor ph
ĠQue bec
c ue
ĠIraq i
r ational
Ġport ability
Ġinterpre ting
ĠR uth
Ġmild ew
t ub
r ights
Ġrevolution izing
ĠN BC
ĠG iving
Ġtrek king
Qu ick
ĠPer form
Ġredes ign
Ġflood s
Ġlav ender
Ġsand y
Ġw ary
ĠThe ater
Ġmed i
Ġax is
g ien
Ġm uff
ĠHim al
Ġinter play
m illion
Ġsc aff
ĠB ooking
ĠPack age
Ġcomb o
IC K
Ġinc idence
ĠF H
ĠRest oration
Ġbenef iting
Ġcom fy
g ering
ĠP TSD
ĠVers ion
00 1
Ġfire arm
mun ition
he ster
up iter
ĠK urd
Ġo ct
ĠL anc
u ate
w aukee
Ġp ens
Ġ197 7
ĠM ans
ĠAny thing
Ġde af
ĠJosh ua
ĠAnsw er
Ġex ert
ĠBr anch
Ġeleph ant
ĠDyn amics
int o
ĠJ unk
ĠRegist ered
Ġblog ger
ĠB ent
C ity
ĠM aur
Ġgad get
ĠSand ers
Ġme g
ĠUN ESCO
Ġheaven ly
Ġbl iss
ĠFund ing
ĠEp isode
Ġtun es
Ġhous ed
th irds
Ġdepend ency
IM E
com pet
Ġfel ony
Ġflav ours
Ġlist ener
Ġmen opause
Ġhold ings
Y C
ish ops
ĠThank fully
at ivity
ale y
Ġguard ians
en but
Ġd ancers
Ġun anim
ĠW ave
im ag
onom y
Ġhear ings
imm une
Ġinter rog
Ġe ch
Implement ing
Ġspir al
ĠHung ary
Ġrec ycl
Ġtele communications
ik ers
Ġconv ictions
Ġscoot er
ĠSat is
Ġaddict ive
ĠC AD
C ong
Ġvill ain
G O
Ġab ide
ã ģ
og ene
ĠAlex a
Ġmater nal
ĠCabin et
ip ing
Ø §
Ġd ont
Ġsn ug
ĠCom ing
ls on
m etic
Ġdent istry
As ide
Ã ł
Ġimmense ly
20 11
Ġdisg ust
Ġquestion able
ĠEth ics
Ġbroadcast ing
h all
ĠC inem
Ġbroker age
Ġarbit rary
Ġinterrupt ed
egrad able
Ġpill ar
Ġresemb les
Ġhop eless
Ġpersu ade
ĠWord s
Ġwithdraw als
d ata
ĠAct s
Ġunve iled
Ġbread th
ĠRon ald
E mer
Ġpat rons
s ervices
Ã º
Ġrh ino
ĠMar riage
ĠRog ers
Ġaccred itation
Ġcomp ares
Ġtw ins
Ġgentle man
D ou
Ġtur f
C amp
N othing
W E
Ġpain ter
ĠDecl aration
Ġgr illed
ĠY emen
ract ed
ĠP or
Ġas ym
Ġ7 9
be y
cuss ions
ĠImmed iate
Ġam p
EN TS
s av
Ġpot ency
Ġshel ters
s ki
Ġprofess ions
Ġd ots
ĠCons umers
D ear
ĠM it
u ph
Ġend angered
ĠConsult ant
fit ting
> >
ĠCat hedral
Ġnarc iss
Ġcard io
cert ified
Tra ditional
p arent
Ġed ibles
Ġre w
bs ite
g reat
OS S
op last
ĠF itz
ĠL ives
ert ility
Ġh i
ruct ed
ĠW elsh
Ġmat s
Ġh ooks
ĠKash mir
ĠT ig
lic ted
ett a
Ġportray al
ĠSac rament
ĠHe ath
Ġreal ms
htt p
Mus ic
Ġobs cure
CO VID
Ġevolution ary
Ġex fol
ĠInvest ments
Ġacadem ia
a is
ĠAud i
press ure
M T
ĠAd op
itut ions
ĠD ust
il ated
ĠRepresent atives
Ġimbal ances
ilib rium
Ġsuit ability
at ra
Ġcap su
sens itive
ut able
eren ced
Ġpl edge
ĠP ul
Ġcur se
Ġins omnia
ĠM ull
ect ar
Ġdisc er
k ok
g rowth
ĠI stanbul
ĠÂ ½
h im
as per
ĠDat ab
Ġins ider
Ġwip ed
n ik
Ġfac et
Ġresid ing
ĠYour self
Ġdefin ite
Ġmel ted
Ġwra pping
ĠUn limited
ĠTw in
Ġacqu aint
Ġbur nt
ĠStand ing
Ġmult id
Ġsc arcity
ĠRe ed
Ġtext iles
keep ers
osoph y
d ated
Ġl ays
ĠAp ost
p athy
Ġuns ub
Ġpe as
out ed
ĠT B
ĠâĢ ŀ
Ph il
ĠS ara
ch ief
Ġschool ing
Ġcas inos
ĠDem onst
Rec ently
ĠRes idential
l iter
Ġpean ut
A K
cy cl
Ġpel vic
Ġproject ion
s ay
orn ings
Ġt ents
Ġador ned
yp ing
ĠFilip ino
Ġcosm ic
Ġboost er
Ġlever aged
ir k
ĠGene va
ĠGl en
ĠQueens land
T ur
Ġwor s
ĠGem ini
I Z
s qu
ĠF O
Ġmain land
ĠRet irement
F und
Ġfilm makers
yl an
Ġbur ial
Ġpl umber
Ġfib re
Ġtw isted
Ġsom etime
um ed
ĠU PS
ĠP O
s ided
Ġcapsu le
N ET
Ġpreced ent
Ġwar rior
Ġtransc ends
ĠL ots
Ġlong time
Ġmiscon ceptions
Ġimprison ment
effect iveness
Ġneed les
Ġcamp uses
Ġdilem ma
eren n
it tle
Ġbeh old
Ġw ired
Ġatt ic
pack ed
Ġbatt ling
Ġdisc iplined
ĠHot els
ĠLif estyle
Ġm um
Ġacc ents
Ch apter
US A
ðĿ Ĳ
Ġpossess ed
Un iversity
Ġcompar ative
ĠPort al
st ro
Ġpec uliar
ĠT ours
ĠD ive
Ġm und
Ġb ilateral
Ġhar bor
Ġsubur ban
ĠC atherine
Ind ust
Ġc asc
Ġhur ts
ĠWh ilst
Sp orts
! ),
requ ent
ĠWhere as
Ġm oss
ĠSh aw
ĠSouth west
Ġout patient
Ġabdom en
st ation
Ġvig or
ess a
Ġremed iation
Ġj og
Ġtem p
Ġpar ade
uls ive
B ra
Ġweak ened
oo fer
ĠK ill
id i
Ġh ires
Ġunav ailable
let al
Ġreminis cent
Ġchild care
ud er
H I
ĠEle v
Ġs ab
Ġpro be
D i
ific ance
ĠEm irates
ider y
Ġadm its
Ġsusp end
Ġ8 7
N ame
Ġnic otine
f iction
M ad
see ing
Ġun iqueness
Ġs ang
Ġwaste water
ĠTer rit
Ġconce aled
ĠR ica
ĠE lder
3 50
c ology
Ġfamiliar ize
ĠBack ground
ĠTrans ition
ĠIss ue
ĠPl umbing
ĠW es
Ġo ceans
ĠFlex ible
Ġr ash
ĠArt ist
il k
ĠHarris on
Ġy acht
erman ent
mo il
d ie
ĠN Z
Ġp ixel
P age
ĠS ession
vers ed
ĠCN C
ĠTransp arency
Ġvalid ated
Ġche wing
ĠK oh
Ġsqu ir
Christ ian
ĠPlay ing
ĠHe ights
ĠH ang
Click Funnels
ir teen
Est ablish
ĠSuper ior
ĠGro ve
Ġpr uning
Ġcl an
B ET
ĠEngine ers
im port
Ġdr ills
Ġinter disciplinary
Ġimpe cc
Ġdeduct ible
Ad ding
Ġday light
Y ear
ĠApp eals
Ġprogress ed
Ġweigh s
ĠPers ian
Ġs erm
Ġf ox
Ġm ish
ah l
Us ers
h n
ĠDesign er
ĠBrist ol
um bs
ĠBris bane
Ġso b
Ġ8 3
het ics
Ġlay ered
Ġaccus ations
ĠLem on
Ġro de
ĠJul ie
ĠE lements
Ġsne ak
L T
ĠPen insula
D ev
cc oli
AN CE
Ġc uc
Ġl aps
ĠProb ably
App le
ĠCO MP
Ġdispar ities
Ġslow ed
Ġpoison ing
F lex
Ġpres chool
ĠIncorpor ate
U P
Ġeth os
Ġtrust ee
Ġcomp artment
Ġmarket er
am eless
f ig
Ġ202 6
ĠB oss
Ġ9 1
ĠAr r
Ġsupp orter
ic ism
Ġl ace
Ġcomput ational
Ġcont rollers
Ġpat rol
B ER
Ġlau ndering
ĠLead ing
Ġl amb
Ġanten na
enbut erol
f ollow
Ġprosper ous
ĠPhot os
c hen
op l
ĠFlore nce
G P
est ial
col or
ĠAny way
Ġroof top
g as
ĠBro oks
ey e
Ġbar rels
ĠPet e
|> âĢľ
Ġwe ighed
Ġst ew
ĠJere my
ops y
P et
ader ie
O p
Ġawa iting
Ġpolit ician
Ġh ug
Ġm ph
Ġann ouncing
Ġbath ing
Ġpark ed
D ER
Exper t
Ġappra isal
ĠC elt
ĠVi enna
Ġweak en
f ounded
Ġbelie ver
olog ic
Ġwe aving
Ġcontext ual
T alk
ĠLe ather
m ake
Ġso ils
ĠMarket place
ĠH ua
fl oor
ar aderie
Ġprol iferation
e lection
Ġref lex
compl iance
ĠVin cent
Ġsket ch
Ġsaf ari
ĠK et
rop he
Ġconce ived
ĠPart s
ĠS CO
re aching
d ollar
Ġincon venience
Ġc ache
am y
res a
Ġsort ing
bi ased
ĠD NS
Ġfreed oms
Ġtransl ations
ĠHispan ic
ĠChar ge
Ġplag iarism
pl oad
Ġret al
Ġencl osed
Ġal coholic
Ġro ok
ĠJ i
Ġz oning
Ġturn around
Ġmin ors
Ġboost ed
Ġrelie ved
Ġstabil ize
Ġs q
Ġcow ork
ĠCO N
ĠAmb assador
Ġ0 1
Ġchang er
Ġp ars
ins ured
ĠH aven
ĠH osting
ĠFant asy
Ġill icit
Ġded icate
Ġrecomm ending
Â £
ĠETF s
Ġbrace let
ĠD uty
Ġdis semin
ĠW id
ĠSal v
imp act
Ġhur ting
down s
Ġpsych iatric
ĠK ick
Ġn oodles
Ġeth ic
Se lect
ĠDef ence
ĠW OR
Ġdisc ourage
Ġt art
First ly
Ġbu ys
ce ived
K ing
Ġev id
Ġsub mar
ĠSu z
Ġwall paper
ĠAh med
d iscovery
ĠTV s
ĠLuc as
Ġforth coming
sp ons
Ġcoast line
u f
Ġremod el
Ġdisrupt ed
Ġart isans
ĠU nd
M el
i ots
Â ´
Ġcan on
ĠR ah
ĠWe i
ĠN D
ar in
Ġdeleg ation
ist ani
Ġinc ub
% ).
le m
Ġju icy
ĠI B
C y
Ġjud ging
Ġsequ el
Ġpar cel
Ġsp raw
ex cept
Ġstory line
ĠC ock
Ġ15 00
Ġvill a
um i
Ġshar ply
ĠD anish
Ġno on
sec ured
Ġt il
ĠNG Os
ĠAud it
m oon
v id
Ġat he
Ġâ ľ
ĠConc rete
ĠE lig
Ġg y
Ġhomes chool
m id
Ġcl auses
E vent
M ag
Ġto mb
Ġr anch
Ġtooth p
Ġoverhe ating
ĠPers pect
Ġproceed ed
Ġv ents
Ġast rology
Ġgrand children
un ed
ĠEx cess
f ires
Ġchar coal
ĠShe pherd
b oys
OS T
he at
Ġl ent
Ġinform ing
Ġus able
Ġconfig ured
ĠAzer bai
though t
ĠðŁ ĺ
Ġover weight
Ġcondem ned
ĠQur an
sh i
Ġm ower
Ġenzy me
Ġdisc iplinary
Ġintrins ic
Ġalt ar
ĠJew el
rib ly
Ġstain ed
Ġref rain
Ġit ching
er ick
Ġbi ography
ĠIncorpor ating
OV E
Ġnons ense
ĠCan on
ĠCertain ly
Ġwater fall
Ġpr ic
rat om
ĠR w
ĠPr ide
Ġcl ash
ĠInspect ion
ort ions
Ġ8 9
develop ment
Ġpop ulated
Ġtail oring
Ġun equ
acter ial
Ġlow ers
ĠM RI
Ġthought fully
Ġjack pot
b ral
Ġspr int
Ġgastro intestinal
char ging
Ġhistor ians
Ġun acceptable
Ġredef ine
Ġreper cussions
g ary
ĠCo hen
Ġmarket ed
ĠS itu
Market ing
ĠPl aces
Ġgrass roots
Ġtravell ed
ĠW arm
ag us
Ġenric hed
fe ld
Ġengage ments
ĠEd wards
Ġb ats
ĠGovern ance
Ġs igh
Ġembarr assed
oot ing
Ġaggress ively
ĠDou g
ĠRepl ica
Comp anies
Ġam munition
Ġl ur
Ġprosec utors
Ġinter cept
Ġam use
Ġschol arly
Ġe cc
Ġlim bs
ib eral
Ġappro vals
ĠI b
Ġk icking
Ġdis placement
al in
Pl ace
Ġatmosp heric
ã ĥ
Ġto ast
Ġ196 4
ard on
ver ter
E qu
f erence
Ġrec ons
Ġdeg ener
erg arten
Ġear rings
C redit
g us
Ġlin en
ol ished
Ġin advert
Ġware houses
h are
Ġh ast
á ¹
L iving
Ġrepl icas
Ġdeterg ent
Ġcult iv
Ġlit eral
Ġle aking
Ġdraft ed
W D
Ġintern ships
W I
the ir
Ġimmers ion
ĠN y
Ġaccommod ating
Ġun just
Ġstead fast
ĠNo ah
ĠPhill ips
som ething
Ġb og
Ġju ices
Ġmater ially
Ġn in
Ġg le
Ġrev isions
at ility
Ġcam araderie
Ġwel comes
ĠLim it
any ahu
Add ress
ve ment
ĠBo at
B ank
Ġs aints
ĠB less
Ġwor sen
Ġcolon ies
ĠLevel s
mit tent
Ġpredecess or
Ġpou ltry
Ġshoot s
Ġpl atinum
Ġtur moil
Ã £
Ġcompens ated
Ġend ured
Ġsn akes
Ġcategor ized
Ġstand alone
ĠCompet itive
Ġnight life
Ph ot
ab olic
St op
cast le
ĠNov a
Ġinterven e
ĠV illa
Ġind ie
Ġver ifying
Ġunbelie vable
Ġg rie
Ġspecific ation
Ġnegot iated
Ġhur ricane
Ġche ek
ĠOr chest
ud get
Ġp rag
Spec ific
ĠS r
Ġbar bec
S afe
Ġur inary
Ġleisure ly
.âĢĻ âĢĿ
w ave
ĠS aw
F ire
Ġdilig ently
Ġpoly ester
Ex amples
ĠPl ants
Ġdimin ish
Ġcontinu ation
te enth
Ġcollabor ated
ĠGu ests
M iss
ĠExper iences
Ġpoly mer
Ġha irc
ĠBl ues
ĠTrans formation
Ġattack ers
ĠMy anmar
Ġhell o
ĠU l
H on
Ġst unt
ĠStep han
ĠBern ard
ass is
ĠHol ocaust
Ġrul er
ĠS aints
ĠInit ial
Ġpost al
Ġalter ations
des ign
Ġb ricks
ĠV P
En ergy
! âĢĻ
b ors
Ġincorpor ation
Ġextra v
Ġu biqu
w ashing
ĠProced ure
Ġliqu ids
ĠLaure n
Ġdefend ers
Ġwithd rawn
Ġsupervis ors
ĠE ther
Ġnas al
Ġgran ite
ĠCor rect
Ġheart y
Ġfold ed
ĠFlow er
Ġcomp ressed
Ġquarant ine
Ġalarm s
Ġdiscl osures
Te am
Ġsy ll
Ġstre ak
Ġd aring
do ing
ĠVe get
per fect
ĠDist ribution
N P
Ġwas her
ĠM unicip
Ġencompass ing
ĠN ine
u ber
Ġ4 50
inc inn
Hist ory
S a
Ġ8 1
ol ls
FORM ATION
ĠV I
Ġexplo ited
Ġsqu at
ĠAdv oc
Ġright ly
Ġpartic le
Ġtri o
U ntil
on ics
Ġn aval
ie v
ĠL ore
Ġfurnish ings
ĠGlas gow
Ġted ious
Ġve ctor
Ġwand ering
Ġphenomen al
ĠMonth ly
Ġ196 5
pos ing
ind ust
ĠTh ous
ĠD ong
Ġpromin ence
ri en
ĠRecogn izing
ĠBang alore
ĠArt ists
ĠRoman ia
Ġinspect ed
Ġpsych ic
ĠSy ndrome
Ġmem e
l arge
ĠP regn
ĠInc luding
f air
ĠA bs
Ġclos es
Ġnurs ery
M O
Ġprohib it
ĠY uan
Ġmicro f
Ġpin ch
ĠRef er
Ġrub bing
Ġbe ads
Ġharvest ed
ĠAr bit
Ġstr ides
ĠBloom berg
Ġscr atching
iv ial
ĠPow ell
ĠNat urally
as uring
Ġgot ta
ut ral
ab l
ĠTrans form
Ġdiff ering
ĠM ing
ĠCy cle
Ġsound track
ĠO EM
uten ant
Of ten
Ġno isy
ĠAn a
Ġpol es
Ġrecip roc
ĠHell o
d ogs
Ġcomp ass
ĠEm power
ĠB T
Ġcoc oa
ĠMess enger
ĠPray er
ĠJul ia
Ġest rogen
ĠRequ ired
en za
Ġstrand s
ĠKar l
z b
Ġimm ortal
Ġquestionna ire
r ar
Ġcan s
m em
Ġfact ual
Ġobs ession
ĠE as
Ġden im
S ystem
Ġm ism
Ġpl un
Ġrebell ion
ĠTreat y
f ed
ĠB ald
ĠS eed
ĠHigh light
Ġass im
Never theless
ĠCO P
Ġdent ists
ĠPrad esh
Ġd rip
Ġperf ume
Ġf id
ĠF ro
Ġimp ulse
Cent ral
Ġtrim ming
ĠRel ax
Ġo st
Ġanim ations
Ġsan itation
Ġportra its
ot or
oc ative
ĠSu ff
ocu mented
Ġre building
Ġsle pt
Ġgrow ers
Ġsky rock
b ies
pro duction
Ġlever ages
z or
Ġv on
ĠF ixed
b rain
ĠR ating
ĠVent ures
Ġimmers ed
Ġset ups
the m
Ġground work
ĠL av
ĠA gg
ĠPV C
ĠM end
ĠOtt awa
Ġblo oms
u y
ĠVenezuel a
ag ain
ĠAutom atic
ĠW end
incinn ati
Ġc ider
Ġflood ed
ĠAccording ly
ĠNS W
ĠL G
V E
ĠW ol
Ġconsult ancy
Ġconting ent
en abled
Ġcongress ional
n as
Ġbelong ed
al ign
ill as
Rep ort
Ġpl ots
Ġpain ters
Ġimpl icit
Ġradical s
U X
ĠDr ink
ĠEvalu ate
Ġqu izzes
Ġgl anced
ĠAM D
vis it
Ġm ansion
Ġre app
Ġavoid ance
Ġart isan
Ġvision ary
Ġcorrid or
ĠK enn
Ġrot ate
Ġf oul
ĠB in
C reat
ĠAb ove
M att
Ġar senal
Ġreact ive
or ns
Ġauthor ised
Ġsub contract
ĠPolit ics
Ġsuper vised
al ph
Ġst all
bl ood
ĠW alt
Ġrev ival
ear th
Ġpath ogens
re a
Ġfry er
ac a
Ġir respective
ĠPun j
eng ers
ĠW ILL
ĠF ut
Ġth inner
ĠT N
Prot ect
Ġcompos itions
Ġsu ed
ah n
ĠYah oo
Ġbrack et
ĠL ucky
H P
t ake
Ġrefres hed
ĠD anny
Ġs orrow
Ġbench marks
m ort
Ġd izz
Ġcour ty
ĠHub Spot
Ġout set
ll ed
Ġsy nd
Ġque ue
Ġsemin ar
h al
p rop
IS S
PV C
Ġobject ions
St ream
Ġinterview ing
Ġanat omy
Ġmet ro
ĠE ight
Ġalarm ing
at ible
Ġdismiss al
Ġcomplain ing
Ġbat ter
Ġsl ate
Ġregener ation
Ġo re
ĠS ect
ab ling
ĠIng redients
Ġminim ise
Ġresid ual
g om
Ġdocument ing
Ġday time
ĠOpen AI
ĠUS DA
Ġres ale
res olution
plan ned
Ġan esthesia
ĠS or
develop ed
Ġhilar ious
ĠRout ine
Ġcaf Ã©
B rit
ĠIn fect
Ġunc ondition
in as
Ġv ault
ĠS le
ĠF E
Ġcoun selling
Ġbrill iance
ĠC ooking
ĠD ual
ĠN ice
Ġmult inational
Ġbl unt
Ġmot ives
utter ing
Ġparad ox
ruct ural
ĠSim pl
Ġaggra v
ĠProv ince
Ġling ering
Ġhy dr
Ġs ir
su it
Ġdehyd ration
ĠIncre asing
Ġprescrib e
Ġail ments
M AN
le ft
Ġbro ch
Ġshoot er
Ġclean se
[...]
