{"!":0,"\"":1,"#":2,"$":3,"%":4,"&":5,"'":6,"(":7,")":8,"*":9,"+":10,",":11,"-":12,".":13,"/":14,"0":15,"1":16,"2":17,"3":18,"4":19,"5":20,"6":21,"7":22,"8":23,"9":24,":":25,";":26,"<":27,"=":28,">":29,"?":30,"@":31,"A":32,"B":33,"C":34,"D":35,"E":36,"F":37,"G":38,"H":39,"I":40,"J":41,"K":42,"L":43,"M":44,"N":45,"O":46,"P":47,"Q":48,"R":49,"S":50,"T":51,"U":52,"V":53,"W":54,"X":55,"Y":56,"Z":57,"[":58,"\\":59,"]":60,"^":61,"_":62,"`":63,"a":64,"b":65,"c":66,"d":67,"e":68,"f":69,"g":70,"h":71,"i":72,"j":73,"k":74,"l":75,"m":76,"n":77,"o":78,"p":79,"q":80,"r":81,"s":82,"t":83,"u":84,"v":85,"w":86,"x":87,"y":88,"z":89,"{":90,"|":91,"}":92,"~":93,"¡":94,"¢":95,"£":96,"¤":97,"¥":98,"¦":99,"§":100,"¨":101,"©":102,"ª":103,"«":104,"¬":105,"®":106,"¯":107,"°":108,"±":109,"²":110,"³":111,"´":112,"µ":113,"¶":114,"·":115,"¸":116,"¹":117,"º":118,"»":119,"¼":120,"½":121,"¾":122,"¿":123,"À":124,"Á":125,"Â":126,"Ã":127,"Ä":128,"Å":129,"Æ":130,"Ç":131,"È":132,"É":133,"Ê":134,"Ë":135,"Ì":136,"Í":137,"Î":138,"Ï":139,"Ð":140,"Ñ":141,"Ò":142,"Ó":143,"Ô":144,"Õ":145,"Ö":146,"×":147,"Ø":148,"Ù":149,"Ú":150,"Û":151,"Ü":152,"Ý":153,"Þ":154,"ß":155,"à":156,"á":157,"â":158,"ã":159,"ä":160,"å":161,"æ":162,"ç":163,"è":164,"é":165,"ê":166,"ë":167,"ì":168,"í":169,"î":170,"ï":171,"ð":172,"ñ":173,"ò":174,"ó":175,"ô":176,"õ":177,"ö":178,"÷":179,"ø":180,"ù":181,"ú":182,"û":183,"ü":184,"ý":185,"þ":186,"ÿ":187,"Ā":188,"ā":189,"Ă":190,"ă":191,"Ą":192,"ą":193,"Ć":194,"ć":195,"Ĉ":196,"ĉ":197,"Ċ":198,"ċ":199,"Č":200,"č":201,"Ď":202,"ď":203,"Đ":204,"đ":205,"Ē":206,"ē":207,"Ĕ":208,"ĕ":209,"Ė":210,"ė":211,"Ę":212,"ę":213,"Ě":214,"ě":215,"Ĝ":216,"ĝ":217,"Ğ":218,"ğ":219,"Ġ":220,"ġ":221,"Ģ":222,"ģ":223,"Ĥ":224,"ĥ":225,"Ħ":226,"ħ":227,"Ĩ":228,"ĩ":229,"Ī":230,"ī":231,"Ĭ":232,"ĭ":233,"Į":234,"į":235,"İ":236,"ı":237,"Ĳ":238,"ĳ":239,"Ĵ":240,"ĵ":241,"Ķ":242,"ķ":243,"ĸ":244,"Ĺ":245,"ĺ":246,"Ļ":247,"ļ":248,"Ľ":249,"ľ":250,"Ŀ":251,"ŀ":252,"Ł":253,"ł":254,"Ń":255,"Ġt":256,"Ġa":257,"in":258,"he":259,"re":260,"on":261,"er":262,"Ġthe":263,"Ġs":264,"at":265,"Ġo":266,"Ġc":267,"en":268,"Ġw":269,"es":270,"it":271,"nd":272,"ing":273,"ou":274,"or":275,"Ġp":276,"is":277,"Ġf":278,"Ġb":279,"an":280,"al":281,"Ġto":282,"Ġm":283,"Ġand":284,"ed":285,"Ġin":286,"Ġof":287,"ar":288,"Ġd":289,"čĊ":290,"ion":291,"ic":292,"le":293,"om":294,"Ġh":295,"Ġth":296,"as":297,"ent":298,"âĢ":299,"Ġy":300,"Ġe":301,"Ġre":302,"ro":303,"il":304,"ve":305,"Ġl":306,"ct":307,"Ġyou":308,"st":309,"Ġn":310,"ly":311,"et":312,"Ġg":313,"Ġis":314,"id":315,"Ġfor":316,"ĠT":317,"Ġbe":318,"ce":319,"ut":320,"ot":321,"ĠI":322,"im":323,"se":324,"ur":325,"ow":326,"ation":327,"ig":328,"Ġon":329,"Ġthat":330,"ra":331,"Ġu":332,"âĢĻ":333,"ol":334,"ver":335,"ch":336,"ay":337,"ith":338,"Ġst":339,"ĠS":340,"ĠA":341,"ir":342,"Ġwith":343,"Ġit":344,"Ġpro":345,"ĠC":346,"ll":347,"ers":348,"am":349,"ess":350,"ad":351,"Ġas":352,"Ġhe":353,"if":354,"Ġcon":355,"Ġan":356,"Ġwe":357,"ul":358,"Ġare":359,"Ġwh":360,"ment":361,"Ġor":362,"ke":363,"Ġyour":364,"Ġcom":365,"ate":366,"ge":367,"ill":368,"Ġex":369,"pp":370,"ab":371,"ter":372,"Ġha":373,"Ġde":374,"her":375,"ity":376,"ĠM":377,"Ġcan":378,"Ġsu":379,"est":380,"ive":381,"ore":382,"od":383,"ĠP":384,"ĠB":385,"ĠThe":386,"ies":387,"ort":388,"us":389,"Ġse":390,"igh":391,"ld":392,"qu":393,"ant":394,"Ġv":395,"ure":396,"ac":397,"ĠW":398,"ect":399,"Ġne":400,"rom":401,"ist":402,"ain":403,"op":404,"ial":405,"ust":406,"iv":407,"Ġen":408,"Ġat":409,"ĠH":410,"th":411,"Ġr":412,"nt":413,"Ġal":414,"Ġch":415,"oc":416,"em":417,"ĠD":418,"art":419,"os":420,"Ġhave":421,"Ġnot":422,"ĠF":423,"ĠâĢ":424,"Ġsh":425,"and":426,"un":427,"um":428,"ight":429,"Ġle":430,"Ġfrom":431,"el":432,"ĠR":433,"Ġthis":434,"res":435,"end":436,"Ġwas":437,"ud":438,"Ġby":439,"per":440,"ri":441,"out":442,"ĠE":443,"ome":444,"ions":445,"king":446,"Ġsp":447,"ĠL":448,"Ġpl":449,"Ġab":450,"pt":451,"ost":452,"all":453,"Ġwor":454,"our":455,"ide":456,"Ġad":457,"Ġcomp":458,"ard":459,"ĠG":460,"Ġtheir":461,"Ġwill":462,"are":463,"ould":464,"ff":465,"Ġ(":466,"Ġall":467,"rou":468,"ally":469,"Ġma":470,"gh":471,"age":472,"Ġint":473,"ie":474,"Ġim":475,"ther":476,"iz":477,"ance":478,"Ġus":479,"ine":480,"Ġdo":481,"ĠN":482,"able":483,"oo":484,"ere":485,"Ġwhe":486,"ip":487,"Ġ1":488,"Ġj":489,"cc":490,"ĠO":491,"Ġ2":492,"orm":493,"act":494,"ag":495,"Ġgo":496,"ast":497,"Ġthey":498,"âĢĿ":499,"Ġk":500,"pl":501,"ice":502,"Ġcont":503,"du":504,"Ġmore":505,"Ġhas":506,"ations":507,"The":508,"Ġinc":509,"Ġme":510,"ĠTh":511,"ous":512,"ich":513,"ans":514,"ire":515,"ks":516,"Ġte":517,"so":518,"Ġout":519,"ign":520,"ong":521,"ind":522,"Ġbut":523,"ear":524,"ime":525,"ike":526,"ib":527,"ated":528,"og":529,"Ġres":530,"ec":531,"form":532,"ence":533,"Ġapp":534,"ry":535,"ru":536,"Ġso":537,"Ġman":538,"one":539,"ep":540,"very":541,"Ġcl":542,"Ġimp":543,"Ġup":544,"Ġfe":545,"ult":546,"ĠU":547,"Ġalso":548,"ical":549,"ĠâĢľ":550,"ĠIn":551,"reat":552,"ack":553,"Ġoff":554,"ap":555,"Ġabout":556,"ail":557,"Ġwhich":558,"ite":559,"Ġour":560,"Ġother":561,"Ġun":562,"vel":563,"Ġone":564,"Ġlike":565,"Ġper":566,"ition":567,"Ġwho":568,"ace":569,"ile":570,"ĠJ":571,"ĠY":572,"Ġdis":573,"Ġev":574,"Ġqu":575,"ach":576,"erv":577,"00":578,"Ġany":579,"ĠIt":580,"Ġthem":581,"Ġtime":582,"Ġtra":583,"Ġpart":584,"te":585,"Ġsa":586,"Ġpre":587,"ors":588,"ress":589,"Ġneed":590,"ark":591,"ase":592,"ary":593,"now":594,"ia":595,"ents":596,"ame":597,"ction":598,"ount":599,"Ġacc":600,"ue":601,"Ġprov":602,"ays":603,"Ġta":604,"Ġhis":605,"Ġsome":606,"Ġem":607,"Ġcomm":608,"anc":609,"ĠThis":610,"ings":611,"'s":612,"av":613,"Ġmy":614,"ree":615,"Ġhel":616,"Ġover":617,"au":618,"Ġthere":619,"Ġpe":620,"Ġwhen":621,"ass":622,"Ġif":623,"ose":624,"Ġhelp":625,"ens":626,"nder":627,"Ġtr":628,"Ġrec":629,"ments":630,"Ġits":631,"ual":632,"Ġmay":633,"Ġinto":634,"ber":635,"ord":636,"Ġar":637,"ific":638,"Ġget":639,"Ġind":640,"Ġro":641,"Ġcons":642,"Ġhow":643,"xt":644,"Ġwhat":645,"Ġwork":646,"Ġsc":647,"Ġag":648,"Ġbec":649,"Ġnew":650,"ild":651,"ility":652,"ne":653,"ub":654,"ities":655,"ater":656,"Ġknow":657,"ook":658,"red":659,"ĠK":660,"rough":661,"lic":662,"ople":663,"Ġexper":664,"ĠSt":665,"lud":666,"Ġ20":667,"Ġthese":668,"oy":669,"ove":670,"Ġyear":671,"Ġdes":672,"iff":673,"enc":674,"low":675,"ood":676,"ating":677,"ious":678,"ices":679,"ful":680,"ough":681,"ang":682,"Ġthan":683,"Ġher":684,"Ġbeen":685,"Ġadd":686,"cess":687,"Ġpr":688,"Ġmake":689,"ob":690,"ĠCh":691,"Ġpeople":692,"ov":693,"Ġeff":694,"ning":695,"ond":696,"iness":697,"Ġjust":698,"Ġact":699,"ish":700,"ons":701,"Ġunder":702,"ting":703,"vers":704,"pport":705,"ĠV":706,"wn":707,"Ġuse":708,"Ġbet":709,"Ġinclud":710,"ates":711,"Ġinv":712,"Ġwere":713,"Ġprodu":714,"ise":715,"ick":716,"Ġhad":717,"ory":718,"ound":719,"Ġserv":720,"ck":721,"ience":722,"ak":723,"Ġrel":724,"Ġwould":725,"erson":726,"Ġdiff":727,"Ġthrough":728,"les":729,"Ġsy":730,"ĠWe":731,"int":732,"usiness":733,"Ġbu":734,"Ġmost":735,"ause":736,"ures":737,"Ġinter":738,"Ġcol":739,"Ġam":740,"Ġreg":741,"Ġrep":742,"alth":743,"Ġsuch":744,"hen":745,"Ġwell":746,"uring":747,"lect":748,"tain":749,"Ġno":750,"irst":751,"Ġke":752,"ular":753,"ract":754,"Ġco":755,"we":756,"fter":757,"Ġexp":758,"Ġonly":759,"ĠâĢĵ":760,"own":761,"Ġass":762,"ram":763,"Ġevery":764,"arket":765,"row":766,"of":767,"Ġbl":768,"old":769,"its":770,"ential":771,"Ġbusiness":772,"oth":773,"ject":774,"round":775,"Ġatt":776,"Ġpos":777,"ef":778,"ric":779,"rit":780,"ible":781,"Ġrem":782,"Ġdec":783,"Ġperson":784,"sel":785,"ple":786,"Ġwant":787,"stem":788,"Ġwhere":789,"ife":790,"ĠYou":791,"Ġshould":792,"Ġrequ":793,"als":794,"Ġsee":795,"hed":796,"ink":797,"bs":798,"ustom":799,"olog":800,"Ġspec":801,"hip":802,"ian":803,"ange":804,"velop":805,"ative":806,"get":807,"Ġmany":808,"Ġway":809,"ient":810,"Ġinform":811,"Ġeven":812,"Ġhigh":813,"ten":814,"Ġins":815,"Ġra":816,"Ġshe":817,"Ġ3":818,"Ġfirst":819,"Ġph":820,"any":821,"Ġcould":822,"Ġdiffere":823,"ts":824,"iew":825,"Ġtw":826,"Ġsm":827,"eth":828,"ily":829,"Ġstr":830,"ower":831,"Ġtrans":832,"Ġright":833,"li":834,"Ġmarket":835,"ĠHe":836,"Ġac":837,"Ġfin":838,"Ġsec":839,"chn":840,"erm":841,"Ġ|":842,"hat":843,"aw":844,"ased":845,"ata":846,"fore":847,"Ġback":848,"Ġprovid":849,"ade":850,"ys":851,"yp":852,"ren":853,"Ġent":854,"mer":855,"Ġinst":856,"In":857,"Ġgu":858,"Ġprocess":859,"Ġpo":860,"Ġhealth":861,"ational":862,"ft":863,"iss":864,"line":865,"eg":866,"Ġstud":867,"Ġcustom":868,"ces":869,"ward":870,"Ġsystem":871,"ph":872,"Ġown":873,"Ġsign":874,"Ġlong":875,"ality":876,"Ġdevelop":877,"ics":878,"Ġadv":879,"uch":880,"Ġdisc":881,"urn":882,"gan":883,"Ġloc":884,"Ġgood":885,"ener":886,"ever":887,"Ġbest":888,"ident":889,"Ġimport":890,"ize":891,"Ġset":892,"ss":893,"Ġfl":894,"Ġproduct":895,"Ġopt":896,".âĢĿ":897,"Ġmed":898,"Ġfind":899,"Ġstart":900,"rib":901,"ness":902,"Ġlead":903,"Ġbecause":904,"Ġtake":905,"Ġvery":906,"Ġsupport":907,"stand":908,"hes":909,"Ġyears":910,"Ġsaid":911,"Ġdesign":912,"Ġthose":913,"Ġafter":914,"Ġcre":915,"Ġprof":916,"Ġfu":917,"ional":918,"pect":919,"Ġtwo":920,"Ġworld":921,"Ġtechn":922,"ell":923,"ĠIf":924,"ives":925,"Ġthen":926,"Ġens":927,"Ġplay":928,"Ġcommun":929,"ues":930,"Ġinformation":931,"ĠAnd":932,"Ġsim":933,"Ġdifferent":934,"omm":935,"ty":936,"arch":937,"Ġcare":938,"Ġgreat":939,"ont":940,"Ġav":941,"iet":942,"Ġdet":943,"Ġdata":944,"Ġdon":945,"Ġsk":946,"other":947,"Ġwhile":948,"Ġvar":949,"Ġvis":950,"ually":951,"Ġeffect":952,"Ġmod":953,"Ġcar":954,"ble":955,"Ġlife":956,"Ġcle":957,"ath":958,"ĠPro":959,"Ġsur":960,"Ġdoes":961,"Ġmon":962,"Ġpol":963,"Ġpres":964,"ized":965,"Ġexperience":966,"olut":967,"Ġext":968,"tern":969,"Ġmuch":970,"ew":971,"Ġbeing":972,"up":973,"erg":974,"Ġaut":975,"air":976,"ital":977,").":978,"Ġallow":979,"Ġbefore":980,"Ġdown":981,"Ġhome":982,"Ġhand":983,"Ġprog":984,"Ġcomple":985,"ited":986,"ollow":987,"led":988,"Ġche":989,"ages":990,"ines":991,"tle":992,"ĠThey":993,"Ġnow":994,"Ġmain":995,"ving":996,"Ġref":997,"ven":998,"iqu":999,"ied":1000,"Ġval":1001,"ering":1002,"Ġtyp":1003,"Ġbr":1004,"text":1005,"Ġimportant":1006,"Ġeas":1007,"Ġhim":1008,"Ġfam":1009,"Ġused":1010,"Ġart":1011,"Ġsub":1012,"Ġinf":1013,"arm":1014,"rop":1015,"Ġend":1016,"|>":1017,"<|":1018,"endof":1019,"endoftext":1020,"ock":1021,"self":1022,"Ġpur":1023,"ict":1024,"ĠUn":1025,"kes":1026,"Ġdid":1027,"day":1028,"cept":1029,"ool":1030,"Ġmin":1031,"Ġeach":1032,"ween":1033,"ork":1034,"Ġrequire":1035,"Ġfeel":1036,"ivid":1037,"ced":1038,"Ġtoo":1039,"Ġprovide":1040,"iving":1041,"ĠAs":1042,"ash":1043,"ateg":1044,"Ġshow":1045,"Ġagain":1046,"ability":1047,"Ġboth":1048,"Ġteam":1049,"Ġ5":1050,"Ġnum":1051,"Ġmade":1052,"ered":1053,"Ġday":1054,"Ġear":1055,"less":1056,"Ġ19":1057,"Ġread":1058,"ake":1059,"Th":1060,"Ġbetween":1061,"ploy":1062,"Ġ4":1063,"Ġform":1064,"Ġincre":1065,"Ġsoc":1066,"ienc":1067,"Ġlook":1068,"ather":1069,"ĠFor":1070,"Ġinvest":1071,"dition":1072,"Ġfollow":1073,"ĠHow":1074,"ural":1075,"âĢľ":1076,"Ġfact":1077,"Ġlear":1078,"enef":1079,"Ġmem":1080,"Ġpay":1081,"Ġcur":1082,"Ġcost":1083,"Ġpartic":1084,"Ġ\"":1085,"Ġ202":1086,"ee":1087,"ature":1088,"Ġgener":1089,"Ġunderstand":1090,"Ġdef":1091,"Ġcour":1092,"Ġgrow":1093,"Ġed":1094,"rand":1095,"ically":1096,"com":1097,"Ġresult":1098,"Ġdep":1099,"Ġcount":1100,"Ġcall":1101,"Ġ201":1102,"Ġresp":1103,"Ġkeep":1104,"ale":1105,"Ġbo":1106,"Ġreal":1107,"ider":1108,"Ġeng":1109,"ner":1110,"Ġplan":1111,"Ġop":1112,"Ġaround":1113,"Ġorgan":1114,"Ġwithout":1115,"Ġincluding":1116,"ng":1117,"ining":1118,"Ġexpl":1119,"irect":1120,"Ġiss":1121,"Ġconf":1122,"ted":1123,"view":1124,"Ġchar":1125,"Ġfun":1126,"Ġservices":1127,"ody":1128,"Ġaw":1129,"Ġpub":1130,"ĠBut":1131,"Ġdr":1132,"ants":1133,"Ġgl":1134,"imes":1135,"Ġob":1136,"ology":1137,"Ġsom":1138,"atch":1139,"Ġexam":1140,"ccess":1141,"Ġmaking":1142,"Ġprot":1143,"amp":1144,"Ġusing":1145,"ason":1146,"Ġaccess":1147,"ins":1148,"Ġimpro":1149,",âĢĿ":1150,"erest":1151,"eng":1152,"Ġhere":1153,"Ġret":1154,"cer":1155,"ividual":1156,"Ġmight":1157,"Ġpot":1158,"ves":1159,"ooking":1160,"Ġbuild":1161,"Ġposs":1162,"io":1163,"'t":1164,"Ġduring":1165,"ix":1166,"nect":1167,"Ġoften":1168,"Ġchild":1169,"),":1170,"Ġperform":1171,"Ġsaf":1172,"der":1173,"uc":1174,"ĠAn":1175,"nce":1176,"ruct":1177,"Ġmust":1178,"ved":1179,"read":1180,"ways":1181,"ention":1182,"riend":1183,"Ġpersonal":1184,"Ġ$":1185,"Ġleg":1186,"Ġplace":1187,"Ġthink":1188,"Ġbenef":1189,"ify":1190,"Ġpower":1191,"Ġcompany":1192,"Ġcontin":1193,"Ġprogram":1194,"Ġ-":1195,"Ġwater":1196,"Ġindividual":1197,"ĠAd":1198,"agement":1199,"gg":1200,"Ġproper":1201,"Ġlit":1202,"Ġsame":1203,"Ġstand":1204,"Ġgoing":1205,"ling":1206,"Ġstill":1207,"over":1208,"Ġpat":1209,"ross":1210,"iron":1211,"ouse":1212,"ense":1213,"ĠRe":1214,"Ġlevel":1215,"ave":1216,"Ġappro":1217,"Ġreally":1218,"ĠAl":1219,"roup":1220,"ms":1221,"Ġlar":1222,"Ġprom":1223,"Ġlot":1224,"ince":1225,"chool":1226,"Ġser":1227,"Ġcor":1228,"ists":1229,"ank":1230,"Ġpract":1231,"Ġthings":1232,"Ġonline":1233,"orts":1234,"Ġfew":1235,"Ġoffer":1236,"Ġbetter":1237,"Ġinterest":1238,"Ġtop":1239,"ivers":1240,"Ġcer":1241,"Ġprofess":1242,"Ġthough":1243,"Ġstate":1244,"esp":1245,"Ġproject":1246,"ĠWh":1247,"Ġbel":1248,"Ġcreat":1249,"Ġide":1250,"Ġwebs":1251,"ets":1252,"Ġdist":1253,"Ġfound":1254,"Ġpoint":1255,"Ġaff":1256,"Ġwithin":1257,"ocus":1258,"ĠSp":1259,"Ġsit":1260,"ĠThese":1261,"Ġris":1262,"Ġprev":1263,"Ġfree":1264,"con":1265,"Ġneeds":1266,"Ġaddition":1267,"itive":1268,"Ġca":1269,"els":1270,"Ġindust":1271,"Ġemploy":1272,"ients":1273,"ases":1274,"ribut":1275,"ars":1276,"ared":1277,"Ġsmall":1278,"az":1279,"ills":1280,"Ġlaw":1281,"ĠSh":1282,"Ġavail":1283,"ately":1284,"viron":1285,"ĠThere":1286,"Ġservice":1287,"Ġoper":1288,"Ġsuccess":1289,"Ġhapp":1290,"Ġdem":1291,"ration":1292,"ined":1293,"Ġlast":1294,"ization":1295,"Ġstrateg":1296,"âĢĶ":1297,"Ġpotential":1298,"rent":1299,"Ġsay":1300,"ism":1301,"Ġspecific":1302,"Ġrest":1303,"Ġcome":1304,"Ġquest":1305,"Ġtest":1306,"bers":1307,"Ġess":1308,"We":1309,"Ġredu":1310,"Ġconnect":1311,"ially":1312,"Ġest":1313,"Ġsignific":1314,"It":1315,"This":1316,"ision":1317,"rol":1318,"Ġtool":1319,"uss":1320,"ex":1321,"Ġprotect":1322,"ething":1323,"ances":1324,"ier":1325,"atform":1326,".<|":1327,"Ġrese":1328,"thing":1329,"Ġalways":1330,"iven":1331,"Ġcap":1332,"ah":1333,"Ġgra":1334,"Ġsupp":1335,"Ġcent":1336,"oney":1337,"Ġensure":1338,"Ġpop":1339,"land":1340,"oun":1341,"ĠSo":1342,"000":1343,"Ġfocus":1344,"Ġproble":1345,"Ġmonth":1346,"ique":1347,"If":1348,"Ġenh":1349,"Ġcreate":1350,"orth":1351,"Ġbre":1352,"Ġpass":1353,"Ġlist":1354,"Ġopen":1355,"oss":1356,"cial":1357,"Ġdirect":1358,"Ġsure":1359,"urity":1360,"itions":1361,"ĠâĢĺ":1362,"Ġwee":1363,"Ġhum":1364,"Ġsomething":1365,"the":1366,"Ġsocial":1367,"ĠWith":1368,"Ġenviron":1369,"Ġactiv":1370,"Ġtal":1371,"Ġaccount":1372,"Ġcho":1373,"Ġequ":1374,"Ġapplic":1375,"Ġcontent":1376,"atures":1377,"iety":1378,"Ġable":1379,"Ġchall":1380,"Ġavailable":1381,"Ġ6":1382,"ĠEx":1383,"Ġrun":1384,"Ġkey":1385,"Ġless":1386,"Ġanother":1387,"Ġrece":1388,"Ġnumber":1389,"Ġfamily":1390,"ieve":1391,"Ġintern":1392,"Ġlet":1393,"ris":1394,"Ġsignificant":1395,"Ġfil":1396,"ights":1397,"ead":1398,"Ġplatform":1399,"Ġgroup":1400,"Ġfinanc":1401,"Ġtreat":1402,"meric":1403,"cl":1404,"pportun":1405,"ream":1406,"Ġmat":1407,"Ġthree":1408,"aterial":1409,"..":1410,"ards":1411,"ently":1412,"Ġeffective":1413,"Ġproducts":1414,"Ġfac":1415,"Ġpublic":1416,"ield":1417,"ending":1418,"Ġbeh":1419,"ĠCom":1420,"Ġmus":1421,"ger":1422,"por":1423,"ergy":1424,"Ġtry":1425,"Ġchang":1426,"ĠInd":1427,"Ġwom":1428,"Ġinclude":1429,"ney":1430,"Ġbig":1431,"ibility":1432,"Ġlove":1433,"Ġfood":1434,"uture":1435,"Ġve":1436,"to":1437,"Ġvarious":1438,"What":1439,"ral":1440,"Ġident":1441,"Ġpost":1442,"ior":1443,"ĠNew":1444,"Ġ&":1445,"Ġmeet":1446,"vern":1447,"Ġconsider":1448,"Ġopportun":1449,"aking":1450,"Ġbrand":1451,"Ġconst":1452,"Ġwebsite":1453,"Ġput":1454,"ware":1455,"ĠPl":1456,"Ġwrit":1457,"ĠAr":1458,"fort":1459,"be":1460,"ĠTo":1461,"Ġquality":1462,"Ġterm":1463,"Ġel":1464,"Ġmet":1465,"ished":1466,"ination":1467,"Ġinvol":1468,"Ġimpact":1469,"Ġgame":1470,"Ġcase":1471,"Ġbro":1472,"ĠHowever":1473,"Ġlittle":1474,"Ġsolut":1475,"eed":1476,"Ġspecial":1477,"Ġoffers":1478,"Ġessential":1479,"ĠAmeric":1480,"Ġlooking":1481,"Ġmaterial":1482,"Ġgovern":1483,"Ġhard":1484,"Ġenvironment":1485,"Ġhist":1486,"ĠDe":1487,"oad":1488,"Ġ10":1489,"ote":1490,"ĠIs":1491,"aging":1492,"Ġbecome":1493,"Ġdev":1494,"Ġlocal":1495,"ency":1496,"Ġorder":1497,"Ġworking":1498,"Ġanal":1499,"Ġland":1500,"Ġele":1501,"Ġschool":1502,"Ġgive":1503,"Ġimm":1504,"Ġsal":1505,"joy":1506,"ilities":1507,"Ġchange":1508,"Ġbody":1509,"rap":1510,"Ġmoney":1511,"aut":1512,"Ġagainst":1513,"oot":1514,"ains":1515,"de":1516,"icle":1517,"Ġcompan":1518,"Ġfriend":1519,"reen":1520,"Ġparticular":1521,"How":1522,"ĠQ":1523,"Ġhead":1524,"here":1525,"und":1526,"Ġimprove":1527,"Ġtre":1528,"ified":1529,"Ġstep":1530,"Ġwhy":1531,"Ġcult":1532,"ĠâĢĶ":1533,"Ġmind":1534,"Ġnext":1535,"Ġcertain":1536,"Ġindustry":1537,"Ġcommunity":1538,"Ġdevelopment":1539,"Ġfuture":1540,"iting":1541,"Ġrele":1542,"ked":1543,"urther":1544,"Ġdig":1545,"gin":1546,"ĠWhen":1547,"ned":1548,"oid":1549,"Ġmeans":1550,"Ġrelations":1551,"Ġfinancial":1552,"Ġjob":1553,"Ġlim":1554,"Ġresearch":1555,"As":1556,"Ġclass":1557,"Ġ7":1558,"fect":1559,"ries":1560,"Ġdi":1561,"ories":1562,"Ġexample":1563,"ĠCl":1564,"co":1565,"ns":1566,"ĠBy":1567,"Ġsl":1568,"me":1569,"Ġnever":1570,"ird":1571,"pping":1572,"hor":1573,"Ġtru":1574,"cent":1575,"ium":1576,"aring":1577,"conom":1578,"Ġmove":1579,"ames":1580,"Ġair":1581,"Ġcurrent":1582,"Ġlight":1583,"Ġquick":1584,"ication":1585,"izing":1586,"Ġmov":1587,"Ġfull":1588,"Ġmult":1589,"oose":1590,"Ġsever":1591,"Ġelect":1592,"Ġcustomers":1593,"lish":1594,"Ġenjoy":1595,"ources":1596,"Ġmakes":1597,"Ġbuy":1598,"man":1599,"Ġcontrol":1600,"ĠShe":1601,"Ġexpect":1602,"Ġreport":1603,"ĠThat":1604,"Ġarea":1605,"Ġfeatures":1606,"Ġissues":1607,"ury":1608,"illion":1609,"ours":1610,"Ġclear":1611,"Ġcomes":1612,"Ġsince":1613,"Ġview":1614,"cing":1615,"Ġpossible":1616,"Ġexperienc":1617,"Ġeduc":1618,"itut":1619,"ĠWhat":1620,"port":1621,"Ġdays":1622,"Ġclean":1623,"oring":1624,"ably":1625,"Ġturn":1626,"Ġold":1627,"work":1628,"Ġenergy":1629,"Ġstudents":1630,"acy":1631,"Ġbased":1632,"Ġdetail":1633,"Ġaud":1634,"ental":1635,"ats":1636,"Ġothers":1637,"ump":1638,"ems":1639,"ret":1640,"ethod":1641,"Ġbas":1642,"Ġfund":1643,"Ġvide":1644,"ission":1645,"Ġeasy":1646,"Ġmanagement":1647,"Ġkind":1648,"You":1649,"Ġcompanies":1650,"Ġpain":1651,"Ġgr":1652,"Ġunique":1653,"Ġsoft":1654,"Ġlarge":1655,"Ġ8":1656,"Ġacross":1657,"ĠSc":1658,"ax":1659,"iversity":1660,"Wh":1661,"Ġmean":1662,"aim":1663,"Ġseveral":1664,"Ġcustomer":1665,"lu":1666,"ĠCon":1667,"oci":1668,"ember":1669,"Ġtechnology":1670,"asing":1671,"Ġaway":1672,"Ġcourse":1673,"ron":1674,"Ġaddress":1675,"Ġcompet":1676,"Ġrelationship":1677,"Ġeffic":1678,"sc":1679,"Ġoptions":1680,"ption":1681,"pos":1682,"Ġnat":1683,"ton":1684,"for":1685,"inal":1686,"ĠYour":1687,"Ġrespons":1688,"ners":1689,"ĠZ":1690,"Ġhaving":1691,"Ġstrong":1692,"Ġtoget":1693,"Ġhig":1694,"Ġtogether":1695,"Ġperformance":1696,"Ġmar":1697,"Ġtoday":1698,"Ġchalleng":1699,"Ġcommon":1700,"ĠOn":1701,"ug":1702,"ording":1703,"arent":1704,"lf":1705,"aster":1706,"Ġnet":1707,"ĠAt":1708,"wards":1709,"rist":1710,"When":1711,"ush":1712,"Ġmaintain":1713,"Ġchildren":1714,"Ġgot":1715,"Ġcru":1716,"Ġpresent":1717,"Ġcomplete":1718,"Ġnecess":1719,"ised":1720,"ĠTr":1721,"oint":1722,"ended":1723,"Ġdra":1724,"orn":1725,"ĠBe":1726,"Ġocc":1727,"Ġspace":1728,"Ġenc":1729,"Ġusers":1730,"Ġtimes":1731,"Ġreview":1732,"ived":1733,"fact":1734,"Ġbenefits":1735,"abor":1736,"Ġweek":1737,"ffic":1738,"ape":1739,"Ġrole":1740,"20":1741,"Ġmethod":1742,"Ġsecurity":1743,"yle":1744,"Ġsecond":1745,"ored":1746,"Ġeconom":1747,"Ġsol":1748,"ogn":1749,"Ġpolic":1750,"ecially":1751,"Ġfore":1752,"ken":1753,"ĠGod":1754,"Ġtem":1755,"Ġalong":1756,"Ġrisk":1757,"ator":1758,"Ġmarketing":1759,"ern":1760,"ired":1761,"Ġthing":1762,"Ġ9":1763,"Ġsite":1764,"Ġrange":1765,"Ġperfect":1766,"jor":1767,"inc":1768,"ising":1769,"ĠTe":1770,"ĠAll":1771,"Ġprofessional":1772,"Ġmembers":1773,"lling":1774,"Ġprovides":1775,"iod":1776,"Ġvalue":1777,"Ġconsum":1778,"Ġjour":1779,"Ġach":1780,"Ġhuman":1781,"Ġsw":1782,"Ġpast":1783,"Ġesp":1784,"ledge":1785,"Ġgrowth":1786,"ety":1787,"Ġfr":1788,"side":1789,"ope":1790,"Ġdam":1791,"ĠBl":1792,"Ġmedia":1793,"ĠUS":1794,"Ġconcer":1795,"Ġapproach":1796,"Ġpriv":1797,"Ġactually":1798,"Ġphys":1799,"Ġnon":1800,"anced":1801,"ips":1802,"nov":1803,"Ġindividuals":1804,"Ġroom":1805,"mit":1806,"urance":1807,"Ġwhether":1808,"Ġunt":1809,"Ġcomb":1810,"ina":1811,"Ġdeli":1812,"Ġpa":1813,"Ġdue":1814,"Ġfollowing":1815,"let":1816,"Ġname":1817,"Ġtools":1818,"duct":1819,"Ġstay":1820,"ĠComm":1821,"Ġ200":1822,"Ġknown":1823,"Ġpri":1824,"Ġpar":1825,"fer":1826,"Ġbook":1827,"Ġcommit":1828,"Ġword":1829,"Ġlive":1830,"Ġcrit":1831,"aces":1832,"Ġcountry":1833,"Ġshort":1834,"ready":1835,"min":1836,"Ġsystems":1837,"Ġsing":1838,"Ġwomen":1839,"âĢ¦":1840,"idence":1841,"Ġrecomm":1842,"ooks":1843,"ulation":1844,"imate":1845,"Ġenhance":1846,"Ġlow":1847,"Ġevent":1848,"ĠSe":1849,"Ġgovernment":1850,"Ġtax":1851,"pped":1852,"verage":1853,"Ġfre":1854,"mb":1855,"sp":1856,"Ġpurch":1857,"Ġwar":1858,"Ġcred":1859,"cy":1860,"ĠCan":1861,"Ġespecially":1862,"ding":1863,"Ġshare":1864,"Ġside":1865,"Ġcr":1866,"Ġemail":1867,"Ġcheck":1868,"Ġamount":1869,"cle":1870,"outh":1871,"ps":1872,"Ġareas":1873,"Ġmajor":1874,"Ġey":1875,"Ġcond":1876,"Ġvisit":1877,"Ġcamp":1878,"Ġhold":1879,"Ġsays":1880,"Ġresults":1881,"bo":1882,"St":1883,"raph":1884,"Ġhouse":1885,"Ġalready":1886,"Ġenough":1887,"ires":1888,"ĠAI":1889,"not":1890,"ured":1891,"Ġdigital":1892,"Ġwin":1893,"Ġmom":1894,"Ġpopular":1895,"lement":1896,"ĠCol":1897,"Ġgetting":1898,"For":1899,"Ġcharact":1900,"ees":1901,"Ġinteg":1902,"pr":1903,"Ġamong":1904,"oor":1905,"irm":1906,"Ġworks":1907,"Ġdoing":1908,"Ġreason":1909,"Ġcrucial":1910,"Ġnatural":1911,"atic":1912,"ĠOr":1913,"ots":1914,"Ġprep":1915,"Ġcontribut":1916,"Ġwal":1917,"Ġfurther":1918,"ĠPh":1919,"ĠMan":1920,"ĠEn":1921,"Ġdel":1922,"Ġtraining":1923,"Ġbusinesses":1924,"Ġbring":1925,"Ġallows":1926,"Ġdiscuss":1927,"Ġrecord":1928,"Ġbeaut":1929,"ried":1930,"Ġtype":1931,"ids":1932,"Ġant":1933,"Ġassist":1934,"obal":1935,"Ġnear":1936,"ode":1937,"verse":1938,"iate":1939,"Ġstory":1940,"ilar":1941,"Ġmeas":1942,"ocu":1943,"ift":1944,"Ġdone":1945,"Ġpress":1946,"Ġbegin":1947,"icult":1948,"Ġlegal":1949,"Ġhelps":1950,"Ġperiod":1951,"apt":1952,"aff":1953,"ĠInst":1954,"Ġcolle":1955,"Ġincrease":1956,"ert":1957,"'re":1958,"Ġvers":1959,"ensive":1960,"arget":1961,"Ġdoesn":1962,"Ġheart":1963,"ĠSu":1964,"Ġfunction":1965,"Ġself":1966,"ged":1967,"Ġreturn":1968,"ians":1969,"Ġmil":1970,"osp":1971,"Ġways":1972,"Ġple":1973,"Ġdeal":1974,"Ġever":1975,"ann":1976,"ones":1977,"br":1978,"There":1979,"by":1980,"Ġann":1981,"osing":1982,"ource":1983,"Ġlearning":1984,"Ġmen":1985,"Ġclaim":1986,"ides":1987,"oh":1988,"Ġcoll":1989,"Ġauthor":1990,"Ġfar":1991,"Ġuser":1992,"Ġfour":1993,"oura":1994,"pro":1995,"Ġlearn":1996,"ĠApp":1997,"Ġcomfort":1998,"ĠComp":1999,"Ġexce":2000,"Ġearly":2001,"Ġsoftware":2002,"Ġcontact":2003,"Ġskills":2004,"Ġsearch":2005,"Ġunderstanding":2006,"Ġbuilding":2007,"selves":2008,"ĠRes":2009,"avor":2010,"Ġautom":2011,"Ġuntil":2012,"Ġinit":2013,"resent":2014,"Ġproviding":2015,"Ġlo":2016,"Ġtravel":2017,"ges":2018,"ites":2019,"ply":2020,"Ġsafe":2021,"Ġdidn":2022,"ĠChrist":2023,"Ġonce":2024,"Ġyourself":2025,"Ġcal":2026,"Ġprevent":2027,"Ġsitu":2028,"ray":2029,"Ġyoung":2030,"Ġlikely":2031,"Ġmot":2032,"Ġability":2033,"Ġknowledge":2034,"Ġleft":2035,"Ġweb":2036,"ither":2037,"Ġprice":2038,"Ġchoose":2039,"Ġproperty":2040,"Ġvideo":2041,"Ġcalled":2042,"Ġhistory":2043,"To":2044,"Ġwr":2045,"osed":2046,"Ġtradition":2047,"ai":2048,"Ġrepl":2049,"fully":2050,"Ġdeterm":2051,"urs":2052,"use":2053,"Ġappear":2054,"lex":2055,"ring":2056,"Ġdifficult":2057,"ches":2058,"Ġstudy":2059,"Ġphot":2060,"most":2061,"Ġcut":2062,"sw":2063,"Ġhigher":2064,"Ġline":2065,"Ġcity":2066,"Ġut":2067,"Ġestab":2068,"af":2069,"ification":2070,"Ġtaking":2071,"ĠOur":2072,"vert":2073,"Ġmusic":2074,"Ġnecessary":2075,"ĠDo":2076,"Ġeverything":2077,"Ġproblem":2078,"Ġface":2079,"Ġcra":2080,"Ġsafety":2081,"Ġprior":2082,"Ġcosts":2083,"ĠTra":2084,"Ġmess":2085,"ĠEng":2086,"Ġaffect":2087,"Ġtrust":2088,"iple":2089,"Ġhappen":2090,"Ġsomeone":2091,"aps":2092,"Ġport":2093,"Ġleast":2094,"Ġquestions":2095,"Ġexc":2096,"Ġbit":2097,"Ġactivities":2098,"ĠServ":2099,"Ġoffic":2100,"ane":2101,"ators":2102,"ivity":2103,"Ġregular":2104,"ief":2105,"Ġavoid":2106,"Ġregard":2107,"Ġtreatment":2108,"Ġrequired":2109,"ests":2110,"Ġbal":2111,"ters":2112,"Ġtarget":2113,"irc":2114,"istic":2115,"Ġclose":2116,"ĠOne":2117,"Ġconditions":2118,"Ġdesigned":2119,"Ġmonths":2120,"Ġenter":2121,"Ġchanges":2122,"Ġdocu":2123,"Ġbat":2124,"Ġrecogn":2125,"alf":2126,"way":2127,"19":2128,"hing":2129,"illed":2130,"Ġhours":2131,"Ġspe":2132,"Ġcollect":2133,"Ġfield":2134,"ograph":2135,"Ġoverall":2136,"eal":2137,"Ġinflu":2138,"ĠCont":2139,"Ġpolit":2140,"Ġsimple":2141,"erc":2142,"ĠIm":2143,"An":2144,"Ġassoci":2145,"ctor":2146,"Ġstarted":2147,"omes":2148,"ging":2149,"irt":2150,"ĠAm":2151,"Ġoptim":2152,"rict":2153,"ĠLe":2154,"Ġorig":2155,"Ġinnov":2156,"Ġmedical":2157,"idd":2158,"Ġexist":2159,"ends":2160,"crib":2161,"though":2162,"rain":2163,".\"":2164,"Ġthought":2165,"unt":2166,"Ġchoice":2167,"rect":2168,"Ġcaus":2169,"Ġfit":2170,"room":2171,"eral":2172,"ued":2173,"ĠFr":2174,"ĠWhile":2175,"angu":2176,"Ġdeb":2177,"Ġdemand":2178,"part":2179,"Ġ18":2180,"Ġparticip":2181,"Ġquestion":2182,"Ġsound":2183,"Ġregul":2184,"Ġexpert":2185,"Ġstruct":2186,"Ġhot":2187,"ery":2188,"Ġskin":2189,"inking":2190,"reng":2191,"Ġreach":2192,"aged":2193,"ene":2194,"Ġcomplex":2195,"lished":2196,"Ġdeep":2197,"10":2198,"ilt":2199,"ER":2200,"Ġloss":2201,"Ġwide":2202,"Ġinstall":2203,"Ġtell":2204,"urop":2205,"50":2206,"ĠPr":2207,"Ġsuper":2208,"Ġneeded":2209,"ĠCo":2210,"yn":2211,"Ġstore":2212,"Ġresources":2213,"Ġneg":2214,"Ġsust":2215,"Ġseason":2216,"Ġsolutions":2217,"Ġchallenges":2218,"Ġage":2219,"ched":2220,"Ġquickly":2221,"ull":2222,"app":2223,"Ġposition":2224,"Ġsimply":2225,"Ġdog":2226,"Ġcame":2227,"err":2228,"Ġful":2229,"Ġla":2230,"Ġcou":2231,"Ġentire":2232,"Ġmillion":2233,"go":2234,"Ġsense":2235,"Ġextra":2236,"Ġemb":2237,"Ġgiven":2238,"Ġensuring":2239,"ony":2240,"time":2241,"Ġcause":2242,"Ġproblems":2243,"ĠSome":2244,"Ġtypes":2245,"ĠMed":2246,"Ġoil":2247,"Ġeveryone":2248,"Ġcontract":2249,"isions":2250,"cri":2251,"gle":2252,"Ġi":2253,"xim":2254,"Ġvol":2255,"Ġsustain":2256,"Ġmaterials":2257,"new":2258,"Ġtext":2259,"rodu":2260,"Ġcreating":2261,"Ġansw":2262,"Ġsex":2263,"Ġoption":2264,"Ġ12":2265,"Ġminut":2266,"Ġnight":2267,"Ġclients":2268,"Ġwhole":2269,"iable":2270,"Ġarr":2271,"Ġsales":2272,"ĠNo":2273,"Ġlevels":2274,"ott":2275,"Ġsugg":2276,"Ġlater":2277,"Ġseen":2278,"Ġjourney":2279,"Ġsat":2280,"Ġyet":2281,"ufact":2282,"Ġtas":2283,"lt":2284,"Ġdecision":2285,"une":2286,"Ġaction":2287,"Ġsum":2288,"Ġfriends":2289,"Ġsle":2290,"ls":2291,"just":2292,"uck":2293,"Ġwind":2294,"hold":2295,"ĠAmerican":2296,"Ġliving":2297,"Ġinteract":2298,"ley":2299,"Ġterms":2300,"ruction":2301,"Ġpack":2302,"Ġevents":2303,"ik":2304,"olution":2305,"Ġbar":2306,"Ġce":2307,"light":2308,"Ġminim":2309,"urope":2310,"Ġinsurance":2311,"ĠMar":2312,"ĠUnited":2313,"Ġhowever":2314,"Ġabove":2315,"Ġpie":2316,"acks":2317,"Ġeducation":2318,"Ġsingle":2319,"Ġopportunities":2320,"clus":2321,"Ġprob":2322,"hens":2323,"Ġadditional":2324,"Ġfail":2325,"Ġincludes":2326,"ĠRep":2327,"Ġattention":2328,"Ġcy":2329,"ĠCar":2330,"ĠCent":2331,"atory":2332,"roll":2333,"Ġremain":2334,"Ġsimilar":2335,"Ġwa":2336,"Ġstreng":2337,"Ġleaders":2338,"ĠMy":2339,"Ġguid":2340,"Ġbreak":2341,"Ġengine":2342,"iously":2343,"Ġcontinue":2344,"ler":2345,"Ġparent":2346,"ĠUniversity":2347,"Ġ30":2348,"Ġwon":2349,"Ġrepresent":2350,"Ġbelieve":2351,"ables":2352,"Ġlif":2353,"Ġarticle":2354,"Ġapplication":2355,"ister":2356,"back":2357,"hers":2358,"Ġupd":2359,"Ġreduce":2360,"Ġcharacter":2361,"Ġfall":2362,"Ġemot":2363,"Ġlonger":2364,"Ġfactors":2365,"alu":2366,"Ġtot":2367,"Ġflow":2368,"Ġselect":2369,"Ġthroughout":2370,"hether":2371,"Ġidea":2372,"vant":2373,"Ġ[":2374,"Ġveh":2375,"ression":2376,"par":2377,"Ġprovided":2378,"Ġsens":2379,"Ġphysical":2380,"Ġsmo":2381,"Ġpers":2382,"Ġglobal":2383,"Ġmodel":2384,"Ġrequirements":2385,"ĠAfter":2386,"ules":2387,"EO":2388,"Ġtook":2389,"Ġmatter":2390,"based":2391,"Ġusually":2392,"load":2393,"Ġcirc":2394,"Ġstat":2395,"vent":2396,"ĠAss":2397,"Ġachieve":2398,"ĠX":2399,"Ġopportunity":2400,"ĠEurope":2401,"Ġanaly":2402,"oud":2403,"Ġcredit":2404,"Ġvariety":2405,"sh":2406,"atives":2407,"Ġconvers":2408,"augh":2409,"ĠHere":2410,"Ġjo":2411,"nces":2412,"irit":2413,"Ġthird":2414,"Ġtraditional":2415,"ĠWor":2416,"Ġpositive":2417,"Ġinvestment":2418,"Ġexplore":2419,"Ġadvant":2420,"reme":2421,"Ġrather":2422,"Ġpolicy":2423,"Ġcases":2424,"Ġagree":2425,"Ġbud":2426,"Ġabs":2427,"Ġobject":2428,"Ġisn":2429,"obile":2430,"Ġseem":2431,"aving":2432,"Ġgoals":2433,"care":2434,"Ġlay":2435,"face":2436,"Ġpractice":2437,"ĠCons":2438,"Ġrespect":2439,"Ġsubject":2440,"Ġlangu":2441,"Ġworth":2442,"Ġeasily":2443,"Ġconsist":2444,"itor":2445,"Ġz":2446,"unch":2447,"elt":2448,"ological":2449,"Ġissue":2450,"Ġimplement":2451,"ili":2452,"Ġwatch":2453,"Ġfive":2454,"rip":2455,"ows":2456,"erous":2457,"Ġaspect":2458,"Ġgain":2459,"come":2460,"Ġpage":2461,"Ġcard":2462,"Ġ15":2463,"ival":2464,"Ġmanufact":2465,"Ġaccept":2466,"etimes":2467,"iency":2468,"ysis":2469,"Ġblood":2470,"Ġded":2471,"Ġgen":2472,"Ġlower":2473,"emic":2474,"Ġencoura":2475,"yond":2476,"Ġstrategies":2477,"aily":2478,"het":2479,"Ġweight":2480,"umm":2481,"ĠGu":2482,"Ġexcell":2483,"Ġprim":2484,"Ġstress":2485,"Ġbehav":2486,"ĠSec":2487,"ively":2488,"Ġeither":2489,"ĠSy":2490,"Ġleading":2491,"Ġlog":2492,"Ġsize":2493,"Ġmodern":2494,"Ġrate":2495,"rant":2496,"Ġstrategy":2497,"Ġreceive":2498,"Ġcannot":2499,"Ġstaff":2500,"Ġrecommend":2501,"But":2502,"ecut":2503,"Ġste":2504,"isc":2505,"iring":2506,"Ġnews":2507,".,":2508,"Ch":2509,"play":2510,"Ġhy":2511,"iol":2512,"Ġemployees":2513,"Ġmultiple":2514,"Ġdamage":2515,"Ġask":2516,"Ġapply":2517,"Ġfeed":2518,"Ġtou":2519,"Ġproduction":2520,"ops":2521,"ĠHis":2522,"Ġprojects":2523,"Ġground":2524,"iful":2525,"Ġmach":2526,"Ġhair":2527,"Ġinj":2528,"ises":2529,"ening":2530,"oll":2531,"Ġthemselves":2532,"Ġdest":2533,"Ġanything":2534,"erence":2535,"resh":2536,"Ġidentify":2537,"minist":2538,"Ġintegr":2539,"Ġnature":2540,"pose":2541,"Ġattract":2542,"Ġrout":2543,"ĠReg":2544,"Ġgeneral":2545,"Ġcover":2546,"Ġpromot":2547,"Ġwent":2548,"head":2549,"ze":2550,"Ġpercent":2551,"wor":2552,"Ġcoun":2553,"Ġfoot":2554,"AT":2555,"oved":2556,"And":2557,"Ġprograms":2558,"Ġorganiz":2559,"ĠUs":2560,"One":2561,"Ġred":2562,"Ġalmost":2563,"Ġassess":2564,"orpor":2565,"gest":2566,"Ġcomput":2567,"aign":2568,"Ġtowards":2569,"ender":2570,"urch":2571,"Ġtakes":2572,"Ġexperiences":2573,"term":2574,"Ġmag":2575,"Ġet":2576,"Ġcareer":2577,"Ġbehind":2578,"Ġtaken":2579,"Ġaudience":2580,"ctions":2581,"Ġmoment":2582,"Ġfeature":2583,"Ġsolution":2584,"Ġstyle":2585,"So":2586,"Ġlat":2587,"Ġtrend":2588,"rug":2589,"Ġimmed":2590,"Ġtrying":2591,"Ġquite":2592,"Ġrights":2593,"ĠAg":2594,"Ġemerg":2595,"Ġdom":2596,"ĠEm":2597,"âĢĵ":2598,"oogle":2599,"With":2600,"Ġbelow":2601,"Ġtrue":2602,"Ġefficient":2603,"sy":2604,"Ġparticularly":2605,"Ġincreasing":2606,"Ġtransform":2607,"Ġ.":2608,"Ġoffering":2609,"Ġpartners":2610,"ipment":2611,"Ġtrack":2612,"Ġupon":2613,"put":2614,"aches":2615,"rehens":2616,"ĠFrom":2617,"itable":2618,"Ġhost":2619,"ox":2620,"Ġdetails":2621,"uff":2622,"Ġaim":2623,"Ġwriting":2624,"Ġlives":2625,"Ġcountries":2626,"IN":2627,"ditionally":2628,"ĠMay":2629,"Ġgames":2630,"dd":2631,"Ġaware":2632,"Ġfast":2633,"Ġoutside":2634,"Ġwords":2635,"Ġforward":2636,"Ġready":2637,"ĠStates":2638,"ĠNot":2639,"ropri":2640,"iver":2641,"Ġprofession":2642,"Ġsent":2643,"Ġfavor":2644,"Ġaccording":2645,"Ġwond":2646,"ES":2647,"ples":2648,"inks":2649,"overed":2650,"onst":2651,"Ġbi":2652,"Ġprivate":2653,"ĠDr":2654,"Ġcollabor":2655,"Ġmiss":2656,"Ġprec":2657,"Ġtalk":2658,"Ġcontain":2659,"asons":2660,"Ġnetwork":2661,"izes":2662,"ĠKe":2663,"Ġitems":2664,"Ġinternational":2665,"astic":2666,"Ġcommunication":2667,"like":2668,"Ġexerc":2669,"mber":2670,"Ġcapt":2671,"rast":2672,"ext":2673,"rew":2674,"Ġoffice":2675,"Ġtherap":2676,"Ġfront":2677,"wise":2678,"ming":2679,"enn":2680,"Ġchat":2681,"rec":2682,"ĠAf":2683,"ĠIntern":2684,"Ġmor":2685,"ĠAct":2686,"Ġplayers":2687,"Ġindic":2688,"Ġparty":2689,"Ġpractices":2690,"ager":2691,"Ġtour":2692,"tt":2693,"Ġelse":2694,"Ġcell":2695,"Ġminutes":2696,"Ġheav":2697,"cking":2698,"ume":2699,"Ġcreated":2700,"ww":2701,"Ġrev":2702,"Ġdrive":2703,"illing":2704,"Ġleave":2705,"Ġpoints":2706,"Ġrelated":2707,"Ġroad":2708,"Ġinside":2709,"Ġdise":2710,"oms":2711,"Ġtold":2712,"Ġculture":2713,"Ġsubst":2714,"icro":2715,"Ġeffects":2716,"ĠChe":2717,"Ġbudget":2718,"Ġitself":2719,"rs":2720,"Ġsell":2721,"uge":2722,"Ġmass":2723,"erve":2724,"Ġrecent":2725,"Ġaccur":2726,"icles":2727,"ĠCO":2728,"AR":2729,"anks":2730,"gra":2731,"Ġcritical":2732,"Ġsho":2733,"where":2734,"ux":2735,"ĠHealth":2736,"Ġsuggest":2737,"Ġcampaign":2738,"Ġbeautiful":2739,"Ġutil":2740,"Ġpatients":2741,"Ġorganization":2742,"Ġdate":2743,"su":2744,"ĠFl":2745,"oph":2746,"Ġhealthy":2747,"itch":2748,"Ġreflect":2749,"Ġsecure":2750,"He":2751,"ĠMe":2752,"Ġdeliver":2753,"ublic":2754,"Ġguide":2755,"book":2756,"Ġbad":2757,"ĠPart":2758,"empt":2759,"Ġsleep":2760,"avig":2761,"Ġcoming":2762,"Ġdirectly":2763,"Ġsuccessful":2764,"ĠState":2765,"Ġplatforms":2766,"ĠJoh":2767,"Ġdaily":2768,"Ġ100":2769,"Ġconsult":2770,"Ġnorm":2771,"Ġcondition":2772,"rown":2773,"Ġaltern":2774,"era":2775,"ĠCal":2776,"Ġanim":2777,"Ġstream":2778,"Ġill":2779,"ĠQu":2780,"Ġopp":2781,"Ġhope":2782,"Ġcry":2783,"Ġshall":2784,"ancing":2785,"Ġmanage":2786,"Ġinvolved":2787,"Ġpath":2788,"Ġeconomic":2789,"inary":2790,"Ġasked":2791,"Ġstra":2792,"Ġfrequ":2793,"aching":2794,"Ġdefin":2795,"Ġfig":2796,"Ġcourt":2797,"Ġsatis":2798,"Ġintrodu":2799,"Ġplanning":2800,"Ġones":2801,"ties":2802,"Ġprobably":2803,"Ġsituation":2804,"Ġseries":2805,"Ġrates":2806,"Ġexact":2807,"Ġsoon":2808,"ball":2809,"aced":2810,"standing":2811,"Ġcolor":2812,"ĠAcc":2813,"Ġtypically":2814,"Ġhalf":2815,"reet":2816,"Ġdeath":2817,"Ġdou":2818,"Ġallowing":2819,"rehensive":2820,"Ġsteps":2821,"Ġphone":2822,"ands":2823,"umb":2824,"ection":2825,"Ġvalu":2826,"oice":2827,"Ġlocation":2828,"airs":2829,"hood":2830,"med":2831,"Ġresid":2832,"Ġplans":2833,"ications":2834,"Ġadjust":2835,"30":2836,"iques":2837,"Ġwanted":2838,"cast":2839,"Ġlanguage":2840,"ole":2841,"Ġqual":2842,"aur":2843,"epend":2844,"tenance":2845,"att":2846,"ĠMin":2847,"Ġinsp":2848,"Ġrequires":2849,"ĠAb":2850,"Ġshows":2851,"idered":2852,"ster":2853,"cks":2854,"Ġpred":2855,"Ġlink":2856,"Ġbeyond":2857,"Ġpolitical":2858,"artment":2859,"Ġfire":2860,"Ġbed":2861,"Ġeffectively":2862,"ĠGoogle":2863,"Ġexcept":2864,"Ġplant":2865,"Ġnut":2866,"pre":2867,"ground":2868,"Ġfinal":2869,"Ġhighly":2870,"oon":2871,"Ġassociated":2872,"Ġswe":2873,"Ġpurchase":2874,"Ġdecisions":2875,"Al":2876,"Ġviol":2877,"Ġwhite":2878,"spect":2879,"Ġexcellent":2880,"lection":2881,"onse":2882,"Ġgir":2883,"Ġequipment":2884,"Ġblog":2885,"Ġpowerful":2886,"ĠWhether":2887,"Ġpick":2888,"iation":2889,"Ġnational":2890,"Ġconduct":2891,"ĠPres":2892,"Ġbuilt":2893,"ID":2894,"Ġspeed":2895,"ĠNational":2896,"Ġharm":2897,"Ġur":2898,"Ġspirit":2899,"Ġanalysis":2900,"Ġbroad":2901,"Ġobs":2902,"Ġhon":2903,"Ġbenefit":2904,"Ġcat":2905,"Ġgam":2906,"While":2907,"Ġproced":2908,"Ġmeaning":2909,"Ġpressure":2910,"ĠPe":2911,"hel":2912,"ĠFin":2913,"Ġfram":2914,"ĠPer":2915,"ĠAust":2916,"Ġblack":2917,"ison":2918,"Ġadded":2919,"Ġconsidered":2920,"Ġvac":2921,"aries":2922,"On":2923,"AN":2924,"Ġsix":2925,"Ġnothing":2926,"ĠÂ":2927,"Ġfilm":2928,"wh":2929,"Ġcam":2930,"itation":2931,"Ġpayment":2932,"Ġlimited":2933,"Ġprotection":2934,"Ġprogress":2935,"Ġmention":2936,"Ġ199":2937,"Ġdevices":2938,"Ġfresh":2939,"Ġdeg":2940,"Ġfa":2941,"Ġmatch":2942,"Ġsupply":2943,"Ġmethods":2944,"Ġcele":2945,"force":2946,"Ġstandard":2947,"Ġgoal":2948,"hib":2949,"reg":2950,"Ġgroups":2951,"Ġrequest":2952,"Ġbase":2953,"Ġspeak":2954,"Ġappropri":2955,"Ġstop":2956,"Ġsites":2957,"Ġideas":2958,"Ġgrowing":2959,"ĠInt":2960,"ON":2961,"ung":2962,"Ġrunning":2963,"Ġ11":2964,"sequ":2965,"ĠSouth":2966,"Ġdocument":2967,"Ġapplications":2968,"ĠDep":2969,"Ġ0":2970,"Ġpen":2971,"Ġstru":2972,"Ġincreased":2973,"Ġ'":2974,"Ġhands":2975,"Ġsubs":2976,"Ġslow":2977,"Ġremember":2978,"arant":2979,"Ġtouch":2980,"akes":2981,"abilities":2982,"Ġcop":2983,"Ġmental":2984,"ials":2985,"Ġmobile":2986,"Ġbecame":2987,"Ġanyone":2988,"Ġpict":2989,"Ġcand":2990,"Ġinstitut":2991,"Ġpurpose":2992,"Ġthreat":2993,"ana":2994,"Ġdescrib":2995,"ologies":2996,"ĠBu":2997,"Ġord":2998,"ided":2999,"...":3000,"Ġorganizations":3001,"Ġdraw":3002,"Ġli":3003,"ĠFe":3004,"Ġdrug":3005,"Ġ50":3006,"Ġpan":3007,"Ġconcept":3008,"Ġcompon":3009,"vest":3010,"Ġ2024":3011,"na":3012,"icated":3013,"Ġflex":3014,"Ġtemper":3015,"erences":3016,"ude":3017,"Ġjud":3018,",\"":3019,"Ġextreme":3020,"Ġdiet":3021,"Ġwall":3022,"Ġsym":3023,"Ġeffort":3024,"Ġparts":3025,"ĠGl":3026,"Ġeasier":3027,"sych":3028,"oming":3029,"lier":3030,"By":3031,"Ġefforts":3032,"iction":3033,"Ġexecut":3034,"Ġcorrect":3035,"ension":3036,"Ġvia":3037,"Ġadapt":3038,"Ġbalance":3039,"Ġbur":3040,"Ġing":3041,"uth":3042,"Ġpaper":3043,"Ġinstead":3044,"Ġevalu":3045,"Ġstrength":3046,"Ġlab":3047,"arily":3048,"ĠWorld":3049,"ĠSm":3050,"olic":3051,"Ġmember":3052,"Ġmaxim":3053,"Ġult":3054,"Ġpret":3055,"Ġcomprehensive":3056,"Ġsche":3057,"Ġnavig":3058,"Ġstudent":3059,"Ġefficiency":3060,"Ġtotal":3061,"ada":3062,"Ġinternet":3063,"ences":3064,"ishing":3065,"orage":3066,"Ġadminist":3067,"Ġago":3068,"Ġinsights":3069,"ĠYork":3070,"Ġbank":3071,"ĠJust":3072,"ĠPre":3073,"Ġhol":3074,"Ġideal":3075,"Ġobtain":3076,"Ġadvert":3077,"Ġsource":3078,"Ġcool":3079,"ober":3080,"Ġrad":3081,"ĠDon":3082,"Ġactivity":3083,"ederal":3084,"Ġlandsc":3085,"Ġincome":3086,"ades":3087,"itary":3088,"ille":3089,"Ġexpress":3090,"yl":3091,"Ġdevice":3092,"Ġtable":3093,"Ġund":3094,"Ġestablish":3095,"Ġsave":3096,"Ġrelevant":3097,"place":3098,"Ġetc":3099,"ĠRec":3100,"aves":3101,"Ġcert":3102,"friend":3103,"Ġthinking":3104,"At":3105,"Ġsaw":3106,"ĠAfric":3107,"Ġowners":3108,"Ġparents":3109,"Ġeyes":3110,"Ġmix":3111,"sec":3112,"word":3113,"ibly":3114,"rate":3115,"12":3116,"ĠMore":3117,"Ġvaluable":3118,"enses":3119,"ĠBo":3120,"ĠInc":3121,"agn":3122,"Ġevidence":3123,"ession":3124,"Ġgiving":3125,"Ġgoes":3126,"ament":3127,"Ġprofessionals":3128,"Ġthr":3129,"Ġreceived":3130,"'ve":3131,"more":3132,"Ġconnection":3133,"Ġsignificantly":3134,"imin":3135,"Ġgives":3136,"earch":3137,"enge":3138,"ha":3139,"ĠCity":3140,"OR":3141,"Ġweeks":3142,"lation":3143,"Ġlic":3144,"Ġrelationships":3145,"Ġhistor":3146,"Ġresponse":3147,"AS":3148,"Ġsil":3149,"Ġsmart":3150,"ule":3151,"quality":3152,"antly":3153,"Ġcapital":3154,"Ġ24":3155,"Ġrespond":3156,"cription":3157,"Ġcommer":3158,"Ġdifference":3159,"Ġprocesses":3160,"Ġprem":3161,"ĠOf":3162,"Ġtechniques":3163,"itc":3164,"Ġfair":3165,"ĠIndia":3166,"Ġeye":3167,"Ġdream":3168,"Ġfight":3169,"ĠMarket":3170,"Ġhealthcare":3171,"Ġtail":3172,"Ġanswer":3173,"ales":3174,"chan":3175,"Ġclient":3176,"Ġsepar":3177,"Ġfully":3178,"Ġcompletely":3179,"Ġ14":3180,"Ġafford":3181,"aling":3182,"Ġtips":3183,"ying":3184,"AC":3185,"Ġoperations":3186,"iding":3187,"overy":3188,"Ġmis":3189,"Ġarch":3190,"Ġsometimes":3191,"Ġheld":3192,"lig":3193,"Ġdark":3194,"ĠStud":3195,"Ġfelt":3196,"Ġchance":3197,"Ġmaintenance":3198,"Ġpatient":3199,"Ġadvanced":3200,"Ġmeeting":3201,"Ġrisks":3202,"Ġbegan":3203,"Ġarg":3204,"Ġimportance":3205,"Ġcontinu":3206,"Ġexperienced":3207,"Ġpattern":3208,"Ġregarding":3209,"aly":3210,"Ġtransport":3211,"Ġreasons":3212,"Ġconven":3213,"Ġver":3214,"Ġmale":3215,"Ġemp":3216,"ĠMany":3217,"Ġ16":3218,"ĠHer":3219,"ams":3220,"Ġdri":3221,"Ġelements":3222,"esc":3223,"Ġboost":3224,"Ġblock":3225,"bor":3226,"ĠUK":3227,"Ġprefer":3228,"Ġexplain":3229,"ached":3230,"IS":3231,"ecause":3232,"Ġresponsible":3233,"istics":3234,"ellig":3235,"haps":3236,"iddle":3237,"Ġensures":3238,"Ġbox":3239,"Ġtit":3240,"ĠNorth":3241,"ously":3242,"pper":3243,"Ġalign":3244,"Ġpropos":3245,"ĠAre":3246,"Ġep":3247,"ĠAmerica":3248,"ĠNow":3249,"ĠSoc":3250,"Ġprinc":3251,"Ġteams":3252,"Ġcouple":3253,"Ġoriginal":3254,"ĠChina":3255,"Ġprices":3256,"Ġcross":3257,"Ġkids":3258,"Ġfeeling":3259,"ĠRuss":3260,"ese":3261,"Ġsn":3262,"lying":3263,"Ġdry":3264,"Ġhit":3265,"Ġvehicle":3266,"ceed":3267,"Ġpaid":3268,"Ġdownload":3269,"Ġscreen":3270,"Ġsuff":3271,"Ġboard":3272,"amic":3273,"nal":3274,"Ġacqu":3275,"Ġdiv":3276,"asc":3277,"ĠHar":3278,"Ġdistribut":3279,"Ġseems":3280,"Ġattempt":3281,"Ġmother":3282,"Ġdur":3283,"Pro":3284,"ilies":3285,"lim":3286,"'ll":3287,"hest":3288,"Ġlost":3289,"Ġpref":3290,"ĠServices":3291,"Ġadop":3292,"Our":3293,"Ġsetting":3294,"ils":3295,"Ġheat":3296,"ĠBar":3297,"Ġconc":3298,"Ġuses":3299,"Ġlatest":3300,"Ġstates":3301,"Ġdemonst":3302,"Ġreve":3303,"Ġcarry":3304,"Ġrent":3305,"ĠLet":3306,"Ġexpertise":3307,"Ġrob":3308,"ĠAdditionally":3309,"Ġstrugg":3310,"ker":3311,"Ġadvice":3312,"Ġreading":3313,"ky":3314,"ĠDes":3315,"Ġsection":3316,"Ġmodels":3317,"Ġworked":3318,"Ġpeace":3319,"Ġwarm":3320,"Ġaverage":3321,"Ġstandards":3322,"Ġcommitment":3323,"ummies":3324,"ED":3325,"Ġled":3326,"Ġhelping":3327,"Ġstage":3328,"ĠTw":3329,"tery":3330,"ĠPar":3331,"Ġstarting":3332,"iday":3333,"Ġcash":3334,"eria":3335,"ĠHigh":3336,"Ġappropriate":3337,"Ġgreen":3338,"Ġcook":3339,"iately":3340,"IT":3341,"irth":3342,"Ġincluded":3343,"Ġtown":3344,"Ġhor":3345,"Ġfix":3346,"board":3347,"Ġhuge":3348,"Ġtransact":3349,"Ex":3350,"Ġoccur":3351,"ĠOff":3352,"Ġexpand":3353,"Ġguarant":3354,"Ġcomfortable":3355,"Ġplease":3356,"icing":3357,"Ġsun":3358,"Ġdoor":3359,"Ġgreater":3360,"Ġvirt":3361,"ĠBusiness":3362,"aks":3363,"Ġfirm":3364,"Ġinvestig":3365,"Ġwood":3366,"Ad":3367,"ĠCour":3368,"Ġnote":3369,"Ġfra":3370,"Ġfat":3371,"iles":3372,"gar":3373,"Ġplaces":3374,"rought":3375,"Ġwoman":3376,"bd":3377,"Ġwrong":3378,"amm":3379,"Ġlib":3380,"Ġpartner":3381,"ĠAut":3382,"Ġappeal":3383,"Ġconstruction":3384,"Ġlate":3385,"'m":3386,"Ġexpected":3387,"Ġmoving":3388,"Ġconcerns":3389,"enty":3390,"Ġcleaning":3391,"year":3392,"rel":3393,"Ġcommercial":3394,"rated":3395,"//":3396,"Ġtast":3397,"Ġten":3398,"Ġcommunities":3399,"Ġadvance":3400,"11":3401,"idge":3402,"IC":3403,"Ġserve":3404,"Ġplaying":3405,"Ã©":3406,"Ġindepend":3407,"Ġ25":3408,"ĠJohn":3409,"Ġcurrently":3410,"encies":3411,"Ġelectric":3412,"rupt":3413,"ios":3414,"hips":3415,"rael":3416,"icip":3417,"Ġhappy":3418,"Ġseeking":3419,"Ġsports":3420,"ashion":3421,"Ġnar":3422,"âĢĿ.":3423,"Ġcelebr":3424,"Ġexisting":3425,"Ġfarm":3426,"Ġspend":3427,"Ġtransfer":3428,"Ġregion":3429,"pris":3430,"Ġstraight":3431,"Ġregist":3432,"Ġ2020":3433,"eter":3434,"Ġspot":3435,"Ġwritten":3436,"Ġdiscover":3437,"Ġdeveloped":3438,"Ġlack":3439,"Ġpretty":3440,"Ġactive":3441,"ancy":3442,"ronic":3443,"Ġdetermine":3444,"EN":3445,"Ġnumerous":3446,"Ġgradu":3447,"Ġpet":3448,"mission":3449,"Ġstorage":3450,"aint":3451,"Ġcultural":3452,"Ġsmooth":3453,"ĠUse":3454,"Ġadvantage":3455,"ĠAustral":3456,"Ġ2023":3457,"ĠArt":3458,"ĠMr":3459,"ffee":3460,"Ġrules":3461,"Ġstories":3462,"iveness":3463,"Ġgenerally":3464,"Ġbreat":3465,"These":3466,"Is":3467,"Ġimmediately":3468,"osure":3469,"vey":3470,"itely":3471,"Ġbab":3472,"Ġtasks":3473,"Ġbehavior":3474,"Ġtur":3475,"ivil":3476,"ĠMost":3477,"Ġhandle":3478,"Ġsurround":3479,"Ġtrade":3480,"ma":3481,"Ġtruly":3482,"Ġ13":3483,"Ġnotice":3484,"Ġbag":3485,"Ġdiverse":3486,"ĠCount":3487,"ened":3488,"Ġgold":3489,"Ġworkers":3490,"Ġinterview":3491,"Ġstructure":3492,"ffect":3493,"friendly":3494,"ino":3495,"Ġversion":3496,"mon":3497,"Ġtraffic":3498,"dom":3499,"Ġlimit":3500,"ĠThen":3501,"Ġsong":3502,"change":3503,"Ġsett":3504,"ĠTheir":3505,"Ġcorpor":3506,"Ġparties":3507,"Ġbus":3508,"Ġcompared":3509,"Ġenvironmental":3510,"org":3511,"Ġ17":3512,"Ġvict":3513,"ĠSchool":3514,"Ġteac":3515,"Ġdisease":3516,"ĠAir":3517,"ipping":3518,"Ġadult":3519,"ruit":3520,"ev":3521,"ups":3522,"Ġpiece":3523,"Ġshared":3524,"ptoms":3525,"Ġingred":3526,"Ġfamilies":3527,"Ġwonder":3528,"Ġoutd":3529,"Ġrefer":3530,"?âĢĿ":3531,"Ġchallenge":3532,"Ġhosp":3533,"Ġsqu":3534,"Ġapprec":3535,"Ġsend":3536,"://":3537,"Ġinformed":3538,"ica":3539,"Ġbasic":3540,"atively":3541,"acity":3542,"ĠBr":3543,"Ġball":3544,"Ġbelie":3545,"Ġdelivery":3546,"Ġremains":3547,"Ġproduce":3548,"azing":3549,"ĠWar":3550,"Ġincorpor":3551,"omp":3552,"Ġcomputer":3553,"Ġinvolves":3554,"ĠGe":3555,"Ġpresence":3556,"Ġcertainly":3557,"ĠDis":3558,"ĠSEO":3559,"After":3560,"Ġreviews":3561,"Ġcenter":3562,"Ġdead":3563,"Ġcharge":3564,"ĠPresident":3565,"wide":3566,"ĠEven":3567,"Ġfear":3568,"Ġhous":3569,"Ġsociety":3570,"Ġreput":3571,"Ġcode":3572,"Ġpolicies":3573,"Ġprimary":3574,"efore":3575,"Ġreliable":3576,"Ġbra":3577,"Ġlarger":3578,"Ġmechan":3579,"ĠRem":3580,"free":3581,"bon":3582,"Ġformer":3583,"ĠNet":3584,"Ġrich":3585,"Ġmachine":3586,"Ġiniti":3587,"ĠSw":3588,"Ġbooks":3589,"used":3590,"Ġmeasures":3591,"ĠGener":3592,"Ġexactly":3593,"15":3594,"lease":3595,"Ġmovement":3596,"body":3597,"ĠLaw":3598,"Ġdriving":3599,"Ġrecently":3600,"Ġvisual":3601,"Ġwebsites":3602,"phas":3603,"my":3604,"Ġter":3605,"Ġrap":3606,"Ġexercise":3607,"Ġpsych":3608,"venue":3609,"ĠProf":3610,"Ġestate":3611,"Ġreplace":3612,"ĠTH":3613,"Ġaspects":3614,"ĠWill":3615,"Ġinfluence":3616,"formation":3617,"vere":3618,"ĠGerm":3619,"Ġfinding":3620,"ĠMc":3621,"Ġalone":3622,"Ġtrad":3623,"ĠJes":3624,"Ġimage":3625,"ought":3626,"Ġ40":3627,"Ġcollection":3628,"Ġtesting":3629,"Ġactions":3630,"Ġsaying":3631,"ĠIsrael":3632,"Ġdyn":3633,"off":3634,"Ġclin":3635,"Ġclimate":3636,"Ġchann":3637,"being":3638,"apan":3639,"ĠRed":3640,"Ġimag":3641,"Ġcateg":3642,"Ġgas":3643,"Ġvoice":3644,"Ġdating":3645,"Ġserious":3646,"Ġvital":3647,"Ġwalk":3648,"Ġprevious":3649,"Ġmount":3650,"Ġgard":3651,"Ġlaws":3652,"Ġdisplay":3653,"Ġmyself":3654,"Ġinteresting":3655,"ifying":3656,"Ġneigh":3657,"Ġinterested":3658,"ructure":3659,"ocks":3660,"Ġ2022":3661,"set":3662,"Ġtechnologies":3663,"Ġexperts":3664,"Ġloan":3665,"ares":3666,"Ġspread":3667,"gram":3668,"Ġfavorite":3669,"Ġemotional":3670,"itect":3671,"Ġtechnical":3672,"Ġvib":3673,"Ġroof":3674,"Ġlooks":3675,"Ġtele":3676,"ĠSte":3677,"Ġvalues":3678,"ĠCommun":3679,"Ġchem":3680,"Ġrelig":3681,"Ġapart":3682,"ĠPark":3683,"Ġtim":3684,"inct":3685,"Ġscient":3686,"Ġcandid":3687,"Ġoffered":3688,"Ġbrought":3689,"unction":3690,"ĠJan":3691,"ĠTechn":3692,"Ġeth":3693,"Ġwasn":3694,"Ġengagement":3695,"AL":3696,"Ġstudies":3697,"Ġremov":3698,"amed":3699,"Ġahead":3700,"Ġbecomes":3701,"Ġdepending":3702,"Ġgets":3703,"overn":3704,"arter":3705,"Ġrelax":3706,"ĠSim":3707,"olute":3708,"ĠFirst":3709,"ĠEd":3710,"Ġachie":3711,"Ġdang":3712,"Ġhear":3713,"Ġforce":3714,"ĠService":3715,"ĠBlack":3716,"Ġban":3717,"Ġsustainable":3718,"Ġimpl":3719,"Ġdeveloping":3720,"Ġmaintaining":3721,"Ġrelease":3722,"Ġsources":3723,"Ġkeeping":3724,"Ġwrite":3725,"etic":3726,"ok":3727,"urt":3728,".)":3729,"Ġthous":3730,"ĠEvery":3731,"rows":3732,"oke":3733,"Ġinstance":3734,"Ġ2021":3735,"ban":3736,"Ġrecip":3737,"Ġsold":3738,"Ġround":3739,"Ġbasis":3740,"Ġmeasure":3741,"Ġhimself":3742,"Ġtend":3743,"Ġcompli":3744,"ĠTrans":3745,"Ġmessage":3746,"Ġfost":3747,"ĠMus":3748,"Ġseek":3749,"Ġknew":3750,"fficient":3751,"ĠBrit":3752,"Ġbott":3753,"Ġbeginning":3754,"ĠAc":3755,"ĠHouse":3756,"Ġmilitary":3757,"ample":3758,"lies":3759,"Ġbrain":3760,"Ġreact":3761,"Ġsector":3762,"Ġsymptoms":3763,"Ġheard":3764,"ersonal":3765,"ĠMon":3766,"Ġdedicated":3767,"Ġuseful":3768,"Ġvary":3769,"Ġtrip":3770,"ĠPa":3771,"Ġassistance":3772,"ĠWest":3773,"ĠFace":3774,"ek":3775,"Ġfunds":3776,"Ġregulations":3777,"Ġreality":3778,"Ġvision":3779,"That":3780,"prise":3781,"val":3782,"oyal":3783,"Ġtrends":3784,"ashing":3785,"Ġacad":3786,"Ġinstruct":3787,"lines":3788,"Ġsurface":3789,"dule":3790,"Ġcreative":3791,"Ġsummer":3792,"ĠVal":3793,"ulate":3794,"ĠUnder":3795,"Ġbeauty":3796,"Ġcompetitive":3797,"Ġlandscape":3798,"usion":3799,"anging":3800,"ĠCompany":3801,"Ġsty":3802,"uary":3803,"icate":3804,"hern":3805,"imately":3806,"going":3807,"Ġnation":3808,"ĠTV":3809,"Ġintellig":3810,"ĠOver":3811,"down":3812,"Ġwear":3813,"Ġreducing":3814,"ĠJesus":3815,"Ġengage":3816,"ĠEnglish":3817,"Ġsort":3818,"Ġcrypt":3819,"Ġperspect":3820,"Ġscience":3821,"oper":3822,"Ġfather":3823,"Ġcoverage":3824,"Ġestablished":3825,"ength":3826,"zy":3827,"Ġstatus":3828,"Ġemphas":3829,"Ġstri":3830,"ores":3831,"Ġconsid":3832,"Ġfees":3833,"Ġpromote":3834,"order":3835,"OS":3836,"ĠDirect":3837,"Ġcontinues":3838,"iment":3839,"Ġmarkets":3840,"ute":3841,"ira":3842,"Ġstock":3843,"Ġwild":3844,"Ġscen":3845,"Ġaren":3846,"Ġplants":3847,"Ġcloud":3848,"ĠOnce":3849,"Ġprocessing":3850,"undred":3851,"Ġearn":3852,"Ġrestaur":3853,"Ġdefinitely":3854,"Ġmonit":3855,"Ġeconomy":3856,"Ġappli":3857,"Ġlocated":3858,"ses":3859,"ĠJapan":3860,"Why":3861,"Ġattack":3862,"ĠCle":3863,"Ġir":3864,"Ġdegree":3865,"ĠJu":3866,"Ġmorning":3867,"Ġtalking":3868,"Ġincred":3869,"ĠEuropean":3870,"Ġresist":3871,"Ġhar":3872,"Ġturned":3873,"Ġmark":3874,"Ġfem":3875,"itute":3876,"60":3877,"ressive":3878,"Do":3879,"ran":3880,"Ġleads":3881,"Ġmanufacture":3882,"cil":3883,"Ġinterests":3884,"Ġdecided":3885,"Ġhtt":3886,"ĠCustom":3887,"Ġweather":3888,"Ġwish":3889,"iforn":3890,"uries":3891,"Ġcircum":3892,"oe":3893,"duc":3894,"Ġfeet":3895,"mitted":3896,"bit":3897,"Ġproviders":3898,"ĠData":3899,"itchen":3900,"rest":3901,"itiz":3902,"ĠTrump":3903,"iance":3904,"Ġallowed":3905,"vis":3906,"right":3907,"Ġchoices":3908,"rastructure":3909,"Ġbackground":3910,"Ġfeedback":3911,"Ġtrading":3912,"Ġcontext":3913,"ĠEl":3914,"Ġleadership":3915,"Ġgave":3916,"Ġsexual":3917,"Ġinnovation":3918,"Ġevol":3919,"Ġforms":3920,"Ġclick":3921,"omen":3922,"Ġmid":3923,"ĠEar":3924,"lick":3925,"gment":3926,"Ġbillion":3927,"ama":3928,"Ġdepend":3929,"ocr":3930,"Ġhab":3931,"Ġlooked":3932,"elines":3933,"However":3934,"Ġcapacity":3935,"Ġcoffee":3936,"Ġ198":3937,"Ġeat":3938,"ĠCourt":3939,"ĠDevelop":3940,"Ġfashion":3941,"Ġsymb":3942,"rative":3943,"ĠWell":3944,"Ġbecoming":3945,"Ġanx":3946,"Ġreported":3947,"atever":3948,"Ġapps":3949,"ocol":3950,"arc":3951,"enture":3952,"Ġnormal":3953,"ĠCenter":3954,"Ġesc":3955,"Ġclaims":3956,"Sp":3957,"poses":3958,"Ġopin":3959,"Ġassets":3960,"Ġload":3961,"Ġcris":3962,"Ġtherefore":3963,"reed":3964,"Ġpages":3965,"ifornia":3966,"Ġfell":3967,"Ġschools":3968,"ography":3969,"itude":3970,"amin":3971,"Ġsurv":3972,"Ġwaste":3973,"ara":3974,"Ġremove":3975,"Ġalternative":3976,"Ġgar":3977,"Ġhighlight":3978,"ĠKing":3979,"Ġplayer":3980,"They":3981,"Ġcontribute":3982,"Ġoccas":3983,"Ġhomes":3984,"Ġtherapy":3985,"ĠOct":3986,"Ġproperties":3987,"Ġliter":3988,"Ġbrands":3989,"Ġfile":3990,"Ġfine":3991,"rial":3992,"EC":3993,"Ġpublished":3994,"Ġcalc":3995,"icks":3996,"Ġtruth":3997,"Ġconsumers":3998,"Ġimages":3999,"Ġsolid":4000,"Ġextremely":4001,"Sh":4002,"Ġemployee":4003,"Ġnumbers":4004,"All":4005,"Ġbirth":4006,"ĠCoun":4007,"Ġreports":4008,"ifications":4009,"nown":4010,"Ġamazing":4011,"Ġprop":4012,"Here":4013,"Ġpush":4014,"18":4015,"clusion":4016,"Ġfaith":4017,"house":4018,"Ġ/":4019,"ibilities":4020,"key":4021,"Ġpassion":4022,"Ġclos":4023,"Ġcold":4024,"tee":4025,"Ġprincip":4026,"Ġprovider":4027,"Ġerr":4028,"Ġnice":4029,"Ġlines":4030,"Ġpractical":4031,"ĠUp":4032,"rim":4033,"issions":4034,"ĠChar":4035,"ĠOther":4036,"Ġdrop":4037,"Ġmist":4038,"rig":4039,"zz":4040,"oly":4041,"Ġchallenging":4042,"Ġsav":4043,"Ġretail":4044,"Ġhundred":4045,"Ġcounter":4046,"ĠDay":4047,"Ġproperly":4048,"Ġcore":4049,"Ġmaster":4050,"ĠInternational":4051,"Ġpurposes":4052,"Ġloved":4053,"ded":4054,"Ġwel":4055,"Ġwants":4056,"rary":4057,"porary":4058,"ĠMake":4059,"Ġotherwise":4060,"acing":4061,"ĠBro":4062,"Ġmo":4063,"Ġspent":4064,"Ġsigns":4065,"raw":4066,"ĠGroup":4067,"Ġconv":4068,"Ġstrategic":4069,"Ġpoor":4070,"ague":4071,"Ġhelped":4072,"ilit":4073,"Ġfocused":4074,"Ġsen":4075,"Ġnetwor":4076,"hent":4077,"orough":4078,"Ġingredients":4079,"ĠExper":4080,"Ġrepair":4081,"ĠDem":4082,"ĠCB":4083,"ulated":4084,"Ġremind":4085,"Ġcomponents":4086,"Ġenhancement":4087,"icial":4088,"gen":4089,"iant":4090,"iny":4091,"Ġguidance":4092,"ĠCanada":4093,"hol":4094,"Ġinnovative":4095,"Ġfederal":4096,"Ġmentioned":4097,"Ġtoward":4098,"Ġdocuments":4099,"tics":4100,"asts":4101,"ĠOut":4102,"Ġsuitable":4103,"Ġadding":4104,"Ġentertain":4105,"ĠAssoci":4106,"ĠGet":4107,"ĠMarch":4108,"Ġcaused":4109,"Ġchanged":4110,"iliar":4111,"VID":4112,"Ġmaybe":4113,"ipped":4114,"ĠGo":4115,"Ġanti":4116,"Ġstatement":4117,"Ġshape":4118,"Ġprint":4119,"uses":4120,"Ġcopy":4121,"mar":4122,"azon":4123,"Ġjobs":4124,"ube":4125,"Ġhour":4126,"ĠEach":4127,"Ġwat":4128,"ĠAlso":4129,"Ġvot":4130,"hetic":4131,"Ġge":4132,"Ġmicro":4133,"Now":4134,"ĠCalifornia":4135,"ĠSystem":4136,"ĠFacebook":4137,"Ġpopulation":4138,"Ġearlier":4139,"Ġinvestors":4140,"Ġactual":4141,"Ġwait":4142,"Ġconfidence":4143,"ĠPlan":4144,"Ġplayed":4145,"iling":4146,"Ġinitial":4147,"Ġrapid":4148,"ĠDav":4149,"Ġglass":4150,"Ġ#":4151,"Ġtask":4152,"Ġchoosing":4153,"othing":4154,"Ġseam":4155,"ham":4156,"Ġdetailed":4157,"iber":4158,"Ġden":4159,"oday":4160,"ĠIts":4161,"ternal":4162,"Ġflu":4163,"Ġcentral":4164,"Ġconfirm":4165,"Ġec":4166,"Ġcircumst":4167,"ctors":4168,"rief":4169,"My":4170,"Ġforeign":4171,"itors":4172,"iced":4173,"Ġengaging":4174,"Ġfans":4175,"anch":4176,"ĠAv":4177,"Ġalthough":4178,"rench":4179,"itness":4180,"ĠCor":4181,"aker":4182,"ĠBest":4183,"atically":4184,"race":4185,"Ġperhaps":4186,"pril":4187,"Ġpreferences":4188,"Ġpow":4189,"Ġchanging":4190,"Ġtemperature":4191,"Ġcompliance":4192,"Ġlux":4193,"Ġgummies":4194,"Ġcollege":4195,"Ġarchitect":4196,"Ġ2019":4197,"Ġcancer":4198,"oration":4199,"Ġdoctor":4200,"ĠPol":4201,"Ġextensive":4202,"rad":4203,"Ġrise":4204,"isation":4205,"14":4206,"bu":4207,"Ġsharing":4208,"che":4209,"istry":4210,"Ġidentity":4211,"Ġnearly":4212,"Ġaccounts":4213,"Ġslight":4214,"Ġsmaller":4215,"Ġencourage":4216,"25":4217,"Ġmanaging":4218,"ĠManagement":4219,"Ġinfrastructure":4220,"estern":4221,"ugh":4222,"Ġrecommended":4223,"Ġbaby":4224,"Ġtrial":4225,"Ġprepared":4226,"raft":4227,"Ġalle":4228,"Ġprivacy":4229,"ĠDepartment":4230,"Ġcontinued":4231,"Ġvideos":4232,"Ġdoub":4233,"Ġpolice":4234,"eper":4235,"Ġappoint":4236,"Ġdesp":4237,"olf":4238,"icine":4239,"Ġaccident":4240,"ĠGovern":4241,"Ġsou":4242,"Ġconsumer":4243,"ĠBecause":4244,"comes":4245,"wood":4246,"Ġadvertising":4247,"ocal":4248,"Ġfloor":4249,"Ġspecifically":4250,"ĠStr":4251,"Ġtrou":4252,"Ġfigure":4253,"Ġfulf":4254,"MS":4255,"Ġconsidering":4256,"ĠSept":4257,"Ġmotiv":4258,"hy":4259,"Ġcivil":4260,"ront":4261,"ommod":4262,"Ġconflic":4263,"Ġrecovery":4264,"ĠIT":4265,"ĠPal":4266,"unn":4267,"ĠMod":4268,"Ġanc":4269,"Ġabsolute":4270,"Ġdoll":4271,"eds":4272,"hus":4273,"ĠIndian":4274,"Ġorigin":4275,"RE":4276,"coming":4277,"Ġshown":4278,"Ġcombination":4279,"ĠAug":4280,"ovember":4281,"ervation":4282,"Ġinjury":4283,"Ġfinally":4284,"Ġwhose":4285,"Ġheavy":4286,"ask":4287,"ĠProgram":4288,"equ":4289,"Ġstuff":4290,"Another":4291,"band":4292,"Ġdiagn":4293,"Ġcovered":4294,"orrow":4295,"Ġcbd":4296,"Ġroutine":4297,"Ġtrain":4298,"inese":4299,"Ġpool":4300,"Some":4301,"PS":4302,"ĠWork":4303,"Ġhighest":4304,"estyle":4305,"essions":4306,"Ġagreement":4307,"Ġexpensive":4308,"dr":4309,"ĠJune":4310,"ĠPay":4311,"Ġofficial":4312,"andemic":4313,"Ġresponsibility":4314,"Ġnegative":4315,"Ġdecl":4316,"Ġlength":4317,"Ġremote":4318,"Ġseamless":4319,"Ġcalls":4320,"chol":4321,"Ġsimpl":4322,"Ġbuying":4323,"Ġassign":4324,"Ġrace":4325,"Ġcapabilities":4326,"Ġtri":4327,"rics":4328,"Ġpull":4329,"yer":4330,"Ġobv":4331,"âĢĿ,":4332,"Ġschedule":4333,"Un":4334,"bur":4335,"Ġviews":4336,"Ġsymbol":4337,"Ġfurn":4338,"lin":4339,"nes":4340,"ĠPat":4341,"ondon":4342,"Ġmission":4343,"cious":4344,"ĠResearch":4345,"ĠSan":4346,"Ġregularly":4347,"Ġlearned":4348,"Ġpieces":4349,"Ph":4350,"Ġfunctions":4351,"PA":4352,"irection":4353,"Ġkitchen":4354,"life":4355,"rency":4356,"Ġpayments":4357,"Ġpriorit":4358,"16":4359,"US":4360,"ums":4361,"agram":4362,"Ġvisitors":4363,"Ġtalent":4364,"odes":4365,"No":4366,"ero":4367,"ounds":4368,"13":4369,"iences":4370,"Ġwilling":4371,"ĠLear":4372,"Ġclearly":4373,"ani":4374,"ĠLord":4375,"ĠCounty":4376,"Ġseeing":4377,"Ġimproving":4378,"Ġoblig":4379,"Ġconnected":4380,"Ġkn":4381,"Ġrevenue":4382,"Ġthorough":4383,"Ġolder":4384,"ĠSen":4385,"Ġroll":4386,"Ġworry":4387,"Ġselection":4388,"Ġfuel":4389,"Ġincl":4390,"Ġjoin":4391,"Ġaccessible":4392,"ĠSk":4393,"Ġdecide":4394,"Ġdesigns":4395,"Ġimproved":4396,"Ġprompt":4397,"Ġfab":4398,"agers":4399,"Ġspiritual":4400,"Ġcompetition":4401,"Ġfol":4402,"aled":4403,"Ġlargest":4404,"Ġchurch":4405,"Ġpatterns":4406,"Ġran":4407,"merce":4408,"Ġgather":4409,"Ġmiddle":4410,"Ġconsequ":4411,"ault":4412,"Ġagency":4413,"Ġcourses":4414,"Ġappearance":4415,"elling":4416,"ĠPeople":4417,"Ġplays":4418,"aj":4419,"tion":4420,"vision":4421,"Ġlad":4422,"Ġleader":4423,"fol":4424,"iam":4425,"Ġinspect":4426,"Ġexpenses":4427,"Ġfish":4428,"Ġrecords":4429,"Ġaccurate":4430,"Ġ197":4431,"Ġcards":4432,"ĠIns":4433,"Ġ2018":4434,"ald":4435,"Ġfunding":4436,"cember":4437,"ĠApril":4438,"Ġinvolve":4439,"AM":4440,"Ġbond":4441,"Ġcouldn":4442,"Ġcircumstances":4443,"Ġhappened":4444,"Ġson":4445,"Ġscale":4446,"erved":4447,"faction":4448,"Ġnavigate":4449,"asure":4450,"Ġtransp":4451,"husi":4452,"Ġsale":4453,"Ġspending":4454,"ĠAlthough":4455,"Ġboy":4456,"Ġhelpful":4457,"Ġexchange":4458,"Ġshap":4459,"Ġauthent":4460,"ĠHome":4461,"17":4462,"Ġdelic":4463,"mp":4464,"ĠCare":4465,"Ġ60":4466,"ĠAny":4467,"Ġenthusi":4468,"Ġvirtual":4469,"Ġclub":4470,"flow":4471,"Ġcommitted":4472,"la":4473,"Ġinternal":4474,"Ġaccommod":4475,"Ġselling":4476,"cles":4477,"ĠWhy":4478,"unately":4479,"Ġdebt":4480,"Ġhappens":4481,"Ġowner":4482,"gn":4483,"Ġwed":4484,"Ġattor":4485,"Ġattend":4486,"ptions":4487,"Ġchemical":4488,"ĠOctober":4489,"Ġsatisf":4490,"Ġtried":4491,"Ġprote":4492,"Ġpicture":4493,"Ġmer":4494,"Ġmajority":4495,"Ġcitiz":4496,"see":4497,"Ġgoods":4498,"Ġshowc":4499,"Ġlose":4500,"OT":4501,"Ġbath":4502,"ĠNe":4503,"Ġadvantages":4504,"Ġfacilities":4505,"Ġprofile":4506,"rote":4507,"Ġgeneration":4508,"icon":4509,"Ġcompl":4510,"osis":4511,"Ġcentury":4512,"related":4513,"Ġgrant":4514,"Ġhop":4515,"Ġbeg":4516,"icking":4517,"Ġoperating":4518,"acking":4519,"bl":4520,"unning":4521,"ĠDesign":4522,"Ġsurpris":4523,"pen":4524,"Ġmonitoring":4525,"osition":4526,"Ġfreed":4527,"aughter":4528,"Ġtick":4529,"ĠNovember":4530,"Ġconsistent":4531,"Ġaffordable":4532,"Ġexciting":4533,"ĠJanuary":4534,"Ġlabor":4535,"ounced":4536,"Ġcolors":4537,"ĠEduc":4538,"ilding":4539,"âĢ¢":4540,"ĠJuly":4541,"Ġbul":4542,"ught":4543,"estic":4544,"ails":4545,"Ġweak":4546,"Ġbiggest":4547,"Ġfant":4548,"ĠEv":4549,"prene":4550,"Ġcarefully":4551,"Ġpills":4552,"Ġpredict":4553,"Ġvalid":4554,"arge":4555,"iture":4556,"ĠDel":4557,"Ġbattery":4558,"ari":4559,"Ġoutdoor":4560,"ĠChinese":4561,"fit":4562,"ĠLondon":4563,"Ġdress":4564,"Ġfactor":4565,"ĠRel":4566,"known":4567,"Ġthus":4568,"oom":4569,"Ġsettings":4570,"Ġfollowed":4571,"reprene":4572,"Ġplenty":4573,"Ġpersonalized":4574,"Ġmovie":4575,"Ġband":4576,"Ġfaster":4577,"alt":4578,"idents":4579,"Ġcomplic":4580,"Ġphotos":4581,"24":4582,"Ġfrequently":4583,"Ġannual":4584,"ĠCOVID":4585,"ester":4586,"Ġexpectations":4587,"Ġ,":4588,"ĠSocial":4589,"Ġeducational":4590,"Ġacademic":4591,"mat":4592,"Ġcollaboration":4593,"ĠSur":4594,"unk":4595,"Ġmill":4596,"Ġpandemic":4597,"Ġquant":4598,"Ġbound":4599,"Ġpu":4600,"odies":4601,"Ġcompleted":4602,"ĠSeptember":4603,"que":4604,"ĠBet":4605,"espite":4606,"Ġexclus":4607,"ula":4608,"Be":4609,"Ġexcess":4610,"Ġearth":4611,"gery":4612,"Ġreleased":4613,"ĠÂ£":4614,"Ġcauses":4615,"Ġment":4616,"iers":4617,"ĠAmazon":4618,"ulations":4619,"Ġanxiety":4620,"urd":4621,"Ġwife":4622,"Ġvill":4623,"idden":4624,"uty":4625,"rition":4626,"Ġleaving":4627,"ida":4628,"Ġlots":4629,"Ġoutcomes":4630,"riage":4631,"Ġteaching":4632,"Ġdirection":4633,"arian":4634,"Ġgrand":4635,"Ġcompens":4636,"ĠMich":4637,"Ġlinks":4638,"Ġconversation":4639,"eries":4640,"Ġlegis":4641,"Ġfacilit":4642,"Ġkept":4643,"Ġinstallation":4644,"Ġcharacters":4645,"Ġinfluenc":4646,"Ġjoint":4647,"ĠSince":4648,"ĠJew":4649,"ĠVis":4650,"Ġspaces":4651,"Ġpotentially":4652,"Ġmoved":4653,"making":4654,"Ġbill":4655,"eah":4656,"Ġshopping":4657,"ĠAfrica":4658,"Ġaid":4659,"inting":4660,"Ġelimin":4661,"Ġrare":4662,"--":4663,"Ġgaming":4664,"Ġ21":4665,"Ġwhatever":4666,"Yes":4667,"Ġongoing":4668,"Ġtree":4669,"Ġbrings":4670,"Ġsugar":4671,"ĠLa":4672,"Ġtailored":4673,"ĠInformation":4674,"Ġlifestyle":4675,"ĠLeg":4676,"Ġrule":4677,"ishes":4678,"Ġsituations":4679,"Ġthoughts":4680,"bing":4681,"Ġvit":4682,"Ġenab":4683,"Ġvir":4684,"Ġmort":4685,"Ġunc":4686,"ET":4687,"eline":4688,"Ġshop":4689,"uk":4690,"Ġwealth":4691,"ĠRepublic":4692,"mas":4693,"ĠSpec":4694,"ĠRead":4695,"Ġenable":4696,"urthermore":4697,"gy":4698,"Ġsecret":4699,"Ġvehicles":4700,"ĠDecember":4701,"Ġsupporting":4702,"ĠAugust":4703,"Ġrepe":4704,"emy":4705,"Ġadvis":4706,"Ġprocedures":4707,"Your":4708,"Ġblue":4709,"Ġintelligence":4710,"Ġfoods":4711,"Ġtitle":4712,"Ġrestrict":4713,"Ġfamiliar":4714,"Ġcreation":4715,"ception":4716,"Ġhyd":4717,"Ġtech":4718,"Ġpray":4719,"outs":4720,"Ġpremium":4721,"ĠProt":4722,"Ġwrote":4723,"ipl":4724,"Ġtaste":4725,"ĠEast":4726,"Ġsets":4727,"Ġresidents":4728,"Ġcast":4729,"Ġdesire":4730,"AP":4731,"Ġfan":4732,"ĠInter":4733,"ĠAustralia":4734,"Ġinstitutions":4735,"ĠColle":4736,"Ġcells":4737,"Ġstands":4738,"Ġlaunch":4739,"Ġfee":4740,"Ġgift":4741,"Ġaward":4742,"ompl":4743,"phone":4744,"Ġtransition":4745,"Ġguarantee":4746,"40":4747,"Ġflexibility":4748,"ĠPlay":4749,"ĠPort":4750,"ĠSub":4751,"Ġupdates":4752,"ĠBel":4753,"Ġconcent":4754,"Ġexhib":4755,"Ġthousands":4756,"Ġindependent":4757,"ulner":4758,"uro":4759,"Ġmanufacturing":4760,"Ġsubstant":4761,"Ġawareness":4762,"Ġfeels":4763,"Ġhom":4764,"Ġcompar":4765,"ĠChristian":4766,"Ġestim":4767,"Ġforget":4768,"itter":4769,"Ġdogs":4770,"Ġfill":4771,"Ġsevere":4772,"Ġprospect":4773,"Ġign":4774,"Ġdistinct":4775,"Ġsweet":4776,"Ġsole":4777,"Ġscore":4778,"Ġgarden":4779,"ingly":4780,"Ġbottom":4781,"urally":4782,"bed":4783,"Ġdecre":4784,"):":4785,"OU":4786,"Ġemergency":4787,"ym":4788,"ĠInvest":4789,"Ġproceed":4790,"inner":4791,"Ġmeant":4792,"Ġscene":4793,"Ġrock":4794,"ĠHol":4795,"ĠLike":4796,"200":4797,"Ġbattle":4798,"Ġplaced":4799,"Ġfinish":4800,"Ġversat":4801,"Ġplus":4802,"ĠGood":4803,"Ġperspective":4804,"Ġcorporate":4805,"Ġfamous":4806,"Ġseven":4807,"rical":4808,"Ġargu":4809,"Ġ2016":4810,"Ġ2017":4811,"Ġsched":4812,"Ġletter":4813,"Ġfoundation":4814,"Ġsatisfaction":4815,"Ġreputation":4816,"Ġcas":4817,"Ġcomment":4818,"Ġunit":4819,"Ġreduced":4820,"Ġproduced":4821,"Ġwindow":4822,"ij":4823,"ript":4824,"Ġinvent":4825,"Ġspecies":4826,"ĠAP":4827,"uman":4828,"Ġpresident":4829,"ĠFrench":4830,"Ġbelief":4831,"Ġstar":4832,"Ġeight":4833,"DA":4834,"Ġdespite":4835,"Ġelev":4836,"Ġrat":4837,"Ġpaint":4838,"Ġconnections":4839,"onom":4840,"Ġvolunt":4841,"Ġhttps":4842,"ĠBritish":4843,"Ġmotor":4844,"Ġadvoc":4845,"alls":4846,"Under":4847,"Ġshoot":4848,"Ġprocedure":4849,"add":4850,"Ġanimals":4851,"Ġinstru":4852,"Ġintegration":4853,"Ġserved":4854,"Ġdiscl":4855,"Ġonto":4856,"Ġdirector":4857,"osen":4858,"Ġincreasingly":4859,"Ġleaves":4860,"des":4861,"inated":4862,"Ġveget":4863,"ĠGreat":4864,"field":4865,"Ġpassed":4866,"Ġcrow":4867,"Ġadministration":4868,"Ġwinter":4869,"Can":4870,"Ġchain":4871,"ĠCouncil":4872,"Ġframew":4873,"Ġpark":4874,"Ġprepare":4875,"ĠDec":4876,"Ġcamera":4877,"Ġhistorical":4878,"amb":4879,"Ġbetting":4880,"Ġsoil":4881,"Ġexamples":4882,"Ġoperation":4883,"Ġflo":4884,"orge":4885,"Ġborn":4886,"ĠSat":4887,"ĠKeep":4888,"Ġseparate":4889,"ĠSecurity":4890,"Ġdiscount":4891,"Ġrooms":4892,"akers":4893,"ny":4894,"Con":4895,"ĠProv":4896,"Im":4897,"ĠDuring":4898,"Ġdeeper":4899,"Ġcyber":4900,"Ġgone":4901,"Ġdisapp":4902,"cknow":4903,"Ġindustries":4904,"ffective":4905,"ĠPersonal":4906,"ifts":4907,"Ġdat":4908,"ĠGold":4909,"cohol":4910,"Ġroles":4911,"lands":4912,"22":4913,"idential":4914,"Ġopening":4915,"Ġaest":4916,"alk":4917,"ĠOnline":4918,"Ġbrows":4919,"ĠGreen":4920,"ett":4921,"Ġcities":4922,"Ġmetal":4923,"Ġcutting":4924,"well":4925,"Ġmessages":4926,"ĠFeb":4927,"Ġultimately":4928,"Ġrobust":4929,"ĠOb":4930,"Ġgirls":4931,"Ġlocations":4932,"Ġbrother":4933,"ution":4934,"dden":4935,"rab":4936,"ĠWeb":4937,"Ġjournal":4938,"ĠProfess":4939,"iors":4940,"ico":4941,"Ġimprovement":4942,"ĠBoard":4943,"ype":4944,"abin":4945,"Ġserves":4946,"Ġmemory":4947,"Ġhotel":4948,"Ġamb":4949,"Ġvulner":4950,"ĠLife":4951,"Ġrenew":4952,"Ġhus":4953,"Ġpal":4954,"Ġbird":4955,"ĠWashing":4956,"Ġjoy":4957,"ĠDist":4958,"Ġknows":4959,"ags":4960,"Ġdetect":4961,"aren":4962,"Ġcarbon":4963,"Ġmoist":4964,"ugg":4965,"holders":4966,"99":4967,"iled":4968,"Ġconvenient":4969,"ĠSaf":4970,"pass":4971,"mosp":4972,"ĠTherefore":4973,"Ġgraph":4974,"Ġlisten":4975,"asy":4976,"Ġauthority":4977,"Ġeating":4978,"Ġwaiting":4979,"ĠThrough":4980,"Ġbright":4981,"Once":4982,"Ġshift":4983,"Ġease":4984,"Ġknowing":4985,"Ġmanner":4986,"Ġfreedom":4987,"Ġcatch":4988,"Ġdro":4989,"oes":4990,"Ġcrisis":4991,"Ġsolar":4992,"apter":4993,"ĠTake":4994,"Ġgirl":4995,"Ġsuit":4996,"ĠAN":4997,"icians":4998,"Ġsudden":4999,"Ġspl":5000,"Ġnegot":5001,"ĠAnt":5002,"Ġupgra":5003,"Ġguidelines":5004,"ĠGeneral":5005,"Ġdouble":5006,"Ġvacc":5007,"Ġenhancing":5008,"ĠAtt":5009,"Ġpip":5010,"Ġwitness":5011,"Ġmanager":5012,"Ġsession":5013,"rees":5014,"Ġvictim":5015,"Ġcontains":5016,"ĠAccording":5017,"AI":5018,"Ġsessions":5019,"Ġdram":5020,"Ġartists":5021,"inations":5022,"ĠâĢ¦":5023,"ĠReview":5024,"ĠFound":5025,"Ġmanaged":5026,"Ġterr":5027,"Ġnames":5028,"Ġmonitor":5029,"Ġhonest":5030,"Ġsettle":5031,"Ġourselves":5032,"ĠFree":5033,"aper":5034,"vention":5035,"Ġagg":5036,"Ġclassic":5037,"Ġdriver":5038,"ĠTur":5039,"oses":5040,"ĠBank":5041,"Ġskill":5042,"Ġenables":5043,"Ġbreath":5044,"Ġaccompl":5045,"ĠWhite":5046,"eless":5047,"point":5048,"Ġwid":5049,"ING":5050,"Ġminimum":5051,"ĠMet":5052,"Ġhospital":5053,"ĠCollege":5054,"Ġloans":5055,"ford":5056,"Ġmulti":5057,"ĠCBD":5058,"ĠII":5059,"Ġunf":5060,"Ġdecades":5061,"Ġbeneficial":5062,"Ġtrig":5063,"Ġslightly":5064,"Ġentry":5065,"Ġthanks":5066,"ĠInstead":5067,"ĠTex":5068,"ION":5069,"Ġdynamic":5070,"Pl":5071,"ĠWater":5072,"Ġmaximum":5073,"ricult":5074,"Ġdescribed":5075,"omb":5076,"Ġentreprene":5077,"ĠWind":5078,"Ġresource":5079,"Ġsusp":5080,"hab":5081,"Ġliqu":5082,"Ġemployment":5083,"Ġdefend":5084,"Ġparticipants":5085,"EL":5086,"Ġapplied":5087,"ĠStart":5088,"ĠCheck":5089,"Ġtracking":5090,"Ġtight":5091,"Ġworldwide":5092,"ĠUk":5093,"Ġguests":5094,"CC":5095,"ĠSee":5096,"ĠMor":5097,"ĠConsider":5098,"Ġprecise":5099,"inger":5100,"lear":5101,"Ġfav":5102,"Ġraised":5103,"Ġbelong":5104,"Ġcontem":5105,"ĠYes":5106,"semb":5107,"Ġtests":5108,"Ġpaying":5109,"Ġnovel":5110,"Ġprofit":5111,"Ġbon":5112,"Ġclasses":5113,"Ġappe":5114,"Ġfilled":5115,"men":5116,"ey":5117,"iration":5118,"Ġvast":5119,"ĠHel":5120,"Ġagencies":5121,"Ġretain":5122,"rier":5123,"mental":5124,"Ġatmosp":5125,"Ġinvesting":5126,"Ġtransactions":5127,"bal":5128,"useum":5129,"Ġintended":5130,"rolled":5131,"ruary":5132,"Ġmatters":5133,"Ġx":5134,"Ġacknow":5135,"last":5136,"ĠCommission":5137,"Ġjump":5138,"igital":5139,"ĠMain":5140,"More":5141,"Ġoverw":5142,"Ġrein":5143,"gor":5144,"ĠCap":5145,"Ġ22":5146,"Ġarrange":5147,"roid":5148,"Ġasking":5149,"Ġprotected":5150,"Ġsto":5151,"ĠPost":5152,"ĠInstagram":5153,"active":5154,"Ġpricing":5155,"Ġeventually":5156,"Ġgenerate":5157,"Ġconstantly":5158,"ocking":5159,"Ġdecor":5160,"Ġaffected":5161,"Ġresol":5162,"She":5163,"Ġconcern":5164,"Ġloyal":5165,"ĠWashington":5166,"Ġpregn":5167,"Ġsand":5168,"Ġmouth":5169,"Ġshot":5170,"ĠMa":5171,"Ġvs":5172,"Ġclar":5173,"Ġreporting":5174,"Ġforces":5175,"Ġtopic":5176,"ĠChurch":5177,"ĠCong":5178,"udd":5179,"Ġmere":5180,"aration":5181,"Ġstick":5182,"irms":5183,"Ġnotes":5184,"Ġrain":5185,"Ġsea":5186,"Ġneighbor":5187,"Ġfailure":5188,"Ġer":5189,"Ġnamed":5190,"nel":5191,"ĠEU":5192,"Ġpromoting":5193,"Ġfiles":5194,"ĠDef":5195,"Ġdepends":5196,"Ġresil":5197,"Ġhaven":5198,"Ġcampaigns":5199,"iability":5200,"Ġhousehold":5201,"Ġshowing":5202,"Ġadds":5203,"ĠRet":5204,"Ġtreatments":5205,"rating":5206,"Ġelig":5207,"Ġ2015":5208,"EM":5209,"Are":5210,"Ġcars":5211,"Ġvibrant":5212,"ĠTime":5213,"Ġarticles":5214,"Ġwhom":5215,"Ġsupports":5216,"ĠPower":5217,"box":5218,"Ġsavings":5219,"ĠDevelopment":5220,"ĠMat":5221,"Ġassessment":5222,"Ġwine":5223,"antic":5224,"oman":5225,"Ġexploring":5226,"Ġexposure":5227,"state":5228,"PR":5229,"ĠPaul":5230,"ael":5231,"Ġancient":5232,"ĠLook":5233,"Ġprinciples":5234,"ystem":5235,"Ġunless":5236,"cell":5237,"ĠBra":5238,"Ġdistance":5239,"ĠIN":5240,"oves":5241,"Ġtrees":5242,"ĠWord":5243,"iot":5244,"Don":5245,"ĠAssociation":5246,"Ġstarts":5247,"ĠLead":5248,"Ġfeelings":5249,"ificial":5250,"ounce":5251,"Ġminor":5252,"Ġindustrial":5253,"Let":5254,"Ġhousing":5255,"Ġrevolution":5256,"Ġbrief":5257,"Re":5258,"Ġconclusion":5259,"mes":5260,"Ġepis":5261,"Ġwedding":5262,"ville":5263,"Ġstores":5264,"Ġsenior":5265,"anges":5266,"ĠPlease":5267,"www":5268,"Ġstake":5269,"Ġpreviously":5270,"Ġpod":5271,"Ġpresented":5272,"Ġsustainability":5273,"Ġorganic":5274,"Us":5275,"From":5276,"IP":5277,"Ġanalytics":5278,"Ġshipping":5279,"Ġwouldn":5280,"Ġreaders":5281,"Ġmuscle":5282,"Ġannounced":5283,"Ġoccup":5284,"Ġclim":5285,"Ġphil":5286,"ĠFam":5287,"Ġath":5288,"Over":5289,"Ġkid":5290,"ĠSuper":5291,"Ġresearc":5292,"Ġspect":5293,"Ġelement":5294,"Ġincreases":5295,"Ġputting":5296,"Ġopened":5297,"ĠIP":5298,"Ġfriendly":5299,"Ġitem":5300,"ĠSa":5301,"Ġinvestments":5302,"lets":5303,"pe":5304,"Ġunivers":5305,"Ġinjuries":5306,"Ġburn":5307,"ĠApple":5308,"Ġsac":5309,"road":5310,"App":5311,"Ġstated":5312,"ĠEducation":5313,"Ġexternal":5314,"Ġflat":5315,"Ġcitizens":5316,"Ġhearing":5317,"Ġcraft":5318,"ĠInstitute":5319,"ĠConf":5320,"inating":5321,"Ġfunctionality":5322,"ĠOffice":5323,"Ġopinion":5324,"tra":5325,"ifies":5326,"pet":5327,"Ġconstruct":5328,"Ġrecommendations":5329,"Ġrid":5330,"Ġteeth":5331,"lock":5332,"Ġmiles":5333,"Ġmoments":5334,"Ġpursu":5335,"Ġweap":5336,"Ġwonderful":5337,"ĠRussia":5338,"ĠSupport":5339,"Ġnetworks":5340,"net":5341,"uine":5342,"Ġsport":5343,"Ġmonthly":5344,"ipp":5345,"Ġluxury":5346,"Acc":5347,"rete":5348,"âĤ":5349,"Ġreward":5350,"Ġrelatively":5351,"Ġcomments":5352,"ĠCommit":5353,"500":5354,"Ġreligious":5355,"ĠDavid":5356,"Ġgender":5357,"ĠDirector":5358,"zing":5359,"Ġlayer":5360,"Ġreached":5361,"Ġdu":5362,"Ġportfol":5363,"Ġteach":5364,"inding":5365,"Ġrecognize":5366,"ĠFlor":5367,"Ġsurgery":5368,"Ġroot":5369,"Ġhusband":5370,"Ġplastic":5371,"AD":5372,"Ġdiscussion":5373,"Ġbow":5374,"23":5375,"80":5376,"othes":5377,"ĠSing":5378,"Ġedge":5379,"ĠTexas":5380,"eech":5381,"Ġpump":5382,"Ġcreates":5383,"Ġelection":5384,"Ġswitch":5385,"igration":5386,"Ġinstructions":5387,"Ġclinical":5388,"ĠSom":5389,"Ġtransportation":5390,"ĠFore":5391,"Ġlaun":5392,"name":5393,"Ġappears":5394,"Ġpair":5395,"function":5396,"Ġresulting":5397,"Ġposts":5398,"ĠInf":5399,"Ġchances":5400,"ocation":5401,"Ġmut":5402,"Ġcycle":5403,"Ġdepos":5404,"Ġimmediate":5405,"Ġcooking":5406,"cholars":5407,"Ġteachers":5408,"Ġfest":5409,"Ġoperate":5410,"icity":5411,"Many":5412,"ston":5413,"Ġbringing":5414,"Ġglob":5415,"ivate":5416,"coin":5417,"ĠInternet":5418,"ĠMicro":5419,"inter":5420,"bre":5421,"Ġwalking":5422,"gorith":5423,"ĠProduct":5424,"Ġproductivity":5425,"Ġemotions":5426,"Ġ23":5427,"hi":5428,"ĠPC":5429,"Ġcharges":5430,"Ġap":5431,"Ġsubmit":5432,"gage":5433,"Ġice":5434,"Ġsensitive":5435,"son":5436,"water":5437,"Ġtow":5438,"kay":5439,"Ġupdate":5440,"Ġgun":5441,"lements":5442,"ĠFebruary":5443,"Ġstreet":5444,"nam":5445,"ĠStreet":5446,"Ġkill":5447,"Ġvolume":5448,"Ġdefense":5449,"Ġsurvey":5450,"Ġ90":5451,"Ġdrugs":5452,"Ġking":5453,"ĠChristmas":5454,"Ġdrink":5455,"Ġsurrounding":5456,"100":5457,"Ġscientific":5458,"Ġdepth":5459,"Ġcommunicate":5460,"Ġ80":5461,"Ġuns":5462,"ĠDet":5463,"ĠSl":5464,"Ġwatching":5465,"Ġspeaking":5466,"Ġanticip":5467,"Ġflavor":5468,"Ġsounds":5469,"Ġviolence":5470,"Ġinterface":5471,"enefits":5472,"Ġreasonable":5473,"Ġseemed":5474,"top":5475,"Ġefficiently":5476,"Ġkinds":5477,"Ġstability":5478,"Ġcoord":5479,"ĠTest":5480,"Ġunw":5481,"ĠAdd":5482,"Ġpictures":5483,"lights":5484,"Ġegg":5485,"Ġeffectiveness":5486,"Ġship":5487,"Ġdial":5488,"ĠGovernment":5489,"Ġintroduced":5490,"Ġmarriage":5491,"Ġflexible":5492,"ellow":5493,"Ġcorner":5494,"Ġchannels":5495,"Ġscenar":5496,"Ġexceptional":5497,"ossible":5498,"ensions":5499,"LC":5500,"Ġbutton":5501,"Ġcrim":5502,"cel":5503,"oft":5504,"Ġcontrast":5505,"gal":5506,"ĠCost":5507,"ĠMac":5508,"Cl":5509,"Ġalcohol":5510,"words":5511,"Ġabsolutely":5512,"Ġrelief":5513,"Ġstatements":5514,"Ġfemale":5515,"Ġfitness":5516,"ĠIS":5517,"Ġoverwhel":5518,"ĠTre":5519,"oving":5520,"Ġfort":5521,"Ġmostly":5522,"Ġmal":5523,"ĠMal":5524,"Ġyouth":5525,"ĠOrgan":5526,"Ġcompensation":5527,"Com":5528,"Ġtopics":5529,"ocur":5530,"roud":5531,"ĠAnge":5532,"lamm":5533,"Ġpositions":5534,"Ġshar":5535,"ĠNews":5536,"Ar":5537,"Ġatmosphere":5538,"ĠMex":5539,"Ġshowed":5540,"Ġnor":5541,"Ġpossibly":5542,"Ġended":5543,"Ġenforce":5544,"Ġappreciate":5545,"Ġstanding":5546,"craft":5547,"Ġadults":5548,"ĠMem":5549,"met":5550,"roy":5551,"Ġsan":5552,"pret":5553,"Not":5554,"Ġregulatory":5555,"Ġclosely":5556,"Ġtransl":5557,"Ġ:":5558,"CO":5559,"ixt":5560,"Ġconsumption":5561,"Ġdepartment":5562,"ĠCur":5563,"Ġprotein":5564,"ĠProject":5565,"Ġentertainment":5566,"Ġstim":5567,"ĠOnly":5568,"Ġsuccessfully":5569,"ĠTHE":5570,"Ġquarter":5571,"Ġthank":5572,"Ġanimal":5573,"ĠPublic":5574,"Ġraise":5575,"Ġkeeps":5576,"Ġthick":5577,"Ġinfect":5578,"Ġcreativity":5579,"Ġwarrant":5580,"Ġarm":5581,"TS":5582,"front":5583,"ĠRussian":5584,"Ġbigger":5585,"!âĢĿ":5586,"Ġstret":5587,"ancial":5588,"ĠRight":5589,"Ġholding":5590,"Ġ+":5591,"ror":5592,"BC":5593,"fortunately":5594,"Ġscr":5595,"Ġdemands":5596,"Ġcombined":5597,"ĠJe":5598,"En":5599,"cons":5600,"Ġwithd":5601,"Ġserving":5602,"Ġorders":5603,"ĠConst":5604,"ya":5605,"Ġgenuine":5606,"certain":5607,"Step":5608,"yc":5609,"Ġalb":5610,"Ġsteel":5611,"Ġdistribution":5612,"celer":5613,"Ġ2014":5614,"luding":5615,"ximately":5616,"Ġpackage":5617,"Ġconfident":5618,"ĠHy":5619,"Ġspring":5620,"Ġsupported":5621,"Ġquiet":5622,"Ġresistance":5623,"Ġattribut":5624,".âĢĻ":5625,"BA":5626,"Ġadventure":5627,"Ġanywhere":5628,"Ġmit":5629,"Ġfasc":5630,"Ġidentified":5631,"za":5632,"Ġassum":5633,"Ġautomatically":5634,"Ġfurniture":5635,"Ġphoto":5636,"ounter":5637,"eration":5638,"Ġdoubt":5639,"Te":5640,"ĠAfrican":5641,"ivered":5642,"Ġsupplement":5643,"Ġattacks":5644,"aning":5645,"Ġride":5646,"Ġdifferences":5647,"Ġdestination":5648,"orders":5649,"ĠYear":5650,"Ġflav":5651,"Ġtechnique":5652,"Ġguy":5653,"Ġmeal":5654,"Ġoptimal":5655,"Ġinitiatives":5656,"resp":5657,"Ġmedium":5658,"chain":5659,"Ġstyles":5660,"ĠToday":5661,"abet":5662,"Ġperman":5663,"uality":5664,"Ġuniversity":5665,"Ġ--":5666,"Ġstation":5667,"Ġdys":5668,"Ġnoted":5669,"Ġalgorith":5670,"Ġattorney":5671,"Ġcriminal":5672,"Ġagent":5673,"Ġfootball":5674,"Ġparticipate":5675,"Ġartist":5676,"Ġdevelopers":5677,"Ġmedicine":5678,"Ġupdated":5679,"Ġchosen":5680,"Ġengineering":5681,"Ġunits":5682,"Ġhandling":5683,"omet":5684,"Ġlisted":5685,"Ġhealing":5686,"ĠJer":5687,"Ġfinance":5688,"Ġshares":5689,"Ġdental":5690,"Ġjustice":5691,"ĠAC":5692,"ionally":5693,"Ġ27":5694,"Ġluck":5695,"Ġfle":5696,"erves":5697,"Ġfields":5698,"look":5699,"Ġcheap":5700,"Ġinteractions":5701,"Ġrecognized":5702,"Ġdangerous":5703,"hand":5704,"Ġtotally":5705,"ĠChild":5706,"Ġretire":5707,"mail":5708,"ado":5709,"Ġ28":5710,"ĠFood":5711,"Ġdealing":5712,"Ġaf":5713,"apers":5714,"Ġicon":5715,"Ġconsent":5716,"Ġelectronic":5717,"what":5718,"Ġdele":5719,"Ġbodies":5720,"Ġfacility":5721,"Ġstunning":5722,"Ġnutrition":5723,"Ġbuildings":5724,"Ġlighting":5725,"ĠSol":5726,"Ġang":5727,"Ġdeploy":5728,"Ġconflict":5729,"Ġforest":5730,"Ġdiscovered":5731,"Ġdepart":5732,"Ġpossess":5733,"inent":5734,"Ġcloser":5735,"Ġremoval":5736,"ressed":5737,"Ġcommand":5738,"RO":5739,"requ":5740,"osystem":5741,"Ġhidden":5742,"Ġblend":5743,"Ġsurf":5744,"Ġpoll":5745,"Ġcommonly":5746,"Ġconvenience":5747,"Ġusage":5748,"Ġremark":5749,"Ġheight":5750,"amental":5751,"ĠSund":5752,"Ġdesired":5753,"Ġrestaurant":5754,"Ġbot":5755,"Ġenvironments":5756,"âĢĺ":5757,"Ġpun":5758,"Ġsyn":5759,"Ġgreatest":5760,"ĠCEO":5761,"Ġclosed":5762,"ĠDisc":5763,"Ġfacing":5764,"oga":5765,"Ġcausing":5766,"Ġconsequences":5767,"Ġapplicable":5768,"Ġcann":5769,"RA":5770,"ĠMiss":5771,"Ġcandidates":5772,"soft":5773,"ushed":5774,"Ġentirely":5775,"Ġpill":5776,"Ġguys":5777,"ansion":5778,"orter":5779,"ĠSal":5780,"Ġfraud":5781,"Ġnutri":5782,"Ġasset":5783,"Ġfruit":5784,"Ġengaged":5785,"ĠUsing":5786,"Ġreceiving":5787,"gers":5788,"ĠFlorida":5789,"Ġshut":5790,"Ġcovers":5791,"Ġaudio":5792,"Ġconsideration":5793,"Ġdetermined":5794,"ago":5795,"Ġnurs":5796,"ĠCam":5797,"ĠBre":5798,"how":5799,"iat":5800,"Ġholiday":5801,"Ġtea":5802,"ros":5803,"21":5804,"ĠUN":5805,"Ġmassive":5806,"Ġcarried":5807,"Ġframework":5808,"Ġdeals":5809,"Ġgear":5810,"ĠMo":5811,"Ġdivid":5812,"ĠLong":5813,"Ġbanks":5814,"Ġguess":5815,"ĠDemocr":5816,"IL":5817,"ĠOpen":5818,"Ġteacher":5819,"Ġtheme":5820,"Ġauthorities":5821,"Ġbusy":5822,"ĠHist":5823,"ĠChat":5824,"icit":5825,"Ġcomprom":5826,"Ġtrail":5827,"ĠClick":5828,"Ġprimarily":5829,"Ġminimal":5830,"pected":5831,"Ġrely":5832,"but":5833,"Ġperformed":5834,"ĠBefore":5835,"ĠGlobal":5836,"Ġfocusing":5837,"ST":5838,"umin":5839,"ĠBoth":5840,"ĠAmericans":5841,"Ġrecognition":5842,"Ġfinished":5843,"umber":5844,"Ġdoors":5845,"aught":5846,"Ġdelivered":5847,"Ġholds":5848,"lor":5849,"Ġfabric":5850,"Ġreturns":5851,"âĤ¬":5852,"Ġobjectives":5853,"Ġbeach":5854,"Get":5855,"Ġabsor":5856,"ĠRob":5857,"istan":5858,"eer":5859,"ĠExp":5860,"Ġrealize":5861,"Ġautomation":5862,"list":5863,"Ġcater":5864,"ĠGra":5865,"Ġliquid":5866,"ĠWal":5867,"Ġsnow":5868,"ka":5869,"Ġneighborhood":5870,"Ġdollars":5871,"fast":5872,"ĠForm":5873,"sey":5874,"ĠElect":5875,"Ġpanel":5876,"ĠSch":5877,"oles":5878,"Ġder":5879,"ĠMag":5880,"night":5881,"isms":5882,"uit":5883,"atin":5884,"Before":5885,"Ġproud":5886,"Ġintegrated":5887,"Ġconcerned":5888,"ĠId":5889,"Ġfunctional":5890,"Ġextended":5891,"ĠWestern":5892,"with":5893,"Ġhunt":5894,"ĠRiver":5895,"Ġforg":5896,"Ġ26":5897,"ĠWebs":5898,"ĠAdv":5899,"Ġstruggle":5900,"Ġcream":5901,"Ġwelcome":5902,"Ġsufficient":5903,"Ġincredible":5904,"while":5905,"ona":5906,"Ġlights":5907,"icken":5908,"oma":5909,"Ġruns":5910,"Ġscript":5911,"Ġstaying":5912,"ĠOF":5913,"Ġagents":5914,"ĠHot":5915,"ĠSet":5916,"ounder":5917,"Ġevening":5918,"rum":5919,"Ġsem":5920,"ensity":5921,"Ġlicense":5922,"ĠMarketing":5923,"Ġtough":5924,"ician":5925,"Ġrom":5926,"Ġveter":5927,"Ġmeat":5928,"asp":5929,"rian":5930,"!!":5931,"Ġrot":5932,"Ġdied":5933,"umn":5934,"ĠSam":5935,"ĠTrust":5936,"Ġtypical":5937,"Ġintent":5938,"Ġconversations":5939,"ĠGerman":5940,"rooms":5941,"Ġaccuracy":5942,"Ġsuppli":5943,"Ġregistration":5944,"Ġcapture":5945,"Ġwalls":5946,"uling":5947,"Ġcareful":5948,"Ġbuyers":5949,"arsh":5950,"ĠStar":5951,"Ġempower":5952,"ĠReal":5953,"Ġlies":5954,"ĠDoes":5955,"Ġenabling":5956,"ĠCommittee":5957,"Cont":5958,"Ġapproved":5959,"Ġpure":5960,"Ġbegins":5961,"IV":5962,"Ġcooper":5963,"inder":5964,"Ġphase":5965,"ĠFriday":5966,"ighter":5967,"ĠOh":5968,"Ġimplementation":5969,"Ġwidely":5970,"Ġads":5971,"Ġcounsel":5972,"ĠBig":5973,"ĠWhere":5974,"Ġ70":5975,"Ġwindows":5976,"ĠClass":5977,"uel":5978,"ĠMad":5979,"Ġexcited":5980,"Ġformat":5981,"otal":5982,"Ġmeetings":5983,"Ġdatab":5984,"den":5985,"ae":5986,"Ġox":5987,"Ġnaturally":5988,"iche":5989,"Ġdrivers":5990,"Ġpartnership":5991,"Ġdaughter":5992,"ðŁ":5993,"ĠMount":5994,"Ġflight":5995,"Ġofficials":5996,"Ġreson":5997,"then":5998,"Ġurban":5999,"ĠBit":6000,"iations":6001,"ĠTechnology":6002,"Ġspo":6003,"ĠEngine":6004,"Ġpurchasing":6005,"ĠCamp":6006,"ĠKnow":6007,"Ġregional":6008,"ĠCongress":6009,"Ġimpressive":6010,"Ġequal":6011,"NA":6012,"Ġportfolio":6013,"yers":6014,"IM":6015,"cean":6016,"usive":6017,"weight":6018,"Ġswim":6019,"Ġreturned":6020,"rapy":6021,"outhern":6022,"itage":6023,"bling":6024,"aser":6025,"Ġecosystem":6026,"SA":6027,"ĠScience":6028,"Ġtact":6029,"ĠUnion":6030,"Ġcryptocur":6031,"ĠLim":6032,"Ġgre":6033,"zen":6034,"ĠVir":6035,"ĠJames":6036,"Ġfirms":6037,"Ġselected":6038,"Ġsubstantial":6039,"Ġamounts":6040,"Ġturning":6041,"Ġdesk":6042,"raine":6043,"Ġcapable":6044,"under":6045,"Ġremoved":6046,"Ġapproaches":6047,"'d":6048,"Ġcart":6049,"Ġfundamental":6050,"Ġvisibility":6051,"ĠMary":6052,"Ġdiss":6053,"Ġcrowd":6054,"uled":6055,"Ġmotion":6056,"Ġdim":6057,"Ġoperational":6058,"Ġrental":6059,"ĠFoundation":6060,"Ġpossibility":6061,"Ġfantastic":6062,"Ġhundreds":6063,"Ġsizes":6064,"ait":6065,"ĠPlus":6066,"Ġtransaction":6067,"Ġproof":6068,"Ġtap":6069,"Ġsitting":6070,"Ġperfectly":6071,"ĠLib":6072,"ĠJour":6073,"Ġmemor":6074,"ĠCommunity":6075,"Ġillust":6076,"Ġ2013":6077,"Ġmeaningful":6078,"Ġodd":6079,"ulty":6080,"Ġcup":6081,"ogue":6082,"Ġconference":6083,"Ġchannel":6084,"resents":6085,"Ġspeech":6086,"Ġapproximately":6087,"Ġfixed":6088,"Ġbroken":6089,"Ġdefined":6090,"rich":6091,"ship":6092,"Ġseat":6093,"Ġgent":6094,"riers":6095,"Ġregardless":6096,"Fin":6097,"Ġcomponent":6098,"Ġquot":6099,"Ġsuggests":6100,"Ġmanagers":6101,"ĠStrateg":6102,"ĠGr":6103,"Ġlabel":6104,"Ġextent":6105,"Ġlaunched":6106,"atural":6107,"Ġserver":6108,"ĠKore":6109,"elf":6110,"Ġchair":6111,"Ġrand":6112,"Ġtack":6113,"ulating":6114,"Ġtempl":6115,"Most":6116,"Ġlistening":6117,"ĠEarth":6118,"Ġhappening":6119,"Ġ196":6120,"Ġenhances":6121,"zer":6122,"Ġhumans":6123,"ĠFort":6124,"Ġtargeted":6125,"ĠST":6126,"ĠMaster":6127,"level":6128,"Ġlawyer":6129,"Ġsupplies":6130,"ĠJo":6131,"Ġtaxes":6132,"uard":6133,"ĠGermany":6134,"ĠPhil":6135,"Ġlimits":6136,"Ġstructures":6137,"Ġlegit":6138,"Ġagreed":6139,"Ġpharm":6140,"Ġsoph":6141,"Ġcharm":6142,"Ġdish":6143,"Ġunex":6144,"ĠFund":6145,"iliate":6146,"Ġisland":6147,"ĠRich":6148,"Ġmode":6149,"Ġ2012":6150,"ĠStep":6151,"ĠTor":6152,"Ġemails":6153,"Ġobst":6154,"Ġabuse":6155,"Ġregions":6156,"Ġagricult":6157,"Ġlived":6158,"Ġregistered":6159,"ĠStand":6160,"ĠEngland":6161,"Ġdomestic":6162,"Ġresearchers":6163,"ius":6164,"reate":6165,"ĠBay":6166,"Ġtheory":6167,"Ġimpossible":6168,"ĠHall":6169,"ĠPet":6170,"Ġoutcome":6171,"Ġeveryday":6172,"Ġju":6173,"Ġattractive":6174,"ads":6175,"aked":6176,"ĠDigital":6177,"Ġmilk":6178,"neys":6179,"Ġcoast":6180,"forward":6181,"Ġproposed":6182,"Ġtells":6183,"Ġmedication":6184,"ingu":6185,"Ġacid":6186,"Ġappeared":6187,"etary":6188,"Ġdiseases":6189,"Ġgrown":6190,"ellect":6191,"Ġoptimize":6192,"Ġcalling":6193,"Ġabilities":6194,"Ġdiversity":6195,"ĠTop":6196,"Ġskilled":6197,"Ġrandom":6198,"Dr":6199,"rag":6200,"Ġshoes":6201,"Ġspecialized":6202,"ĠAnother":6203,"Ġadm":6204,"IA":6205,"Ġrub":6206,"Ġrepresents":6207,"ĠRef":6208,"Ġmovies":6209,"Ġmagn":6210,"reek":6211,"Ġadequ":6212,"Every":6213,"Ġmillions":6214,"ĠMil":6215,"Ġerect":6216,"Ġanswers":6217,"Ġdeeply":6218,"Ġlicens":6219,"ĠUSA":6220,"osoph":6221,"Ġbike":6222,"Ġhire":6223,"Ġhiring":6224,"Ġinsight":6225,"Ġexclusive":6226,"Ġfolks":6227,"Ġutilize":6228,"Ġpurs":6229,"ĠCustomer":6230,"Ġfilter":6231,"iden":6232,"CA":6233,"Ġworksh":6234,"Ġmissing":6235,"Ġillness":6236,"Ġvote":6237,"Ġsoul":6238,"Ġconstant":6239,"writ":6240,"Ġreplacement":6241,"Ġpersonality":6242,"Ġalt":6243,"ĠHave":6244,"ĠAsia":6245,"iest":6246,"cont":6247,"athy":6248,"âĢĻ.":6249,"alled":6250,"arency":6251,"Ġinterpret":6252,"ta":6253,"According":6254,"owners":6255,"Ġmachines":6256,"Cons":6257,"which":6258,"Ġaddressing":6259,"Tube":6260,"Ġtreated":6261,"ĠPen":6262,"Ġwire":6263,"agues":6264,"Ġchart":6265,"ĠSpecial":6266,"Understanding":6267,"Ġdelivering":6268,"Ġfollows":6269,"ĠSil":6270,"Ġfrust":6271,"Ġwithdraw":6272,"Ġinput":6273,"long":6274,"Ġliability":6275,"Ġille":6276,"Ġfailed":6277,"Ġwinning":6278,"Ġsuc":6279,"ĠGen":6280,"Ġthreats":6281,"Ġexplained":6282,"Ġexperiment":6283,"Ġconducted":6284,"Ġmeals":6285,"ĠIsland":6286,"Ġera":6287,"Ġframe":6288,"Ġdisput":6289,"orthern":6290,"iated":6291,"party":6292,"Ġathlet":6293,"ĠPract":6294,"wing":6295,"First":6296,"ĠMoreover":6297,"Ġcontinuous":6298,"ditional":6299,"Ġstone":6300,"Ġselecting":6301,"Ġelectrical":6302,"vity":6303,"Ġworse":6304,"ĠLake":6305,"example":6306,"Ġyes":6307,"Ġclothing":6308,"ki":6309,"Ġdelay":6310,"Ġlinked":6311,"Ġacceler":6312,"Sc":6313,"De":6314,"Ġmand":6315,"ĠWho":6316,"ĠJapanese":6317,"onym":6318,"Ġmob":6319,"Ġlock":6320,"Ġreduction":6321,"Ġforced":6322,"Ab":6323,"ĠRemember":6324,"Ġtiss":6325,"no":6326,"Ġsides":6327,"Ġfaced":6328,"ĠTwitter":6329,"ĠMart":6330,"driven":6331,"Ġbelieved":6332,"Ġcrime":6333,"Ġcharacteristics":6334,"Ġhabit":6335,"rie":6336,"ĠCentral":6337,"ĠAccount":6338,"ĠRegular":6339,"erving":6340,"ĠLab":6341,"Ġthrow":6342,"Ġtrained":6343,"inate":6344,"Ġinteraction":6345,"Ġactively":6346,"Ġregister":6347,"abis":6348,"Ġrepairs":6349,"PT":6350,"Ġachieved":6351,"Ġsequ":6352,"Ġpodcast":6353,"Ġwriter":6354,"Ġrapidly":6355,"ĠIndust":6356,"ĠID":6357,"Ġlever":6358,"Ġast":6359,"acc":6360,"ĠSun":6361,"Ġcontro":6362,"Ġjoined":6363,"Tra":6364,"Ġavailability":6365,"ints":6366,"inning":6367,"Ġutilizing":6368,"ĠParty":6369,"Ġcommission":6370,"Ġreferred":6371,"commerce":6372,"Tr":6373,"Ġpenis":6374,"Ġcraf":6375,"Ġdiscip":6376,"Ġstre":6377,"Ġunlike":6378,"Ġenhanced":6379,"Ġtransformation":6380,"ĠPri":6381,"New":6382,"Ġapplying":6383,"Ġdisrupt":6384,"Ġsigned":6385,"Ġreference":6386,"ĠQuest":6387,"Ġmitig":6388,"ĠEnergy":6389,"gent":6390,"Ġcompat":6391,"ĠMedical":6392,"Ġimplementing":6393,"Ġstable":6394,"Me":6395,"Ġton":6396,"ĠFrance":6397,"Ġchamp":6398,"worth":6399,"ĠNF":6400,"Ġvent":6401,"Le":6402,"rations":6403,"Ġcategory":6404,"Ġ2010":6405,"Ġsucceed":6406,"Ġaims":6407,"ĠAccess":6408,"ĠBack":6409,"Int":6410,"anger":6411,"Although":6412,"Ġvend":6413,"ĠLit":6414,"ste":6415,"ĠSunday":6416,"ĠExpl":6417,"ether":6418,"eping":6419,"Ġspons":6420,"Ġobvious":6421,"ĠChoose":6422,"Ġcollected":6423,"Ġdie":6424,"Ġuncertain":6425,"Ġminute":6426,"Se":6427,"Ġjudge":6428,"Ġreject":6429,"ĠAff":6430,"alle":6431,"ĠAcad":6432,"Ġsky":6433,"anish":6434,"Ġstrict":6435,"iverse":6436,"otic":6437,"Ġorganized":6438,"Ġiron":6439,"Ġsignificance":6440,"ĠMedia":6441,"Ġworkplace":6442,"Ġaccepted":6443,"mark":6444,"ĠWomen":6445,"ĠClub":6446,"Ġproven":6447,"Ġdysfunction":6448,"Ġreb":6449,"Ġsumm":6450,"ocket":6451,"Ġeleg":6452,"Ġkilled":6453,"Ġdiscussed":6454,"ĠEmploy":6455,"etime":6456,"anda":6457,"Ã¢":6458,"Ġguard":6459,"Ġintegrity":6460,"ĠThose":6461,"ographic":6462,"Ġven":6463,"using":6464,"Ġperiods":6465,"lo":6466,"Ġborrow":6467,"Ġfacts":6468,"Ġstronger":6469,"Ġinvolving":6470,"ĠKey":6471,"Ġbags":6472,"Ġexpression":6473,"ĠBen":6474,"70":6475,"Ġgod":6476,"Ġperm":6477,"Ġcomplain":6478,"Ġinspired":6479,"ii":6480,"osh":6481,"Ġequipped":6482,"Ġunderst":6483,"Ġpriority":6484,"Ġmembership":6485,"bles":6486,"LE":6487,"Ġbact":6488,"ĠPolic":6489,"Ġrig":6490,"Ġqualified":6491,"Ġadditionally":6492,"Ġmanual":6493,"90":6494,"Ġcritic":6495,"ĠFinancial":6496,"!<|":6497,"ecess":6498,"Ġachieving":6499,"Ġrough":6500,"ĠArab":6501,"mm":6502,"kin":6503,"Ġremed":6504,"Ġissued":6505,"adian":6506,"abetes":6507,"anta":6508,"Ġdelicious":6509,"Ġdelight":6510,"Ġmood":6511,"kers":6512,"Ġbalanced":6513,"Ġped":6514,"Ġpopularity":6515,"Ġturns":6516,"Ġdistrict":6517,"olutions":6518,"Ġincredibly":6519,"Ġsongs":6520,"Ġunable":6521,"Ġhyp":6522,"Ġmarried":6523,"ĠLand":6524,"ĠAlex":6525,"Ġmanufacturers":6526,"Ġconscious":6527,"Ġlessons":6528,"ownt":6529,"Ġemployer":6530,"Ġpersonally":6531,"Ġalongside":6532,"berg":6533,"ĠHam":6534,"ĠBill":6535,"ĠProper":6536,"Ġneck":6537,"irty":6538,"ĠSign":6539,"Ġremaining":6540,"Ġtrusted":6541,"ĠCreat":6542,"Ġroute":6543,"Ġimpacts":6544,"ota":6545,"rence":6546,"Ġconcrete":6547,"ĠYouTube":6548,"Ġprison":6549,"ĠCR":6550,"Ġdance":6551,"onday":6552,"ĠRoad":6553,"Ġvisiting":6554,"Even":6555,"Ġmoisture":6556,"ĠAnn":6557,"Ġpenal":6558,"Ġhabits":6559,"ini":6560,"rates":6561,"Ġcriteria":6562,"45":6563,"Ġportion":6564,"Ġartificial":6565,"Ġprioritize":6566,"Ġencounter":6567,"Ġbeat":6568,"35":6569,"ĠFollow":6570,"Ġ500":6571,"Ġmold":6572,"Reg":6573,"Ġacts":6574,"ĠTeam":6575,"Ġimagine":6576,"Ġnoise":6577,"bour":6578,"ĠIsl":6579,"ras":6580,"Ind":6581,"ĠHuman":6582,"Ġresidential":6583,"ĠTerm":6584,"alse":6585,"Ġresolution":6586,"ĠLight":6587,"Ġhosting":6588,"Ġplanet":6589,"Ġweekend":6590,"ventional":6591,"ander":6592,"Ġcandidate":6593,"TH":6594,"ĠLou":6595,"Ġcategories":6596,"Ġlosing":6597,"security":6598,"ĠFurthermore":6599,"Ġ2011":6600,"Ġherself":6601,"ĠMichael":6602,"Ġgained":6603,"ourage":6604,"Ġdomain":6605,"Ġeditor":6606,"respond":6607,"Ġmountain":6608,"ĠEns":6609,"ords":6610,"Ġdurability":6611,"Ġcontemporary":6612,"ĠExt":6613,"ĠAM":6614,"Ġsolve":6615,"ora":6616,"Ġprove":6617,"Ġclothes":6618,"Ġpreferred":6619,"Ġinqu":6620,"Ġevaluate":6621,"Ġinterior":6622,"Ġscholars":6623,"Ġforth":6624,"ĠCard":6625,"Ġexecutive":6626,"Ġboat":6627,"Ġinstalled":6628,"ĠLo":6629,"ĠDev":6630,"PN":6631,"ĠCert":6632,"Ġcommunications":6633,"Ġrestaurants":6634,"Ġtaught":6635,"ĠTem":6636,"uclear":6637,"Ġintric":6638,"ĠOpt":6639,"Ġdisp":6640,"Ġyounger":6641,"Ġparam":6642,"Ġtrouble":6643,"Ġmap":6644,"Ġarchitecture":6645,"rance":6646,"Ġenjoyable":6647,"Ġpossibilities":6648,"Ġblow":6649,"stream":6650,"Ġalternatives":6651,"luded":6652,"reement":6653,"Ġpublish":6654,"Ġunexpected":6655,"Ġhighlights":6656,"Rem":6657,"ĠConnect":6658,"Ġcalm":6659,"Read":6660,"Ġgrass":6661,"Ġisol":6662,"Ġpros":6663,"lessly":6664,"Ġmel":6665,"Ġpreparation":6666,"osite":6667,"Ġseconds":6668,"ĠFranc":6669,"Ġdinner":6670,"**":6671,"Ġalbum":6672,"erent":6673,"Ġformal":6674,"Ġversatile":6675,"Ġdispos":6676,"Ġnorth":6677,"Ġterrit":6678,"Ġtank":6679,"Ġdedication":6680,"Ġwearing":6681,"Ġhardware":6682,"aid":6683,"Ġreduces":6684,"Ġyield":6685,"ĠNeed":6686,"fe":6687,"Ġrestrictions":6688,"Ġpackaging":6689,"Ġdestroy":6690,"Ġstead":6691,"Ġcaught":6692,"ĠMark":6693,"Ġrising":6694,"Ġcabin":6695,"Ġauto":6696,"Ġmeets":6697,"Ġmortgage":6698,"Ġinvestigation":6699,"Ġsuffering":6700,"ĠReport":6701,"Ġgentle":6702,"Ġranking":6703,"Ġtruck":6704,"ĠImp":6705,"ograp":6706,"Ġintense":6707,"Ġsearching":6708,"Ġsubsequ":6709,"Ġphr":6710,"ĠAbout":6711,"ala":6712,"enders":6713,"Ġfocuses":6714,"ĠNig":6715,"Ġcookies":6716,"ĠBur":6717,"eding":6718,"Ġdive":6719,"PC":6720,"Ġhorse":6721,"stone":6722,"Ġinventory":6723,"Ġeligible":6724,"ĠBrand":6725,"Ġlasting":6726,"itution":6727,"Ġemissions":6728,"Ġcere":6729,"FA":6730,"ading":6731,"Ġslowly":6732,"Ġdreams":6733,"Ġfilms":6734,"Ġincent":6735,"Ġindeed":6736,"ĠUnderstanding":6737,"Ġresilience":6738,"Since":6739,"Ġprotocol":6740,"ĠOffic":6741,"ĠDub":6742,"Ġnecessarily":6743,"raid":6744,"Ġimprovements":6745,"Ġring":6746,"ĠRober":6747,"ĠEconom":6748,"Ġembrace":6749,"Ġmenu":6750,"Ġbroader":6751,"Ġsupposed":6752,"uce":6753,"OL":6754,"Ġequity":6755,"Ġwhenever":6756,"Ġ29":6757,"Ġdurable":6758,"Ġconsistently":6759,"Ġevaluation":6760,"Ġbear":6761,"Ġemerging":6762,"ĠInsurance":6763,"ĠWebsite":6764,"ĠIran":6765,"ĠQue":6766,"ĠBeach":6767,"Ġexercises":6768,"Ġanalyze":6769,"Ġindicate":6770,"Ġbought":6771,"Ġfigures":6772,"Ġlegislation":6773,"Ġdecade":6774,"Ġasp":6775,"Ġcos":6776,"formance":6777,"Ġsouth":6778,"Ġends":6779,"han":6780,"Su":6781,"ĠFamily":6782,"Ġretirement":6783,"Ġconversion":6784,"Ġsin":6785,"Ġerror":6786,"Ġlosses":6787,"Additionally":6788,"Ġdriven":6789,"ĠAud":6790,"Ġsurve":6791,"Ġmail":6792,"ĠBas":6793,"amples":6794,"Ġtelling":6795,"Ġgrew":6796,"ĠOper":6797,"ching":6798,"umes":6799,"Ġsmile":6800,"ĠMinister":6801,"ĠJud":6802,"Ġhospit":6803,"ĠPress":6804,"Ġmovements":6805,"illa":6806,"ĠUkraine":6807,"Ġpromise":6808,"Ġpoly":6809,"Ġarms":6810,"ĠLin":6811,"Ġsquare":6812,"Ġsafeg":6813,"Ġhero":6814,"oto":6815,"Ġreform":6816,"ye":6817,"Ġextract":6818,"ette":6819,"Ġnearby":6820,"Ġhouses":6821,"esides":6822,"ĠBal":6823,"urday":6824,"ĠMicrosoft":6825,"Ġobjects":6826,"Ġcoach":6827,"Ġnative":6828,"ĠBook":6829,"redit":6830,"ruption":6831,"Ġgro":6832,"ĠKen":6833,"ĠMer":6834,"Ġinteractive":6835,"Ġinner":6836,"Ġpil":6837,"Ġpermit":6838,"Ġepisode":6839,"Ġexperiencing":6840,"Ġconcepts":6841,"Ġdiam":6842,"Ġembra":6843,"Ġstraightforward":6844,"lined":6845,"you":6846,"Ġ35":6847,"Ġelectricity":6848,"ĠDiv":6849,"Ġownership":6850,"Ġcenters":6851,"ĠMass":6852,"Ġenjoyed":6853,"ipe":6854,"ĠSecret":6855,"Ġstored":6856,"Ġcul":6857,"Ġintellect":6858,"Ġfly":6859,"Ġmaximize":6860,"Ġapproval":6861,"erate":6862,"ĠBlue":6863,"Just":6864,"Ġextend":6865,"Ġsurprise":6866,"cies":6867,"Ġoutput":6868,"Ġmedications":6869,"Ġupl":6870,"Ġmatt":6871,"Ġrequests":6872,"Ġfold":6873,"ĠAnaly":6874,"Ġautomated":6875,"Ġaccomp":6876,"arr":6877,"Ġmagic":6878,"Ġstreaming":6879,"Ġidentifying":6880,"owered":6881,"Ġsaving":6882,"Ġrecover":6883,"ĠWindows":6884,"hered":6885,"brid":6886,"ano":6887,"rep":6888,"Ġdigest":6889,"date":6890,"ulous":6891,"uls":6892,"Whether":6893,"Ġfulfill":6894,"Ġenterprise":6895,"Ġconfig":6896,"Ġwheel":6897,"amics":6898,"lder":6899,"Ġfro":6900,"Ġpolitics":6901,"Ġdiscussions":6902,"aming":6903,"ĠThom":6904,"Ġwellness":6905,"ĠTwo":6906,"Ġcontributions":6907,"Ġconver":6908,"Ġcorrectly":6909,"ĠBi":6910,"Ġhorm":6911,"Ġarrest":6912,"ĠFil":6913,"ĠLink":6914,"Ġstrengthen":6915,"Ġprofound":6916,"ogether":6917,"During":6918,"ĠDespite":6919,"ĠBer":6920,"Ġbrowser":6921,"Ġfighting":6922,"Ġdining":6923,"Ġplanned":6924,"Ġresponsibilities":6925,"Ġgreatly":6926,"Ġfostering":6927,"%.":6928,"ypes":6929,"Ġscope":6930,"ĠHim":6931,"Ġpermanent":6932,"Ġerrors":6933,"oices":6934,"Ġcompare":6935,"Ġcontracts":6936,"do":6937,"Ġsuddenly":6938,"Ġdust":6939,"Ġapparent":6940,"Ġhaz":6941,"Ġexpansion":6942,"ĠFederal":6943,"ĠSuch":6944,"sembly":6945,"26":6946,"Ġjur":6947,"oosing":6948,"Ġfavour":6949,"Ġradio":6950,"Ġofficer":6951,"Ġaccord":6952,"Ġfrequent":6953,"ĠControl":6954,"Ġimmune":6955,"GB":6956,"Ġmanufacturer":6957,"Ġimper":6958,"Ġsending":6959,"Ġmuscles":6960,"ĠSer":6961,"Ġethical":6962,"ĠArch":6963,"Ġbless":6964,"Ġdamages":6965,"ket":6966,"Ġsupplements":6967,"Ġcomplicated":6968,"Ġminimize":6969,"Ġfif":6970,"Ġcrypto":6971,"ĠThus":6972,"ria":6973,"Ġgolf":6974,"ĠCarol":6975,"Ġinject":6976,"Ġstages":6977,"Ġnom":6978,"Ġnarrative":6979,"Ġrevealed":6980,"Of":6981,"Ġafraid":6982,"ĠVol":6983,"hors":6984,"icy":6985,"ĠRest":6986,"Ġnewslet":6987,"Ġduty":6988,"ĠWed":6989,"Ġreaching":6990,"Ġsubscription":6991,"inn":6992,"Ġemployers":6993,"Ġbread":6994,"Where":6995,"Ġflood":6996,"Ġdemonstrate":6997,"rypt":6998,"Ġprotecting":6999,"Ġexistence":7000,"rid":7001,"Ġlargely":7002,"Ġsight":7003,"Ġacting":7004,"Ġfellow":7005,"ao":7006,"Ġbills":7007,"ĠSite":7008,"Ġguest":7009,"ĠAndroid":7010,"Ġovercome":7011,"Ġarrived":7012,"Ġterror":7013,"Ġscal":7014,"Ġentered":7015,"Ġgut":7016,"rome":7017,"Ġsick":7018,"Ġpainting":7019,"Ġaccomplish":7020,"Ġphilosoph":7021,"asant":7022,"ifting":7023,"Ġaudiences":7024,"Ġnine":7025,"Ġpresents":7026,"Ġcorrespond":7027,"Ġenforcement":7028,"Bl":7029,"Ġtone":7030,"meg":7031,"Ġinspiration":7032,"Ġmatches":7033,"Ġexplains":7034,"Bu":7035,"ĠTO":7036,"Ġstakeholders":7037,"Ġtro":7038,"ieties":7039,"Ġflowers":7040,"Ġcasual":7041,"Ġtransparency":7042,"Ġstopped":7043,"Ġpreventing":7044,"Ġtox":7045,"Ġperforming":7046,"Ġshel":7047,"Ġsolely":7048,"Ġdecent":7049,"Ġultimate":7050,"Ġlibrary":7051,"Ġcertific":7052,"Ġspr":7053,"Ġproducing":7054,"aping":7055,"Ġremarkable":7056,"ĠAdminist":7057,"Ġofficers":7058,"Res":7059,"ĠCy":7060,"Ġsubscrib":7061,"Ġsafely":7062,"ĠEqu":7063,"ĠAS":7064,"Ġpercentage":7065,"ĠContent":7066,"Ġincident":7067,"Ġinflamm":7068,"Ġmerely":7069,"Ġtemperatures":7070,"ĠSmith":7071,"ĠProcess":7072,"Ġundert":7073,"ĠTom":7074,"Ġ2008":7075,"Ġvisible":7076,"ĠSecond":7077,"Ġdamaged":7078,"Ġboundaries":7079,"Ġzero":7080,"âĢĻ,":7081,"Ġkick":7082,"Ġbreast":7083,"col":7084,"anged":7085,"Ġsectors":7086,"ĠGeorge":7087,"Ġtechnological":7088,"ĠSpirit":7089,"Ġrealized":7090,"ĠSupp":7091,"ĠDistrict":7092,"Ġrecipe":7093,"27":7094,"Ġsharp":7095,"ĠMot":7096,"Ġaccounting":7097,"âĦ":7098,"racy":7099,"ĠRev":7100,"ĠUlt":7101,"Ġcombat":7102,"Ġphen":7103,"Ġtwice":7104,"ĠWood":7105,"Ġbehalf":7106,"ĠGrand":7107,"ognitive":7108,"ien":7109,"assion":7110,"Ġbasically":7111,"ĠJewish":7112,"ĠThank":7113,"Ġarray":7114,"Ġreliability":7115,"Comp":7116,"Â®":7117,"Ġnarrow":7118,"gu":7119,"that":7120,"Ġfo":7121,"uma":7122,"ĠYet":7123,"icious":7124,"Ġdegrees":7125,"Ġharmful":7126,"Ġdism":7127,"person":7128,"Ġ31":7129,"istent":7130,"Ġfert":7131,"azine":7132,"ĠDiff":7133,"Ġaesthetic":7134,"ĠBat":7135,"ĠExperience":7136,"opy":7137,"ĠContact":7138,"Ġrecruit":7139,"uct":7140,"Ġmerch":7141,"Ġcurrency":7142,"ĠBitcoin":7143,"Ġtestim":7144,"Ġtelevision":7145,"Ġmemories":7146,"Ġlimitations":7147,"Ġcharged":7148,"Ġthemes":7149,"Ġchronic":7150,"Ġmainly":7151,"ua":7152,"Ġrefers":7153,"ĠAD":7154,"iary":7155,"Ġpace":7156,"ĠLast":7157,"ĠProfessional":7158,"reens":7159,"van":7160,"cript":7161,"Ġexposed":7162,"Ġgrab":7163,"RS":7164,"Ġwww":7165,"28":7166,"effective":7167,"Ġillegal":7168,"gl":7169,"isco":7170,"Ġsalt":7171,"utor":7172,"Ġrecorded":7173,"bi":7174,"Ġloyalty":7175,"Ġ45":7176,"ĠUt":7177,"ĠMonday":7178,"Ġappointment":7179,"ĠFire":7180,"ortion":7181,"Ġreflects":7182,"Ġrequirement":7183,"Ġmistakes":7184,"Ġther":7185,"Ġfalse":7186,"Ġforecast":7187,"Ġdepression":7188,"ĠEnh":7189,"Ġlets":7190,"65":7191,"Ġengines":7192,"Ġbreaking":7193,"ĠAuthor":7194,"Ġnoticed":7195,"ĠTax":7196,"Ġfishing":7197,"Ġnone":7198,"rogen":7199,"Ġbooking":7200,"ĠColor":7201,"ĠAND":7202,"Ġscan":7203,"Pr":7204,"alian":7205,"ĠLu":7206,"Ġunderstood":7207,"Am":7208,"Ġjudgment":7209,"ĠValley":7210,"Ġfeat":7211,"Ġentrepreneurs":7212,"Ġkne":7213,"onge":7214,"Ġpleasure":7215,"proof":7216,"Ġobtained":7217,"IG":7218,"Ġfru":7219,"Ġstorm":7220,"Ġcontrols":7221,"Ġorganis":7222,"Fi":7223,"Ġfairly":7224,"ĠThanks":7225,"Ġdrag":7226,"ĠMel":7227,"Last":7228,"Ġoccurs":7229,"ĠHill":7230,"Ġadoption":7231,"Ġgap":7232,"Ġevolution":7233,"CH":7234,"iner":7235,"Ġheating":7236,"ĠTim":7237,"Ġessay":7238,"ĠLove":7239,"Ġdescribe":7240,"igen":7241,"ola":7242,"class":7243,"ĠBible":7244,"ĠEnviron":7245,"Ġdates":7246,"law":7247,"Ġriver":7248,"Ġinterf":7249,"ĠEnter":7250,"isher":7251,"Ġchief":7252,"ita":7253,"Ġtrick":7254,"ĠExecut":7255,"Ġexpressed":7256,"Ġinflation":7257,"Ġcompetitors":7258,"Ġparking":7259,"Ġpra":7260,"ĠMax":7261,"step":7262,"Ġmattress":7263,"Ġhook":7264,"theless":7265,"ĠColl":7266,"Ġstars":7267,"Ġalike":7268,"ĠGuide":7269,"Ġparticipation":7270,"Ġmetrics":7271,"ĠSoft":7272,"ĠAtl":7273,"made":7274,"ĠCanadian":7275,"uous":7276,"Ġtexture":7277,"orous":7278,"Ġinfection":7279,"Ġerectile":7280,"ustain":7281,"Ġresponses":7282,"Ġsplit":7283,"isdom":7284,"Ġvan":7285,"icago":7286,"Ġunderlying":7287,"isd":7288,"Ġsuperior":7289,"Ġpurchased":7290,"Ġimmers":7291,"Ġben":7292,"ĠApplic":7293,"ocolate":7294,"Ġmir":7295,"29":7296,"Ġusual":7297,"Ġspots":7298,"ĠMrs":7299,"Ġconsultation":7300,"ĠTimes":7301,"ĠCode":7302,"Ġevolving":7303,"Ġdiabetes":7304,"Ġdescription":7305,"Ġadvent":7306,"ĠAgreement":7307,"Ġvillage":7308,"ĠHead":7309,"Or":7310,"Ġgall":7311,"ĠIr":7312,"Ġspoke":7313,"orce":7314,"33":7315,"Ġdishes":7316,"Ġfewer":7317,"Ġjack":7318,"Ġarts":7319,"Ġwider":7320,"âĦ¢":7321,"ĠMexico":7322,"Ġentit":7323,"Ġsurge":7324,"ideo":7325,"Ġwet":7326,"ĠCr":7327,"Ġfoster":7328,"oral":7329,"Ġsignal":7330,"Ġtooth":7331,"Ġrefund":7332,"Ġestimated":7333,"Ġsuggested":7334,"Ġbonus":7335,"teries":7336,"Ġearned":7337,"ĠGard":7338,"Ġteen":7339,"Who":7340,"ĠLearn":7341,"ĠVirgin":7342,"cers":7343,"Ġincorporating":7344,"Ġdownt":7345,"ĠPolicy":7346,"Ġtiny":7347,"fulness":7348,"arn":7349,"Ġcannabis":7350,"ĠAustralian":7351,"makers":7352,"Ġstrike":7353,"asters":7354,"Ġobligations":7355,");":7356,"ĠCult":7357,"Ġlegacy":7358,"Ġleverage":7359,"Ġappealing":7360,"Comm":7361,"Ġ2009":7362,"Ġchicken":7363,"raction":7364,"Ġperce":7365,"Ġsought":7366,"gypt":7367,"Ġeco":7368,"Ġseriously":7369,"ĠGrow":7370,"Ġsetup":7371,"istant":7372,"Ġharder":7373,"ĠCat":7374,"Ġconcerning":7375,"Ġcolour":7376,"Rec":7377,"Ġenthusiasts":7378,"ĠResp":7379,"Ġexcite":7380,"itar":7381,"ĠImpro":7382,"Ġrank":7383,"Ġpiv":7384,"Ġpursue":7385,"Ġraw":7386,"Ġcolleagues":7387,"ena":7388,"ancer":7389,"Ps":7390,"isk":7391,"Ġfinancing":7392,"uction":7393,"pay":7394,"uing":7395,"ĠNetwork":7396,"world":7397,"Ġescape":7398,"ĠChief":7399,"ĠTour":7400,"ĠVict":7401,"lude":7402,"Ġobjective":7403,"ĠCD":7404,"Ġmild":7405,"Ġgovernments":7406,"Press":7407,"75":7408,"ĠLearning":7409,"Ġchecking":7410,"ĠDi":7411,"Ġpersons":7412,"Ġthrive":7413,"Ġintu":7414,"Ġshock":7415,"Ġsynt":7416,"ĠCall":7417,"ĠSociety":7418,"Ġgenerations":7419,"ĠMuslim":7420,"Ġincorporate":7421,"looking":7422,"Ġblockchain":7423,"ĠBiden":7424,"urities":7425,"Ġouts":7426,"TA":7427,"Ġrewards":7428,"ĠScott":7429,"ĠSaturday":7430,"ĠFind":7431,"Ġdent":7432,"Ġcontrolled":7433,"she":7434,"rection":7435,"Ġannounce":7436,"Ġhomeowners":7437,"rants":7438,"ĠVer":7439,"Ġpasseng":7440,"vy":7441,"Ġvegetables":7442,"Ġmoves":7443,"Ġdatabase":7444,"ĠHR":7445,"Ġstain":7446,"ivating":7447,"ĠPot":7448,"II":7449,"Ġfollowers":7450,"Ġdocumentation":7451,"agon":7452,"ppers":7453,"ĠHaving":7454,"Ġbrown":7455,"Ġoutstanding":7456,"Ġauthentic":7457,"ĠEnd":7458,"Phone":7459,"Ġnations":7460,"edge":7461,"ĠTreat":7462,"Well":7463,"Ġ2000":7464,"Qu":7465,"Ġcentre":7466,"cher":7467,"Ġofferings":7468,"Ġaffiliate":7469,"Ġcontributing":7470,"criptions":7471,"Ġinches":7472,"iking":7473,"Ġpassing":7474,"Ġbathroom":7475,"Ġupper":7476,"ĠSup":7477,"Ġble":7478,"Ġinitially":7479,"Ġnuclear":7480,"Ġdrinking":7481,"itt":7482,"ĠCorpor":7483,"ĠMuseum":7484,"can":7485,"Ġformed":7486,"ĠSafety":7487,"Ġpurchases":7488,"Ġsuspect":7489,"Ġfacilitate":7490,"\".":7491,"Ġacquis":7492,"Ġrepeated":7493,"Ġinn":7494,"profit":7495,"ĠCath":7496,"Ġtargets":7497,"Ġtested":7498,"ĠNor":7499,"Ġenjoying":7500,"sect":7501,"ENT":7502,"Ġhistoric":7503,"host":7504,"urning":7505,"Ġalter":7506,"ĠWithout":7507,"vin":7508,"ĠAvoid":7509,"avy":7510,"Ġbutter":7511,"Ġjew":7512,"Ġnormally":7513,"ĠPeter":7514,"pat":7515,"ĠNon":7516,"een":7517,"Ġbridge":7518,"ĠSometimes":7519,"Ġpresentation":7520,"asm":7521,"Ġtalked":7522,"ĠMont":7523,"obby":7524,"unnels":7525,"OC":7526,"Ġmixed":7527,"ĠMiddle":7528,"Ġcrop":7529,"Pe":7530,"Ġprecision":7531,"Ġpreparing":7532,"Ġhack":7533,"Ġdebate":7534,"Ġacknowled":7535,"Ġdoctors":7536,"phones":7537,"Ġborder":7538,"ĠPan":7539,"Ġgate":7540,"Ġexcessive":7541,"Ġimplemented":7542,"Ġlikewise":7543,"Ġcustomized":7544,"Ġcompelling":7545,"novation":7546,"imp":7547,"olit":7548,"Ġmusical":7549,"Ġweapons":7550,"ĠParis":7551,"Ġinstant":7552,"Ġnutrients":7553,"ĠOld":7554,"Ġfindings":7555,"Ġallerg":7556,"Ġvulnerable":7557,"dep":7558,"Ġobviously":7559,"ĠList":7560,"spec":7561,"Ġreligion":7562,"ĠDown":7563,"Other":7564,"anies":7565,"ĠLeague":7566,"Ġchemicals":7567,"Che":7568,"Ġcrew":7569,"Ġvisa":7570,"Ġkeywords":7571,"Ġcertification":7572,"Ġinitiative":7573,"Ġempt":7574,"Ġtemporary":7575,"Ġsacr":7576,"Ġoverwhelming":7577,"Ġsuppliers":7578,"Ġprohib":7579,"ĠEgypt":7580,"Ġaddresses":7581,"Ġpsychological":7582,"ĠLos":7583,"OM":7584,"Ġstreets":7585,"Ġdil":7586,"Ġwriters":7587,"Ġhyper":7588,"ĠManager":7589,"Ġmanif":7590,"oster":7591,"achel":7592,"Ġreaction":7593,"olving":7594,"ĠProtection":7595,"LA":7596,"Ġpregnancy":7597,"Ġimplications":7598,"Ġphotograph":7599,"ologist":7600,"Ġinstitution":7601,"Ġprovision":7602,"Ġdesigner":7603,"haust":7604,"Ġcomplexity":7605,"ican":7606,"Ġsad":7607,"Ġcomply":7608,"Ġbelieves":7609,"Ġexploration":7610,"Ġaside":7611,"inf":7612,"Ġsegment":7613,"Ġages":7614,"Ġsomebody":7615,"Ġdevelopments":7616,"Ġshouldn":7617,"Ġdrain":7618,"ools":7619,"Ġgenerated":7620,"Ġlegs":7621,"ĠRequ":7622,"Ġunp":7623,"apes":7624,"Ġmine":7625,"Ġauthors":7626,"Ġcomplement":7627,"Ġworkflow":7628,"Ġaccum":7629,"Ġworkforce":7630,"including":7631,"TC":7632,"ĠLocal":7633,"Ġfits":7634,"Ġhall":7635,"Ġexcitement":7636,"Ġhur":7637,"Ġticket":7638,"ĠChamp":7639,"inity":7640,"Ġcertified":7641,"Ġleather":7642,"Ġmarked":7643,"Ġcomparison":7644,"Ġsister":7645,"pm":7646,"Ġbehavi":7647,"Ġpanels":7648,"ogs":7649,"ĠJack":7650,"ĠShould":7651,"Ġunn":7652,"Ġequally":7653,"Ġaccordance":7654,"Ġcharging":7655,"Ġrecording":7656,"ĠMill":7657,"Ġwalked":7658,"Ġchapter":7659,"Ġbold":7660,"ĠChicago":7661,"Ġintroduction":7662,"Ġspark":7663,"ĠSum":7664,"Ġintellectual":7665,"ĠProm":7666,"ĠHelp":7667,"ĠTraining":7668,"othe":7669,"Ġbrush":7670,"Ġlanding":7671,"real":7672,"Ġstood":7673,"Ġtimely":7674,"BS":7675,"Ġentering":7676,"Ġworst":7677,"Ġseeds":7678,"Ġcommittee":7679,"Ġowned":7680,"ĠPalest":7681,"taining":7682,"Ġhurt":7683,"ĠUser":7684,"Ġbanking":7685,"RC":7686,"Ġconsists":7687,"Ġhonor":7688,"gs":7689,"Ġcelebrate":7690,"isticated":7691,"uties":7692,"Ġresolve":7693,"Ġencourages":7694,"Ġbacteria":7695,"Ġrealm":7696,"uan":7697,"Ġheritage":7698,"Ġclarity":7699,"Ġstruggling":7700,"Ġexplo":7701,"ĠLLC":7702,"Ġscientists":7703,"Ġpeak":7704,"Ġvirus":7705,"Ġyellow":7706,"Ġdeposit":7707,"Ġlapt":7708,"ĠRock":7709,"Ġadequate":7710,"ĠRo":7711,"Ġspecialist":7712,"Ġaccidents":7713,"UR":7714,"Ġfarmers":7715,"Ġwise":7716,"Ġessentially":7717,"Ġroots":7718,"Ġrural":7719,"omin":7720,"atching":7721,"Ġhes":7722,"Ġtip":7723,"ĠItalian":7724,"Ġintention":7725,"Ġfascinating":7726,"ilst":7727,"ĠCommon":7728,"ĠMusic":7729,"uration":7730,"ocracy":7731,"Ġdefinition":7732,"eling":7733,"Sec":7734,"erts":7735,"Ġaccessories":7736,"Ġdecrease":7737,"eto":7738,"Ġvictims":7739,"Ġjurisd":7740,"wear":7741,"Ġessence":7742,"zil":7743,"rencies":7744,"Ġneut":7745,"Ġlanguages":7746,"oned":7747,"ĠYeah":7748,"Ġgifts":7749,"Ġsections":7750,"OW":7751,"Ġlunch":7752,"Ġheavily":7753,"tr":7754,"Ġfaces":7755,"ĠEst":7756,"ĠRoman":7757,"Ġslot":7758,"Up":7759,"ache":7760,"rem":7761,"alysis":7762,"ĠGame":7763,"Ġfib":7764,"ĠSales":7765,"MA":7766,"ĠBrown":7767,"Ġmissed":7768,"rently":7769,"Ġrecyc":7770,"eness":7771,"Ġremained":7772,"DS":7773,"Ġupcoming":7774,"Ġshad":7775,"Ġyoga":7776,"Ġoral":7777,"Ġopinions":7778,"Ġdifficulty":7779,"Ġcarrying":7780,"onic":7781,"Ġversions":7782,"ĠSpanish":7783,"ĠShop":7784,"Ġvacation":7785,"Ġopposite":7786,"ĠDen":7787,"Ġflavors":7788,"ĠJohns":7789,"Also":7790,"Ġsafeguard":7791,"TV":7792,"Ġsmell":7793,"acific":7794,"ĠBuilding":7795,"Wor":7796,"Ġvictory":7797,"va":7798,"Ġsomewhat":7799,"Ġdiscom":7800,"rd":7801,"essel":7802,"ulum":7803,"rey":7804,"Ġbirds":7805,"ĠShow":7806,"igan":7807,"ĠFrank":7808,"Ġeliminate":7809,"ĠGeorg":7810,"Ġ300":7811,"ĠAutom":7812,"Ġsample":7813,"Then":7814,"Ġfrag":7815,"ĠJournal":7816,"Ġsilver":7817,"angers":7818,"Ġ*":7819,"oors":7820,"urb":7821,"Ġcampus":7822,"Ke":7823,"Ġprinting":7824,"ĠMult":7825,"Ġconnecting":7826,"Ġdefine":7827,"Ġpit":7828,"ĠFact":7829,"ogen":7830,"lihood":7831,"eras":7832,"Ġreveal":7833,"oding":7834,"Ġsettlement":7835,"arks":7836,"Ġthin":7837,"noon":7838,"Ġrail":7839,"sts":7840,"osc":7841,"lla":7842,"eck":7843,"ĠBenefits":7844,"Ġarise":7845,"Ġokay":7846,"ĠCloud":7847,"Ġrating":7848,"__":7849,"ĠPak":7850,"ĠSqu":7851,"izer":7852,"uts":7853,"Ġprofits":7854,"uesday":7855,"Ġconventional":7856,"nowned":7857,"Man":7858,"Ġcultures":7859,"?\"":7860,"iox":7861,"Ġzone":7862,"Ġthoroughly":7863,"Ġtall":7864,"Ġalgorithms":7865,"Ġphenomen":7866,"Ġsurfaces":7867,"mal":7868,"yan":7869,"endar":7870,"Ġtrib":7871,"Ġaffects":7872,"Ġgambling":7873,"Ġoptimization":7874,"Ġobstac":7875,"Ġprominent":7876,"Ġintroduce":7877,"Ġdrawing":7878,"Ġunlock":7879,"ĠHosp":7880,"Ġindex":7881,"ura":7882,"ĠGummies":7883,"Ġremoving":7884,"appy":7885,"Ġsophisticated":7886,"Ġbeliefs":7887,"Ġflour":7888,"Ġtraveling":7889,"Ġsurprised":7890,"Ġscheme":7891,"Ġduration":7892,"Ġdefe":7893,"HS":7894,"ĠAsian":7895,"....":7896,"ĠConsult":7897,"Ġexpanding":7898,"page":7899,"Ġcollective":7900,"bet":7901,"ĠMaybe":7902,"Ġaimed":7903,"Ġfourth":7904,"Ġmig":7905,"rolog":7906,"Ġdesigners":7907,"Ġtoler":7908,"Ġbasket":7909,"Ġcoaching":7910,"Ġprinciple":7911,"Ġsuffer":7912,"Ġiconic":7913,"ĠWall":7914,"itate":7915,"ĠNever":7916,"Ġwisdom":7917,"inem":7918,"gi":7919,"ĠFed":7920,"Ġid":7921,"Ġlikes":7922,"Ġoriginally":7923,"Ġshed":7924,"Ġcolon":7925,"ĠExecutive":7926,"Ġsubjects":7927,"Ġprogramme":7928,"ĠPrem":7929,"Ġpin":7930,"Ġdiscomfort":7931,"ĠOil":7932,"Ġexplan":7933,"ĠDI":7934,"ĠNext":7935,"Ġsummary":7936,"ursday":7937,"Ġcovering":7938,"Ġjewel":7939,"isters":7940,"leep":7941,"Ġpowers":7942,"azz":7943,"ĠTravel":7944,"ĠQuestions":7945,"Ġsupportive":7946,"Ġearnings":7947,"Ġpartnerships":7948,"Ġrepresentation":7949,"ĠJoe":7950,"ĠEss":7951,"Ġtransparent":7952,"Ġadjustments":7953,"ĠIll":7954,"Ġfrequency":7955,"away":7956,"Ġshowcase":7957,"market":7958,"Ġlady":7959,"Ġbuyer":7960,"ĠRad":7961,"ĠMen":7962,"Ġaddressed":7963,"apore":7964,"Ġargument":7965,"ĠRights":7966,"Ġplug":7967,"Ġheads":7968,"Ġcontinuing":7969,"ĠSand":7970,"Ġconsiderations":7971,"Ġstudying":7972,"Ġnob":7973,"lers":7974,"ĠFuture":7975,"Finally":7976,"ĠInteg":7977,"ĠLouis":7978,"Ġencouraging":7979,"Ġregulation":7980,"born":7981,"Ġgrade":7982,"ĠAward":7983,"ĠAcademy":7984,"Ġboxes":7985,"Ġlayers":7986,"igned":7987,"Ġexhaust":7988,"Ġexch":7989,"Ġoppon":7990,"Ġdecline":7991,"ato":7992,"edia":7993,"pie":7994,"Ġmur":7995,"Ġstudio":7996,"Ġtissue":7997,"Ġbare":7998,"aken":7999,"Ġexamine":8000,"Ġprogramming":8001,"nic":8002,"uis":8003,"ĠQuality":8004,"Ġassume":8005,"Ġhub":8006,"Ġpersonnel":8007,"ulf":8008,"Ġarrive":8009,"Ġimpression":8010,"Please":8011,"ĠMS":8012,"Ġfiled":8013,"Ġdrawn":8014,"Ġfake":8015,"Ġfounded":8016,"ĠBab":8017,"Ġseed":8018,"irus":8019,"ĠAngeles":8020,"plete":8021,"through":8022,"astern":8023,"Ġalive":8024,"employ":8025,"Ġlaid":8026,"Ġunus":8027,"Ġeverybody":8028,"Ġconfirmed":8029,"Ġhealthier":8030,"Ġorganisation":8031,"Ġvisits":8032,"ĠSupreme":8033,"Ġquote":8034,"Ã¡":8035,"itis":8036,"ĠJustice":8037,"Ġblind":8038,"Ġcoat":8039,"Ġlift":8040,"Ġairport":8041,"Ġaddiction":8042,"Ġaccessibility":8043,"Ġgrace":8044,"Ġwaters":8045,"Ġfalling":8046,"Ġcheese":8047,"Ġwave":8048,"ga":8049,"ĠTry":8050,"ĠHistory":8051,"Ġtables":8052,"Per":8053,"umbing":8054,"Ġcognitive":8055,"Ġprofiles":8056,"fl":8057,"Despite":8058,"iating":8059,"Ġadopted":8060,"aintiff":8061,"ĠThough":8062,"Ġreputable":8063,"Ġshops":8064,"author":8065,"Ġgranted":8066,"Ġdraft":8067,"Ġencouraged":8068,"liament":8069,"orship":8070,"Ġeggs":8071,"ĠBeing":8072,"Ġpermission":8073,"comm":8074,"Ġletters":8075,"ĠItaly":8076,"Ġbottle":8077,"Â°":8078,"ented":8079,"Ġsubstance":8080,"weet":8081,"izations":8082,"ĠFest":8083,"Ġlegisl":8084,"Ġperformances":8085,"ĠSection":8086,"Ġchecks":8087,"Ġstuck":8088,"ircle":8089,"backs":8090,"Ġlie":8091,"ĠLi":8092,"ĠPM":8093,"burg":8094,"Ġattach":8095,"Ġ195":8096,"Ġsatisfied":8097,"Ġcryptocurrency":8098,"sell":8099,"Ġsuggestions":8100,"ĠAp":8101,"Ġthousand":8102,"Ġsour":8103,"Ġproposal":8104,"Ġposted":8105,"Ġproactive":8106,"Ġpets":8107,"hem":8108,"Ġweekly":8109,"Ġobserved":8110,"onna":8111,"fall":8112,"oul":8113,"Ġadvancements":8114,"urious":8115,"ĠWild":8116,"ĠTer":8117,"Ġkit":8118,"Ġexcellence":8119,"ecessary":8120,"Ġjoining":8121,"Ġreplaced":8122,"onds":8123,"nesday":8124,"ĠiPhone":8125,"Ġrequiring":8126,"Ġintegrate":8127,"Ġoffices":8128,"oven":8129,"ĠIre":8130,"print":8131,"ivals":8132,"ĠHaw":8133,"Ġlogo":8134,"Ġprocessed":8135,"ĠCentre":8136,"Ġ=":8137,"ĠChildren":8138,"ĠCra":8139,"Ġoccasion":8140,"utter":8141,"Ġrice":8142,"ĠIdent":8143,"ĠFinally":8144,"ership":8145,"ĠStay":8146,"Ġbone":8147,"Ġgradually":8148,"Ġfruits":8149,"esome":8150,"ĠDou":8151,"Ġforever":8152,"High":8153,"Ġpride":8154,"Best":8155,"ĠSmart":8156,"ĠLive":8157,"rator":8158,"Ġdivers":8159,"Ġlaugh":8160,"ĠHand":8161,"Ġcodes":8162,"Ġinfo":8163,"scale":8164,"Ġbehaviors":8165,"Ġnurt":8166,"Inst":8167,"Ġcock":8168,"Ġsaved":8169,"44":8170,"there":8171,"Ġvessel":8172,"Ġdevot":8173,"Ġindoor":8174,"idity":8175,"ourse":8176,"Ġlau":8177,"sters":8178,"Ġestablishing":8179,"charge":8180,"Ġlegitimate":8181,"OP":8182,"bel":8183,"vas":8184,"Ġinclusive":8185,"Ġplate":8186,"Ġ2007":8187,"ĠNY":8188,"Ġneither":8189,"ĠSar":8190,"Ġsubmitted":8191,"Ġconstitut":8192,"rog":8193,"Ġliterature":8194,"Ġfalls":8195,"Ġevil":8196,"Ġintervention":8197,"Because":8198,"Ġinflammation":8199,"Ġcats":8200,"Ġprovisions":8201,"ested":8202,"CE":8203,"anted":8204,"Ġmetab":8205,"ongevity":8206,"Ġextraord":8207,"95":8208,"Ġagreements":8209,"Ġequival":8210,"ĠSolutions":8211,"ĠTru":8212,"Ġtransmission":8213,"Ġglobe":8214,"ĠAgain":8215,"Ġ(âĢľ":8216,"Ġbreakfast":8217,"ĠEnsure":8218,"Ġpermits":8219,"Ġcrack":8220,"Ġleveraging":8221,"power":8222,"Ġemphasis":8223,"izz":8224,"Ġreader":8225,"ĠUnlike":8226,"eers":8227,"ppy":8228,"ĠHoly":8229,"Ġentitled":8230,"Ġphotography":8231,"orse":8232,"ctu":8233,"Ġirrit":8234,"Ġpassionate":8235,"DF":8236,"Ġdanger":8237,"ĠViet":8238,"Ġpicked":8239,"Ġcryst":8240,"Ġfeaturing":8241,"Ġstocks":8242,"Ġcostly":8243,"Ġmining":8244,"ethe":8245,"ĠRE":8246,"Ġmargin":8247,"Ġafternoon":8248,"isp":8249,"Ġdistingu":8250,"ĠPR":8251,"Ġmoral":8252,"Ġmassage":8253,"Ġloves":8254,"Ġodds":8255,"Ġfing":8256,"Remember":8257,"gency":8258,"enda":8259,"ailing":8260,"ĠImpact":8261,"Ġmyth":8262,"Ġseamlessly":8263,"Ġclosing":8264,"Ġfeatured":8265,"ĠAR":8266,"About":8267,"itivity":8268,"Ġminds":8269,"Ġdynamics":8270,"Ġwash":8271,"ĠCA":8272,"Ġfinds":8273,"ĠPut":8274,"Ġlifetime":8275,"Ġcourts":8276,"Ġclaimed":8277,"Ġaccurately":8278,"ĠSS":8279,"Ġtickets":8280,"ĠWay":8281,"Ġtab":8282,"Ġdiscounts":8283,"lywood":8284,"Ġinspire":8285,"Ġcong":8286,"Ġstrange":8287,"Ġprosec":8288,"Ġniche":8289,"Ġfaculty":8290,"ĠES":8291,"Ġrenowned":8292,"Ġpackages":8293,"Ġ2025":8294,"Ġindicates":8295,"Ġdiagnosis":8296,"ĠGar":8297,"ele":8298,"Ġliterally":8299,"Ġdisorders":8300,"Ġdelve":8301,"igenous":8302,"Ġconserv":8303,"Ġuniverse":8304,"stery":8305,"ĠThomas":8306,"IF":8307,"Co":8308,"ocated":8309,"Ġoccurred":8310,"88":8311,"Ġdirt":8312,"everal":8313,"Part":8314,"ĠBrazil":8315,"ĠWhich":8316,"MP":8317,"Ġeverywhere":8318,"Ġadministrative":8319,"ĠRobert":8320,"Ġtrigger":8321,"Ġlawyers":8322,"Ġoils":8323,"ĠPrime":8324,"Ġbreaks":8325,"Ġnetworking":8326,"gical":8327,"Ġhappiness":8328,"Ġdrinks":8329,"iform":8330,"aza":8331,"Ġlatter":8332,"Ġalleged":8333,"rat":8334,"ĠEp":8335,"Ġdeter":8336,"Ġpassword":8337,"Ġartistic":8338,"afe":8339,"ĠEV":8340,"Ġranging":8341,"Ġchocolate":8342,"Ġinspection":8343,"Ġattached":8344,"Moreover":8345,"Ġorganisations":8346,"terior":8347,"Ġdetermining":8348,"Ġmemorable":8349,"ĠLog":8350,"DP":8351,"Ġgraduate":8352,"Ġaband":8353,"CS":8354,"west":8355,"gener":8356,"Any":8357,"wo":8358,"ĠSingapore":8359,"Ġnotable":8360,"Ġchose":8361,"rible":8362,"izable":8363,"Ġuniversities":8364,"ultane":8365,"ĠJose":8366,"Ġmanip":8367,"Ġtag":8368,"Ġformula":8369,"ĠWrit":8370,"Ġupgrade":8371,"Ġexpense":8372,"ĠYOU":8373,"Ġduties":8374,"à¤":8375,"ricted":8376,"erals":8377,"Ġexceed":8378,"Ġshooting":8379,"Ġunion":8380,"Ġdisorder":8381,"ĠStudents":8382,"Ġsomewhere":8383,"Ġprevention":8384,"ĠCarolina":8385,"Ġretention":8386,"Ġdispl":8387,"olid":8388,"site":8389,"ĠDubai":8390,"eut":8391,"Ġdifficulties":8392,"Ġbarriers":8393,"OD":8394,"ĠWatch":8395,"Ġintricate":8396,"Ġladies":8397,"Ġdirected":8398,"ĠGal":8399,"Ġcontained":8400,"ixture":8401,"Ġtun":8402,"Ġdomin":8403,"ih":8404,"Ġrepresentative":8405,"sem":8406,"ĠTit":8407,"Ġendless":8408,"Ġabund":8409,"ĠTown":8410,"Ġapplies":8411,"ĠEnt":8412,"Ġlawsu":8413,"kins":8414,"Ġwarranty":8415,"table":8416,"Ġlayout":8417,"esh":8418,"ĠPlatform":8419,"Ġunders":8420,"ĠSn":8421,"Ġextension":8422,"Ġstrain":8423,"Ġdivorce":8424,"Ġcameras":8425,"EA":8426,"Ġcooperation":8427,"Ġmarks":8428,"Ġinquir":8429,"ĠPlace":8430,"ĠIreland":8431,"Ġcompassion":8432,"Ġvisited":8433,"Ġfranch":8434,"ĠUsers":8435,"Ġcoc":8436,"Ġupload":8437,"Ġnewsletter":8438,"ĠStat":8439,"ĠChair":8440,"Ġmaintained":8441,"Ġsuits":8442,"Ġstro":8443,"Today":8444,"month":8445,"ĠSystems":8446,"Ġquantity":8447,"Ġparticipating":8448,"auc":8449,"riculum":8450,"Ġaircraft":8451,"See":8452,"ĠSpace":8453,"Ġinterviews":8454,"Ġtwenty":8455,"Ġacquire":8456,"emed":8457,"ĠDu":8458,"ionship":8459,"Ġwhereas":8460,"Ġtang":8461,"ounded":8462,"Ġspray":8463,"Ġrelation":8464,"agine":8465,"UN":8466,"34":8467,"ĠTal":8468,"bration":8469,"ĠCredit":8470,"Car":8471,"Ġmac":8472,"Ġrelaxation":8473,"Sim":8474,"Ġbreathing":8475,"Ġloose":8476,"Ġje":8477,"Ġcuts":8478,"Ġentity":8479,"aniel":8480,"Ġemployed":8481,"Ġtracks":8482,"aver":8483,"ĠBuild":8484,"Ġsees":8485,"ĠLow":8486,"och":8487,"Ġrestore":8488,"Ġocean":8489,"plement":8490,"Ġdefault":8491,"ĠSmall":8492,"ashed":8493,"Ġbars":8494,"Ġinstantly":8495,"Ġneighb":8496,"bot":8497,"ĠJohnson":8498,"Ġsalary":8499,"Ġscenario":8500,"compass":8501,"Ġconvey":8502,"omach":8503,"Ġprofessor":8504,"ĠCreate":8505,"ĠCond":8506,"Ġtackle":8507,"Ġdetection":8508,"Ġbench":8509,"ĠAT":8510,"organ":8511,"Ġstylish":8512,"ĠCP":8513,"char":8514,"ĠVirginia":8515,"Ġbreed":8516,"tical":8517,"Ġtraditions":8518,"ĠJim":8519,"ĠJob":8520,"Ġnewsp":8521,"ĠSports":8522,"ĠVictor":8523,"Ġâ":8524,"Ġweakness":8525,"Ġcounty":8526,"ĠCross":8527,"Ġaccommodate":8528,"Ġtension":8529,"Ġpowder":8530,"ĠTuesday":8531,"Ġprivile":8532,"mans":8533,"Ġloud":8534,"ĠWordPress":8535,"32":8536,"Ġimproves":8537,"olec":8538,"Ġende":8539,"Ġinfluenced":8540,"Ġmistake":8541,"ĠPass":8542,"Ġcouples":8543,"Ġstrengths":8544,"Ġbrill":8545,"Ġratio":8546,"Ġblank":8547,"ĠEr":8548,"ygen":8549,"omy":8550,"urse":8551,"Ġadvertise":8552,"Ġpromptly":8553,"Ġdrives":8554,"car":8555,"ĠEmb":8556,"Ġhybrid":8557,"Ġmindset":8558,"rets":8559,"IR":8560,"Ġguitar":8561,"Ġgenetic":8562,"ĠAL":8563,"ĠThink":8564,"sle":8565,"Ġapartment":8566,"ults":8567,"ĠSuccess":8568,"ĠCS":8569,"ĠCatholic":8570,"utch":8571,"Ġsurvive":8572,"earing":8573,"Ġencount":8574,"Ġmeditation":8575,"ĠKingdom":8576,"Ġviewers":8577,"Ġpapers":8578,"Like":8579,"otive":8580,"ipt":8581,"36":8582,"Ġhoriz":8583,"Ġautomatic":8584,"Ġ75":8585,"Ġblocks":8586,"ĠWeek":8587,"Ġgovernance":8588,"Ġconfidential":8589,"Ġarmy":8590,"ĠPack":8591,"Ġcapability":8592,"ĠPhys":8593,"Ġstreamline":8594,"Ġempty":8595,"Ġediting":8596,"Ġpulled":8597,"Ġburden":8598,"Furthermore":8599,"Ġtor":8600,"Ġlicensed":8601,"Ġraising":8602,"Ġcha":8603,"Ġwildlife":8604,"ĠSecretary":8605,"Ġavoiding":8606,"Ġromantic":8607,"raq":8608,"Ġwarning":8609,"Through":8610,"Ġcooling":8611,"ĠStudies":8612,"anwhile":8613,"ĠAri":8614,"ATION":8615,"Ġcombine":8616,"uming":8617,"Ġcoal":8618,"Ġordinary":8619,"aze":8620,"Ġcable":8621,"ĠFather":8622,"Ġdisability":8623,"win":8624,"Ġprime":8625,"Ġtraders":8626,"Ġhearts":8627,"Ġanonym":8628,"Ġalarm":8629,"Ġram":8630,"owers":8631,"Ġqualities":8632,"Ġstatistics":8633,"Ġperspectives":8634,"isted":8635,"Ġbets":8636,"ĠCup":8637,"aste":8638,"itative":8639,"Ġcountless":8640,"Ġstrongly":8641,"Ġmechanism":8642,"Ġtoile":8643,"Ġpushing":8644,"umer":8645,"Ġweren":8646,"Ġsubsequent":8647,"Ġbatteries":8648,"Ġvitamin":8649,"ashes":8650,"duate":8651,"ias":8652,"Ġinfections":8653,"Ġclassroom":8654,"Ġnursing":8655,"ovid":8656,"Ġinvolvement":8657,"ĠRoyal":8658,"abil":8659,"ĠThursday":8660,"Ġinstruments":8661,"ĠPoint":8662,"Ġathletes":8663,"Ġprayer":8664,"Ġpromises":8665,"Ġchildhood":8666,"Ġweigh":8667,"Ġ?":8668,"Ġphotograp":8669,"Ġshower":8670,"Ġ@":8671,"%,":8672,"ĠBang":8673,"Ġcrafts":8674,"Ġgains":8675,"Ġrelative":8676,"ĠInit":8677,"ĠAgency":8678,"amins":8679,"Ġwanting":8680,"teen":8681,"Ġaffili":8682,"ĠLED":8683,"Ġspecialists":8684,"Ġwashing":8685,"Ġthread":8686,"Ġbehaviour":8687,"Ġhate":8688,"Ġaesthet":8689,"Ġguides":8690,"atre":8691,"\",":8692,"ventions":8693,"Ġeager":8694,"bert":8695,"ĠYoung":8696,"Key":8697,"Ġadopt":8698,"Ġopposition":8699,"Ġhang":8700,"Ġgarage":8701,"Ġsuns":8702,"Ġpitch":8703,"itz":8704,"Ġstructural":8705,"ĠSea":8706,"Ġcontractor":8707,"ĠIncre":8708,"Ġmechanisms":8709,"Ġprospects":8710,"mo":8711,"elled":8712,"Ġsignals":8713,"ĠMach":8714,"Ġtrips":8715,"aunt":8716,"ocial":8717,"ĠClean":8718,"Ġpointed":8719,"Ġchest":8720,"Inc":8721,"Ġ2006":8722,"Ġunknown":8723,"Ġformation":8724,"Ġrow":8725,"Ġgolden":8726,"Ġacquisition":8727,"Ġdiscovery":8728,"ĠEmer":8729,"Ġcontrovers":8730,"Ġrealistic":8731,"Ġattempts":8732,"Ġlongevity":8733,"Ġrefuge":8734,"Ġplacing":8735,"Ġru":8736,"ĠCast":8737,"Ġventure":8738,"ĠArmy":8739,"Ġexpanded":8740,"Ġproductive":8741,"Ġattitude":8742,"ĠOrder":8743,"Ġgathering":8744,"Ġpivotal":8745,"Ġcontinuously":8746,"ĠLatin":8747,"ĠSoftware":8748,"ĠSenate":8749,"Ġdeck":8750,"ĠFarm":8751,"itarian":8752,"idays":8753,"ĠStore":8754,"Ġutilized":8755,"Ġcontributed":8756,"grade":8757,"Using":8758,"Ġscenarios":8759,"Ġpromotes":8760,"Ġfiber":8761,"Ġbeer":8762,"Lear":8763,"Ġprescrib":8764,"Ġtom":8765,"Ġpayroll":8766,"mind":8767,"Ġexists":8768,"48":8769,"lymp":8770,"istance":8771,"Ġconvert":8772,"Ġpounds":8773,"Ġemerged":8774,"Ġanymore":8775,"Ġconsistency":8776,"Ġflaw":8777,"Ġverify":8778,"ĠDam":8779,"nings":8780,"Ġphilosophy":8781,"iac":8782,",âĢĻ":8783,"Ġevolve":8784,"ĠLt":8785,"Ġroads":8786,"Ġactors":8787,"Ġtalks":8788,"Ġseats":8789,"Ġcake":8790,"Ġdash":8791,"oof":8792,"Ġcher":8793,"Ġinstruction":8794,"Ġmessaging":8795,"Ġamen":8796,"Ġexport":8797,"Ġuncom":8798,"udes":8799,"ĠScot":8800,"ĠHen":8801,"Ġye":8802,"Ġgraphics":8803,"Ġconce":8804,"ouses":8805,"etheless":8806,"Ġmobility":8807,"38":8808,"BI":8809,"Ġbirthday":8810,"yard":8811,"Ġboys":8812,"Ġphysically":8813,"mart":8814,"Ġsheet":8815,"Ġsleeping":8816,"ibl":8817,"Ġsubsid":8818,"Ġbonds":8819,"Ġaccordingly":8820,"rimination":8821,"Ġhat":8822,"Ġcontainer":8823,"ĠEth":8824,"Ġintuitive":8825,"Ġswimming":8826,"ĠContin":8827,"Ġequivalent":8828,"Ġrequested":8829,"icating":8830,"Ġrear":8831,"Ġbroadcast":8832,"ĠArts":8833,"ĠðŁ":8834,"ĠIde":8835,"Ġconservation":8836,"Ġtemplates":8837,"Ġorient":8838,"imal":8839,"37":8840,"Ġservers":8841,"ĠWednesday":8842,"ĠRepublican":8843,"Ġpublication":8844,"Ġpractition":8845,"Ġacknowledge":8846,"Ġgym":8847,"Ġshapes":8848,"eters":8849,"Ġdefect":8850,"Ġevident":8851,"limited":8852,"Americ":8853,"Ġmotivation":8854,"Ġputs":8855,"otton":8856,"Ġachievements":8857,"Ġfilters":8858,"Ġcontribution":8859,"Ġharvest":8860,"ĠImport":8861,"Ġhotels":8862,"Ġsmoke":8863,"tech":8864,"Ġcompletion":8865,"Ġcosm":8866,"ĠWi":8867,"ictions":8868,"Ġdropped":8869,"Ġtargeting":8870,"Ġwaves":8871,"ĠAdministration":8872,"ĠIraq":8873,"Ġjewelry":8874,"uster":8875,"Ġscheduled":8876,"war":8877,"Ġcomplaint":8878,"Ġmarketplace":8879,"arters":8880,"sized":8881,"aven":8882,"Ġsimultane":8883,"Ġought":8884,"Ġenemy":8885,"Ġexecution":8886,"Ġproport":8887,"Ġstomach":8888,"Ġlists":8889,"aped":8890,"igation":8891,"Ġrecipes":8892,"Ġscenes":8893,"ba":8894,"Ġabsence":8895,"Ġconvin":8896,"ĠObama":8897,"Ġpromotion":8898,"39":8899,"Ġabroad":8900,"Ġoperates":8901,"Ġcontractors":8902,"ĠVideo":8903,"anes":8904,"Ġbatt":8905,"specific":8906,"Ġhttp":8907,"49":8908,"Ġexamination":8909,"ĠGeorgia":8910,"Ġunusual":8911,"Ġcollaborative":8912,"ĠSearch":8913,"Ġboards":8914,"ĠMid":8915,"ĠLegal":8916,"Ġelectron":8917,"requently":8918,"Ġheaven":8919,"eren":8920,"icted":8921,"Ġintake":8922,"Ġsurvival":8923,"Ġprotective":8924,"Ġentities":8925,"Ġrush":8926,"Ġstring":8927,"Ġbid":8928,"such":8929,"Ġshoulder":8930,"Ġnewest":8931,"Ġarbit":8932,"prises":8933,"oston":8934,"Ġshaping":8935,"ĠWilliam":8936,"Ġordered":8937,"Ġextraordinary":8938,"Ġharsh":8939,"Ġtub":8940,"Ġnewly":8941,"Ġresort":8942,"ĠTerms":8943,"Ġopposed":8944,"Ġflying":8945,"Ġacquired":8946,"Ġdismiss":8947,"Ġversatility":8948,"Ġsecondary":8949,"ĠChall":8950,"Ġutility":8951,"agen":8952,"Ġrelating":8953,"Ġrenewable":8954,"Ġspin":8955,"Ġmutual":8956,"gel":8957,"Ġnu":8958,"Ġcalendar":8959,"ĠOR":8960,"ĠPhot":8961,"Ġdistributed":8962,"ĠFair":8963,"telling":8964,"ĠBuy":8965,"Ġnerv":8966,"Ġworker":8967,"advant":8968,"Ġcybersecurity":8969,"Ġplot":8970,"Ġimportantly":8971,"Ġhole":8972,"oub":8973,"Ġresidence":8974,"ĠGreek":8975,"ht":8976,"Ġgram":8977,"ĠCbd":8978,"wan":8979,"ĠProfessor":8980,"Each":8981,"iams":8982,"Ġ36":8983,"WS":8984,"icket":8985,"Ġdemonstrated":8986,"Ġseasons":8987,"Ġrose":8988,"Ġbutt":8989,"Ġgaining":8990,"ĠDisney":8991,"Ġestimate":8992,"Ġdivision":8993,"yal":8994,"Ġworkshops":8995,"Ġassociation":8996,"ilipp":8997,"Ġhell":8998,"Ġstretch":8999,"Ġdialogue":9000,"Ġscores":9001,"Ġcenturies":9002,"ĠCapital":9003,"Ġriding":9004,"ailable":9005,"Ġtroubles":9006,"bar":9007,"People":9008,"Ġcertificate":9009,"Ġgrounds":9010,"Ġfinger":9011,"Ġexperim":9012,"Ġcrazy":9013,"Ġelections":9014,"Ġfounder":9015,"ĠSimilar":9016,"Ġtoys":9017,"bell":9018,"ĠDid":9019,"Ġopens":9020,"31":9021,"Ġinstrument":9022,"Ġvendors":9023,"ormal":9024,"Ġlean":9025,"Ġpreserve":9026,"ĠRen":9027,"Ġdollar":9028,"Ġtitles":9029,"Ġcompact":9030,"ĠFull":9031,"ĠCRM":9032,"Ġtired":9033,"ĠOfficer":9034,"Ġfestival":9035,"Ġfer":9036,"ji":9037,"orry":9038,"Ġassistant":9039,"Ġtailor":9040,"Ġretailers":9041,"Ġencompass":9042,"Ġworkout":9043,"Ġresume":9044,"Ġinvited":9045,"Ġclock":9046,"Custom":9047,"building":9048,"Ġdistract":9049,"Ġenl":9050,"Ġwake":9051,"Ġtrave":9052,"Ġaffecting":9053,"health":9054,"espread":9055,"ĠLinked":9056,"Ġattending":9057,"Ġfur":9058,"hyth":9059,"acies":9060,"ĠCoast":9061,"Ġdisappoint":9062,"Ġfiling":9063,"!)":9064,"Ġrepresented":9065,"ĠIsraeli":9066,"Ġhasn":9067,"ĠPrice":9068,"Ġaer":9069,"Ġresc":9070,"Ġreturning":9071,"ĠUnfortunately":9072,"ervice":9073,"Ġversus":9074,"ĠSeries":9075,"Funnels":9076,"bow":9077,"Ġlovely":9078,"Ġspeakers":9079,"ĠTele":9080,"Ġfilling":9081,"ĠKorea":9082,"ĠOlymp":9083,"ĠCharl":9084,"Ġmini":9085,"roduction":9086,"Ġidentification":9087,"Ġsauce":9088,"Ġgiant":9089,"Ġoccasions":9090,"ja":9091,"Ġsuffered":9092,"oured":9093,"ĠPacific":9094,"ĠSir":9095,"Ġobligation":9096,"Ġsubtle":9097,"ĠPur":9098,"fortable":9099,"Ġpromising":9100,"zed":9101,"Ġinclusion":9102,"Ġdivided":9103,"irl":9104,"Ġnavigating":9105,"Ġspir":9106,"Ġgrat":9107,"Ġcelebration":9108,"ĠZeal":9109,"Ġaligns":9110,"Ġsoldiers":9111,"lasting":9112,"Ġlawn":9113,"ĠMess":9114,"ĠPalestin":9115,"duction":9116,"Ġbull":9117,"Fe":9118,"ĠBudd":9119,"ĠDIY":9120,"ĠSav":9121,"ĠAmong":9122,"Ġappreciation":9123,"Ġpig":9124,"lix":9125,"Ġ2005":9126,"ĠPo":9127,"Ġtactics":9128,"Ġcurious":9129,"depth":9130,"Ġdeveloper":9131,"ĠSon":9132,"Ġestablishment":9133,"Ġexception":9134,"roller":9135,"athered":9136,"itting":9137,"Ġrac":9138,"illy":9139,"Ġdefendant":9140,"ressing":9141,"ivacy":9142,"Ġholistic":9143,"Ġ...":9144,"Ġoverview":9145,"Ġindependence":9146,"Ġdipl":9147,"Ġcompleting":9148,"Ġassigned":9149,"ĠFac":9150,"Ġrespective":9151,"fits":9152,"Ġow":9153,"Ġterritory":9154,"Ġmanifest":9155,"ĠFestival":9156,"elly":9157,"EP":9158,"usal":9159,"Ġlightweight":9160,"ĠMike":9161,"Ġobserve":9162,"Ġrepeat":9163,"ĠCook":9164,"Ġamongst":9165,"ĠPop":9166,"ĠMartin":9167,"Ġdebris":9168,"ologists":9169,"utical":9170,"Ġinjured":9171,"Ġprecious":9172,"ĠKar":9173,"Ġrepay":9174,"ulpt":9175,"Ġstructured":9176,"ĠSouthern":9177,"Ġmas":9178,"Oh":9179,"May":9180,"Ġpuzz":9181,"ĠMeet":9182,"ĠAlways":9183,"47":9184,"ĠNOT":9185,"Ġaudit":9186,"Ġspeaker":9187,"Ġoverse":9188,"Ġtrials":9189,"Ġengineers":9190,"awn":9191,"Ġlisting":9192,"Ġdelicate":9193,"Ġlesson":9194,"Ġkil":9195,"Ġvaccine":9196,"Ġhassle":9197,"Ġattended":9198,"ĠHotel":9199,"ĠGames":9200,"ĠTik":9201,"ĠCompanies":9202,"Ġawesome":9203,"Ġcontributes":9204,"Ġdetermination":9205,"mony":9206,"ennis":9207,"Ġthereby":9208,"Em":9209,"Ġwondering":9210,"una":9211,"Ġanalyzing":9212,"star":9213,"aluable":9214,"Ġentrepreneur":9215,"Ġlens":9216,"powered":9217,"Ġelevate":9218,"arly":9219,"Ġaggressive":9220,"Ġphones":9221,"Ġfavourite":9222,"Ġantib":9223,"Ġdifferently":9224,"ĠPakistan":9225,"Ġcomed":9226,"Ġmitigate":9227,"ghan":9228,"Ġliked":9229,"Ġstations":9230,"Ġsteady":9231,"def":9232,"Ġmountains":9233,"iders":9234,"Ġcreators":9235,"Ġunnecessary":9236,"Ġwidespread":9237,"ĠLevel":9238,"Ġvoters":9239,"Ġdiffer":9240,"Ġconsulting":9241,"ĠMur":9242,"Ġcro":9243,"Ġglobally":9244,"manship":9245,"ĠNov":9246,"Ġrehab":9247,"Ġresulted":9248,"ĠZealand":9249,"Use":9250,"Ġcomputers":9251,"ĠLee":9252,"âĢĿ)":9253,"Ġviewing":9254,"ĠFar":9255,"roph":9256,"ilation":9257,"ĠJul":9258,"ali":9259,"Ġprescription":9260,"ĠHard":9261,"Ġbreach":9262,"ĠHarris":9263,"Ġfluid":9264,"Ġadverse":9265,"Ġvolat":9266,"from":9267,"Ġoxygen":9268,"Ġargue":9269,"Ġauthorized":9270,"Ġawards":9271,"ĠRam":9272,"Ġ1990":9273,"ĠClin":9274,"ĠStill":9275,"iana":9276,"Ġgrate":9277,"Ġinstances":9278,"Ġprecisely":9279,"live":9280,"ishment":9281,"Ġinvestor":9282,"ĠWorks":9283,"Ġvisually":9284,"ascular":9285,"Ġacceptance":9286,"Ġprotest":9287,"after":9288,"Ġhospitals":9289,"Ġreactions":9290,"efficient":9291,"Ġburning":9292,"Ġreminder":9293,"Go":9294,"Ġlogistics":9295,"||":9296,"Ġscreens":9297,"ĠNigeria":9298,"ĠVe":9299,"Start":9300,"Ġvert":9301,"Ġmuseum":9302,"ĠJeff":9303,"Ġmic":9304,"unicip":9305,"osa":9306,"Ġpoet":9307,"ĠVPN":9308,"cure":9309,"Ġbroker":9310,"ĠSpain":9311,"Ġcurriculum":9312,"Ġarrangements":9313,"Ġconsiderable":9314,"ĠMatt":9315,"Ġfactory":9316,"uum":9317,"Ġtrim":9318,"ensus":9319,"Ġbuck":9320,"Ġsmoothly":9321,"inch":9322,"Ġconsume":9323,"Ġ150":9324,"Ġwatches":9325,"ĠTips":9326,"icide":9327,"Ġtutor":9328,"works":9329,"Ġboss":9330,"Ġsignature":9331,"Ġtrem":9332,"ĠPartners":9333,"Ġ32":9334,"ĠSche":9335,"Ġfunctioning":9336,"Ġpermitted":9337,"verty":9338,"ĠAng":9339,"Ġautonom":9340,"Ġshots":9341,"ĠColumb":9342,"Ġplaintiff":9343,"Ġsentence":9344,"Ġtreating":9345,"claim":9346,"berry":9347,"unity":9348,"Ġagricultural":9349,"ĠBon":9350,"even":9351,"ĠSM":9352,"aware":9353,"Ġpoverty":9354,"Ġwatched":9355,"Ġtrauma":9356,"ava":9357,"Ġprotocols":9358,"ĠOmeg":9359,"Ġpul":9360,"uten":9361,"elcome":9362,"ĠNatural":9363,"Ġamend":9364,"Ġ48":9365,"Ġletting":9366,"ÃŃ":9367,"Ġworried":9368,"RL":9369,"ĠLinux":9370,"iser":9371,"Ġflash":9372,"Ġdistinctive":9373,"fire":9374,"Ġhide":9375,"Ġwest":9376,"ĠBeh":9377,"Ġpriorities":9378,"ĠLtd":9379,"Ġrewarding":9380,"Ġdisaster":9381,"55":9382,"Ġwinner":9383,"ĠDark":9384,"Ġdesignated":9385,"ateral":9386,"Ġinsect":9387,"Ġdesigning":9388,"Ġparad":9389,"igure":9390,"Ġmedic":9391,"ĠSpring":9392,"Ġimmigration":9393,"Ġreplica":9394,"ummy":9395,"ĠAction":9396,"Ġinvas":9397,"Ġamenities":9398,"Ġcancell":9399,"Ġske":9400,"books":9401,"ĠPerformance":9402,"Ġpublicly":9403,"Ġlikelihood":9404,"ĠHon":9405,"Ġvari":9406,"ĠFA":9407,"Ġnervous":9408,"tes":9409,"HA":9410,"CD":9411,"Ġgaps":9412,"Take":9413,"Make":9414,"mented":9415,"Ġpushed":9416,"Ġware":9417,"ĠBoston":9418,"Ġharness":9419,"oids":9420,"ĠIndustry":9421,"ĠSustain":9422,"Ġcow":9423,"Ġenorm":9424,"Ġdesires":9425,"Ġinev":9426,"irts":9427,"77":9428,"ĠChris":9429,"UT":9430,"Choosing":9431,"Ġlegend":9432,"Ġseal":9433,"ĠMichigan":9434,"Ġlaptop":9435,"Ġrecon":9436,"Have":9437,"ĠMobile":9438,"ĠHospital":9439,"Ġstrive":9440,"Ġobstacles":9441,"Ġcompete":9442,"Ġcompatible":9443,"Gener":9444,"Ġtravelers":9445,"Ġcredits":9446,"Ġneutral":9447,"Ġsafer":9448,"Ġtempt":9449,"Ġoptimizing":9450,"Ġindicated":9451,"ĠColorado":9452,"pack":9453,"Ġextends":9454,"Ġdeserve":9455,"Ġmetic":9456,"igue":9457,"ĠBud":9458,"ĠMoney":9459,"Ġbol":9460,"ĠLimited":9461,"Ġoverlook":9462,"Ġuniform":9463,"Ġdietary":9464,"Ġvalued":9465,"Ġconstra":9466,"Ġintim":9467,"Ġtum":9468,"Ġembracing":9469,"Os":9470,"Ġcombines":9471,"ĠPsych":9472,"Ġoperators":9473,"RI":9474,"Ġplacement":9475,"ĠModern":9476,"Ġpregnant":9477,"ĠRelations":9478,"ĠTurkey":9479,"Ġrarely":9480,"Ġdose":9481,"Ġdescribes":9482,"ĠChange":9483,"Ġhoney":9484,"Ġgameplay":9485,"ĠLad":9486,"Ġcredibility":9487,"Ġresident":9488,"ĠForce":9489,"Ġdelays":9490,"Ġrepresentatives":9491,"Ġcustomize":9492,"Ġham":9493,"ĠJones":9494,"apse":9495,"Ġvoc":9496,"Ġanyway":9497,"Ġelder":9498,"ĠSelf":9499,"Ġsed":9500,"Ġmotivated":9501,"encing":9502,"RP":9503,"ĠCivil":9504,"ĠFour":9505,"Ġconcentration":9506,"ĠFocus":9507,"po":9508,"Ġdivine":9509,"retion":9510,"Ġrecre":9511,"Ġrefrig":9512,"taking":9513,"Ġmechanical":9514,"oric":9515,"sen":9516,"Ġdad":9517,"Ġspouse":9518,"Ġreadily":9519,"Ġtourism":9520,"Ġlucky":9521,"amber":9522,"ĠVan":9523,"Ġbeloved":9524,"Ġvine":9525,"Ġspecified":9526,"Ġpacked":9527,"ĠContract":9528,"Ġbedroom":9529,"Ġhoping":9530,"Ġbroke":9531,"VAC":9532,"Ġrust":9533,"aya":9534,"Ġexplicit":9535,"Ġarrival":9536,"lete":9537,"iah":9538,"cture":9539,"Ġrefres":9540,"Ġtiming":9541,"ĠIntellig":9542,"ackson":9543,"aceutical":9544,"Ġperception":9545,"Ġending":9546,"Ġtire":9547,"Ġdepartments":9548,"onto":9549,"Ġclubs":9550,"Ġsatisfy":9551,"Ġracing":9552,"dem":9553,"Ġawarded":9554,"ĠMinistry":9555,"Rep":9556,"iatric":9557,"Ġampl":9558,"Follow":9559,"Ġreveals":9560,"ĠDream":9561,"Ġstays":9562,"Ġmolec":9563,"reating":9564,"ĠWilliams":9565,"Ġjun":9566,"ĠVar":9567,"Ġproduces":9568,"Ġedition":9569,"ĠSpe":9570,"Ġscar":9571,"Ġhumanity":9572,"onomic":9573,"Aut":9574,"ears":9575,"orrect":9576,"uana":9577,"Ġspectrum":9578,"Ġconducting":9579,"Ġflag":9580,"ĠSelect":9581,"Ġseg":9582,"Ġasks":9583,"Ġcheaper":9584,"Ġdelivers":9585,"Ġshorter":9586,"Ġpubl":9587,"Tok":9588,"ĠMind":9589,"Ġintegrating":9590,"itual":9591,"Ġsof":9592,"Ġpromotions":9593,"Ġtestament":9594,"Ġaccommodation":9595,"ĠMedicine":9596,"ĠMah":9597,"eutic":9598,"ĠLittle":9599,"Ġvenue":9600,"Ġculinary":9601,"ĠFeatures":9602,"cend":9603,"Ġvirtually":9604,"Ġuncle":9605,"ĠNorthern":9606,"Ġcomplications":9607,"Ġbaking":9608,"ĠDC":9609,"Ġconnectivity":9610,"Ġwrap":9611,"Ġlip":9612,"Ġcareers":9613,"ĠRichard":9614,"ĠCompl":9615,"Ġvitamins":9616,"Ġseasoned":9617,"Ġnose":9618,"rine":9619,"Ġregime":9620,"ĠHD":9621,"Ġconflicts":9622,"Ġsod":9623,"Overall":9624,"Ġimmense":9625,"Ġpeaceful":9626,"orses":9627,"Ġentrance":9628,"ĠUSD":9629,"ĠDog":9630,"ĠMic":9631,"fers":9632,"Ġweapon":9633,"ĠPerhaps":9634,"Ġdemocracy":9635,"Ġcomputing":9636,"Ġliver":9637,"Ġcopyright":9638,"Ġhopes":9639,"Ġsupplier":9640,"Ġinhe":9641,"Ġmonetary":9642,"Ġmagazine":9643,"Ġforgot":9644,"Ġhunting":9645,"ĠSP":9646,"ĠLinkedIn":9647,"Ġelected":9648,"ĠâĢĻ":9649,"ĠPu":9650,"Ġmurder":9651,"ĠJon":9652,"annel":9653,"ĠBow":9654,"isting":9655,"Ġfeeding":9656,"connect":9657,"300":9658,"called":9659,"Ġfluctu":9660,"Ġwhilst":9661,"ĠInstall":9662,"Ġtelephone":9663,"ĠMedic":9664,"Ġlaser":9665,"ĠAsh":9666,"Ġearning":9667,"anguage":9668,"drop":9669,"ĠFriend":9670,"mercial":9671,"Art":9672,"mond":9673,"46":9674,"Ġwins":9675,"oning":9676,"ĠNight":9677,"Ġvig":9678,"Ġappet":9679,"iano":9680,"Ġkeys":9681,"Ġbust":9682,"Ġbarrier":9683,"Ġqualify":9684,"Ġpup":9685,"Ġpose":9686,"Ġfunny":9687,"ĠPain":9688,"ador":9689,"ĠDNA":9690,"Ġhighlighting":9691,"ĠWhe":9692,"ailed":9693,"hemat":9694,"Ġmixture":9695,"Ġplumbing":9696,"oys":9697,"Ġinvaluable":9698,"Ġinvested":9699,"ario":9700,"ĠPhilipp":9701,"Ġleak":9702,"Ġelegant":9703,"rot":9704,"ulator":9705,"ocratic":9706,"ĠKh":9707,"Ġcaptivating":9708,"ĠTech":9709,"Ġstudied":9710,"Ġkilling":9711,"Ġquotes":9712,"Ġvariations":9713,"agraph":9714,"ĠLabor":9715,"Ġgonna":9716,"ĠBetter":9717,"ĠArea":9718,"iciency":9719,"ocate":9720,"stein":9721,"Ġgrocer":9722,"owing":9723,"ĠThree":9724,"Ġsigning":9725,"anna":9726,"ĠCH":9727,"Ġestimates":9728,"espan":9729,"Ġpilot":9730,"style":9731,"ifted":9732,"Ġallev":9733,"Ġscrew":9734,"ĠVeg":9735,"emies":9736,"ugs":9737,"gain":9738,"ansas":9739,"Ġinsulation":9740,"Ġhiking":9741,"ĠProducts":9742,"Ġmile":9743,"Ġmultip":9744,"Ġpicking":9745,"rite":9746,"ĠAnalysis":9747,"Ġhighlighted":9748,"Ġworship":9749,"Ġcomposition":9750,"Ġgrateful":9751,"ĠMembers":9752,"Ġjuice":9753,"ĠOhio":9754,"Ġmature":9755,"ĠEngineering":9756,"Ġagenda":9757,"rus":9758,"ĠON":9759,"Ġdisplayed":9760,"Ġintrig":9761,"Ġobtaining":9762,"enny":9763,"Ġalumin":9764,"ĠView":9765,"ĠAirport":9766,"ĠType":9767,"Ġparks":9768,"Ġpollution":9769,"Ġtours":9770,"Ġworn":9771,"Ġbunch":9772,"ĠKong":9773,"ĠJews":9774,"ĠLuc":9775,"roat":9776,"Ġleague":9777,"Ġprincipal":9778,"atell":9779,"anche":9780,"Ġinvite":9781,"Ġcontaining":9782,"ĠAnalytics":9783,"Ġ2004":9784,"ĠHeart":9785,"Ġgrows":9786,"Ġremem":9787,"holder":9788,"Ġtear":9789,"Ġlegally":9790,"Ġshell":9791,"ĠCC":9792,"Ġsimultaneously":9793,"Ġpest":9794,"Ġreflection":9795,"jud":9796,"iter":9797,"Ġsunlight":9798,"ĠHong":9799,"ĠFrancisco":9800,"odge":9801,"Ġintimate":9802,"Ġsne":9803,"ĠMA":9804,"Ġkeen":9805,"Ġelsewhere":9806,"Ġguaranteed":9807,"Ġseller":9808,"erman":9809,"Ġpleasant":9810,"ERS":9811,"esterday":9812,"hour":9813,"Ġadmit":9814,"Ġfault":9815,"Ġbowl":9816,"ĠJersey":9817,"inar":9818,"ouch":9819,"obe":9820,"ĠAltern":9821,"Ġintelligent":9822,"Ġglad":9823,"Ġly":9824,"Des":9825,"ĠRom":9826,"Ġphrase":9827,"ĠOk":9828,"Ġbene":9829,"exp":9830,"ĠMu":9831,"Ġattributes":9832,"Ġembed":9833,"Ġdump":9834,"Ġminister":9835,"ĠRO":9836,"pled":9837,"Ġvaried":9838,"Ġuniversal":9839,"Ġpopulations":9840,"Ġbackl":9841,"Ġexterior":9842,"Expl":9843,"iov":9844,"Having":9845,"ĠEmp":9846,"ĠVen":9847,"Ġeast":9848,"Ġwooden":9849,"ĠNote":9850,"Ġfreel":9851,"Ġrepresenting":9852,"ĠSU":9853,"Ġgathered":9854,"Ġagriculture":9855,"Ġyeah":9856,"Ġneuro":9857,"hire":9858,"Ġconfront":9859,"Ġresponsive":9860,"rick":9861,"Ġlake":9862,"Ġimmig":9863,"Ġtied":9864,"vol":9865,"ĠName":9866,"working":9867,"owed":9868,"Ġattorneys":9869,"ĠCharles":9870,"Ġjurisdiction":9871,"Ġassault":9872,"Ġcomplexities":9873,"Ġcoron":9874,"Benefits":9875,"Ġprofitable":9876,"enth":9877,"Ġuncertainty":9878,"Ġdiscussing":9879,"Ġsmoking":9880,"ĠVill":9881,"Ġhung":9882,"Ġadvocate":9883,"iy":9884,"ĠEastern":9885,"Ġdeciding":9886,"Ġfunnel":9887,"ĠDemocratic":9888,"Ġpocket":9889,"Ġalert":9890,"worthy":9891,"Ġstartup":9892,"abled":9893,"Ġsubstances":9894,"ivation":9895,"ĠFinance":9896,"Ġintegral":9897,"Ġoven":9898,"itu":9899,"Ġyours":9900,"Ġplain":9901,"ĠPS":9902,"Ġassessments":9903,"Ġcourage":9904,"Ġdependent":9905,"Ġsmartphone":9906,"Ġembark":9907,"CT":9908,"Ġvoices":9909,"Ġstriking":9910,"ĠAsked":9911,"Ġamid":9912,"ryption":9913,"Ġaging":9914,"Ġgotten":9915,"ohn":9916,"ĠEvent":9917,"Ġimmersive":9918,"aylor":9919,"Ġsamples":9920,"ijuana":9921,"Ġverification":9922,"intage":9923,"Ġviewed":9924,"].":9925,"ĠDifferent":9926,"Ġ1980":9927,"Ġfranchise":9928,"ĠBritain":9929,"ĠAz":9930,"Ġinnovations":9931,"Ġchains":9932,"ĠNations":9933,"Ġfleet":9934,"Ġhandy":9935,"Ġspan":9936,"Ġreserve":9937,"ervations":9938,"ĠAssess":9939,"Ġcaptured":9940,"Ġindicators":9941,"Ġassociate":9942,"Ġ400":9943,"lastname":9944,"Ġyard":9945,"lyn":9946,"Next":9947,"Ġrestoration":9948,"ĠGall":9949,"ĠHVAC":9950,"Ġevolved":9951,"Ġwallet":9952,"Ġ65":9953,"Ġaccountability":9954,"orks":9955,"Ġmakeup":9956,"urring":9957,"Ġneglig":9958,"Ġcrimes":9959,"aved":9960,"Ġcompris":9961,"orial":9962,"ĠFre":9963,"ĠCN":9964,"rators":9965,"nament":9966,"ĠIslam":9967,"Ġboasts":9968,"Trans":9969,"ayer":9970,"arity":9971,"Ġadvised":9972,"Ġsear":9973,"Ġuncover":9974,"Ġunderstands":9975,"Ġattractions":9976,"ĠCase":9977,"zona":9978,"Ġstrip":9979,"esty":9980,"Ed":9981,"acon":9982,"ĠEconomic":9983,"Ġunlikely":9984,"ĠOwn":9985,"boarding":9986,"Ġbranch":9987,"Ġflower":9988,"piece":9989,"ĠÃ":9990,"Ġgently":9991,"wer":9992,"ĠBlu":9993,"Ġlandscapes":9994,"anches":9995,"Ġrhyth":9996,"udi":9997,"minute":9998,"Ġinfluences":9999,"42":10000,"ĠChristians":10001,"Ġtransformed":10002,"Ġshowcasing":10003,"Ġradical":10004,"Ġsymbols":10005,"uter":10006,"Ġroofing":10007,"ati":10008,"obb":10009,"Ġtoxic":10010,"entials":10011,"Ġprevents":10012,"Ġpreference":10013,"Ġknowledgeable":10014,"Ġluxurious":10015,"Ġnights":10016,"Ġholes":10017,"ertain":10018,"was":10019,"ĠShare":10020,"ioxid":10021,"Ġsurrounded":10022,"Ġcalories":10023,"ulent":10024,"Add":10025,"reach":10026,"Ġvice":10027,"Ġpleased":10028,"ĠIss":10029,"ĠMaterial":10030,"Ġapplicants":10031,"Col":10032,"ĠHold":10033,"isa":10034,"ĠCF":10035,"His":10036,"ĠAttor":10037,"Ġexplanation":10038,"ĠMountain":10039,"Ġplane":10040,"Ġabst":10041,"Ġunfor":10042,"Ġfinances":10043,"Ġspectac":10044,"zes":10045,"GA":10046,"Ġdisplays":10047,"Ġattain":10048,"Ġunauthor":10049,"Ġdramatic":10050,"Ġdiscrimination":10051,"Ġrecruitment":10052,"Ġfinest":10053,"ĠDan":10054,"Ġguarantees":10055,"Ġholidays":10056,"ĠPolice":10057,"rous":10058,"arents":10059,"ĠCru":10060,"ĠAsk":10061,"Ġinterpretation":10062,"Ġstem":10063,"jo":10064,"ceptions":10065,"rying":10066,"Ġmirror":10067,"Ġanger":10068,"Ġshaped":10069,"Ġdilig":10070,"Mar":10071,"ĠBox":10072,"rings":10073,"Ġdiscipline":10074,"Ġcollaborate":10075,"Ġsolo":10076,"ĠBan":10077,"Disc":10078,"visor":10079,"Ġpatience":10080,"Ġdisadvant":10081,"ĠOp":10082,"Ġenterprises":10083,"MC":10084,"Ġprosper":10085,"ĠSenior":10086,"Ġorganizational":10087,"Ġfemin":10088,"Ġinstalling":10089,"Ġgrants":10090,"Ġheading":10091,"Ġmeters":10092,"Ġgenerating":10093,"ĠEarly":10094,"ĠPers":10095,"Ġsellers":10096,"Ġsouthern":10097,"chers":10098,"ected":10099,"Ġrelaxed":10100,"Ġmoon":10101,"Ġappliances":10102,"Ġprinted":10103,"ĠMethod":10104,"ospel":10105,"Ġwrites":10106,"Ġtransferred":10107,"cho":10108,"ĠLine":10109,"Ġdebut":10110,"ifier":10111,"ca":10112,"Ġpaths":10113,"Ġshield":10114,"ĠJackson":10115,"Mr":10116,"ĠThings":10117,"Ġlease":10118,"Ġguided":10119,"ĠConference":10120,"ĠTurn":10121,"Ġappointed":10122,"Ġswing":10123,"Ġdual":10124,"Ġcuis":10125,"Ġactor":10126,"Ġexplos":10127,"Ġdemanding":10128,"Ġtomorrow":10129,"Ġsingles":10130,"Ġminerals":10131,"Ġstruggles":10132,"ĠOptim":10133,"ĠIrish":10134,"Ġtons":10135,"Ġmyster":10136,"Ġreceipt":10137,"Top":10138,"Ġcircle":10139,"ĠBa":10140,"this":10141,"Ġcustomization":10142,"giene":10143,"Ġdestruction":10144,"Ġexem":10145,"iscal":10146,"ĠTools":10147,"Ġproved":10148,"ĠPub":10149,"Ġvaries":10150,"Ġassembly":10151,"Ġleaf":10152,"Ġbeings":10153,"Ġroyal":10154,"Ġaffirm":10155,"Ġreceives":10156,"action":10157,"ĠTikTok":10158,"Ġreviewed":10159,"LS":10160,"Ġmerg":10161,"Ġconsolid":10162,"ĠAge":10163,"heast":10164,"Ġdeclared":10165,"Ġloving":10166,"Ġdesper":10167,"inery":10168,"Ġroutes":10169,"foot":10170,"ĠPrior":10171,"roduct":10172,"ĠGrowth":10173,"Ġcleaner":10174,"mith":10175,"Ġcomplim":10176,"Ġfoam":10177,"Ġthinks":10178,"Ġgay":10179,"Ġwithstand":10180,"Ġstorytelling":10181,"ĠNumber":10182,"Ġinvestigate":10183,"oubted":10184,"iosity":10185,"Ġdestroyed":10186,"Ġrestricted":10187,"Ġrecall":10188,"EF":10189,"run":10190,"ĠHa":10191,"Ġincentives":10192,"Ġbulk":10193,"avirus":10194,"Ġmilest":10195,"boards":10196,"ĠImm":10197,"Ġharmon":10198,"enced":10199,"ĠLat":10200,"ĠArticle":10201,"Ġaccompan":10202,"irtual":10203,"ĠProperty":10204,"oT":10205,"Ġdiscretion":10206,"Ġ2003":10207,"Ġposting":10208,"urches":10209,"Ġbranding":10210,"ĠCovid":10211,"ĠOrig":10212,"Ġsecuring":10213,"ĠQueen":10214,"Ġanticipated":10215,"izza":10216,"Ġnavigation":10217,"Ġdispute":10218,"Ġscreening":10219,"Ġcomplaints":10220,"Pre":10221,"iaries":10222,"Ġbuff":10223,"inction":10224,"Ġphotographs":10225,"ĠCa":10226,"ĠSwed":10227,"Ġprolong":10228,"Ġbackup":10229,"ĠDar":10230,"Ġcloth":10231,"itches":10232,"ĠExplore":10233,"Ġinspiring":10234,"ĠSanta":10235,"Ġintensity":10236,"ĠBell":10237,"Ġdeaths":10238,"Ġcorn":10239,"Ġhadn":10240,"Ġpassengers":10241,"Ġwalks":10242,"Ġtill":10243,"Ġenormous":10244,"airy":10245,"Ġcarpet":10246,"fficiency":10247,"aph":10248,"ĠAppro":10249,"Ġoffensive":10250,"ilty":10251,"Ġswift":10252,"ĠLiving":10253,"Ġtranslation":10254,"Ġceremony":10255,"Ġvoting":10256,"Ġreverse":10257,"Ġsensors":10258,"Ġwholes":10259,"Ġconsciousness":10260,"Ġchecked":10261,"vania":10262,"Ġsurroundings":10263,"isure":10264,"achelor":10265,"Thank":10266,"ĠPlanning":10267,"Ġcinem":10268,"Ġdrops":10269,"Ġbrid":10270,"tering":10271,"ĠCompet":10272,"Ġcompanion":10273,"Ġsurveys":10274,"Ġlifespan":10275,"aying":10276,"Ġlocks":10277,"mates":10278,"Ġroughly":10279,"ĠStandard":10280,"ĠDemocrats":10281,"Ġspeaks":10282,"ĠEffect":10283,"ds":10284,"Check":10285,"mn":10286,"istical":10287,"Ġheal":10288,"Ġstayed":10289,"Ġpink":10290,"Ġbeaches":10291,"Ġcollecting":10292,"ĠJac":10293,"ĠPrivate":10294,"oubtedly":10295,"Ġtremend":10296,"Commerce":10297,"ĠWorking":10298,"Stud":10299,"Ġassured":10300,"dy":10301,"ĠVietnam":10302,"Ġassignment":10303,"ĠResources":10304,"ĠBeg":10305,"Ġgrid":10306,"Ġritual":10307,"Does":10308,"Ġalgorithm":10309,"Pal":10310,"ĠUr":10311,"section":10312,"Ġhits":10313,"Ġpreval":10314,"Ġadvise":10315,"Ġdisag":10316,"Ġneglect":10317,"ila":10318,"ĠAdvanced":10319,"ĠJun":10320,"ĠOx":10321,"Ġsorts":10322,"Ġcelebrated":10323,"ĠâĢ¢":10324,"Ġmeasured":10325,"ĠiOS":10326,"Ġward":10327,"Ġfarming":10328,"Ġfulfilling":10329,"Ġannually":10330,"ĠDaniel":10331,"Ġspeeds":10332,"Ġtransformative":10333,"Ġuncomfortable":10334,"viously":10335,"Ġaesthetics":10336,"Ġcust":10337,"Ġingredient":10338,"ĠAndrew":10339,"ĠFOR":10340,"ĠDue":10341,"Exper":10342,"Ġlung":10343,"Ġalignment":10344,"cycle":10345,"ĠJoseph":10346,"Ġdirectors":10347,"Ġdeliber":10348,"Ġpublishing":10349,"ndrome":10350,"Ġportable":10351,"formed":10352,"Ġwra":10353,"Ġfertil":10354,"acher":10355,"Ġsculpt":10356,"redict":10357,"Ġtalented":10358,"ĠHollywood":10359,"ĠGuard":10360,"sight":10361,"Ġautomotive":10362,"Som":10363,"Ġho":10364,"adium":10365,"Ġpeers":10366,"ĠOptions":10367,"ĠTrade":10368,"Looking":10369,"Ġkeyword":10370,"Ġbuilds":10371,"Ġreinfor":10372,"ĠNut":10373,"ĠKn":10374,"ablish":10375,"Ġreplacing":10376,"alo":10377,"attoo":10378,"hou":10379,"Ġvarying":10380,"ĠStudy":10381,"Ġarom":10382,"Ġcorporations":10383,"Ġwestern":10384,"ĠStock":10385,"Ġdenied":10386,"Ġevaluating":10387,"Ġtort":10388,"ĠPrivacy":10389,"Ġcontacts":10390,"ju":10391,"Ġcotton":10392,"Ġrolling":10393,"aka":10394,"Ġliable":10395,"Ġtestimon":10396,"Ġfingers":10397,"Ġhandled":10398,"ĠGarden":10399,"Ġfirstname":10400,"Ġbreakdown":10401,"Ġcompromise":10402,"ilitation":10403,"Ġ55":10404,"Ġnurse":10405,"Ġflights":10406,"ĠAPI":10407,"yr":10408,"ĠEll":10409,"Ġconfusion":10410,"Ġcouncil":10411,"ĠHub":10412,"Ġlowest":10413,"Med":10414,"Ġwarmth":10415,"Ġtoilet":10416,"Ġmask":10417,"Ġprospective":10418,"Ġfatigue":10419,"ĠTri":10420,"ĠSteve":10421,"Ġperceived":10422,"Ġbeans":10423,"ĠOS":10424,"Ġadventures":10425,"Ġlandl":10426,"Ġpeer":10427,"iversary":10428,"ĠRose":10429,"Ġnorthern":10430,"01":10431,"ĠDonald":10432,"CR":10433,"kind":10434,"Ġovernight":10435,"Ġincidents":10436,"ĠPractice":10437,"Ġinher":10438,"ĠInterest":10439,"Ġgrasp":10440,"Ġwireless":10441,"Ġpenalties":10442,"laim":10443,"Ġcaution":10444,"Ġreleases":10445,"acter":10446,"rior":10447,"Ġhip":10448,"acious":10449,"Ġperpet":10450,"Ġcurve":10451,"Ġaids":10452,"Ġster":10453,"unate":10454,"Ġbasketball":10455,"Ġconcluded":10456,"Ġcrafted":10457,"Ġretreat":10458,"ĠVisit":10459,"mentation":10460,"Ġdict":10461,"EST":10462,"Ġtherapeutic":10463,"Ġnod":10464,"Ġstops":10465,"aS":10466,"ivities":10467,"gettable":10468,"Ġsteam":10469,"ĠArizona":10470,"Ġexhibition":10471,"ylvania":10472,"hend":10473,"aters":10474,"ĠStudent":10475,"66":10476,"Ass":10477,"ĠToronto":10478,"Ġstack":10479,"adel":10480,"pace":10481,"amine":10482,"Ġshifts":10483,"bridge":10484,"ĠEnvironmental":10485,"Ġod":10486,"Ġpainful":10487,"chest":10488,"har":10489,"Ġdirections":10490,"Ġangle":10491,"ĠKim":10492,"Ġreinforce":10493,"ĠLy":10494,"ĠGolden":10495,"ĠAllah":10496,"Ġsurely":10497,"Ġears":10498,"GBT":10499,"Ġportray":10500,"ĠRa":10501,"Ġstrangers":10502,"ĠEveryone":10503,"Ġmoderate":10504,"Ġfacial":10505,"Ġpenet":10506,"Ġtrails":10507,"Ġtemplate":10508,"hyd":10509,"Ġpreced":10510,"Ġaqu":10511,"tail":10512,"oir":10513,"Ġrecommendation":10514,"Ġproceedings":10515,"Ġsecured":10516,"incare":10517,"gets":10518,"ĠInvestment":10519,"thew":10520,"ĠMoon":10521,"ĠLibrary":10522,"ĠIntelligence":10523,"ĠFord":10524,"ĠQuick":10525,"wall":10526,"Ġ2001":10527,"cut":10528,"Ġmainstream":10529,"ĠMD":10530,"Ġarrangement":10531,"Ġbrilliant":10532,"Ġdisclosure":10533,"Ġhosted":10534,"Ġorganize":10535,"Ġfloors":10536,"minded":10537,"ĠStan":10538,"Ġscheduling":10539,"ucky":10540,"plant":10541,"Ġoutdoors":10542,"NS":10543,"leg":10544,"Ġgrip":10545,"Ġinviting":10546,"Ġenroll":10547,"Ġvolunteers":10548,"Ġpursuing":10549,"Ġfootprint":10550,"Ġpropri":10551,"Ġdisabilities":10552,"irable":10553,"Ġproducers":10554,"Ġlocate":10555,"Ġwithdrawal":10556,"Ġdimensions":10557,"Ġanswered":10558,"Ġparalle":10559,"Ġdos":10560,"Ġneeding":10561,"ĠCorporation":10562,"aded":10563,"FC":10564,"Ġflooring":10565,"Ġrelate":10566,"best":10567,"GE":10568,"ulates":10569,"ĠDie":10570,"Ġworkshop":10571,"Ġtemple":10572,"Ġindirect":10573,"ĠLic":10574,"Ġcrown":10575,"Ġclinic":10576,"rowse":10577,"vard":10578,"ependent":10579,"Ġ38":10580,"ptic":10581,"Ġimagination":10582,"vance":10583,"Ġlovers":10584,"Ġcircuit":10585,"Ġtends":10586,"ĠSky":10587,"igious":10588,"Ġcombining":10589,"Ġ1970":10590,"Ġsomehow":10591,"Ġtape":10592,"ordan":10593,"Ġreflecting":10594,"ĠDaily":10595,"arer":10596,"Ġachievement":10597,"Ġdisposal":10598,"Ġbrothers":10599,"PM":10600,"Ġschedules":10601,"ĠEasy":10602,"Ġrankings":10603,"they":10604,"Ġaccused":10605,"amps":10606,"ivated":10607,"Both":10608,"forming":10609,"Ġcreatures":10610,"Frequently":10611,"ĠEstate":10612,"Ġundersc":10613,"ĠPrinc":10614,"giving":10615,"rust":10616,"ĠBad":10617,"Ġbub":10618,"Ġbackgrounds":10619,"Ġbite":10620,"ĠIslamic":10621,"Ġoutfit":10622,"hoot":10623,"Free":10624,"LP":10625,"Ġenlarge":10626,"Ġtherapist":10627,"Ġvacuum":10628,"Ã¼":10629,"Ġphysician":10630,"Ġqualifications":10631,"Ġtourist":10632,"Ġpion":10633,"ĠCleaning":10634,"ĠEnc":10635,"ĠNFT":10636,"Ġmarketers":10637,"Ġminimizing":10638,"Ġbones":10639,"aval":10640,"asures":10641,"Ġpassage":10642,"Ġhorses":10643,"Ġdrama":10644,"ĠAfghan":10645,"Ġstartups":10646,"Ġcontest":10647,"Ġaspir":10648,"Ġcharacterized":10649,"ostic":10650,"Ġtradem":10651,"Ġdestinations":10652,"Ġreferences":10653,"Ġrefriger":10654,"Ġfosters":10655,"Ġcoins":10656,"Ġhosts":10657,"Ġinsure":10658,"lining":10659,"ref":10660,"aska":10661,"Ġvolunteer":10662,"ĠBob":10663,"Ġknife":10664,"Ġlawsuit":10665,"asting":10666,"olis":10667,"indu":10668,"Ġaligned":10669,"ulin":10670,"Ġtender":10671,"ĠXia":10672,"ĠWeight":10673,"Ġrobot":10674,"Ġseasonal":10675,"Ġbeneath":10676,"Ġspell":10677,"Ġratings":10678,"interest":10679,"nsylvania":10680,"Ġreven":10681,"ĠIce":10682,"orient":10683,"Ġlocally":10684,"Ġaffairs":10685,"ĠMember":10686,"Ġcontents":10687,"cam":10688,"Ġwages":10689,"Ġantioxid":10690,"Ġhazard":10691,"ĠNE":10692,"41":10693,"ypically":10694,"Ġdeleg":10695,"Time":10696,"Ġsoap":10697,"Ġgig":10698,"ESS":10699,"Ġhanging":10700,"Ġtie":10701,"akh":10702,"Ġwherever":10703,"Ġauthenticity":10704,"Ġnutritional":10705,"Ġtourists":10706,"ĠUV":10707,"Prof":10708,"Ġleaks":10709,"!\"":10710,"Ġoccasionally":10711,"ĠHor":10712,"Ġsurprising":10713,"HD":10714,"Ġaiming":10715,"Ġlenders":10716,"Ġtimeless":10717,"Ġcarries":10718,"athan":10719,"Rel":10720,"door":10721,"Ġaged":10722,"illance":10723,"Ġimpress":10724,"Ġrender":10725,"urable":10726,"Ġmath":10727,"home":10728,"Ġgraphic":10729,"Ġaggreg":10730,"Ġunforgettable":10731,"Ġdeemed":10732,"Ġalleg":10733,"ĠMedicare":10734,"Ġpasses":10735,"ĠApplication":10736,"Ġfed":10737,"Ġcaring":10738,"Ġdisclose":10739,"ĠStrategy":10740,"ĠVit":10741,"Ġcirculation":10742,"ĠDivision":10743,"ĠAuthority":10744,"TM":10745,"Ġgenre":10746,"Ġstreams":10747,"selling":10748,"Ġtraits":10749,"abi":10750,"Ġenrich":10751,"Ġbass":10752,"Ġhun":10753,"Ġreflected":10754,"Ġcompatibility":10755,"inson":10756,"Ġconservative":10757,"Ã³":10758,"ĠPage":10759,"olly":10760,"Ġangry":10761,"kens":10762,"Ġscratch":10763,"Ġintr":10764,"graduate":10765,"ĠIndividual":10766,"Ġski":10767,"Ġtransfers":10768,"Ġtowns":10769,"check":10770,"Eng":10771,"ĠNature":10772,"Ġregards":10773,"Ġenemies":10774,"Ġmetabol":10775,"Ġtreats":10776,"ĠâĢĿ":10777,"Ġenabled":10778,"ĠSeason":10779,"heim":10780,"ĠVice":10781,"Ġknee":10782,"Ġmagical":10783,"Ġdece":10784,"Ġrefine":10785,"Ġwishes":10786,"Ġinhib":10787,"ationally":10788,"rame":10789,"Ġbelt":10790,"Ġbio":10791,"Ġrefused":10792,"Level":10793,"Ġbands":10794,"Ġparagraph":10795,"ĠMs":10796,"Ġyards":10797,"amination":10798,"ĠAdam":10799,"iami":10800,"ĠElectric":10801,"Ġsettled":10802,"ourcing":10803,"PP":10804,"abeth":10805,"Ġcontainers":10806,"ĠDO":10807,"Ġ2002":10808,"Ġbabies":10809,"Ġancest":10810,"assment":10811,"Ġknock":10812,"Ġsuited":10813,"ĠTai":10814,"Ġwelcoming":10815,"abb":10816,"ĠEnhance":10817,"Ġindul":10818,"Ġmatching":10819,"Ġattempting":10820,"Ġrecru":10821,"Ġtroops":10822,"Ġtransforming":10823,"hesive":10824,"lass":10825,"Ġdevast":10826,"ĠBul":10827,"Ġrecycling":10828,"Ġdiplom":10829,"Ġgau":10830,"iler":10831,"ushes":10832,"ĠThird":10833,"Ġweird":10834,"Ġacceptable":10835,"Ġruling":10836,"EE":10837,"ĠMother":10838,"Will":10839,"thening":10840,"Ġ33":10841,"Ġcolumn":10842,"ĠHu":10843,"ĠClickFunnels":10844,"Ġax":10845,"onut":10846,"ĠKorean":10847,"Ġgardens":10848,"Ġwage":10849,"Ġlands":10850,"Ġvarieties":10851,"Ġheaded":10852,"Ġorg":10853,"ĠWH":10854,"Ġterrible":10855,"ĠExpert":10856,"quis":10857,"ĠTransport":10858,"Ġsensitivity":10859,"ĠHas":10860,"Ġties":10861,"Ġconstructed":10862,"ribe":10863,"Ġsurgical":10864,"ĠSus":10865,"alities":10866,"plex":10867,"flix":10868,"LY":10869,"Ġcoup":10870,"ĠHenry":10871,"Ġdesktop":10872,"Ġbranches":10873,"Which":10874,"Ġsli":10875,"Sub":10876,"attle":10877,"Ġmystery":10878,"inois":10879,"Ġempathy":10880,"Ġprone":10881,"conscious":10882,"Ġthy":10883,"Ġencryption":10884,"Click":10885,"Ġreass":10886,"Ġadmitted":10887,"Ġinterventions":10888,"Ġviolent":10889,"iplinary":10890,"Ġdisputes":10891,"Ġignore":10892,"ĠFoot":10893,"elve":10894,"Ġfiction":10895,"enges":10896,"ĠCub":10897,"oviet":10898,"ffe":10899,"Ġwheels":10900,"Ġmigration":10901,"Consider":10902,"Ġshine":10903,"ĠCover":10904,"ĠChen":10905,"ĠExchange":10906,"ardless":10907,"Ġhence":10908,"Ġcompound":10909,"anth":10910,"breaking":10911,"ĠCirc":10912,"Ġsemi":10913,"ĠStory":10914,"ĠSher":10915,"Ġtar":10916,"American":10917,"ĠCash":10918,"ĠAh":10919,"Ġbeginners":10920,"ĠâĤ¬":10921,"urred":10922,"Ġescal":10923,"Ġapparently":10924,"ĠNat":10925,"Ġlabour":10926,"inton":10927,"disc":10928,"ousing":10929,"Ġanybody":10930,"ĠTaylor":10931,"Ms":10932,"Ġdefensive":10933,"Ġsustained":10934,"Ġcuriosity":10935,"Ġarmed":10936,"rong":10937,"ĠUSB":10938,"ĠHou":10939,"ĠPrep":10940,"Keep":10941,"Ġcozy":10942,"TP":10943,"eller":10944,"Note":10945,"Ġcopies":10946,"Ġ37":10947,"ĠReviews":10948,"ĠPA":10949,"Ġrubber":10950,"ĠBased":10951,"Dis":10952,"anny":10953,"Ġcancel":10954,"Ġbiological":10955,"ĠCapt":10956,"ĠShort":10957,"ko":10958,"ĠRh":10959,"bound":10960,"Ġpositioning":10961,"Ġrelaxing":10962,"Ġmarine":10963,"ĠIV":10964,"Bet":10965,"ĠCommunication":10966,"Ġfears":10967,"Her":10968,"Ġclicking":10969,"CB":10970,"ĠBrad":10971,"ifice":10972,"ĠTreatment":10973,"43":10974,"Ġrum":10975,"Ġcarrier":10976,"Ġundoubtedly":10977,"rowing":10978,"ĠMuch":10979,"matic":10980,"Ġrepet":10981,"Ġvertical":10982,"Ġspoken":10983,"ĠPennsylvania":10984,"Ġenvironmentally":10985,"ĠRather":10986,"Ġtexts":10987,"Ġelegance":10988,"05":10989,"Ġguilty":10990,"iva":10991,"Ġlearners":10992,"Ġcriticism":10993,"employment":10994,"sex":10995,"Ġnecessity":10996,"ĠBody":10997,"ART":10998,"Ġprogressive":10999,"Ġmunicip":11000,"Ġstruck":11001,"Ġrespectively":11002,"Ġanch":11003,"Ġaccompanied":11004,"ĠRisk":11005,"Ġsuite":11006,"Ġexit":11007,"ietal":11008,"Ġresponded":11009,"hot":11010,"Ġjury":11011,"Ġministry":11012,"Ġmodify":11013,"Ġphenomenon":11014,"Ġgreet":11015,"CL":11016,"Ġpracticing":11017,"Ġreasonably":11018,"ureau":11019,"ami":11020,"ĠUA":11021,"Ġorange":11022,"ĠRome":11023,"Ġyesterday":11024,"Ġarchitectural":11025,"Ġmarijuana":11026,"ĠHig":11027,"Ġtrop":11028,"Ġdemonstrates":11029,"Ġimpacted":11030,"Ġproducer":11031,"Ġmeasuring":11032,"arma":11033,"marks":11034,"Ġofficially":11035,"bered":11036,"only":11037,"ĠComb":11038,"ĠBol":11039,"Ġnegotiations":11040,"Ġtheft":11041,"Ġurgent":11042,"Ġaccessing":11043,"Ġviolation":11044,"Main":11045,"ucks":11046,"Ġreserves":11047,"ĠDrive":11048,"Ġcrash":11049,"estion":11050,"press":11051,"Ġtong":11052,"Ġpossession":11053,"utes":11054,"Ġholy":11055,"Ġarguments":11056,"clusive":11057,"ĠMaking":11058,"writing":11059,"itations":11060,"Ġseeks":11061,"Ġeligibility":11062,"Ġexclusively":11063,"Ġmindful":11064,"awa":11065,"Ġcaut":11066,"aunting":11067,"Ġadhere":11068,"maker":11069,"Ġpad":11070,"85":11071,"Ġhygiene":11072,"ĠSex":11073,"Table":11074,"itudes":11075,"ĠKent":11076,"iar":11077,"Ġengineer":11078,"Ġceiling":11079,"Ġargued":11080,"Ġproteins":11081,"ĠLGBT":11082,"âĢ¦.":11083,"Ġpromised":11084,"ained":11085,"vation":11086,"Gu":11087,"Ġsilent":11088,"Ġartwork":11089,"Ġwelf":11090,"Ġpartn":11091,"Ġtwist":11092,"Ġoutlined":11093,"Ġsleek":11094,"Ġaccomplished":11095,"Ġcoding":11096,"Ġnit":11097,"ders":11098,"ĠDepending":11099,"ĠNic":11100,"Ġretro":11101,"Ġintroducing":11102,"UM":11103,"yes":11104,"SS":11105,"Ġabsorb":11106,"800":11107,"ĠEverything":11108,"ĠFollowing":11109,"Ġwelfare":11110,"ĠCollabor":11111,"Ġpm":11112,"asty":11113,"iki":11114,"ĠDeb":11115,"Ġscrap":11116,"roc":11117,"Ġqueries":11118,"ĠModel":11119,"Ġships":11120,"ĠEsp":11121,"ĠGive":11122,"ĠBlock":11123,"iology":11124,"ĠTherapy":11125,"ĠScotland":11126,"John":11127,"UL":11128,"isan":11129,"Ġsupporters":11130,"rub":11131,"wa":11132,"Ġrational":11133,"ĠUkrain":11134,"Ġshade":11135,"reated":11136,"Ġbeef":11137,"Ġunauthorized":11138,"Ġhitting":11139,"Ġexchanges":11140,"rimin":11141,"Ġpersu":11142,"Ġboots":11143,"Ġidentical":11144,"Ġparameters":11145,"ĠMcC":11146,"ĠPolit":11147,"Ġresonate":11148,"ĠRole":11149,"Ġmiscon":11150,"bro":11151,"Ġconsuming":11152,"Health":11153,"Ġincorporated":11154,"Ġunfold":11155,"Ġautomate":11156,"inth":11157,"Ġseemingly":11158,"onder":11159,"Ġgross":11160,"vo":11161,"Ġadvisor":11162,"tage":11163,"ricts":11164,"Ġorganizing":11165,"Ġreaches":11166,"ĠET":11167,"GPT":11168,"ĠField":11169,"Ġcamping":11170,"Ġappetite":11171,"Ġcharming":11172,"heart":11173,"Spe":11174,"%)":11175,"ĠIndones":11176,"Ġabortion":11177,"Ġnic":11178,"dney":11179,"missions":11180,"ĠBroad":11181,"Ġsinging":11182,"Ġinterpre":11183,"ĠConstitution":11184,"Ġcruise":11185,"Ġtu":11186,"Ġregarded":11187,"Ġcooked":11188,"Ġunpre":11189,"ĠPerson":11190,"Ġtoken":11191,"Ġfails":11192,"Ġirre":11193,"Ġbacked":11194,"Ġsynthetic":11195,"Ġhardly":11196,"Ġgest":11197,"Ġinfluencers":11198,"Invest":11199,"Ġpursuit":11200,"cur":11201,"Ġconj":11202,"ĠKat":11203,"ĠIndeed":11204,"Ġprotects":11205,"ĠForest":11206,"Ġpays":11207,"Ġranges":11208,"Ġconversions":11209,"Ġfifth":11210,"ugged":11211,"ĠURL":11212,"fish":11213,"atoes":11214,"Ġsturd":11215,"Ġmg":11216,"Ġchampion":11217,"ĠPy":11218,"Ġsecrets":11219,"Ġgorge":11220,"Ġprize":11221,"ĠCT":11222,"Ġbankrupt":11223,"Ġreim":11224,"Ġcuisine":11225,"Ġcrystal":11226,"Ġvegan":11227,"400":11228,"Ġrab":11229,"Ġderived":11230,"break":11231,"Ġproposals":11232,"ĠTogether":11233,"Ġchurches":11234,"Ġfrozen":11235,"Ġbasics":11236,"Ġstabil":11237,"erted":11238,"Ġprest":11239,"ĠDrag":11240,"cling":11241,"Ġchips":11242,"Ġcompounds":11243,"Ġanalys":11244,"Pay":11245,"Ġrevers":11246,"Ġmetals":11247,"ĠRepublicans":11248,"Ġcontamin":11249,"iang":11250,"places":11251,"erge":11252,"bury":11253,"Ġbiod":11254,"Ġnail":11255,"Ġadmission":11256,"ĠRegist":11257,"ĠFlow":11258,"rehend":11259,"Ġcalculated":11260,"Ġles":11261,"Ġanticipate":11262,"ĠAttorney":11263,"range":11264,"ĠParticip":11265,"Ġpetition":11266,"iovascular":11267,"owned":11268,"Ġfreely":11269,"Ġpresidential":11270,"Ġparticles":11271,"Ġformats":11272,"Ġacids":11273,"Ġattracting":11274,"OV":11275,"ĠSimply":11276,"Ġvendor":11277,"Ġnobody":11278,"ĠValue":11279,"Ġlighter":11280,"Ġexpend":11281,"trans":11282,"ĠTurk":11283,"Ġtrucks":11284,"Ġworlds":11285,"iratory":11286,"ĠHair":11287,"Back":11288,"Ġpor":11289,"Ġsubscribers":11290,"Ġtent":11291,"Ġrecipient":11292,"ropriate":11293,"Ġinstitutional":11294,"Ġtwe":11295,"Ġincorrect":11296,"Ġforums":11297,"ĠCyber":11298,"oin":11299,"Ġcoordination":11300,"eering":11301,"ĠMove":11302,"Ġherbs":11303,"Ġcleans":11304,"Ġdies":11305,"osting":11306,"ĠAst":11307,"Ġloads":11308,"ĠTHC":11309,"Ġsecurely":11310,"Ġbuilder":11311,"olves":11312,"abs":11313,"Ġbell":11314,"Ġmomentum":11315,"Ġepisodes":11316,"eted":11317,"Ġemphasizes":11318,"Red":11319,"sis":11320,"ĠOK":11321,"Ġendeav":11322,"Ġsatell":11323,"Ġbrew":11324,"ĠEmail":11325,"keeping":11326,"changing":11327,"Ġvolumes":11328,"ĠInnovation":11329,"Ġspecifications":11330,"anting":11331,"ĠCollect":11332,"ĠOverall":11333,"Ġoverseas":11334,"Ġoperated":11335,"Ġine":11336,"Ġgroom":11337,"imm":11338,"izabeth":11339,"Ġhired":11340,"Ġdelete":11341,"otes":11342,"semble":11343,"Ġmeasurement":11344,"Ġfundament":11345,"xy":11346,"hop":11347,"Ġnoting":11348,"Ġnewspaper":11349,"Ġtomat":11350,"Ġdimin":11351,"ĠFox":11352,"Ġlender":11353,"ĠSilver":11354,"Ġboot":11355,"Ġhesitate":11356,"Ġconsultant":11357,"Ġpenalty":11358,"Ġglow":11359,"ĠDyn":11360,"Ġhouseholds":11361,"ĠSpot":11362,"reshold":11363,"Ġflows":11364,"ĠSafe":11365,"ĠGree":11366,"Ġdiving":11367,"Ġthermal":11368,"ĠMiami":11369,"da":11370,"ĠSoviet":11371,"ĠBesides":11372,"Ġbenefic":11373,"Ġsequence":11374,"overs":11375,"Ġfailing":11376,"Ġtires":11377,"ĠBrother":11378,"Ġunlimited":11379,"Ġadvancement":11380,"ĠDrug":11381,"Ġmush":11382,"atable":11383,"Ġadopting":11384,"Ġstones":11385,"Ġsatisfying":11386,"Ġpromotional":11387,".'":11388,"Ġprescribed":11389,"aret":11390,"rene":11391,"Ġbarely":11392,"Ġtempor":11393,"Ġskincare":11394,"build":11395,"ĠOrganization":11396,"Ġcollections":11397,"Ġcharity":11398,"Ġfinishing":11399,"Ġleisure":11400,"iotics":11401,"ĠAuto":11402,"Ġbegun":11403,"Ġpreserving":11404,"Ġdigestive":11405,"Ġsup":11406,"Ġcryptocurrencies":11407,"Based":11408,"ifer":11409,"Ġfunn":11410,"Ġcommod":11411,"ĠWas":11412,"rison":11413,"ĠProp":11414,"Ġparamount":11415,"bec":11416,"Ġblame":11417,"ĠEnjoy":11418,"Ġappointments":11419,"ĠIllinois":11420,"Ġregulate":11421,"Ġguiding":11422,"Ġpipes":11423,"ĠSA":11424,"itzer":11425,"Ġwellbeing":11426,"Ġaluminum":11427,"Ġvet":11428,"ĠRay":11429,"Ġ120":11430,"ĠTable":11431,"Ġharmony":11432,"ĠFDA":11433,"âĢ³":11434,"ĠWithin":11435,"Ġtechnicians":11436,"Ġsecurities":11437,"DR":11438,"pha":11439,"thod":11440,"aron":11441,"ĠDiet":11442,"Ġraces":11443,"Ġmodified":11444,"Ġzones":11445,"fare":11446,"ĠExpress":11447,"hu":11448,"Ġfier":11449,"Ġseparation":11450,"ĠLA":11451,"Ġdecentral":11452,"ĠHope":11453,"Ġmandatory":11454,"Ġstir":11455,"Ġlabels":11456,"ĠDefense":11457,"Ġdaunting":11458,"ĠMale":11459,"Ġcure":11460,"Ġdeadline":11461,"Ġcig":11462,"ĠPhD":11463,"Ġsacrific":11464,"Ġmathemat":11465,"Ġinhab":11466,"Ġenlargement":11467,"zens":11468,"Ġ>":11469,"Ġracial":11470,"Ġshoulders":11471,"ECT":11472,"rock":11473,"ĠRod":11474,"Ġtries":11475,"Ġedges":11476,"Ġfunded":11477,"Out":11478,"Ġfantasy":11479,"ĠFa":11480,"Ġtimeline":11481,"Ġdeployment":11482,"ĠGP":11483,"Ġfence":11484,"Ġvintage":11485,"Ġrelying":11486,"Ġchef":11487,"Ġfiscal":11488,"umbers":11489,"Ġbottles":11490,"Ġindependently":11491,"Ġpresenting":11492,"Ġsensor":11493,"Ġkm":11494,"ĠOcean":11495,"Ġcomparing":11496,"Gl":11497,"conf":11498,"Ġsteep":11499,"Ġforming":11500,"ĠBeaut":11501,"Ġassessing":11502,"Ġethnic":11503,"ĠTrend":11504,"Ġfut":11505,"aine":11506,"orious":11507,"Ġannouncement":11508,"inance":11509,"Ġboosting":11510,"Ġrecognizing":11511,"ĠHawai":11512,"ĠSimilarly":11513,"Ġpron":11514,"Ġpipe":11515,"ĠHell":11516,"Ġinstinct":11517,"ĠManufact":11518,"ĠBull":11519,"Ġadvocacy":11520,"Ġcontrolling":11521,"Ġbeds":11522,"Ġexecute":11523,"Ġdevoted":11524,"peror":11525,"Ġcorporation":11526,"ulously":11527,"ĠPRO":11528,"ĠOften":11529,"Ġeliminating":11530,"ĠStaff":11531,"Ġdescriptions":11532,"Ġcontinually":11533,"Ġappreciated":11534,"Ġvessels":11535,"Ġcrafting":11536,"Ġphrases":11537,"Ġmaps":11538,"ĠDeep":11539,"rix":11540,"Ġfavorable":11541,"ĠJordan":11542,"97":11543,"Ġ1000":11544,"Ġcoaches":11545,"Ġglasses":11546,"ĠDom":11547,"ĠPDF":11548,"Ġhorror":11549,"Ġfoss":11550,"Ġannoy":11551,"Ġvisitor":11552,"iro":11553,"closure":11554,"Ġexped":11555,"isers":11556,"Ġportal":11557,"inator":11558,"Ġgenerous":11559,"ĠDownload":11560,"Ġforefront":11561,"wart":11562,"Ġprecaut":11563,"Ġhormone":11564,"Ġunwanted":11565,"Ġcord":11566,"Ġtastes":11567,"ĠFall":11568,"erb":11569,"ĠOnt":11570,"ĠCand":11571,"Set":11572,"Social":11573,"ĠRon":11574,"ĠShopify":11575,"ĠPortug":11576,"Ġinterrupt":11577,"ĠSquare":11578,"ĠDocu":11579,"ĠFlex":11580,"Ġthrill":11581,"ĠNFL":11582,"ĠBall":11583,"BM":11584,"Ġpsychology":11585,"ela":11586,"Ġsteal":11587,"who":11588,"osit":11589,"ĠRun":11590,"UD":11591,"case":11592,"Ġtestimony":11593,"Ġ34":11594,"ĠSaudi":11595,"Ġcounseling":11596,"Ġgratitude":11597,"ĠColumbia":11598,"Ġlocked":11599,"Ġpatent":11600,"Ġtears":11601,"Ġcustoms":11602,"aired":11603,"Ġarc":11604,"vable":11605,"Ġlocals":11606,"ĠAwards":11607,"ifiable":11608,"Ġmusicians":11609,"Ġliberal":11610,"ĠOmegle":11611,"Ġconfirmation":11612,"inst":11613,"Ġclimb":11614,"Ġedit":11615,"ĠHarry":11616,"Ġundergo":11617,"Ġcatal":11618,"tered":11619,"Ġgri":11620,"Ġtattoo":11621,"Ġbrick":11622,"ĠOpportun":11623,"Ġsaves":11624,"olen":11625,"ĠNear":11626,"have":11627,"Ġtokens":11628,"ĠMaintenance":11629,"Ġinnoc":11630,"ĠFast":11631,"Ġremedy":11632,"Ġaccred":11633,"Ġconstraints":11634,"Ġmater":11635,"Ġempowering":11636,"EG":11637,"Ġconnects":11638,"ĠNeg":11639,"Ġcounterpart":11640,"alg":11641,"Ġrejected":11642,"ĠSarah":11643,"Ġoldest":11644,"ĠVery":11645,"Ġ95":11646,"ĠCancer":11647,"ilson":11648,"Ġcompliment":11649,"ĠForeign":11650,"ilton":11651,"ographical":11652,"ĠMalays":11653,"opt":11654,"ĠBeyond":11655,"Two":11656,"Ġcolours":11657,"ĠSure":11658,"Ġproportion":11659,"Ġslots":11660,"Ġfet":11661,"Ġsuspension":11662,"Ġtreasure":11663,"Ġchol":11664,"Ġoffense":11665,"Ġrhythm":11666,"ĠCas":11667,"Ġinspections":11668,"sole":11669,"Ġbund":11670,"Ġoperator":11671,"ĠNAS":11672,"Ġbom":11673,"ĠRub":11674,"Ġample":11675,"elle":11676,"Ġelectronics":11677,"regon":11678,"normal":11679,"Ġcomparable":11680,"Ġthriving":11681,"Ġfallen":11682,"Ġexplores":11683,"PD":11684,"Ġborders":11685,"gged":11686,"Ġhazards":11687,"Ġadvances":11688,"Ġendorse":11689,"ports":11690,"Ġshifting":11691,"Ġsocietal":11692,"Ġseniors":11693,"Ġpowered":11694,"Ġhemp":11695,"Ġbump":11696,"plan":11697,"Ġarrested":11698,"ĠNetflix":11699,"Good":11700,"uity":11701,"Ġsurveillance":11702,"ĠParliament":11703,"esis":11704,"Ġ1960":11705,"Ġblogs":11706,"EX":11707,"ĠBush":11708,"Ġrepeatedly":11709,"ĠLoss":11710,"Ġcitizen":11711,"Being":11712,"Ġconfused":11713,"Ġconditioning":11714,"anz":11715,"Ġalleviate":11716,"ĠCore":11717,"Ġrect":11718,"Ġupset":11719,"Data":11720,"Ġgad":11721,"Ġcrisp":11722,"Ġmales":11723,"unnel":11724,"Ġinch":11725,"Ġhood":11726,"Ġdramatically":11727,"Ġtremendous":11728,"Ġenerg":11729,"Ġfeas":11730,"ĠLew":11731,"Ġpharmaceutical":11732,"Ġpublications":11733,"asted":11734,"Ġadmin":11735,"Ġsink":11736,"Ġsorry":11737,"Ġcompeting":11738,"ĠFurther":11739,"ĠCV":11740,"pan":11741,"Ġpests":11742,"Ġglory":11743,"Personal":11744,"Ġenjoys":11745,"Av":11746,"ĠLas":11747,"Ġultra":11748,"Ġportra":11749,"Ġpoliticians":11750,"Ġbelonging":11751,"Ġaccountable":11752,"Ġpositively":11753,"Ġtricks":11754,"Ġlogic":11755,"ĠAmb":11756,"nell":11757,"egree":11758,"Ġacadem":11759,"Ġgem":11760,"week":11761,"ĠClear":11762,"Ġsheets":11763,"ĠPerfect":11764,"verages":11765,"Ġthrilling":11766,"ĠJoin":11767,"Ġattracted":11768,"Ġthoughtful":11769,"Ġsimpler":11770,"Ġ250":11771,"Ġanniversary":11772,"Ġbilling":11773,"Ġnest":11774,"Ġconcentrate":11775,"tw":11776,"Ġpractitioners":11777,"Ġreviewing":11778,"ĠLux":11779,"erry":11780,"Net":11781,"kel":11782,"Ġcellular":11783,"Ġnutrient":11784,"ailand":11785,"Ġresilient":11786,"Ġcompos":11787,"Ġtablets":11788,"AA":11789,"ĠNevertheless":11790,"paced":11791,"Ġapplicant":11792,"Cur":11793,"ĠHence":11794,"ĠVers":11795,"Ġcorresponding":11796,"67":11797,"ĠChapter":11798,"ĠRoom":11799,"Ġcontrary":11800,"Ġresonates":11801,"Ġcrops":11802,"Ġcolorful":11803,"Ġlips":11804,"Ġbehavioral":11805,"Ġmaj":11806,"ĠGiven":11807,"enger":11808,"oen":11809,"Ġrib":11810,"Ġeffortlessly":11811,"ĠImplement":11812,"ĠEmpire":11813,"Ġcontempl":11814,"Ġpulling":11815,"Ġkiss":11816,"icked":11817,"Book":11818,"Ġrecept":11819,"ĠSydney":11820,"Ġpipeline":11821,"Sign":11822,"ĠRevolution":11823,"Ġbias":11824,"ockets":11825,"ĠFred":11826,"ĠTen":11827,"Ġcolleges":11828,"Ġdefeat":11829,"inyl":11830,"Ġisolation":11831,"Spec":11832,"anqu":11833,"Ġdemocratic":11834,"upid":11835,"phia":11836,"World":11837,"Ġmaintains":11838,"ĠMP":11839,"Ġpraise":11840,"Ġshelter":11841,"Ġcycles":11842,"will":11843,"Ġchairs":11844,"ima":11845,"Ġcookie":11846,"ĠOthers":11847,"Ġrespected":11848,"----":11849,"ĠSeveral":11850,"Ġelite":11851,"aple":11852,"Ġnurses":11853,"Ġmira":11854,"ĠDate":11855,"rint":11856,"mod":11857,"aire":11858,"Ġdecreased":11859,"ĠLess":11860,"rise":11861,"Ġintend":11862,"Ġthirty":11863,"sur":11864,"ĠMexican":11865,"ori":11866,"Ġgrocery":11867,"ĠCrit":11868,"Ġshout":11869,"Ġadjustable":11870,"Ġnotion":11871,"Fans":11872,"cedented":11873,"fts":11874,"Ġfundra":11875,"prof":11876,"ĠHouston":11877,"ĠCountry":11878,"Learn":11879,"Ġpacking":11880,"Ġemerge":11881,"ĠBlood":11882,"ĠIII":11883,"ĠUnivers":11884,"allas":11885,"Ġelderly":11886,"focus":11887,"Ġexplored":11888,"ĠGaza":11889,"ping":11890,"Vis":11891,"Ġbeautifully":11892,"ĠÐ":11893,"SE":11894,"Ġfriendship":11895,"ĠGrant":11896,"Ġthreshold":11897,"Ġadvisable":11898,"ĠSummer":11899,"98":11900,"Ġfinancially":11901,"ĠLind":11902,"Ġsubstitute":11903,"Ġslip":11904,"umph":11905,"service":11906,"Ġviable":11907,"amily":11908,"Ġtransit":11909,"ĠClimate":11910,"ĠAdvent":11911,"ounding":11912,"Ġgrain":11913,"Ġnuts":11914,"Ġsolving":11915,"Ġvotes":11916,"Act":11917,"Ġcomposed":11918,"Ġdamp":11919,"Ġcaps":11920,"Ġghost":11921,"Ġcarp":11922,"ĠBridge":11923,"child":11924,"Ġnerve":11925,"Ġsilence":11926,"Ġdozen":11927,"Ġpoison":11928,"Ġstains":11929,"Ġexhibit":11930,"Ġvocal":11931,"eu":11932,"Ġ42":11933,"Ġdirty":11934,"Ġrefreshing":11935,"Ġsacred":11936,"Ġ1999":11937,"Ġloop":11938,"Ġkingdom":11939,"Ġprofitability":11940,"Ġconcert":11941,"Ġconferences":11942,"ishop":11943,"Ġstere":11944,"Ġfool":11945,"Ġgorgeous":11946,"ĠImprove":11947,"ĠBelow":11948,"Ġpressing":11949,"Ġoutlets":11950,"oriented":11951,"Ġ($":11952,"ĠProvide":11953,"ĠLar":11954,"Ġforests":11955,"Ġcorruption":11956,"Ġjoints":11957,"bra":11958,"Ġenduring":11959,"ĠCulture":11960,"ĠCut":11961,"Ġscream":11962,"Ġdowntown":11963,"hist":11964,"Ġcopper":11965,"Ġouter":11966,"ĠExcell":11967,"ritis":11968,"Ġresistant":11969,"ĠAli":11970,"Ã¶":11971,"CP":11972,"Ġdiscovering":11973,"Ġconvinced":11974,"Ġparallel":11975,"Ġconsisting":11976,"ludes":11977,"Ġchatting":11978,"ĠEric":11979,"ĠDutch":11980,"Ġframes":11981,"Ġconfiguration":11982,"quarters":11983,"Ġbuttons":11984,"Ġshortly":11985,"Ġshame":11986,"ĠRespons":11987,"Ġeducators":11988,"ĠBoy":11989,"paralle":11990,"Ġcabinet":11991,"Ġfailures":11992,"Day":11993,"Ġrings":11994,"Ġmerchand":11995,"Ġstrap":11996,"notch":11997,"Ġmineral":11998,"Ġsnacks":11999,"ĠCustomers":12000,"Ġrescue":12001,"Mon":12002,"Dep":12003,"Ġliber":12004,"stic":12005,"Ġoutline":12006,"Ġcoastal":12007,"Ġscholarship":12008,"atches":12009,"Ġflags":12010,"Ġhumidity":12011,"Ġmeasurements":12012,"adelphia":12013,"Ġlying":12014,"Ġports":12015,"Ġremedies":12016,"ĠMeanwhile":12017,"Ġhandful":12018,"fting":12019,"Ġpension":12020,"Ġpour":12021,"MI":12022,"Ġviolations":12023,"Ġdesert":12024,"email":12025,"Ġresponding":12026,"Ġneighbors":12027,"Ġcatering":12028,"Ġsturdy":12029,"etts":12030,"Ġbaseball":12031,"Ġtheore":12032,"ĠVR":12033,"Ġoptimized":12034,"Ġequality":12035,"Ġelevated":12036,"Ġtrace":12037,"Ġdensity":12038,"ĠOs":12039,"first":12040,"ĠJr":12041,"Ġaccompany":12042,"Ġtalents":12043,"ĠTemple":12044,"Ġtablet":12045,"Ġlibr":12046,"Ġattempted":12047,"ĠPalestinian":12048,"Ġlending":12049,"ĠSym":12050,"Ġeducate":12051,"achus":12052,"ĠUtil":12053,"shore":12054,"ĠMachine":12055,"Ġsegments":12056,"ĠRepresent":12057,"Ġcapturing":12058,"urate":12059,"Ġemotion":12060,"Ġdiamond":12061,"ĠAlong":12062,"opes":12063,"osterone":12064,"Ġcertifications":12065,"Ġcreator":12066,"Ġinquiries":12067,"Ġforum":12068,"rup":12069,"ishers":12070,"DPR":12071,"Ġsimplicity":12072,"Ġslee":12073,"resistant":12074,"ĠSolar":12075,"Ġroutines":12076,"ito":12077,"Ġfrustration":12078,"iative":12079,"falls":12080,"ancers":12081,"mg":12082,"Did":12083,"Ġsevent":12084,"Mod":12085,"ĠSams":12086,"ĠAk":12087,"ĠAffairs":12088,"Ġblocked":12089,"ĠSD":12090,"NT":12091,"ĠAssistant":12092,"high":12093,"Ġnonprofit":12094,"iger":12095,"Ġdentist":12096,"Ġembarr":12097,"Ġemotionally":12098,"Ġsword":12099,"Ġfles":12100,"feed":12101,"Ġcush":12102,"Ġcategor":12103,"ĠBern":12104,"Ġstroke":12105,"Ġaccepting":12106,"Ġshr":12107,"ĠDur":12108,"ĠRepair":12109,"leading":12110,"Ġraises":12111,"Ġspectacular":12112,"Ġdigit":12113,"bean":12114,"ĠGM":12115,"Ġrefuse":12116,"esterol":12117,"Ġassignments":12118,"ĠMom":12119,"enery":12120,"never":12121,"Ġunity":12122,"ĠWin":12123,"Ġburst":12124,"otherapy":12125,"Ġdozens":12126,"Ġclimbing":12127,"Ġscrut":12128,"ĠNob":12129,"agan":12130,"Ġassemb":12131,"Ġtangible":12132,"Ġinfluential":12133,"ĠIoT":12134,"Ġfootage":12135,"Christ":12136,"Ġradiation":12137,"Ġoverwhelmed":12138,"Ġtags":12139,"Ġopponents":12140,"ĠDise":12141,"held":12142,"oli":12143,"Ġballs":12144,"Ġimpressed":12145,"ĠHealthcare":12146,"Ġsubmission":12147,"Ġdashboard":12148,"Thanks":12149,"Ġuh":12150,"Ġunprecedented":12151,"Ġjournalists":12152,"ĠBed":12153,"Ġbreathtaking":12154,"bled":12155,"ĠEffective":12156,"Ġwax":12157,"ĠFeed":12158,"Ġorientation":12159,"Ġquicker":12160,"ographics":12161,"ĠReserve":12162,"Ġhike":12163,"Ġlaboratory":12164,"liness":12165,"Ġmodifications":12166,"ĠAustin":12167,"Ġassurance":12168,"pes":12169,"Ġsweat":12170,"Ġcardiovascular":12171,"Tips":12172,"Ġmad":12173,"Ġpic":12174,"ĠTaking":12175,"ĠInflu":12176,"paralleled":12177,"Â·":12178,"ĠAlliance":12179,"Bel":12180,"ĠOl":12181,"Ġresur":12182,"solving":12183,"Ġresolved":12184,"wal":12185,"keep":12186,"Ġforgotten":12187,"Ġmechanics":12188,"elta":12189,"ĠiP":12190,"ĠRV":12191,"mate":12192,"Ġshadow":12193,"inos":12194,"Ġhal":12195,"ikes":12196,"secut":12197,"ĠPast":12198,"Ġhumor":12199,"Those":12200,"iencies":12201,"Ġhospitality":12202,"Ġ39":12203,"Ġdelightful":12204,"Ġposture":12205,"ĠDelhi":12206,"Ġsurviv":12207,"apor":12208,"ĠCrypt":12209,"ĠMajor":12210,"Ġstainless":12211,"Ġupgrades":12212,"ĠRyan":12213,"achusetts":12214,"attered":12215,"main":12216,"enter":12217,"offs":12218,"Ġbomb":12219,"cor":12220,"Ġtrustworthy":12221,"PL":12222,"Find":12223,"ĠOregon":12224,"],":12225,"Ġpersistent":12226,"gered":12227,"ĠFilm":12228,"ĠWould":12229,"ĠEle":12230,"Ġlemon":12231,"Ġcompromising":12232,"Ġdarkness":12233,"Ġconsp":12234,"screen":12235,"Ġranks":12236,"ĠUkrainian":12237,"ĠSpeed":12238,"Ġbonuses":12239,"Ġworkflows":12240,"Ġfunnels":12241,"Ġweld":12242,"etics":12243,"Ġsummar":12244,"ĠNative":12245,"Ġcycling":12246,"Ġabundance":12247,"EV":12248,"Ġbudgets":12249,"ogy":12250,"Ġregulated":12251,"ĠLif":12252,"ĠPurch":12253,"Ġassert":12254,"ĠRs":12255,"ĠSound":12256,"Ġbuzz":12257,"Ġcaf":12258,"Ġelectro":12259,"Ġupfront":12260,"Ġmindfulness":12261,"Ġmakers":12262,"Ġarising":12263,"ĠStation":12264,"rors":12265,"Ġadjusting":12266,"ĠMotor":12267,"ĠSH":12268,"Ġpropag":12269,"Ġmm":12270,"inite":12271,"ĠRout":12272,"Ġexecuted":12273,"Ġconqu":12274,"Ġgal":12275,"Ac":12276,"adays":12277,"ĠInspect":12278,"Ġum":12279,"Ġtournament":12280,"ĠPeace":12281,"Ġfastest":12282,"GR":12283,"oples":12284,"Ġindicating":12285,"Ġdying":12286,"Ġ99":12287,"ĠAnth":12288,"Ġdistinction":12289,"Ġguns":12290,"Ġopponent":12291,"adequ":12292,"fund":12293,"ĠLanguage":12294,"Ġaug":12295,"Ġconsumed":12296,"Ġsacrifice":12297,"ĠDiscover":12298,"Ġrevel":12299,"ho":12300,"Ġrigorous":12301,"Ġbrowse":12302,"Ġadhe":12303,"orted":12304,"Ġhed":12305,"Ġcommitments":12306,"Ġmothers":12307,"ĠMonth":12308,"08":12309,"arding":12310,"Ġclassified":12311,"ĠBetween":12312,"Ġdiagnosed":12313,"ĠSem":12314,"ĠStone":12315,"Ġsuggesting":12316,"ĠVegas":12317,"Ġpresum":12318,"gins":12319,"Contact":12320,"Ġsus":12321,"Ġreply":12322,"liest":12323,"Ġdraws":12324,"Äģ":12325,"Ġdairy":12326,"burgh":12327,"ĠThailand":12328,"Ġhandles":12329,"Ġcalculate":12330,"Ġtiles":12331,"Ġlitigation":12332,"ĠLeadership":12333,"Business":12334,"Ġcoronavirus":12335,"Ġreception":12336,"Ġtheater":12337,"ĠOntario":12338,"Ġnour":12339,"ĠProtect":12340,"ĠEsc":12341,"wind":12342,"Ġterrain":12343,"ĠSC":12344,"Ġrespiratory":12345,"ĠDead":12346,"archy":12347,"Ġshirt":12348,"ĠTree":12349,"Ġclaiming":12350,"ĠCooper":12351,"Ġsits":12352,"Ġdried":12353,"ĠBase":12354,"Ġfulfillment":12355,"izers":12356,"Ġspecialize":12357,"Ġbugs":12358,"jac":12359,"iffs":12360,"ĠStrong":12361,"SC":12362,"Ġnurturing":12363,"Ġchaos":12364,"Ġvolatility":12365,"Ġtoy":12366,"ĠSaint":12367,"Ġrend":12368,"Ġeasiest":12369,"ĠHo":12370,"Ġpositioned":12371,"inge":12372,"PV":12373,"Ġsyndrome":12374,"icular":12375,"Ġmedicines":12376,"ĠTam":12377,"bourne":12378,"ĠArchitect":12379,"azed":12380,"Ġtherapies":12381,"Ġframeworks":12382,"ĠDoctor":12383,"ĠHappy":12384,"Ġtube":12385,"ĠArm":12386,"Creating":12387,"Ġemphasize":12388,"ĠVirtual":12389,"Ġfats":12390,"ĠMatthew":12391,"Ġreserved":12392,"game":12393,"ĠBreak":12394,"link":12395,"Ġmart":12396,"ĠPayment":12397,"Ġmanually":12398,"Ġvulnerabilities":12399,"Ġembedded":12400,"Ġambit":12401,"Ġpizza":12402,"ĠAqu":12403,"points":12404,"ĠTy":12405,"Ġspreading":12406,"ushing":12407,"Ġpainted":12408,"acco":12409,"addle":12410,"Ġenthusiasm":12411,"Ġworthy":12412,"Ġrelevance":12413,"Sometimes":12414,"ĠYu":12415,"reedom":12416,"Ġwarehouse":12417,"ĠGro":12418,"irds":12419,"Ġdeduct":12420,"Ġtale":12421,"Ġsoccer":12422,"ĠRog":12423,"Ġexecutives":12424,"test":12425,"Ġhydro":12426,"Ġlimiting":12427,"ĠBudget":12428,"ĠBarb":12429,"Ġsentiment":12430,"Ġdisin":12431,"Ġintentions":12432,"Ġgenuinely":12433,"Ġchip":12434,"Ġspare":12435,"imens":12436,"Ġteaches":12437,"ĠHan":12438,"Ġmodes":12439,"Ġweaknesses":12440,"Ġnotify":12441,"ĠAssembly":12442,"Ġcomedy":12443,"ĠEssential":12444,"Ġpassive":12445,"atis":12446,"bn":12447,"Ġremotely":12448,"Ġlifting":12449,"Ġunderm":12450,"onal":12451,"ĠED":12452,"Ġjunk":12453,"ĠConstruction":12454,"Ġnegotiate":12455,"ĠBC":12456,"arest":12457,"Ġgarlic":12458,"stop":12459,"unge":12460,"Ġsake":12461,"built":12462,"Ġwines":12463,"itoring":12464,"ĠWil":12465,"Ġislands":12466,"nesota":12467,"ĠElizabeth":12468,"Ġstrikes":12469,"Ġdominant":12470,"Ġbes":12471,"atar":12472,"68":12473,"Ġdistribute":12474,"Ġrival":12475,"ĠChatGPT":12476,"rett":12477,"Ġworkouts":12478,"Ġanytime":12479,"aneous":12480,"Ġeconomies":12481,"Ġveteran":12482,"Ġromance":12483,"Ġunparalleled":12484,"Ġlicenses":12485,"Ġnotifications":12486,"ĠDavis":12487,"TER":12488,"Ne":12489,"Ġcomprehend":12490,"lfriend":12491,"Ġsooner":12492,"ĠRand":12493,"Ġcorners":12494,"ĠAch":12495,"ĠAdvis":12496,"ĠCourse":12497,"ĠOffer":12498,"ols":12499,"ĠMade":12500,"Ġhopefully":12501,"Ġlaunching":12502,"speed":12503,"Ġtrades":12504,"size":12505,"Ġdess":12506,"season":12507,"wich":12508,"Ġdefining":12509,"Ġstressed":12510,"02":12511,"ivery":12512,"Ġstopping":12513,"Ġtranqu":12514,"Ġdeadlines":12515,"ĠTR":12516,"ĠPick":12517,"Ġapple":12518,"ĠGuid":12519,"Ġadjusted":12520,"Ġstressful":12521,"ĠSide":12522,"Ġinformative":12523,"Ġaccelerate":12524,"Ġwitnessed":12525,"vals":12526,"ĠCommercial":12527,"Ġdeposits":12528,"Ġauthentication":12529,"Ġblo":12530,"Ġtestimonials":12531,"Ġgeneric":12532,"Ġfought":12533,"ĠVillage":12534,"tains":12535,"ĠFinal":12536,"thereum":12537,"connected":12538,"thritis":12539,"Ġattraction":12540,"arat":12541,"ĠSkills":12542,"AB":12543,"Ġsmoother":12544,"Ġbree":12545,"Ġmachinery":12546,"Ġabandoned":12547,"600":12548,"opher":12549,"htt":12550,"ancies":12551,"ndry":12552,"ĠWriting":12553,"ĠAF":12554,"axy":12555,"Ġrelies":12556,"Techn":12557,"Ġreferring":12558,"Ġinherent":12559,"Ġintermed":12560,"otional":12561,"ĠPod":12562,"Ġunfortunately":12563,"Ġsmiled":12564,"Ġhydrogen":12565,"ycle":12566,"Ġstepped":12567,"gov":12568,"Ġdough":12569,"Ġcelebrating":12570,"Ġnails":12571,"ĠPrince":12572,"Ġsuicide":12573,"Ġencountered":12574,"aul":12575,"alling":12576,"Ġisolated":12577,"Ġseverity":12578,"Their":12579,"ĠIndigenous":12580,"Ġcharacteristic":12581,"Ġwars":12582,"insp":12583,"Ġwhis":12584,"Ġexplaining":12585,"ibles":12586,"ntil":12587,"Ġliterary":12588,"ĠStudio":12589,"REE":12590,"ml":12591,"curement":12592,"ĠEnvironment":12593,"ĠGir":12594,"Ġpel":12595,"seen":12596,"Hel":12597,"Ġbrowsing":12598,"Ġoffline":12599,"Ġassists":12600,"Ġcredentials":12601,"Ġgluc":12602,"Market":12603,"ĠBot":12604,"essional":12605,"ĠMental":12606,"Ġpoetry":12607,"Regular":12608,"ĠSyria":12609,"Ġadvocates":12610,"ĠAG":12611,"Second":12612,"ĠAy":12613,"Ġinternationally":12614,"Ġfabrics":12615,"Ġtransmit":12616,"ĠHIV":12617,"angle":12618,"UI":12619,"ennes":12620,"Ġrocks":12621,"ĠBureau":12622,"ĠPhiladelphia":12623,"agle":12624,"Ġsuscept":12625,"Ġprohibited":12626,"Ġfossil":12627,"Ġvariation":12628,"ĠNick":12629,"emn":12630,"Ġric":12631,"Ġdangers":12632,"Ġarranged":12633,"Ġhill":12634,"Ġprovince":12635,"Ġeducated":12636,"ĠScient":12637,"Ġseating":12638,"ĠWilson":12639,"Ġdoct":12640,"Ġadaptability":12641,"Ġslide":12642,"Ġsupplied":12643,"Ġstrengthening":12644,"umble":12645,"Ġtune":12646,"Ġretired":12647,"ĠStrategies":12648,"Ġenjoyment":12649,"otion":12650,"income":12651,"Ġshoe":12652,"uru":12653,"Ġschemes":12654,"ĠGovernor":12655,"Online":12656,"Ġbinding":12657,"ĠHunt":12658,"ĠCoffee":12659,"ĠCou":12660,"Ġtaxpay":12661,"ĠText":12662,"ighth":12663,"Ġrod":12664,"ĠPhilippines":12665,"ĠKu":12666,"winning":12667,"Ġdrove":12668,"ĠChoosing":12669,"Ult":12670,"Ġheights":12671,"Ġ85":12672,"ĠEc":12673,"ĠStream":12674,"Ġgel":12675,"afood":12676,"getic":12677,"Ġcute":12678,"Ġplanting":12679,"Qs":12680,"Ġincons":12681,"ixtures":12682,"Ġimposed":12683,"bsolute":12684,"Ġnorms":12685,"ĠMassachusetts":12686,"Ġnevertheless":12687,"ĠImagine":12688,"ĠTa":12689,"Ġindu":12690,"Ġgang":12691,"pur":12692,"ĠChem":12693,"Ġthrown":12694,"Ġscoring":12695,"Ġseparated":12696,"ĠDiego":12697,"Ġoh":12698,"umatic":12699,"Ġvaccines":12700,"Ġentertaining":12701,"Ġmodule":12702,"ĠRecogn":12703,"Ġnonetheless":12704,"Ġstraw":12705,"Ġgauge":12706,"Ġprivilege":12707,"Ġdancing":12708,"Ġaccessed":12709,"Ġempowers":12710,"Ġabstract":12711,"ugar":12712,"Ġscored":12713,"store":12714,"ige":12715,"ĠNation":12716,"igs":12717,"Ġlistings":12718,"risk":12719,"Ġacknowledged":12720,"Ġtolerance":12721,"appropriate":12722,"Ġmixing":12723,"Ġ1998":12724,"Ġviral":12725,"Ġexamined":12726,"Building":12727,"Ġdemonstrating":12728,"Ġstolen":12729,"Ġpremises":12730,"ĠPath":12731,"Ġvariable":12732,"alm":12733,"Ġwillingness":12734,"zone":12735,"Ġunpredict":12736,"ĠKids":12737,"Ġlengthy":12738,"ĠTrail":12739,"pling":12740,"Ġimperative":12741,"ĠEvalu":12742,"Ġlively":12743,"Ġoccasional":12744,"Ġtongue":12745,"ĠML":12746,"father":12747,"Ġsemin":12748,"ĠSeattle":12749,"ĠGetting":12750,"bul":12751,"Ġcosmetic":12752,"Ġgast":12753,"Ġjacket":12754,"Ġener":12755,"Ġjudges":12756,"mall":12757,"ĠSciences":12758,"Ġstoring":12759,"Ġassociations":12760,"Ġinfring":12761,"Ġtennis":12762,"ĠBru":12763,"Ġignored":12764,"Ġadapted":12765,"ĠAtlantic":12766,"bes":12767,"Ġpatch":12768,"uting":12769,"ixed":12770,"iator":12771,"Ste":12772,"Ġsubt":12773,"ĠSix":12774,"Ġoverlooked":12775,"ĠFun":12776,"Ġambitious":12777,"Ġcraftsmanship":12778,"Ġmetabolism":12779,"Ġfestivals":12780,"ĠVisa":12781,"Ġprogrammes":12782,"ĠHyd":12783,"Ġrenov":12784,"ĠMeg":12785,"ĠAfghanistan":12786,"Ġdeparture":12787,"SP":12788,"ĠTalk":12789,"agg":12790,"07":12791,"ĠAds":12792,"ĠBrook":12793,"Ġmurd":12794,"Ġethics":12795,"eterm":12796,"plus":12797,"pot":12798,"Ġtheories":12799,"Ġkilomet":12800,"ĠTarget":12801,"ĠWorth":12802,"Ġallies":12803,"Ġdamaging":12804,"ĠWales":12805,"Ġpersist":12806,"Ġgene":12807,"rend":12808,"pool":12809,"chat":12810,"Ġpaintings":12811,"Ġwonders":12812,"Ġcommunicating":12813,"olitical":12814,"Ġmanufactured":12815,"burse":12816,"ĠMiller":12817,"Common":12818,"ĠDeath":12819,"Ġcoin":12820,"Ġrounds":12821,"Ġjail":12822,"good":12823,"Ġvulnerability":12824,"Ġbikes":12825,"Ġkidney":12826,"ĠOak":12827,"ctic":12828,"Ġelabor":12829,"pson":12830,"150":12831,"Ġbalancing":12832,"Ġcareg":12833,"Ġallergies":12834,"Ġstrictly":12835,"oa":12836,"03":12837,"Tech":12838,"Ġsimplify":12839,"economic":12840,"aki":12841,"ĠHom":12842,"ĠHay":12843,"ĠVictoria":12844,"Ġnegligence":12845,"Ġolive":12846,"Ġjet":12847,"lay":12848,"aus":12849,"Ġsovere":12850,"eem":12851,"igma":12852,"Ġcoconut":12853,"Ġneat":12854,"Ġgran":12855,"Ġinsects":12856,"Ġwaterproof":12857,"Ġstrategically":12858,"Ġfate":12859,"Ġpotatoes":12860,"ĠOcc":12861,"Ġthreatened":12862,"06":12863,"Ġcounts":12864,"Ġaven":12865,"Ġrevolutionary":12866,"Ġveterans":12867,"ĠCareer":12868,"Ġindicator":12869,"ĠAB":12870,"ĠPrim":12871,"Off":12872,"Ġrated":12873,"ĠContents":12874,"Ġpants":12875,"Ġcustomizable":12876,"ĠClient":12877,"Ġmultif":12878,"ĠMand":12879,"ĠPit":12880,"Ġbullet":12881,"incess":12882,"ĠRoof":12883,"ugin":12884,"Ġdimension":12885,"ĠGh":12886,"Ġsmartphones":12887,"iblical":12888,"Ġloading":12889,"ĠTrack":12890,"ĠPlant":12891,"ĠCertain":12892,"ividually":12893,"09":12894,"Ġexams":12895,"ĠFive":12896,"Ġshelf":12897,"ĠNaz":12898,"ĠSleep":12899,"eous":12900,"ĠFront":12901,"ĠDental":12902,"oca":12903,"Ġappropriately":12904,"Ġimplies":12905,"Ġlegislative":12906,"Ġfirmly":12907,"uns":12908,"elect":12909,"El":12910,"aga":12911,"ructive":12912,"Def":12913,"ĠSpecific":12914,"Ġporn":12915,"Ġsearches":12916,"ĠBec":12917,"ĠNavy":12918,"ĠKevin":12919,"Ġdign":12920,"placement":12921,"Ġoccurring":12922,"Ġorigins":12923,"ĠCreative":12924,"Ġpassenger":12925,"ĠEver":12926,"IB":12927,"Ġ600":12928,"Ġstandout":12929,"Though":12930,"ĠShipping":12931,"emp":12932,"Ġminority":12933,"iley":12934,"ĠSant":12935,"Ġattendance":12936,"Ġskip":12937,"Ġattendees":12938,"Ġtrek":12939,"ĠEs":12940,"neath":12941,"rolling":12942,"Ġconstitute":12943,"Ġpaperwork":12944,"Ġfolk":12945,"ĠIRS":12946,"Ġgloves":12947,"oting":12948,"Ġconsc":12949,"ĠBusinesses":12950,"Ġunre":12951,"Ġspokes":12952,"about":12953,"Ġdense":12954,"ĠDa":12955,"don":12956,"Ġtenants":12957,"Ġbrut":12958,"ĠTaiwan":12959,"Ġfinishes":12960,"ĠDallas":12961,"ĠHarvard":12962,"Life":12963,"Ġapproached":12964,"ulus":12965,"gence":12966,"Ġtendency":12967,"ĠTurkish":12968,"Ġcholesterol":12969,"Ġlicensing":12970,"Ġspecialty":12971,"Ġacute":12972,"Ġreset":12973,"ĠRos":12974,"rage":12975,"ĠBh":12976,"ĠJosh":12977,"Ġfemales":12978,"Ġanalysts":12979,"Ġclicks":12980,"Ġfitting":12981,"Ġbattles":12982,"ĠAnnual":12983,"addy":12984,"ĠMinnesota":12985,"Ġhonestly":12986,"avior":12987,"Ġspirits":12988,"ĠFL":12989,"Ġaspirations":12990,"Ġdistricts":12991,"Ġprofessionalism":12992,"Ġrefined":12993,"Ġlin":12994,"ĠSwiss":12995,"bone":12996,"ĠMail":12997,"78":12998,"natural":12999,"ĠScript":13000,"Ġlimitation":13001,"Ġdiscon":13002,"ĠSE":13003,"Ġvoted":13004,"Ġparticipated":13005,"Ġanxious":13006,"Ġblade":13007,"ĠWars":13008,"ĠMarc":13009,"iscons":13010,"Ġcontroller":13011,"Ġinsulin":13012,"Dec":13013,"robe":13014,"Ġspa":13015,"Ġhabitat":13016,"ĠRaj":13017,"Ġconsiderably":13018,"anthrop":13019,"Ġadaptation":13020,"ĠCarl":13021,"Ġremembered":13022,"around":13023,"Ġlogin":13024,"ĠEX":13025,"Fr":13026,"isconsin":13027,"Ġjaw":13028,"Ġpuppy":13029,"Ġrides":13030,"Ġvariables":13031,"ĠBrian":13032,"Ġfarms":13033,"Ġflesh":13034,"Ġ360":13035,"Following":13036,"ĠAtlanta":13037,"cost":13038,"ioned":13039,"Ġcargo":13040,"Ġverse":13041,"ometric":13042,"Ġadjustment":13043,"istically":13044,"Ġkeyboard":13045,"focused":13046,"Ġmarking":13047,"Ġcustody":13048,"Ġmotorcycle":13049,"Ġmeta":13050,"product":13051,"storm":13052,")(":13053,"Ġdosage":13054,"ulatory":13055,"icts":13056,"ika":13057,"itzerland":13058,"ez":13059,"64":13060,"Ġwing":13061,"Ġ49":13062,"Ġmisunder":13063,"Ġcleaned":13064,"Ġtropical":13065,"impse":13066,"Ġreminded":13067,"Getting":13068,"Ġrack":13069,"Ġclever":13070,"ĠWhats":13071,"ĠPrograms":13072,"ĠMuslims":13073,"ĠBlog":13074,"ĠIndex":13075,"ribute":13076,"ĠNether":13077,"Ġvenues":13078,"Ġpriced":13079,"Ġcautious":13080,"Ġpotent":13081,"Ġnotification":13082,"owa":13083,"Ġfacilitating":13084,"usalem":13085,"Ġtens":13086,"Pres":13087,"ĠDJ":13088,"Cal":13089,"NE":13090,"Ġstiff":13091,"Ġsanctions":13092,"Ġoutlook":13093,"Ġprojected":13094,"Ġsupervision":13095,"Ġexempt":13096,"Ġphotographer":13097,"Ġrolled":13098,"emade":13099,"ĠSource":13100,"ĠEuro":13101,"Ġsituated":13102,"ĠPremium":13103,"Ġcharts":13104,"Ġrooted":13105,"04":13106,"ĠSkin":13107,"ĠIC":13108,"Ġjer":13109,"Ġunderground":13110,"Ġfuels":13111,"ĠJudge":13112,"ĠUAE":13113,"ĠAvailable":13114,"ĠTraditional":13115,"phy":13116,"Ðµ":13117,"ĠRequire":13118,"Ġmos":13119,"ĠGPS":13120,"Ġcraw":13121,"ĠTes":13122,"ped":13123,"Ġepid":13124,"Ġoutreach":13125,"Ġcoating":13126,"Ġmentor":13127,"base":13128,"Ġmerchandise":13129,"Ġlogical":13130,"Ġduct":13131,"Ġbreathe":13132,"wid":13133,"Ġtricky":13134,"Ġdebts":13135,"Ġbod":13136,"Ġtraction":13137,"Ġdeserves":13138,"ME":13139,"ĠNAT":13140,"unes":13141,"ido":13142,"Ġexpecting":13143,"ĠBand":13144,"Ġsquee":13145,"ĠReading":13146,"Ġrou":13147,"Ġcircular":13148,"Ġconsensus":13149,"Ġpepper":13150,"Ġbride":13151,"Ġschol":13152,"Ġefficacy":13153,"Ġdonations":13154,"arded":13155,"God":13156,"Ġassumptions":13157,"Ġstreamlined":13158,"Ġque":13159,"Ġcombinations":13160,"Ġbankruptcy":13161,"Ġresearching":13162,"Ġexperiments":13163,"ifiers":13164,"anchester":13165,"Ġcups":13166,"Ġrevealing":13167,"develop":13168,"dit":13169,"dis":13170,"ĠReturn":13171,"occ":13172,"ĠMust":13173,"Ġpassport":13174,"Ġhormones":13175,"Know":13176,"ĠVeter":13177,"Ġprogression":13178,"Ġgamers":13179,"ĠBuff":13180,"Ġfancy":13181,"ĠÂ§":13182,"dam":13183,"Ġslic":13184,"ĠSMS":13185,"Look":13186,"Ġfraction":13187,"Ġbitter":13188,"iop":13189,"Ġmagnific":13190,"Ġcollapse":13191,"Ġash":13192,"Ġcope":13193,"mother":13194,"course":13195,"Ġathletic":13196,"ĠRules":13197,"OK":13198,"Ġprotot":13199,"Ġassumed":13200,"Ġdefence":13201,"Ġfired":13202,"ĠMaryland":13203,"ĠConsumer":13204,"Ġtroubleshoot":13205,"Ġcracks":13206,"Ġdeterior":13207,"WH":13208,"Ġmethodology":13209,"consuming":13210,"ximity":13211,"Ġtermin":13212,"ĠNiger":13213,"Ġintensive":13214,"ĠBooks":13215,"orical":13216,"map":13217,"ĠMoh":13218,"ĠCreek":13219,"Ġliquidity":13220,"ĠAdjust":13221,"Ġovert":13222,"Ġcoupled":13223,"ĠJacob":13224,"Ġloaded":13225,"position":13226,"Ġmasks":13227,"Ġhomeless":13228,"ĠGenerally":13229,"Ġfract":13230,"ĠLooking":13231,"Ġimpactful":13232,"ĠRegularly":13233,"Ġpresentations":13234,"ĠPhysical":13235,"Ġspine":13236,"Ġsinger":13237,"Ġhanded":13238,"ĠPlayers":13239,"ĠHigher":13240,"Ġgray":13241,"ĠNothing":13242,"Ġepic":13243,"Ġunemployment":13244,"Ġpanic":13245,"Ġseparately":13246,"Ġallocation":13247,"Ġreplied":13248,"Ġpredictions":13249,"Ġprovin":13250,"ĠCL":13251,"Ġtissues":13252,"ĠClaim":13253,"Ġconsultants":13254,"Ġexamining":13255,"ĠDra":13256,"ĠCold":13257,"Ġcave":13258,"ĠRecovery":13259,"ifferent":13260,"Ref":13261,"ĠNep":13262,"Ġmaximizing":13263,"Ġartic":13264,"ockey":13265,"imum":13266,"Ġpiano":13267,"Ġmysterious":13268,"ĠLater":13269,"owner":13270,"Ġsoup":13271,"Ġindividually":13272,"Ġinfected":13273,"Ġshowcases":13274,"ĠPoly":13275,"Ġfrustrating":13276,"ĠEthereum":13277,"esity":13278,"ĠLady":13279,"ĠWinter":13280,"ĠAmend":13281,"Ġgluten":13282,"DC":13283,"ĠJam":13284,"ĠSamsung":13285,"anean":13286,"Ġacne":13287,"ĠNurs":13288,"Ġcultivate":13289,"ĠHun":13290,"Ġjournalist":13291,"clusions":13292,"Ġimaging":13293,"iotic":13294,"Ġalien":13295,"Ġdistress":13296,"Ġclassical":13297,"Ġexh":13298,"ĠSteel":13299,"ĠConditions":13300,"eared":13301,"Ġaffection":13302,"Ġpools":13303,"patient":13304,"days":13305,"itched":13306,"Ġflip":13307,"Ġavoided":13308,"ĠPil":13309,"aints":13310,"ĠBB":13311,"Ġenergetic":13312,"ĠJenn":13313,"hell":13314,"69":13315,"Ġsurgeon":13316,"comed":13317,"Ġacquiring":13318,"Ġ800":13319,"Ġwidth":13320,"lecting":13321,"ean":13322,"ĠIron":13323,"Ġcompetent":13324,"Ġbeginner":13325,"ignment":13326,"Yeah":13327,"your":13328,"olved":13329,".âĢĿ<|":13330,"Ġpartial":13331,"Ġoutlet":13332,"Ġmes":13333,"ĠTony":13334,"Ġmaker":13335,"Ġvillages":13336,"Ġphysicians":13337,"Ġdisruption":13338,"Ġindication":13339,"Ġcataly":13340,"Ġneighbour":13341,"ĠEnhancement":13342,"Ġpressures":13343,"Ġrh":13344,"Ġdrying":13345,"ipher":13346,"ĠPH":13347,"??":13348,"Ġsubsequently":13349,"Ġquit":13350,"Ġspecializes":13351,"Bo":13352,"iracy":13353,"TR":13354,"Ġcab":13355,"ĠAdvert":13356,"ĠKansas":13357,"Ġdelayed":13358,"ova":13359,"Ġbother":13360,"Ġranked":13361,"ĠUltimately":13362,"Ġregret":13363,"Ġcited":13364,"Ġdupl":13365,"Ġaccommodations":13366,"ĠROI":13367,"Ġsocieties":13368,"ĠAgricult":13369,"Chat":13370,"olar":13371,"ĠInj":13372,"Ġcrowded":13373,"ribution":13374,"Ġnarr":13375,"Ġactivists":13376,"Ġfines":13377,"aha":13378,"Ġbicy":13379,"Ġmodest":13380,"Ġexcel":13381,"hesis":13382,"oded":13383,"Ġalerts":13384,"Ġprecautions":13385,"Ġtouched":13386,"Ġbug":13387,"ĠThai":13388,"Ġswelling":13389,"ĠOnlyFans":13390,"mers":13391,"sequently":13392,"chron":13393,"Ġsends":13394,"Ġmodules":13395,"ĠPharm":13396,"Ġstruggled":13397,"ĠCertification":13398,"Ġtrap":13399,"ĠForum":13400,"Ġprioritizing":13401,"Ġrecycled":13402,"Ġmodeling":13403,"Ġlenses":13404,"Ġneighborhoods":13405,"oval":13406,"Ġaltogether":13407,"Ġupdating":13408,"ĠDelta":13409,"Ġprol":13410,"ĠDV":13411,"Ġclip":13412,"Ġboats":13413,"Ġhills":13414,"rons":13415,"Beyond":13416,"Ġlegendary":13417,"Ġimmigrants":13418,"ĠConduct":13419,"len":13420,"ĠBerlin":13421,"ĠJerusalem":13422,"elebr":13423,"Ġgreenhouse":13424,"Ġanonymous":13425,"ITY":13426,"Lastly":13427,"essed":13428,"Ġintimid":13429,"isons":13430,"Ġdevelops":13431,"open":13432,"Ġactress":13433,"Ġrefugees":13434,"Ġobservation":13435,"fin":13436,"Ġorchest":13437,"ĠSong":13438,"Ġinevitable":13439,"ĠRule":13440,"atal":13441,"Ġtriggers":13442,"Ġpromoted":13443,"Ġmanages":13444,"Ġshareholders":13445,"abul":13446,"Ġket":13447,"Ġglimpse":13448,"Ġdisabled":13449,"Ġpunch":13450,"Ġchallenged":13451,"Ġdisappear":13452,"Ġwound":13453,"Ġconstitutional":13454,"Ġtower":13455,"etooth":13456,"ĠLiber":13457,"Ġsubmitting":13458,"ĠProble":13459,"appro":13460,"Ġverified":13461,"Ġpairs":13462,"Ġbears":13463,"ĠEM":13464,"ims":13465,"ĠMort":13466,"Ġprobability":13467,"ĠSri":13468,"Ġsubscribe":13469,"Ġconverted":13470,"ĠKir":13471,"imen":13472,"Ġwarned":13473,"Ġworrying":13474,"houses":13475,"oenix":13476,"ĠStorage":13477,"Ġdealt":13478,"250":13479,"berries":13480,"Ġtermination":13481,"ĠKy":13482,"ĠCompliance":13483,"Ġmouse":13484,"Ġnationwide":13485,"bots":13486,"Ġplates":13487,"oz":13488,"naments":13489,"Ġadvers":13490,"astics":13491,"ĠDiam":13492,"arms":13493,"Ġattributed":13494,"ui":13495,"AF":13496,"Ġtoll":13497,"Ġnarratives":13498,"Ġventilation":13499,"Ġsam":13500,"Ġgenerator":13501,"ĠEmergency":13502,"omic":13503,"Ġwealthy":13504,"Ġgods":13505,"ĠJane":13506,"ĠRus":13507,"ĠPed":13508,"ĠGolf":13509,"Ġgovernor":13510,"idel":13511,"Ġmonu":13512,"Ġinvestigations":13513,"Ġrehabilitation":13514,"Ġshades":13515,"Ġrenovation":13516,"ridge":13517,"Ġshortage":13518,"Ġherbal":13519,"ĠApart":13520,"Ġtwelve":13521,"59":13522,"Ġauction":13523,"ollar":13524,"Ġsons":13525,"ĠRain":13526,"Ġ1996":13527,"Ġvel":13528,"Ġprestigious":13529,"ĠVA":13530,"ĠBaby":13531,"Ġordering":13532,"Ġfatty":13533,"Ġunderneath":13534,"arts":13535,"ista":13536,"burn":13537,"Ġdiagnostic":13538,"Ġups":13539,"Ġmissions":13540,"Ġench":13541,"Ġincentive":13542,"Ġdatabases":13543,"Ġsla":13544,"ĠKit":13545,"Ġbackdrop":13546,"Ġmim":13547,"Ġ47":13548,"ĠMichel":13549,"Ġeconomics":13550,"onia":13551,"Ġ44":13552,"ĠIncorpor":13553,"Ġwip":13554,"ĠWisconsin":13555,"Ġshore":13556,"Ġdocumentary":13557,"Ġdear":13558,"ĠGreece":13559,"Ġcalcium":13560,"Ġriders":13561,"useums":13562,"Ġspacious":13563,"ĠHeritage":13564,"Ġdispar":13565,"Ġexisted":13566,"Ġparticipant":13567,"Ġdrainage":13568,"ĠClinton":13569,"Ġbin":13570,"ĠBM":13571,"Ġprotests":13572,"Ġabdom":13573,"outheast":13574,"Ġallegations":13575,"Ġcontroversial":13576,"Ġclosest":13577,"Ġstating":13578,"ĠPartner":13579,"Ġcollectively":13580,"Real":13581,"ĠUpd":13582,"elong":13583,"Ġdeny":13584,"ĠRail":13585,"kyo":13586,"asury":13587,"Ġprolonged":13588,"riction":13589,"Ġposes":13590,"Ġtheatre":13591,"ader":13592,"89":13593,"Ġthrowing":13594,"Ġfame":13595,"Ġ1997":13596,"ĠIM":13597,"AND":13598,"Ġcontrad":13599,"Har":13600,"Ġador":13601,"tic":13602,"ĠLewis":13603,"Ġdisconnect":13604,"Ġinjection":13605,"lammatory":13606,"Ġinstrumental":13607,"stage":13608,"Ġcancellation":13609,"rology":13610,"ĠNev":13611,"Ġapproaching":13612,"incol":13613,"Ġrivers":13614,"Ġcooler":13615,"Ġopenly":13616,"ĠIndonesia":13617,"Emb":13618,"Ġsnack":13619,"Discover":13620,"Ġperfection":13621,"Ġboom":13622,"Ġvisuals":13623,"sea":13624,"Ġlobby":13625,"Ġeuro":13626,"Ġharassment":13627,"Ġdistant":13628,"Ġstimulate":13629,"ĠKa":13630,"Ġwondered":13631,"Ġtrailer":13632,"Ġthroat":13633,"ĠToy":13634,"Ret":13635,"Ġextending":13636,"ĠSustainable":13637,"Ġdecentralized":13638,"Ġinadequ":13639,"Ġcorros":13640,"ĠApply":13641,"Ġsubstantially":13642,"ĠVeh":13643,"idal":13644,"Ġcamps":13645,"ĠSwitzerland":13646,"ðĿ":13647,"ĠKnowledge":13648,"Ġ1995":13649,"ĠBurn":13650,"Ġrecreational":13651,"ologically":13652,"Ġscent":13653,"Ġgrades":13654,"Ġboosts":13655,"mouth":13656,"ĠNa":13657,"ĠFresh":13658,"Ġchemistry":13659,"intend":13660,"Ġexempl":13661,"Ġeternal":13662,"Ġtitled":13663,"Ġtranslate":13664,"Ġquantities":13665,"Ġnoticeable":13666,"Ġbreaches":13667,"Ġdrum":13668,"personal":13669,"Ġvinegar":13670,"Ġscam":13671,"Ġinformal":13672,"sub":13673,"Welcome":13674,"Ġparliament":13675,"Ġhiding":13676,"utory":13677,"Ġcaffe":13678,"ĠTechnologies":13679,"esy":13680,"Post":13681,"ĠNorm":13682,"arking":13683,"lah":13684,"Ġgrief":13685,"ĠBirth":13686,"Ġslower":13687,"Ġmarginal":13688,"Ġremod":13689,"ĠTrib":13690,"ĠIndustrial":13691,"card":13692,"ĠGDPR":13693,"ĠVision":13694,"ĠGlass":13695,"Ġenzy":13696,"ĠFle":13697,"lette":13698,"ĠMars":13699,"Ġsatellite":13700,"Ġtravell":13701,"Ġresemb":13702,"Ġgallery":13703,"ĠNetherlands":13704,"Ġreliance":13705,"Ġperforms":13706,"Ġtanks":13707,"ĠRadio":13708,"ĠCarib":13709,"Instead":13710,"Ġdivide":13711,"Ġsail":13712,"Ġcollaborations":13713,"ĠPotential":13714,"juven":13715,"Ġdeployed":13716,"ĠAvenue":13717,"ulative":13718,"Ġpurple":13719,"Ġlockdown":13720,"WA":13721,"Ġvoltage":13722,"Ġwings":13723,"xual":13724,"ĠSens":13725,"Finding":13726,"ĠTechnical":13727,"Ġunto":13728,"Ġlover":13729,"ĠComplete":13730,"Ġacres":13731,"ĠZoom":13732,"Ġinfluencer":13733,"reation":13734,"Ġextensions":13735,"HR":13736,"Ġrelie":13737,"levant":13738,"shaped":13739,"Ġdrone":13740,"icting":13741,"Ġcub":13742,"Ġsporting":13743,"Ġswitching":13744,"Ġsanct":13745,"Ġlandlord":13746,"ĠPrincip":13747,"Ġrelieve":13748,"Ġlacking":13749,"ĠTesting":13750,"ĠKnowing":13751,"Dav":13752,"Ġextraction":13753,"Therefore":13754,"Ġholders":13755,"Ġhind":13756,"Ġpond":13757,"Ġdistur":13758,"DI":13759,"ĠSEC":13760,"merse":13761,"Ġmalware":13762,"Ġgrains":13763,"ĠPL":13764,"Ġbay":13765,"Ġpreservation":13766,"irs":13767,"Ġcircles":13768,"ĠCultural":13769,"olitan":13770,"avering":13771,"hr":13772,"Ġruled":13773,"Ġblocking":13774,"Ġstepping":13775,"gate":13776,"ĠPos":13777,"Ġvalve":13778,"ĠNS":13779,"Ġrevenues":13780,"Ġnewer":13781,"Ġencounters":13782,"Ġassessed":13783,"Ġbesides":13784,"ĠLoan":13785,"Ġdisagree":13786,"Ġdeclined":13787,"Ġfires":13788,"ĠTell":13789,"Ġprosperity":13790,"ĠLGBTQ":13791,"onymous":13792,"Ġdrill":13793,"Ġecosystems":13794,"Ġglance":13795,"Ġdetermines":13796,"Ġcolonial":13797,"commun":13798,"ĠSnow":13799,"ĠScholars":13800,"ĠIssues":13801,"Ġreferral":13802,"eland":13803,"Ġthumb":13804,"Ġov":13805,"Ġviruses":13806,"ĠStephen":13807,"abama":13808,"ĠCould":13809,"amel":13810,"Ġ2030":13811,"liminary":13812,"ĠImportance":13813,"osures":13814,"ĠCollection":13815,"Ġconsequence":13816,"ĠSize":13817,"Ġoffset":13818,"Ġvibe":13819,"Ġpriest":13820,"Ġconviction":13821,"Ev":13822,"ĠRegional":13823,"Ġindigenous":13824,"Home":13825,"ĠTitle":13826,"acts":13827,"ennessee":13828,"ĠMaterials":13829,"ĠSac":13830,"apters":13831,"Ġconsiders":13832,"Cloud":13833,"Ġadvertisements":13834,"Ġeastern":13835,"agger":13836,"ĠConvention":13837,"inars":13838,"ĠPap":13839,"ĠCos":13840,"ĠHills":13841,"Ġinstructor":13842,"Ġlecture":13843,"ĠZh":13844,"Ġtestosterone":13845,"Ġattacked":13846,"ĠKind":13847,"Ġstatute":13848,"Unfortunately":13849,"Ġintriguing":13850,"green":13851,"arium":13852,"source":13853,"ĠSchools":13854,"Ġcasino":13855,"Ġstatistical":13856,"Ġexpressions":13857,"ouri":13858,"Ġ1950":13859,"ĠIslands":13860,"Ġtextures":13861,"ĠGreg":13862,"Ġdetox":13863,"ĠJay":13864,"ĠFat":13865,"Ġsuperb":13866,"Ġunfair":13867,"Ġheater":13868,"ĠWhit":13869,"Ġdocumented":13870,"oria":13871,"Ġdressed":13872,"count":13873,"Ġairline":13874,"Ġreminds":13875,"Ġluc":13876,"athon":13877,"Ġtemporarily":13878,"Ġpaired":13879,"Ġimmun":13880,"version":13881,"orie":13882,"Ġbreeding":13883,"ĠCool":13884,"andal":13885,"ĠEC":13886,"Ġdemographic":13887,"Several":13888,"Ġinstallations":13889,"Ds":13890,"Ġink":13891,"ĠObs":13892,"ĠManchester":13893,"ĠStra":13894,"Ġowns":13895,"Ġcomfortably":13896,"ĠNotice":13897,"TO":13898,"Ġgraduated":13899,"Ġwitnesses":13900,"mann":13901,"river":13902,"Ġrepayment":13903,"Ġpuzzle":13904,"ixel":13905,"Ġprofessionally":13906,"Ġvegetable":13907,"ĠUC":13908,"ĠPaper":13909,"ĠArabia":13910,"Ġunsure":13911,"FS":13912,"Ġenfor":13913,"Ġinh":13914,"Ġblessed":13915,"ĠEnterprise":13916,"Research":13917,"Ġworkload":13918,"Ġhistorically":13919,"vi":13920,"ĠMagic":13921,"?âĢĻ":13922,"Ġonboarding":13923,"ĠGas":13924,"Ġstub":13925,"ĠOkay":13926,"Ġwinners":13927,"Ġmentally":13928,"Inter":13929,"Ġsucc":13930,"ĠResults":13931,"opyright":13932,"Ġcritics":13933,"Ġunst":13934,"Ġinhabit":13935,"ryst":13936,"aux":13937,"Ġcheer":13938,"ĠCell":13939,"Ġreforms":13940,"Ġsisters":13941,"ablished":13942,"iliation":13943,"ĠYe":13944,"Ġexpressing":13945,"ATE":13946,"Ġfluctuations":13947,"Ġtraditionally":13948,"Ġagrees":13949,"ĠEditor":13950,"iterr":13951,"cult":13952,"beat":13953,"Ġnicely":13954,"Unlike":13955,"Ġcoinc":13956,"Ġcanvas":13957,"ĠZe":13958,"unny":13959,"Ġtaxi":13960,"angel":13961,"Ġwrest":13962,"ĠAdditional":13963,"post":13964,"Ġcabinets":13965,
[...]
