{"!":0,"\"":1,"#":2,"$":3,"%":4,"&":5,"'":6,"(":7,")":8,"*":9,"+":10,",":11,"-":12,".":13,"/":14,"0":15,"1":16,"2":17,"3":18,"4":19,"5":20,"6":21,"7":22,"8":23,"9":24,":":25,";":26,"<":27,"=":28,">":29,"?":30,"@":31,"A":32,"B":33,"C":34,"D":35,"E":36,"F":37,"G":38,"H":39,"I":40,"J":41,"K":42,"L":43,"M":44,"N":45,"O":46,"P":47,"Q":48,"R":49,"S":50,"T":51,"U":52,"V":53,"W":54,"X":55,"Y":56,"Z":57,"[":58,"\\":59,"]":60,"^":61,"_":62,"`":63,"a":64,"b":65,"c":66,"d":67,"e":68,"f":69,"g":70,"h":71,"i":72,"j":73,"k":74,"l":75,"m":76,"n":77,"o":78,"p":79,"q":80,"r":81,"s":82,"t":83,"u":84,"v":85,"w":86,"x":87,"y":88,"z":89,"{":90,"|":91,"}":92,"~":93,"¡":94,"¢":95,"£":96,"¤":97,"¥":98,"¦":99,"§":100,"¨":101,"©":102,"ª":103,"«":104,"¬":105,"®":106,"¯":107,"°":108,"±":109,"²":110,"³":111,"´":112,"µ":113,"¶":114,"·":115,"¸":116,"¹":117,"º":118,"»":119,"¼":120,"½":121,"¾":122,"¿":123,"À":124,"Á":125,"Â":126,"Ã":127,"Ä":128,"Å":129,"Æ":130,"Ç":131,"È":132,"É":133,"Ê":134,"Ë":135,"Ì":136,"Í":137,"Î":138,"Ï":139,"Ð":140,"Ñ":141,"Ò":142,"Ó":143,"Ô":144,"Õ":145,"Ö":146,"×":147,"Ø":148,"Ù":149,"Ú":150,"Û":151,"Ü":152,"Ý":153,"Þ":154,"ß":155,"à":156,"á":157,"â":158,"ã":159,"ä":160,"å":161,"æ":162,"ç":163,"è":164,"é":165,"ê":166,"ë":167,"ì":168,"í":169,"î":170,"ï":171,"ð":172,"ñ":173,"ò":174,"ó":175,"ô":176,"õ":177,"ö":178,"÷":179,"ø":180,"ù":181,"ú":182,"û":183,"ü":184,"ý":185,"þ":186,"ÿ":187,"Ā":188,"ā":189,"Ă":190,"ă":191,"Ą":192,"ą":193,"Ć":194,"ć":195,"Ĉ":196,"ĉ":197,"Ċ":198,"ċ":199,"Č":200,"č":201,"Ď":202,"ď":203,"Đ":204,"đ":205,"Ē":206,"ē":207,"Ĕ":208,"ĕ":209,"Ė":210,"ė":211,"Ę":212,"ę":213,"Ě":214,"ě":215,"Ĝ":216,"ĝ":217,"Ğ":218,"ğ":219,"Ġ":220,"ġ":221,"Ģ":222,"ģ":223,"Ĥ":224,"ĥ":225,"Ħ":226,"ħ":227,"Ĩ":228,"ĩ":229,"Ī":230,"ī":231,"Ĭ":232,"ĭ":233,"Į":234,"į":235,"İ":236,"ı":237,"Ĳ":238,"ĳ":239,"Ĵ":240,"ĵ":241,"Ķ":242,"ķ":243,"ĸ":244,"Ĺ":245,"ĺ":246,"Ļ":247,"ļ":248,"Ľ":249,"ľ":250,"Ŀ":251,"ŀ":252,"Ł":253,"ł":254,"Ń":255,"Ġt":256,"Ġa":257,"in":258,"he":259,"re":260,"čĊ":261,"on":262,"er":263,"at":264,"Ġthe":265,"Ġs":266,"or":267,"en":268,"Ġc":269,"es":270,"Ġw":271,"it":272,"Ġo":273,"nd":274,"is":275,"ing":276,"al":277,"Ġp":278,"ou":279,"Ġf":280,"an":281,"Ġb":282,"ed":283,"ar":284,"Ġin":285,"Ġm":286,"Ġto":287,"Ġof":288,"Ġand":289,"Ġd":290,"ion":291,"ic":292,"le":293,"om":294,"as":295,"el":296,"Ġh":297,"Ġth":298,"ent":299,"Ġre":300,"st":301,"ct":302,"et":303,"ro":304,"Ġn":305,"Ġl":306,"il":307,"Ġe":308,"im":309,"ut":310,"Ġy":311,"ve":312,"Ġg":313,"id":314,"am":315,"ur":316,"Ġis":317,"ce":318,"ot":319,"ĠT":320,"se":321,"ig":322,"Ġyou":323,"Ġfor":324,"ĠI":325,"ol":326,"ation":327,"ly":328,"Ġbe":329,"ra":330,"ch":331,"ow":332,"Ġthat":333,"Ġu":334,"ver":335,"ĠA":336,"Ġst":337,"Ġon":338,"if":339,"ĠS":340,"ad":341,"ay":342,"Ġ=":343,"ith":344,"ir":345,"ĠC":346,"ul":347,"Ġas":348,"Ġit":349,"od":350,"Ġwith":351,"ers":352,"Ġcon":353,"ess":354,"ate":355,"Ġ\"":356,"Ġpro":357,"Ġhe":358,"Ġal":359,"est":360,"ort":361,"ge":362,"Ġde":363,"Ġwh":364,"Ġan":365,"ist":366,"'s":367,"ment":368,"pe":369,"ab":370,"ke":371,"Ġex":372,"elf":373,"Ġcom":374,"ĠM":375,"Ġare":376,"Ġor":377,"ri":378,"rom":379,"ac":380,"qu":381,"Ġwe":382,"her":383,"ter":384,"us":385,"pp":386,"ity":387,"res":388,"ĠB":389,"um":390,"ill":391,"Ġv":392,"ĠThe":393,"ĠP":394,"op":395,"Ġha":396,"--":397,"ore":398,"oc":399,"un":400,"end":401,"Ġ(":402,"igh":403,"em":404,"ĠW":405,"th":406,"Ġsu":407,"ld":408,"ies":409,"ain":410,"ĠH":411,"os":412,"ant":413,"ust":414,"Ġ1":415,"Ġnot":416,"Ġne":417,"Ġcan":418,"ive":419,"nt":420,"iv":421,"imp":422,"Ġr":423,"Ġse":424,"Ġat":425,"ial":426,"and":427,"art":428,"ĠD":429,"ĠF":430,"pt":431,"Ġwas":432,"Ġyour":433,"ĠR":434,"ĠL":435,"ect":436,"ĠN":437,"Ġch":438,"ame":439,"ure":440,"iz":441,"Ġfrom":442,"Ġthis":443,"out":444,"Ġby":445,"ight":446,"pl":447,"Ġ2":448,"Ġhave":449,"Ġle":450,"Ġsh":451,"ĠE":452,"ions":453,"per":454,"ĠG":455,"all":456,"red":457,"og":458,"te":459,"ud":460,"age":461,"Ġself":462,"Ġ'":463,"Ġen":464,"ag":465,"ue":466,"our":467,"rou":468,"Ġwor":469,"Ġab":470,"Ġimp":471,"one":472,"ard":473,"ost":474,"ome":475,"ould":476,"cl":477,"ĠO":478,"Ġtheir":479,"Ġif":480,"orm":481,"ine":482,"ff":483,"Ġpl":484,"##":485,"ance":486,"ult":487,"ass":488,"gh":489,"ell":490,"act":491,"):":492,"==":493,"ip":494,"Ġall":495,"Ġk":496,"Ġj":497,"able":498,"ak":499,"Ġad":500,"ide":501,"ally":502,"ther":503,"Ġus":504,"Ġcomp":505,"Ġwhe":506,"ie":507,"00":508,"are":509,"Ġres":510,"ans":511,"ack":512,"ind":513,"ime":514,"Ġwill":515,"ile":516,"cc":517,"ations":518,"self":519,"Ġdo":520,"urn":521,"Ġgo":522,"ok":523,"Ġthey":524,"ich":525,"ast":526,"ign":527,"\"\"":528,"Ġhas":529,"ated":530,"xt":531,"ice":532,"Ġ#":533,"Ġ-":534,"Ġcl":535,"ap":536,"Ġint":537,"Ġtr":538,"ib":539,"form":540,"ence":541,"ous":542,"Ġcont":543,"Ġme":544,"ĠTh":545,"Ġout":546,"ong":547,"The":548,"ake":549,"----":550,"int":551,"ĠJ":552,"con":553,"ep":554,"ĠU":555,"Ġbut":556,"so":557,"du":558,"Ġmore":559,"ical":560,"Ġte":561,"Ġdef":562,"Ġman":563,"ory":564,"Ġwhich":565,"ata":566,"Ġun":567,"Ġso":568,"ĠIn":569,"ens":570,"ear":571,"very":572,"Ġar":573,"ary":574,"Ġret":575,"ction":576,"Ġhis":577,"ire":578,"'t":579,"ath":580,"Ġwork":581,"ach":582,"Ġalso":583,"ace":584,"Ġabout":585,"ry":586,"ob":587,"ase":588,"vel":589,"Ġwho":590,"Ġup":591,"ru":592,"Ġone":593,"Ġli":594,"ook":595,"ord":596,"()":597,"ition":598,"Ġother":599,"ub":600,"de":601,"Ġev":602,"ail":603,"fe":604,"ress":605,"ict":606,"ose":607,"ount":608,"now":609,"Ġdis":610,"Ġimport":611,"ors":612,"get":613,"av":614,"Ġqu":615,"erv":616,"Ġfe":617,"ite":618,"ely":619,"ark":620,"ia":621,"Ġour":622,"reat":623,"__":624,"Ġtra":625,"ert":626,"Ġtime":627,"ings":628,"',":629,"Ġpart":630,"Ġper":631,"ĠY":632,"ĠIt":633,"Ġthem":634,"Ġsp":635,"Ġapp":636,"ty":637,"nder":638,"Ġcomm":639,"ck":640,"ang":641,"au":642,"Ġsc":643,"ents":644,"ces":645,"ne":646,"Ġreturn":647,"Ġ20":648,"Ġpe":649,"ĠK":650,"ber":651,"vers":652,"Ġem":653,"ild":654,"),":655,"Ġoff":656,"Ġthere":657,"Ġget":658,"Ġbec":659,"Ġ|":660,"Ġro":661,"ual":662,"Ġmy":663,"Ġwhat":664,"ĠThis":665,"ject":666,"ren":667,"Ġpre":668,"Ġsome":669,"ree":670,"Ġlike":671,"Ġits":672,"ific":673,"Ġag":674,"ays":675,"Ġwhen":676,"Ġany":677,"ments":678,"Ġneed":679,"Ġacc":680,"ople":681,"Ġknow":682,"ize":683,"Ġover":684,"Ġinto":685,"Ġwere":686,"Ġnew":687,"ĠV":688,"Ġ\"\"\"":689,"ll":690,"Ġrec":691,"pec":692,"\",":693,"####":694,"lp":695,"ĠCh":696,"put":697,"cess":698,"Ġunder":699,"ĠSt":700,"Ġhow":701,"ound":702,"..":703,"ink":704,"Ġsa":705,"Ġind":706,"text":707,"Ġhad":708,"ove":709,"Ġbeen":710,"Ġass":711,"Ġstr":712,"Ġprov":713,"rough":714,"Ġmay":715,"Ġher":716,"of":717,"Ġpeople":718,"ities":719,"lic":720,"Ġhelp":721,"ates":722,"ise":723,"ish":724,"Ġ[":725,"Ġcons":726,"ov":727,"Ġyear":728,"ode":729,"Ġact":730,"ious":731,"Ġra":732,"Ġpr":733,"rent":734,"Ġdes":735,"low":736,"rit":737,"ough":738,"old":739,"Ġno":740,"name":741,"Ġwould":742,"ful":743,"ning":744,"eth":745,"Ġrel":746,"ick":747,"arg":748,"row":749,"Ġthese":750,"clud":751,"oy":752,"ock":753,"ility":754,"rib":755,"amp":756,"pect":757,"Ġjust":758,"Ġsy":759,"ian":760,"irst":761,"Ġthan":762,"Ġval":763,"Ġexper":764,"Ġ19":765,"Ġinv":766,"pport":767,"ient":768,"Ġcol":769,"Ġ3":770,"ph":771,"ause":772,"Ġatt":773,"we":774,".\"":775,"Ġbet":776,"odel":777,"ating":778,"Ġbu":779,"In":780,"com":781,"ater":782,"ange":783,"Ġadd":784,"ices":785,"lo":786,"ex":787,"erson":788,"ax":789,"Ġuse":790,"Ġinter":791,"ft":792,"Ġdif":793,").":794,"iness":795,"round":796,"Ġke":797,"hed":798,"ĠHe":799,"Ġthrough":800,"ener":801,"ience":802,"oint":803,"anc":804,"Ġmake":805,"ool":806,"Ġonly":807,"cept":808,"from":809,"oss":810,"Ġ0":811,"lect":812,"hip":813,"par":814,"Ġinclud":815,"fter":816,"Ġserv":817,"Ġam":818,"Ġdata":819,"pon":820,"Ġreg":821,"wn":822,"gr":823,"cre":824,"own":825,"ys":826,"ract":827,"Ġprodu":828,"Ġmost":829,"ork":830,"))":831,"--------":832,"ife":833,"ional":834,"Ġsuch":835,"Ġrep":836,"ms":837,"Ġeff":838,"ures":839,"val":840,"up":841,"enc":842,"olog":843,"usiness":844,"Ġfirst":845,"Ġwell":846,"Ġrequ":847,"Ġel":848,"ics":849,"ense":850,"Ġob":851,"les":852,"|>":853,"<|":854,"Ġset":855,"aw":856,"hen":857,"uring":858,"iew":859,"ting":860,"mer":861,"Ġwhere":862,"Ġrem":863,"Ġnum":864,"ular":865,"('":866,"ues":867,"its":868,"iss":869,"=\"":870,"Ġspec":871,"'re":872,"Ġim":873,"pro":874,"aking":875,"ĠWe":876,"Ġevery":877,"Ġperson":878,"ible":879,"wo":880,"ward":881,"ateg":882,"Ġco":883,"Ġinst":884,"Ġshould":885,"ident":886,"oth":887,"atch":888,"Ġsee":889,"Ġ+":890,"velop":891,"Ġtrans":892,"====":893,"ef":894,"ied":895,"ative":896,"._":897,"ational":898,"stem":899,"Ġmany":900,"alth":901,"Ġbusiness":902,"Ġsub":903,"Ġshe":904,"Ġty":905,"ten":906,"Ġ:":907,"Ġmark":908,"ased":909,"Ġwant":910,"any":911,"Ġcould":912,"str":913,"Ġway":914,"ec":915,"(\"":916,"ĠAnd":917,"Ġfin":918,"path":919,"ss":920,"Ġlook":921,"sc":922,"ade":923,"Ġent":924,"als":925,"Ġback":926,"ily":927,"Ġbl":928,"ower":929,"Ġdiffe":930,"Ġstud":931,"Ġright":932,"Ġph":933,"':":934,"ĠUn":935,"Ġins":936,"ential":937,"Ġpol":938,"ood":939,"Ġeven":940,"Ġ{":941,"ars":942,"']":943,"ĠYou":944,"Ġbecause":945,"Ġac":946,"gan":947,"ribut":948,"fore":949,"def":950,"endof":951,"arch":952,"endoftext":953,"Ġown":954,"Ġdec":955,"Ġtest":956,"ts":957,"Ġdevelop":958,"Ġ201":959,"ks":960,"Ġexp":961,"hat":962,"ustom":963,"ix":964,"Ġlead":965,"')":966,"Ġworld":967,"Ġstart":968,"Ġthen":969,"Ġcre":970,"Ġhigh":971,"Ġsign":972,"ps":973,"chn":974,"to":975,"Ġyears":976,"iel":977,"ror":978,"ern":979,"Ġtwo":980,"ĠNone":981,"**":982,"Ġ4":983,"stand":984,"uch":985,"ams":986,"ness":987,"Ġlife":988,"Ġafter":989,"ized":990,"Ġprocess":991,"erm":992,"Ġthose":993,"Ġcommun":994,"sh":995,"der":996,"type":997,"Ġvery":998,"Ġthink":999,"Ġinte":1000,"Ġresult":1001,"\")":1002,"read":1003,"ng":1004,"Ġaut":1005,"eng":1006,"Ġhim":1007,"led":1008,"fig":1009,"20":1010,"Ġlong":1011,"Ġplay":1012,"Ġsupport":1013,"Ġbeing":1014,"Ġend":1015,"Ġmarket":1016,"hes":1017,"ons":1018,"Ġgu":1019,"Ġ==":1020,"other":1021,"ited":1022,"Ġsystem":1023,"Ġvar":1024,"Ġinform":1025,"ble":1026,"Ġopt":1027,"Ġpres":1028,"import":1029,"app":1030,"ĠRe":1031,"['":1032,"Ġ5":1033,"ality":1034,"Ġmed":1035,"ield":1036,"Ġart":1037,"ives":1038,"olut":1039,"Ġsm":1040,"Ġlist":1041,"Ġprovid":1042,"ages":1043,"Ġgood":1044,"work":1045,"Ġfind":1046,"irect":1047,"ving":1048,"Ġsaid":1049,"line":1050,"Ġdoes":1051,"ever":1052,"ĠIf":1053,"Ġadv":1054,"ew":1055,"Ġused":1056,"Ġop":1057,"ature":1058,"ont":1059,"ines":1060,"arn":1061,"ale":1062,"att":1063,"Ġloc":1064,"Ġext":1065,"io":1066,"Ġdet":1067,"fl":1068,"rest":1069,"pr":1070,"Ġcall":1071,"tt":1072,"],":1073,"iet":1074,"Ġcustom":1075,"Ġdifferent":1076,"Ġprof":1077,"tern":1078,"Ġgener":1079,"rue":1080,"########":1081,"ually":1082,"Ġdon":1083,"ween":1084,"Ġtake":1085,"Ġtechn":1086,"Ġdid":1087,"Ġname":1088,"itt":1089,"Ġdisc":1090,"ven":1091,"Ġcur":1092,"Ġnow":1093,"Ġbel":1094,"Ġdist":1095,"Ġgreat":1096,"set":1097,"ision":1098,"Ġche":1099,"Ġcare":1100,"Ġwhile":1101,"ollow":1102,"py":1103,"ĠCom":1104,"ash":1105,"Ġsoc":1106,"air":1107,"und":1108,"nect":1109,"Ġrespon":1110,"ape":1111,"Ġagain":1112,"Ġfam":1113,"data":1114,"ced":1115,"Ġmodel":1116,"Ġbetween":1117,"Ġed":1118,"Ġhealth":1119,"Ġmuch":1120,"Ġfil":1121,"ner":1122,"rand":1123,"ank":1124,"Ġpub":1125,"ric":1126,"Ġeach":1127,"Ġhand":1128,"ĠThey":1129,"ample":1130,"class":1131,"Ġread":1132,"Ġproduct":1133,"Ġhist":1134,"Ġbest":1135,"Ġsur":1136,"Ġbefore":1137,"Ġmem":1138,"ital":1139,"ee":1140,"ining":1141,"Ġ_":1142,"âĢ":1143,"ins":1144,"Ġdown":1145,"ĠPro":1146,"ource":1147,"Ġshow":1148,"ruct":1149,"Ġcomple":1150,"ather":1151,"Ġcount":1152,"Ġsk":1153,"day":1154,"Ġboth":1155,"Ġmade":1156,"ivid":1157,",\"":1158,"Ġform":1159,"Ġmon":1160,"Ġunderstand":1161,"Ġimportant":1162,"ism":1163,"ier":1164,"Ġelse":1165,"Ġmain":1166,"Ġser":1167,"Ġbr":1168,"ray":1169,"view":1170,"ired":1171,"ists":1172,"ames":1173,"ĠAs":1174,"Ġfact":1175,"Ġfun":1176,"Ġappro":1177,"Ġref":1178,"Ġstate":1179,"Ġdep":1180,"Ġbuild":1181,"ccess":1182,"ware":1183,"imes":1184,"Ġfeel":1185,"Ġeffect":1186,"ave":1187,"Ġallow":1188,"Ġav":1189,"ug":1190,"Ġcontin":1191,"Ġdesign":1192,"ĠBut":1193,"ann":1194,"roup":1195,"args":1196,"Ġfollow":1197,"cent":1198,"Th":1199,"ural":1200,"ology":1201,"Ġinformation":1202,"alk":1203,"Ġpass":1204,"Ġclass":1205,"Ġmin":1206,"Ġcle":1207,"ody":1208,"Ġap":1209,"Ġvalue":1210,"ator":1211,"dition":1212,"ploy":1213,"Ġexperience":1214,"uc":1215,"Ġreal":1216,"Ġexpl":1217,"ĠAr":1218,"Ġcour":1219,"Ġmust":1220,"Ġsom":1221,"ull":1222,"ved":1223,"ves":1224,"Ġfl":1225,"iqu":1226,"ivers":1227,"ĠFor":1228,"ox":1229,"ider":1230,"akes":1231,"\":":1232,"Ġsame":1233,"ined":1234,"Ġpur":1235,"Ġpartic":1236,"Ġfound":1237,"ĠHow":1238,"add":1239,"Ġ*":1240,"ger":1241,"Ġpoint":1242,"cur":1243,"\"\"\"":1244,"ĠAn":1245,"ify":1246,"less":1247,"Ġinvest":1248,"ethod":1249,"Ġpos":1250,"ason":1251,"ets":1252,"over":1253,"Ġx":1254,"ically":1255,"file":1256,"ON":1257,"oun":1258,"vent":1259,"Ġchild":1260,"Ġgrow":1261,"alse":1262,"Ġorgan":1263,"ript":1264,"ah":1265,"ds":1266,"Ġeng":1267,"ER":1268,"IN":1269,"Ġkey":1270,"az":1271,"Ġdel":1272,"Ġ||":1273,"Ġpri":1274,"chool":1275,"erg":1276,"Ġhere":1277,"arm":1278,"ask":1279,"meric":1280,"ince":1281,"000":1282,"ability":1283,"Ġiss":1284,"Ġens":1285,"els":1286,"Ġcar":1287,"bs":1288,"Ġoften":1289,"ization":1290,"port":1291,"ividual":1292,"Ġleg":1293,"Ġgl":1294,"ault":1295,"the":1296,"yle":1297,"Ġincre":1298,"arly":1299,"|-":1300,"Ġcor":1301,"Ġpower":1302,"19":1303,"uss":1304,"Ġopen":1305,"way":1306,"ĠAl":1307,"test":1308,"Ġcent":1309,"raph":1310,"Ġday":1311,"Ġthings":1312,"Ġlaw":1313,"Ġduring":1314,"Ġhum":1315,"Ġrun":1316,"Ġgoing":1317,"Ġaround":1318,"iron":1319,"Ġreally":1320,"Ġposs":1321,"Ġvis":1322,"Ġ6":1323,"Ġhome":1324,"ross":1325,"init":1326,"'ve":1327,"ĠčĊ":1328,"Ġpar":1329,"Ġthough":1330,"ared":1331,"Ġsay":1332,"tain":1333,"Ġwrit":1334,"Ġlog":1335,"Ġindividual":1336,"Ġnumber":1337,"Ġdirect":1338,"Ġprogr":1339,"Ġwithout":1340,"...":1341,"Ġteam":1342,"Ġinterest":1343,"ants":1344,"Ġtry":1345,"Ġmight":1346,"ĠSo":1347,"Ġest":1348,"ways":1349,"Ġtype":1350,"size":1351,"Ġchar":1352,"Ġstill":1353,"Ġpay":1354,"ond":1355,"Ġincluding":1356,"Ġcompany":1357,"Ġarg":1358,"Ġusing":1359,"ertain":1360,"Ġmod":1361,"])":1362,"lement":1363,"Ġplace":1364,"Ġsuccess":1365,"Ġquest":1366,"Ġnp":1367,"back":1368,"land":1369,"Ġlo":1370,"Ġ202":1371,"='":1372,"icense":1373,"Ġben":1374,"ering":1375,"aut":1376,"Ġprovide":1377,"ency":1378,"ouse":1379,"pos":1380,"Ġproject":1381,"min":1382,"ĠAmeric":1383,"Ġeas":1384,"Ġcho":1385,"be":1386,"Ġdem":1387,"Ġfr":1388,"ĠWh":1389,"ĠAd":1390,"Ġgover":1391,"Ġpat":1392,"time":1393,"ĠDe":1394,"Ġprint":1395,"apt":1396,"bers":1397,"son":1398,"Ġoper":1399,"Ġlast":1400,"Ġperform":1401,"viron":1402,"ĠSh":1403,"Ġstand":1404,"orth":1405,"Ġ__":1406,"Ġcreat":1407,"Ġprom":1408,"Ġpract":1409,"uture":1410,"Ġfile":1411,"gg":1412,"ES":1413,"Ġkeep":1414,"Ġmet":1415,"Ġ200":1416,"Ġpot":1417,"man":1418,"Ġaff":1419,"Ġlevel":1420,"Ġide":1421,"co":1422,"Ġhapp":1423,"ething":1424,"Ġplan":1425,"Ġbre":1426,"ases":1427,"Ġwithin":1428,"arget":1429,"Ġconnect":1430,"ished":1431,"Ġtop":1432,"Ġinc":1433,"Ġmaking":1434,"ocus":1435,"ention":1436,"itive":1437,"Ġpersonal":1438,"Ġservices":1439,"pre":1440,"Ġsocial":1441,"ends":1442,"Ġcost":1443,"Ġcreate":1444,"Ġproper":1445,"ument":1446,"Ġlot":1447,"ĠThere":1448,"fo":1449,"inal":1450,"ĠEx":1451,"Ġpublic":1452,"//":1453,"St":1454,"ively":1455,"sp":1456,"col":1457,"Ġ%":1458,"Ġhistory":1459,"iving":1460,"Ġ$":1461,"Ġconst":1462,"Ġprofess":1463,"for":1464,"----------------":1465,"aj":1466,"li":1467,"Ġspecific":1468,"Ġindust":1469,"Ġi":1470,"rain":1471,"yn":1472,"rror":1473,"ead":1474,"Ġbook":1475,"ights":1476,"ately":1477,"Ġbetter":1478,"Ġsomething":1479,"Ġprot":1480,"ĠNew":1481,"list":1482,"Ġ10":1483,"Ġimpro":1484,"Ġcult":1485,"agement":1486,"10":1487,"version":1488,"Ġpop":1489,"Ġrese":1490,"Ġproble":1491,"Ġsit":1492,"iven":1493,"Ġbelie":1494,"ĠSe":1495,"'ll":1496,"ling":1497,"Ġsimp":1498,"Ġreport":1499,"========":1500,"Ġchall":1501,"log":1502,"Ġsignific":1503,"Ġcome":1504,"itions":1505,"ified":1506,"lab":1507,"ategory":1508,"Ġservice":1509,"Ġcap":1510,"ĠCon":1511,"rence":1512,"It":1513,"Ġ)":1514,"Error":1515,"dict":1516,"ote":1517,"ĠInd":1518,"ills":1519,"Ġbenef":1520,"hor":1521,"AT":1522,"Ġemploy":1523,"Ġbeh":1524,"Ġaccess":1525,"âĢĵ":1526,"thing":1527,"param":1528,"Ġalways":1529,"ences":1530,"ances":1531,"load":1532,"Ġhead":1533,"Ġfew":1534,"ĠGod":1535,"arning":1536,"iety":1537,"AR":1538,"Ġfamily":1539,"Ġris":1540,"opy":1541,"Ġrelations":1542,"Ġspe":1543,"iver":1544,"'m":1545,"ĠQ":1546,"Ġ7":1547,"ially":1548,"ĠThese":1549,"Ġgovern":1550,"ients":1551,"Ġfocus":1552,"ems":1553,"arent":1554,"cond":1555,"conom":1556,"Ġmean":1557,"Ġtrust":1558,"Ġequ":1559,"Ġsmall":1560,"Ġcurrent":1561,"Ġanother":1562,"ĠIs":1563,"Ġstrateg":1564,"Ġcontro":1565,"Ġconf":1566,"Ġthree":1567,"olution":1568,"Ġtyp":1569,"Ġpotential":1570,"Ġcase":1571,"Ġchang":1572,"etwork":1573,"This":1574,"ique":1575,"ĠAI":1576,"model":1577,"Ġmat":1578,"Ġneeds":1579,"key":1580,"por":1581,"Ġtoo":1582,"Ġrange":1583,"ery":1584,"ope":1585,"IT":1586,"Ġ8":1587,"Ġagainst":1588,"rem":1589,"Ġappe":1590,"Ġexample":1591,"Ġident":1592,"Ġ`":1593,"util":1594,"Ġbo":1595,"ule":1596,"Ġrece":1597,"num":1598,"Ġorder":1599,"Ġfinanc":1600,"ior":1601,"[\"":1602,"\".":1603,"itut":1604,"atform":1605,"Ġexpect":1606,"not":1607,"Ġess":1608,"by":1609,"Ġaddition":1610,"ral":1611,"med":1612,"iversity":1613,"Ġgra":1614,"ples":1615,"ries":1616,"Ġwom":1617,"Ġcr":1618,"ains":1619,"Ġable":1620,"ney":1621,"Ġcheck":1622,"oney":1623,"ury":1624,"Ġconsider":1625,"Ġchange":1626,"Ġactiv":1627,"Ġschool":1628,"date":1629,"dir":1630,"vironment":1631,"50":1632,"Ġbecome":1633,"Ġless":1634,"rist":1635,"Ġdri":1636,"orn":1637,"Ġapplic":1638,"Ġ@":1639,"Ġfac":1640,"mb":1641,"Ġmus":1642,"Ġter":1643,"Ġask":1644,"ĠCl":1645,"We":1646,"rans":1647,"Ġcommunity":1648,"Ġinvol":1649,"Ġhuman":1650,"Ġaccount":1651,"ittle":1652,"Ġlim":1653,"Ġsignificant":1654,"Ġrele":1655,"atic":1656,"None":1657,"lish":1658,"ently":1659,"umm":1660,"ination":1661,"pportun":1662,"Ġfree":1663,"Ġobject":1664,"atures":1665,"EN":1666,"acy":1667,"Ġnext":1668,"ik":1669,"ream":1670,"ĉĉ":1671,"ĠOn":1672,"Ġrelationship":1673,"requ":1674,"Ġput":1675,"ailable":1676,"Ġfuture":1677,"Ġenc":1678,"Ġpost":1679,"Ġtool":1680,"ted":1681,"ats":1682,"Ġlearn":1683,"Ġkind":1684,"ories":1685,"Ġpath":1686,"config":1687,"angu":1688,"Ġ.":1689,"Ġexcept":1690,"Ġintern":1691,"ission":1692,"Ġ&":1693,"ending":1694,"Ġcontent":1695,"Ġassert":1696,"ources":1697,"Ġbro":1698,"Ġmethod":1699,"Ġoffer":1700,"Ġbig":1701,"here":1702,"Ġimpact":1703,"ser":1704,"Ġdev":1705,"Ġanal":1706,"Ġer":1707,"Ġes":1708,"lection":1709,"://":1710,"Ġline":1711,"Ġeduc":1712,"ards":1713,"ered":1714,"Ġprogram":1715,"Ġrecord":1716,"Ġturn":1717,"cial":1718,"ek":1719,"Ġmonth":1720,"Ġopportun":1721,"Ġonline":1722,"True":1723,"Ġprofessional":1724,"Ġsupp":1725,"Ġprotect":1726,"AS":1727,"ĠShe":1728,"Ġlove":1729,"che":1730,"Ġlocal":1731,"omm":1732,"ton":1733,"Ġdevelopment":1734,"Ġjob":1735,"sel":1736,"Ġothers":1737,"Ġmind":1738,"Ġlet":1739,"action":1740,"Ġ9":1741,"Ġview":1742,"Ġworking":1743,"Ġland":1744,"ration":1745,"Category":1746,"Ġos":1747,"ĠZ":1748,"Ġparticular":1749,"ĠThat":1750,"Ġnever":1751,"oci":1752,"Ġsince":1753,"ĠLicense":1754,"Ġgr":1755,"Ġstep":1756,"Ġlab":1757,"ĠHowever":1758,"Ġ18":1759,"aster":1760,"Ġmult":1761,"ised":1762,"ensor":1763,"ication":1764,"Ġsure":1765,"oin":1766,"OR":1767,"Ġtri":1768,"ččĊ":1769,"Ġold":1770,"Ġstudents":1771,"Ġmove":1772,"oh":1773,"ibility":1774,"Ġresearch":1775,"Ġwhy":1776,"cy":1777,"Ġvarious":1778,"Ġinclude":1779,"ĠLe":1780,"arge":1781,"anies":1782,"Ġinfl":1783,"Ġhard":1784,"Ġrest":1785,"ember":1786,"Ġinit":1787,"gin":1788,"Ġfinancial":1789,"Ġstyle":1790,"aim":1791,"Ġbased":1792,"Ġlittle":1793,"ogn":1794,"ids":1795,"\"]":1796,"ĠWhen":1797,"Ġredu":1798,"Ġrole":1799,"Ġmeans":1800,"Ġexc":1801,"wards":1802,"oot":1803,"Ġfri":1804,"ĠAll":1805,"sw":1806,"Ġwater":1807,"ĠWhat":1808,"Ġplatform":1809,"resent":1810,"Ġeconom":1811,"Ġcertain":1812,"ĠWith":1813,"Ġpresent":1814,"ived":1815,"use":1816,"icy":1817,"Ġgive":1818,"Ġcred":1819,"Ġmeet":1820,"urther":1821,"Ġindustry":1822,"AN":1823,"Ġgroup":1824,"idd":1825,"__(":1826,"rop":1827,"Ġmov":1828,"Re":1829,"icle":1830,"Ġfield":1831,"As":1832,"Ġenvironment":1833,"illion":1834,"Ġgame":1835,"Ġavailable":1836,"Ġdesc":1837,"Ġsoft":1838,"ype":1839,"Ġcharact":1840,"Ġfund":1841,"Ġmoney":1842,"ging":1843,"Ġsever":1844,"mp":1845,"Ġenh":1846,"ĠPl":1847,"\"'":1848,"Ġchalleng":1849,"Ġrequire":1850,"fr":1851,"Ġbrand":1852,"essage":1853,"value":1854,"Ġbody":1855,"Ġwebs":1856,"ĠBy":1857,"raw":1858,"Ġensure":1859,"fil":1860,"ĠSc":1861,"place":1862,"Ġknown":1863,"br":1864,"12":1865,"curity":1866,"Ġspecial":1867,"atus":1868,"ably":1869,"Ġexperi":1870,"ajor":1871,"uro":1872,"ilities":1873,"Ġevent":1874,"ret":1875,"ĠBe":1876,"Ġsing":1877,"Ġwon":1878,"Ġfull":1879,"iting":1880,"Ġfunction":1881,"ple":1882,"format":1883,"If":1884,"ulation":1885,"Ġtalk":1886,"Ġpolit":1887,"sy":1888,"ĠComm":1889,"Ġtem":1890,"fer":1891,"orts":1892,"################":1893,"Ġconc":1894,"Ġchildren":1895,"url":1896,"ecut":1897,"Ġpossible":1898,"ither":1899,"obal":1900,"Ġtarget":1901,"What":1902,"Ġcrit":1903,"Ġocc":1904,"ron":1905,"opt":1906,"ental":1907,"ding":1908,"Ġproducts":1909,"Ġstrong":1910,"Ġcompanies":1911,"rite":1912,"Ġtoday":1913,"ians":1914,"ĠRes":1915,"anguage":1916,"inst":1917,"vious":1918,"fect":1919,"ina":1920,"Ġorig":1921,"aterial":1922,"ended":1923,"iter":1924,"Ġseveral":1925,"new":1926,"ership":1927,"right":1928,"ium":1929,"ĠCol":1930,"ĠTo":1931,"Ġnon":1932,"Ġlik":1933,"reg":1934,"Ġcommon":1935,"ground":1936,"Ġtimes":1937,"aging":1938,"Ġcourse":1939,"Ġuser":1940,"idence":1941,"Ġaud":1942,"ales":1943,"ĠChrist":1944,"Ġtechnology":1945,"irc":1946,"Ġsl":1947,"Ġraise":1948,"Ġrespons":1949,"ored":1950,"Ġz":1951,"ready":1952,"Con":1953,"Ġgovernment":1954,"ĠĠčĊ":1955,"Ġtreat":1956,"bl":1957,"gether":1958,"Ġtogether":1959,"Ġgot":1960,"Ġsecond":1961,"iod":1962,"Ġstory":1963,"Ġ/":1964,"me":1965,"Ġthing":1966,"Ġcompet":1967,"Ġhaving":1968,"Ġcontrol":1969,"izing":1970,"Ġaddress":1971,"ĠTrue":1972,"Ġdig":1973,"Ġissues":1974,"chie":1975,"Ġsuper":1976,"ledge":1977,"ache":1978,"let":1979,"inc":1980,"Ġjour":1981,"Ġdoc":1982,"Ġcalled":1983,"ush":1984,"Ġbas":1985,"head":1986,"oid":1987,"Ġlearning":1988,"Ġwhether":1989,"ww":1990,"Ġgiven":1991,"Ġlooking":1992,"Ġinput":1993,"Ġrequest":1994,"Ġ>":1995,"ĠTe":1996,"point":1997,"append":1998,"Ġarea":1999,"atas":2000,"side":2001,"ails":2002,"Ġalong":2003,"Ġmembers":2004,"ising":2005,"orch":2006,"Ġunt":2007,"Ġacross":2008,"code":2009,"Ġquality":2010,"Ġpast":2011,"word":2012,"vert":2013,"Ġsol":2014,"aring":2015,"outh":2016,"Ġfollowing":2017,"Ġcountry":2018,"uck":2019,"ma":2020,"asing":2021,"Ġshort":2022,"Ġtraining":2023,"odes":2024,"].":2025,"Ġsim":2026,"aps":2027,"arr":2028,"Ġessential":2029,"Ġoutput":2030,"Ġcompl":2031,"ĠSp":2032,"Ġmakes":2033,"ĠAmerican":2034,"Ġunique":2035,"Ġbuy":2036,"Ġfore":2037,"Ġcustomers":2038,"ĠOr":2039,"Ġpriv":2040,"Ġapproach":2041,"duct":2042,"Ġreview":2043,"Ġcomes":2044,"Ġmedia":2045,"Ġresults":2046,"Ġalready":2047,"Ġactually":2048,"Ġrequired":2049,"Ġmajor":2050,"Ġaway":2051,"ĠĠĠčĊ":2052,"Ġphys":2053,"ĠUS":2054,"Ġdays":2055,"Ġhig":2056,"Ex":2057,"Ġcustomer":2058,"iate":2059,"Ġexist":2060,"Ġimprove":2061,"oring":2062,"Ġmaterial":2063,"ording":2064,"Ġimage":2065,"Ġelect":2066,"Ġtre":2067,"selves":2068,"Ġpain":2069,"ured":2070,"cing":2071,"Ġ<":2072,"Ġmom":2073,"Ġnecess":2074,"Ġtext":2075,"Ġdiff":2076,"uff":2077,"Ġauthor":2078,"ĠEng":2079,"Ġquick":2080,"reen":2081,"IC":2082,"go":2083,"ĠX":2084,"Ġleft":2085,"Ġdoing":2086,"ump":2087,"loat":2088,"thon":2089,"ours":2090,"ises":2091,"Ġearly":2092,"ĠĠĠĠčĊ":2093,"Ġfood":2094,"ID":2095,"bd":2096,"Ġve":2097,"ength":2098,"eter":2099,"uation":2100,"ird":2101,"verage":2102,"ires":2103,"ĠBl":2104,"ST":2105,"How":2106,"Ġlarge":2107,"Ġwomen":2108,"info":2109,"Ġachie":2110,"Ġinflu":2111,"An":2112,"Ġvide":2113,"aus":2114,"Ġamong":2115,"ĠFr":2116,"gress":2117,"fort":2118,"\"|":2119,"Ġnetwork":2120,"Ġcontribut":2121,"wargs":2122,"Ġunderstanding":2123,"icult":2124,"ots":2125,"osed":2126,"Ġindividuals":2127,"lished":2128,"aces":2129,"Ġmax":2130,"Ġaction":2131,"ctor":2132,"Ġtell":2133,"Ġdue":2134,"ification":2135,"ĠUnited":2136,"ipp":2137,"Ġhold":2138,"===":2139,"Ġdone":2140,"Ġestab":2141,"rec":2142,"Ġ199":2143,"Wh":2144,"ĠAt":2145,"ides":2146,"():":2147,"Ġdiscuss":2148,"Ġreason":2149,"hold":2150,"Ġdistribut":2151,"Ġpred":2152,"ergy":2153,"Ġexpress":2154,"Ġsoftware":2155,"Ġsecurity":2156,"clus":2157,"ĠPh":2158,"Ġquestion":2159,"Ġgrowth":2160,"ograph":2161,"pecially":2162,"shape":2163,"Ġrisk":2164,"Ġmanagement":2165,"Ġmusic":2166,"ayer":2167,"Ġfour":2168,"Ġresponse":2169,"ler":2170,"Ġnat":2171,"Ġlater":2172,"Ġfar":2173,"Ġlen":2174,"ilit":2175,"SE":2176,"cont":2177,"Ġspace":2178,"ĠTr":2179,"ference":2180,"nov":2181,"Ġrepresent":2182,"ĠFalse":2183,"ift":2184,"Ġrecogn":2185,"Ġlight":2186,"Ġtax":2187,"eters":2188,"ister":2189,"state":2190,"Ġdr":2191,"aff":2192,"ext":2193,"Ġann":2194,"imate":2195,"ches":2196,"Ġ12":2197,"uild":2198,"Ġperiod":2199,"Ġwebsite":2200,"ari":2201,"input":2202,"augh":2203,"ued":2204,"Ġconfig":2205,"ane":2206,"max":2207,"Ġ->":2208,"Ġclaim":2209,"ĠUniversity":2210,"Ġcomb":2211,"Ġdefault":2212,"ators":2213,"11":2214,"Ġport":2215,"istic":2216,"Ġcity":2217,"Ch":2218,"You":2219,"cle":2220,"Ġloss":2221,"ription":2222,"itle":2223,"Ġoptions":2224,"gs":2225,"Ġsense":2226,"Ġsays":2227,"ĠHis":2228,"ffic":2229,"joy":2230,"Ġgen":2231,"ike":2232,"Ġemb":2233,"Ġintegr":2234,"ĠCan":2235,"Pro":2236,"Ġoffers":2237,"Ġways":2238,"rect":2239,"Ġshare":2240,"Ġmaintain":2241,"Ġproblem":2242,"AL":2243,"Ġuntil":2244,"ott":2245,"len":2246,"Ġfeatures":2247,"oura":2248,"tra":2249,"Ġside":2250,"Ġpa":2251,"Ġcru":2252,"ained":2253,"irit":2254,"Ġbegin":2255,"ole":2256,"Ġhappen":2257,"Ġbuilding":2258,"ged":2259,"Ġdeal":2260,"Ġ}":2261,"Ġever":2262,"RE":2263,"Ġcamp":2264,"ohn":2265,"eturn":2266,"Ġclear":2267,"When":2268,"most":2269,"Ġpy":2270,"ules":2271,"Ġvalues":2272,"fun":2273,"Ġmen":2274,"Ġsystems":2275,"Ġknowledge":2276,"Ġlanguage":2277,"Ġmarketing":2278,"||":2279,"Ġlink":2280,"assert":2281,"Ġconsum":2282,"Ġoffic":2283,"run":2284,"Ġassoci":2285,"Ġemot":2286,"Ġstruct":2287,"serv":2288,"Ġcontinue":2289,"Ġenergy":2290,"Ġdeterm":2291,"Ġfurther":2292,"Ġyoung":2293,"Ġant":2294,"arri":2295,"Ġlow":2296,"Ġamount":2297,"For":2298,"Ġsw":2299,"iple":2300,"reed":2301,"orld":2302,"Ġdeb":2303,"Ġperformance":2304,"oud":2305,"urance":2306,"met":2307,"fact":2308,"Ġweek":2309,"Ġce":2310,"ilt":2311,"Ġbring":2312,"False":2313,"Ġenough":2314,"Ġhtt":2315,"empt":2316,"ags":2317,"Ġeither":2318,"ched":2319,"aken":2320,"ees":2321,"iction":2322,"Ġdoesn":2323,"ait":2324,"Ġdifficult":2325,"Ġblock":2326,"Ġespecially":2327,".,":2328,"osp":2329,"([":2330,"ai":2331,"Ġheart":2332,"Ġ{}":2333,"Ġdeep":2334,"ataset":2335,"Ġcond":2336,"umn":2337,"org":2338,"Ġonce":2339,"Ġdidn":2340,"output":2341,"Ġele":2342,"ĠOne":2343,"rad":2344,"Ġparent":2345,"Ġability":2346,"32":2347,"Ġneg":2348,"Ġstudy":2349,"Ġcharacter":2350,"Ġpo":2351,"Ġfail":2352,"elt":2353,"UT":2354,"Ġcal":2355,"ditional":2356,"ands":2357,"Ġlegal":2358,"raft":2359,"ones":2360,"Ġ**":2361,"ĠInst":2362,"su":2363,"Ġenjoy":2364,"Ġthought":2365,"amples":2366,"Ġpopular":2367,"Ġwin":2368,"ession":2369,"Ġskills":2370,"Ġlive":2371,"He":2372,"Ġnature":2373,"Ġtrue":2374,"ĠEuro":2375,"ĠMan":2376,"enn":2377,"Ġcame":2378,"ception":2379,"une":2380,"plit":2381,"ley":2382,"Ġtot":2383,"Ġhouse":2384,"18":2385,"play":2386,"Ġsize":2387,"Ġtools":2388,"Ġcomplex":2389,"array":2390,"ilar":2391,"Ġcomput":2392,"Ġsomeone":2393,"16":2394,"Ġmot":2395,"uth":2396,"ĠDo":2397,"though":2398,"Ġcommit":2399,"ĠEn":2400,"eral":2401,"Ġsingle":2402,"Ġstay":2403,"fet":2404,"bo":2405,"Ġgetting":2406,"Ġcollect":2407,"Ġregard":2408,"Ġbit":2409,"Ġair":2410,"Ġbreak":2411,"fully":2412,"ager":2413,"ĠStates":2414,"comm":2415,"ĠAm":2416,"Ġmeas":2417,"Ġposition":2418,"Ġseen":2419,"Ġcredit":2420,"rences":2421,"Ġeasy":2422,"Ġprob":2423,"align":2424,"Ġchallenges":2425,"pose":2426,"Ġversion":2427,"Ġey":2428,"Ġbenefits":2429,"Ġlarg":2430,"Ġdigital":2431,"Ġeducation":2432,"Ġdi":2433,"Ġtransform":2434,"Ġquestions":2435,"Ġlikely":2436,"Ġenhance":2437,"ring":2438,"ze":2439,"urch":2440,"anced":2441,"Ġconcern":2442,"aged":2443,"Ġabs":2444,".\"\"\"":2445,"ION":2446,"Ġwriting":2447,"Ġeffic":2448,"Ġvol":2449,"Ġface":2450,"ables":2451,"ops":2452,"Ġtrack":2453,"izer":2454,"uly":2455,"Ġfilm":2456,"Ġleast":2457,"ivity":2458,"Ġprior":2459,"irm":2460,"Ġbusinesses":2461,"LE":2462,"Ġstarted":2463,"Ġglobal":2464,"rel":2465,"Ġareas":2466,"illed":2467,"Ġsell":2468,"Ġsource":2469,"ublic":2470,"Res":2471,"Ġprovides":2472,"Ġdest":2473,"ĠEurope":2474,"irt":2475,"ĠNo":2476,"Ġeverything":2477,"face":2478,"There":2479,"Ġsearch":2480,"ormal":2481,"mber":2482,"isions":2483,"Ġear":2484,"lex":2485,"Ġ15":2486,"count":2487,"Ġet":2488,"Ġusers":2489,"rs":2490,"index":2491,"Ġclean":2492,"''":2493,"Ġrecomm":2494,"On":2495,"alf":2496,"ological":2497,"ey":2498,"ogle":2499,"AM":2500,"Ġbelieve":2501,"Ġproperty":2502,"Ġterm":2503,"Ġpress":2504,"Ġvisit":2505,"Ġtf":2506,"ĠGo":2507,"sub":2508,"Ġevents":2509,"To":2510,"rodu":2511,"ĠYour":2512,"Ġtook":2513,"ony":2514,"reng":2515,"Ġbehav":2516,"oms":2517,"Ġchanges":2518,"Ġworks":2519,"30":2520,"Ġrather":2521,"instance":2522,"ĠSu":2523,"Ġtaking":2524,"ĠVal":2525,"Ġ[]":2526,"Ġterms":2527,"ips":2528,"Ġla":2529,"np":2530,"Ġful":2531,"Ġcode":2532,"IS":2533,"iance":2534,"Ġep":2535,"Ġassist":2536,"Ġmillion":2537,"Ġpolitical":2538,"Ġcopy":2539,"Ġsugg":2540,"Ġpolicy":2541,"Ġsuggest":2542,"mat":2543,"15":2544,"Ġsite":2545,"join":2546,"urs":2547,"Ġrespect":2548,"ĠJohn":2549,"Ġyourself":2550,"Ġnatural":2551,"qual":2552,"Ġsubject":2553,"Ġbecame":2554,"Ġdecision":2555,"map":2556,"aching":2557,"Ġcareer":2558,"rap":2559,"Ġcreated":2560,"Ġresources":2561,"cast":2562,"print":2563,"AC":2564,"ux":2565,"ges":2566,"Ġseries":2567,"Ġbeaut":2568,"Ġwhole":2569,"Ġyet":2570,"Ġcrucial":2571,"Ġple":2572,"ibr":2573,"roups":2574,"Ġaffect":2575,"uments":2576,"ball":2577,"Ġver":2578,"25":2579,"Ġhigher":2580,"Ġcaus":2581,"Ġpurch":2582,"inary":2583,"Ġbecom":2584,"Ġfig":2585,"Ġpack":2586,"olutions":2587,"Ġsent":2588,"Ġdam":2589,"Ġclient":2590,"ensive":2591,"Ġincrease":2592,"ĠIm":2593,"ume":2594,"Ġ\\":2595,"Ġidea":2596,"Ġparticip":2597,"Ġentire":2598,"Ġtorch":2599,"Ġeffective":2600,"Ġwar":2601,"df":2602,"ison":2603,"Ġdeath":2604,".__":2605,"ĠCent":2606,"Ġwords":2607,"Cl":2608,"ĠMar":2609,"Ġengine":2610,"osing":2611,"hers":2612,"Ġinnov":2613,"Ġage":2614,"Ġcoun":2615,"Ġautom":2616,"Ġansw":2617,"Ġprovided":2618,"itted":2619,"Ġsat":2620,"fety":2621,"Ġcannot":2622,"ene":2623,"ĠWhile":2624,"Ġdom":2625,"aving":2626,"Ġculture":2627,"Ġnecessary":2628,"sequ":2629,"trans":2630,"Ġaccept":2631,"iable":2632,"ĠRep":2633,"Ġperfect":2634,"Ġcirc":2635,"Ġalign":2636,"Ġvideo":2637,"ĠMy":2638,"HE":2639,"Ġcy":2640,"Ġneeded":2641,"my":2642,"Ġattention":2643,"off":2644,"Ġabove":2645,"Ġthemselves":2646,"epend":2647,"avor":2648,"flow":2649,"Ġjourney":2650,"ĠMay":2651,"emic":2652,"Ġhost":2653,"Ġimplement":2654,"And":2655,"Ġoptim":2656,"start":2657,"Ġseek":2658,"light":2659,"iol":2660,"respon":2661,"ctions":2662,"Ġproblems":2663,"'.":2664,"wh":2665,"ĠAss":2666,"Ġallows":2667,"Ġphot":2668,"Ġtravel":2669,"dd":2670,"Ġrev":2671,"pri":2672,"box":2673,"lood":2674,"ĠMed":2675,"Ġsound":2676,"idth":2677,"Ġexecut":2678,"Ġproviding":2679,"Ġbase":2680,"Ġupon":2681,"aining":2682,"resh":2683,"Ġhy":2684,"ruction":2685,"ties":2686,"Ġprevent":2687,"Ġstreng":2688,"icated":2689,"'d":2690,"PI":2691,"ĠPar":2692,"Ġcapt":2693,"ites":2694,"Ġclients":2695,"Ġmatter":2696,"indow":2697,"Ġperm":2698,"Ġ16":2699,"Ġbal":2700,"Ġinde":2701,"aries":2702,"actions":2703,"field":2704,"ĠNot":2705,"Ġsafe":2706,"================":2707,"ED":2708,"Ġhistor":2709,"Ġlives":2710,"ĠSome":2711,"kwargs":2712,"Ġpositive":2713,"Ġspirit":2714,"Ġ30":2715,"Ġseem":2716,"pes":2717,"Ġparam":2718,"Ġmonths":2719,"Ġconditions":2720,"Ġhowever":2721,"Ġsett":2722,"atives":2723,"****":2724,"Ġprevious":2725,"Ġanaly":2726,"Ġsimilar":2727,"Ġmodern":2728,"Ġmoment":2729,"Ġprim":2730,"Ġgeneral":2731,"loc":2732,"des":2733,"ension":2734,"ĠAfter":2735,"Ġpie":2736,"Ġste":2737,"Ġseason":2738,"Ġissue":2739,"ysis":2740,"Ġcolor":2741,"agn":2742,"Ġcontext":2743,"oad":2744,"Ġavoid":2745,"Ġ198":2746,"Ġprice":2747,"Ġaspect":2748,"etimes":2749,"Ġbi":2750,"Ġund":2751,"Ġdict":2752,"Ġtypes":2753,"uration":2754,"lt":2755,"Ġsimply":2756,"Ġrights":2757,"cret":2758,"ores":2759,"proper":2760,"train":2761,"Ġeveryone":2762,"Ġfall":2763,"Ġcreating":2764,"enced":2765,"Ġsimple":2766,"Ġforward":2767,"ĠTra":2768,"roll":2769,"Ġitself":2770,"Ġactivities":2771,"Ġcases":2772,"Ġpractice":2773,"Ġpers":2774,"Ġelif":2775,"Ġ+=":2776,"ev":2777,"mark":2778,"dom":2779,"user":2780,"Ġmessage":2781,"isc":2782,"ĠAf":2783,"ĠWest":2784,"Ġfriends":2785,"Ġcontract":2786,"Ġimm":2787,"ĠPr":2788,"Ġphysical":2789,"oph":2790,"Ġopp":2791,"ĠOur":2792,"RO":2793,"ĠCont":2794,"ĠApp":2795,"mod":2796,"center":2797,"Ġargs":2798,"Ġ100":2799,"Ġhelps":2800,"40":2801,"Ġopportunities":2802,"Ġmedical":2803,"Ġregular":2804,"itor":2805,"Ġregul":2806,"Ġwent":2807,"ĠCar":2808,"ml":2809,"rew":2810,"Ġexpert":2811,"labor":2812,"Ġliving":2813,"minist":2814,"Ġfive":2815,"mbol":2816,"Ġcut":2817,"come":2818,"enses":2819,"ulum":2820,"Ġextra":2821,"Ġcou":2822,"book":2823,"image":2824,"DE":2825,"())":2826,"[:":2827,"Ġdocument":2828,"Ġtotal":2829,"oken":2830,"Ġmatch":2831,"ellig":2832,"Ġnational":2833,"amed":2834,"Ġattack":2835,"But":2836,"cer":2837,"Ġarticle":2838,"Ġquickly":2839,"Ġinstance":2840,"ceed":2841,"itable":2842,"Ġfeature":2843,"params":2844,"Ġlimit":2845,"Ġvalid":2846,"Ġgoals":2847,"iff":2848,"ament":2849,"icate":2850,"Ġsec":2851,"Ġhon":2852,"Ġagree":2853,"lege":2854,"Ġcause":2855,"Ġachieve":2856,"Ġtaken":2857,"Ġopportunity":2858,"Ġground":2859,"ĠSy":2860,"Ġdescrib":2861,"ĠCo":2862,"Ġload":2863,"result":2864,"with":2865,"izations":2866,"hing":2867,"Ġded":2868,"oved":2869,"17":2870,"rypt":2871,"Ġsex":2872,"Ġfamil":2873,"Ġguid":2874,"api":2875,"Ġsix":2876,"ĠState":2877,"Ġpoints":2878,"pped":2879,"Ġthroughout":2880,"erc":2881,"ĠWorld":2882,"Ġmodels":2883,"utils":2884,"oice":2885,"Ġexpected":2886,"span":2887,"ude":2888,"iation":2889,"yond":2890,"Ġtrying":2891,"14":2892,"part":2893,"Ġcosts":2894,"based":2895,"Ġexperiences":2896,"no":2897,"vant":2898,"Ġtowards":2899,"Ġdog":2900,"Ġdiv":2901,"Ġencoura":2902,"ename":2903,"Ġtrain":2904,"Ġanything":2905,"ĠPol":2906,"Ġrate":2907,"Ġcontact":2908,"rupt":2909,"ls":2910,"Ġid":2911,"Ġobtain":2912,"Ġalmost":2913,"ĠComp":2914,"ĠGu":2915,"Ġdat":2916,"Ġreflect":2917,"eturns":2918,"Ġfinal":2919,"Ġlat":2920,"Ġ17":2921,"Ġselect":2922,"ĠYork":2923,"Ġbehind":2924,"Ġinsp":2925,"Ġrow":2926,"Ġclose":2927,"Ġeconomic":2928,"Ġcourt":2929,"Ġleading":2930,"aling":2931,"Ġinstall":2932,"htt":2933,"Ġsafety":2934,"Ġaim":2935,"Ġconsist":2936,"Ġfoot":2937,"Ġtraditional":2938,"ĠAct":2939,"Ġmeaning":2940,"ender":2941,"Ġeval":2942,"wise":2943,"Ġword":2944,"Ġlonger":2945,"Test":2946,"Ġadditional":2947,"Ġchoose":2948,"200":2949,"return":2950,"Ġmor":2951,"Ġflow":2952,"Ġsort":2953,"One":2954,"Ġoriginal":2955,"ING":2956,"Ġmiss":2957,"Ġsolutions":2958,"Ġstrategy":2959,"ĠNational":2960,"Ġwalk":2961,"pper":2962,"ĠMe":2963,"object":2964,"artment":2965,"Ġmultiple":2966,"process":2967,"erous":2968,"icro":2969,"ĠCal":2970,"Ġdeg":2971,"Ġarch":2972,"Ġoverall":2973,"Ġbuilt":2974,"Ġinsurance":2975,"Ġdesigned":2976,"Ġmach":2977,"attr":2978,"af":2979,"ĠGener":2980,"Ġhours":2981,"ĠOpt":2982,"Ġsales":2983,"Ġpick":2984,"Ġtakes":2985,"lying":2986,"ĠSte":2987,"izes":2988,"|>#":2989,"Ġtw":2990,"Ġjud":2991,"Al":2992,"Ġinvestment":2993,"ĠFe":2994,"Ġworth":2995,"--------------------------------":2996,"ĠPres":2997,"Ġproduction":2998,"ĠChe":2999,"13":3000,"Ġfeed":3001,"Ġprivate":3002,"method":3003,"Ġbank":3004,"ief":3005,"Ġtreatment":3006,"atory":3007,"Ġ25":3008,"ĠPe":3009,"ners":3010,"node":3011,"Ġhope":3012,"So":3013,"Ġrepl":3014,"iles":3015,"ram":3016,"Ġthird":3017,"lied":3018,"ached":3019,"Ġapplication":3020,"unch":3021,"Ġspeak":3022,"where":3023,"Ġbegan":3024,"Ġnews":3025,"ĠSee":3026,"Ġprogress":3027,"Ġinvolved":3028,"asks":3029,"ĠPart":3030,"ken":3031,"Ġbad":3032,"iring":3033,"Ġisn":3034,"Ġincludes":3035,"Ġplayers":3036,"Ġstri":3037,"ferences":3038,"Ġaware":3039,"dim":3040,"aign":3041,"iddle":3042,"Ġsust":3043,"Ġpercent":3044,"Ġpage":3045,"care":3046,"Ġ197":3047,"order":3048,"comp":3049,"Ġintrodu":3050,"Ġdate":3051,"Ġsituation":3052,"nown":3053,"Ġ!":3054,"Ġassociated":3055,"rong":3056,"Ġshape":3057,"imum":3058,"just":3059,"Type":3060,"ĠRuss":3061,"Ġinstitut":3062,"dev":3063,"aced":3064,"Ġcountries":3065,"annel":3066,"Ġweb":3067,"Ġemail":3068,"Ġusually":3069,"ster":3070,"hood":3071,"idered":3072,"Ġur":3073,"Ġgroups":3074,"Ġviol":3075,"Ġparticularly":3076,"pping":3077,"]]":3078,"Ġchoice":3079,"Ġill":3080,"anks":3081,"64":3082,"sych":3083,"Ġrecent":3084,"Ġcollabor":3085,"Ġnear":3086,"aches":3087,"ression":3088,"Ġemerg":3089,"valid":3090,"OT":3091,"Ġorganization":3092,"leep":3093,"Ġprograms":3094,"batch":3095,"ĠServ":3096,"check":3097,"Ġquite":3098,"ĠInt":3099,"overed":3100,"Ġstru":3101,"Ġincreasing":3102,"ĠAN":3103,"Ġfactors":3104,"do":3105,"ĠBrit":3106,"leg":3107,"pite":3108,"iverse":3109,"Ġappear":3110,"Ġroom":3111,"Ar":3112,"Ġbeyond":3113,"Ġprep":3114,"Ġbroad":3115,"itch":3116,"Ġnight":3117,"Ġreceived":3118,"ĠMin":3119,"lim":3120,"ĠAust":3121,"Ġlower":3122,"ufact":3123,"Ġminut":3124,"asons":3125,"Ġprec":3126,"ĠIntern":3127,"ening":3128,"Ġemployees":3129,"Ġtim":3130,"na":3131,"Ġconsidered":3132,"inter":3133,"ival":3134,"ĠQu":3135,"body":3136,"Ġcomplete":3137,"Ġcommunication":3138,"Ġaccording":3139,"Ġstaff":3140,"Ġbox":3141,"Ġoutside":3142,"ĠHer":3143,"Ġfit":3144,"Ġidentify":3145,"Ġsuccessful":3146,"Ġ--":3147,"ming":3148,"Ġconvers":3149,"Ġinstead":3150,"Ġinternational":3151,"Ġaudience":3152,"Ġlevels":3153,"Ġled":3154,"oper":3155,"Ġ14":3156,"gment":3157,"Ġtold":3158,"Ã©":3159,"Ġcomfort":3160,"Ġconnection":3161,"block":3162,"Ġprojects":3163,"ĠSouth":3164,"imately":3165,"term":3166,"Ġclos":3167,"ĠDes":3168,"Ġnothing":3169,"24":3170,"hens":3171,"Ġax":3172,"ĠGerm":3173,"client":3174,"irth":3175,"cod":3176,"Ġimmed":3177,"step":3178,"Ġrelated":3179,"ĠFrom":3180,"Ġstress":3181,"like":3182,"Ġassess":3183,"Ġwanted":3184,"oll":3185,"Ġcenter":3186,"Ġmember":3187,"het":3188,"orpor":3189,"Ġstatus":3190,"Ġoption":3191,"ĠĠĠĠĠčĊ":3192,"Ġcoming":3193,"ĠNe":3194,"Ġweight":3195,"Ġconcept":3196,"Ġmale":3197,"float":3198,"Ġasked":3199,"cul":3200,"imal":3201,"Ġrad":3202,"Ġdetails":3203,"aith":3204,"Ġdou":3205,"Ġprinc":3206,"Ġisinstance":3207,"Ġmass":3208,"net":3209,"icles":3210,"Ġrout":3211,"year":3212,"lib":3213,"ĠAfric":3214,"60":3215,"hether":3216,"ivil":3217,"Ġreach":3218,"eline":3219,"Ġheav":3220,"Ġcell":3221,"label":3222,"CO":3223,"Ġrelationships":3224,"().":3225,"Ġdecisions":3226,"ĠCO":3227,"Ġcritical":3228,"ync":3229,"Ġrelig":3230,"Ġadvant":3231,"ĠReg":3232,"Ġfriend":3233,"attle":3234,"down":3235,"Ġevidence":3236,"Ġred":3237,"isf":3238,"Ġsociety":3239,"(),":3240,"ĠĠĠĠĠĠčĊ":3241,"Ġstrategies":3242,"property":3243,"ilitary":3244,"base":3245,"och":3246,"zer":3247,"elling":3248,"Ġprobably":3249,"Ġveh":3250,"Ġwatch":3251,"umb":3252,"aly":3253,"EO":3254,"Un":3255,"Ġfront":3256,"Ġones":3257,"Ġframe":3258,"aily":3259,"Ġgoal":3260,"Ġheld":3261,"reet":3262,"group":3263,"Ġsche":3264,"Ġinitial":3265,"airs":3266,"Ġcapital":3267,"arser":3268,"Ġresource":3269,"ĠAb":3270,"With":3271,"Ġsave":3272,"range":3273,"Ġsubst":3274,"Ġ13":3275,"Ġqual":3276,"Ġthinking":3277,"Ġattempt":3278,"Ġexplore":3279,"ĠFl":3280,"ĠEm":3281,"vision":3282,"call":3283,"ET":3284,"ha":3285,"Ġhalf":3286,"By":3287,"Ġpromot":3288,"oke":3289,"Ġlif":3290,"Ġnode":3291,"Ġdistributed":3292,"hib":3293,"json":3294,"Com":3295,"ditionally":3296,"Ġtour":3297,"ĠGe":3298,"iful":3299,"ided":3300,"Ġlocation":3301,"ĠWar":3302,"ĠAcc":3303,"Ġcover":3304,"ayers":3305,"force":3306,"AG":3307,"Ġreceive":3308,"ĠMark":3309,"}}":3310,"Ġlack":3311,"Ġnames":3312,"etime":3313,"Ġinj":3314,"ĠOR":3315,"Ġexact":3316,"Ġoffice":3317,"Ġanalysis":3318,"iment":3319,"Ġparty":3320,"Ġerror":3321,"Ġtable":3322,"Ġoil":3323,"Ġcampaign":3324,"Ġsens":3325,"gen":3326,"ribute":3327,"ulumi":3328,"Ġdetail":3329,"ĠJes":3330,"Ġgames":3331,"Ġdemand":3332,"Data":3333,"Ġdirectly":3334,"Ġattract":3335,"Ġstudent":3336,"Ġdim":3337,"ĠPer":3338,"ĠCity":3339,"?\"":3340,"Ġsuff":3341,"Ġstop":3342,"Ġdemon":3343,"ĠĠĠĠĠĠĠčĊ":3344,"Ġshows":3345,"Ġ2020":3346,"Ġ11":3347,"Ġmention":3348,"elligence":3349,"TI":3350,"ĠWill":3351,"Ġblack":3352,"ref":3353,"Ġvariety":3354,"pred":3355,"Ġsepar":3356,"Ġpowerful":3357,"Ġthreat":3358,"Ġstates":3359,"Ġconduct":3360,"arily":3361,"uge":3362,"uable":3363,"Ġsum":3364,"default":3365,"Ġ...":3366,"Ġrecommend":3367,"Ġwrite":3368,"Ġrunning":3369,"connect":3370,"Ġrequires":3371,"Ġcele":3372,"cs":3373,"Ġrequirements":3374,"Ġimportance":3375,"Ġensuring":3376,"Ġfast":3377,"ĠDep":3378,"Ġmaterials":3379,"Ġdevice":3380,"Ġcomplet":3381,"Ġfavor":3382,"ung":3383,"Ġpractices":3384,"Ġaccur":3385,"FF":3386,"ĠFin":3387,"encies":3388,"ĠAmerica":3389,"Ġtask":3390,"Ġtou":3391,"ĠHere":3392,"Ġhom":3393,"nal":3394,"ĠAg":3395,"Ġaw":3396,"Ġcultural":3397,"write":3398,"Ġtrend":3399,"Ġpurpose":3400,"error":3401,"Ġadded":3402,"Ġwritten":3403,"Ġmental":3404,"Ġleave":3405,"Ġcorrect":3406,"ĠĠĠĠĠĠĠĠčĊ":3407,"Ġreduce":3408,"vis":3409,"ĠSoc":3410,"anch":3411,"Ġadminist":3412,"asc":3413,"Ġmanufact":3414,"Ġbelow":3415,"ĠâĢĵ":3416,"Ġideas":3417,"illing":3418,"Ġorganizations":3419,"Ġmethods":3420,"Ġsolution":3421,"Se":3422,"Ġadapt":3423,"Ġsong":3424,"Ġ50":3425,"ica":3426,"Ġsal":3427,"qa":3428,"gy":3429,"rown":3430,"ternal":3431,"Ġpattern":3432,"Ġsaw":3433,"Ġfrequ":3434,"Ġestablish":3435,"Ġhot":3436,"hel":3437,"Ġpredict":3438,"Ġformer":3439,"avig":3440,"Ġutil":3441,"Ġlabel":3442,"ana":3443,"Ġfire":3444,"ĠCons":3445,"lam":3446,"Ġanswer":3447,"ummies":3448,"Ġfight":3449,"Ġstring":3450,"ĠOF":3451,"Ġindex":3452,"pen":3453,"ĠSchool":3454,"enge":3455,"Ġstrugg":3456,"ynam":3457,"Ġsoon":3458,"ĠBo":3459,"ĠJan":3460,"Ġdraw":3461,"www":3462,"istics":3463,"change":3464,"Ġextrem":3465,"Ġsymbol":3466,"issions":3467,"request":3468,"Ġinside":3469,"used":3470,"aint":3471,"ada":3472,"ĠChina":3473,"ĠNorth":3474,"Ġmis":3475,"env":3476,"((":3477,"Ġdecl":3478,"Ġfiles":3479,"ĠArt":3480,"ologies":3481,"Ġshall":3482,"Ġworked":3483,"99":3484,"ĠGoogle":3485,"Ġremember":3486,"Ġincluded":3487,"ĠMon":3488,"Ġstandard":3489,"split":3490,"unk":3491,"rict":3492,"aves":3493,"22":3494,"level":3495,"Ġstrength":3496,"UR":3497,"Ġcentury":3498,"ĠCour":3499,"Ġeasily":3500,"arc":3501,"idden":3502,"Ġexcell":3503,"Ġago":3504,"Ġbatch":3505,"Ġhighly":3506,"Ġsometimes":3507,"CT":3508,"Ġroad":3509,"Ġtal":3510,"Ġcommand":3511,"rix":3512,"build":3513,"Ġitems":3514,"Ġseems":3515,"string":3516,"ĠJesus":3517,"apan":3518,"``":3519,"rics":3520,"ĠReturns":3521,"Ġcard":3522,"ades":3523,"Ġbud":3524,"Ġreve":3525,"ama":3526,"loss":3527,"Ġcompon":3528,"Ġfelt":3529,"orage":3530,"function":3531,"Ġhttps":3532,"md":3533,"Ġefforts":3534,"haps":3535,"'],":3536,"Ġeth":3537,"Ġwhite":3538,"Ġblood":3539,"IL":3540,"Ġsustain":3541,"spec":3542,"Ġpropos":3543,"Ġlength":3544,"Ġcross":3545,"Ġofficial":3546,"oding":3547,"ighb":3548,"Ġserious":3549,"ederal":3550,"Ġlost":3551,"Ġmob":3552,"rate":3553,"Ġsteps":3554,"main":3555,"Ġindepend":3556,"Ġparents":3557,"Ġhimself":3558,"ĠMc":3559,"more":3560,"Ġoperations":3561,"aul":3562,"Ġparts":3563,"ĠDr":3564,"annels":3565,"Ġign":3566,"Ġfear":3567,"Ġforce":3568,"Ġcat":3569,"Ġnoqa":3570,"bit":3571,"rought":3572,"Ġbehavior":3573,"nodes":3574,"uous":3575,"Ġwrong":3576,"standing":3577,"Ġconv":3578,"Ġwide":3579,"Ġcand":3580,"Ad":3581,"left":3582,"Ġexam":3583,"unt":3584,"Ġearn":3585,"Ġinfluence":3586,"At":3587,"ecause":3588,"Ġeffects":3589,"aur":3590,"ĠStud":3591,"Ġactions":3592,"rael":3593,"background":3594,"Ġplanning":3595,"ĠTest":3596,"Ġstories":3597,"active":3598,"Ġsil":3599,"color":3600,"Ġplatforms":3601,"ĠJust":3602,"ĠPresident":3603,"Ġstage":3604,"idents":3605,"Ġ24":3606,"lier":3607,"ĠKing":3608,"Ġ,":3609,"Ġfaith":3610,"Ġregion":3611,"Ġtown":3612,"uple":3613,"ĠAp":3614,"AB":3615,"Ġstore":3616,"earch":3617,"Ġelements":3618,"rim":3619,"Ġliter":3620,"uary":3621,"HO":3622,"Ġtitle":3623,"Ġdemonstr":3624,"gener":3625,"ĠIndia":3626,"Ġoffering":3627,"Ġmother":3628,"Ġmess":3629,"hent":3630,"ĠList":3631,"Ġcondition":3632,"Ġscience":3633,"Ġpsych":3634,"Ġemotional":3635,"ĠDon":3636,"ĠÂ":3637,"Ġmilitary":3638,"Ġleaders":3639,"hand":3640,"Ġcommitment":3641,"flict":3642,"astic":3643,"ĠNow":3644,"Ġrefer":3645,"cil":3646,"amer":3647,"Ġvict":3648,"AD":3649,"{}":3650,"ixed":3651,"Ġplans":3652,"Ġacqu":3653,"itect":3654,"idge":3655,"Ġlate":3656,"Ġfair":3657,"Ġpeace":3658,"Ġdeveloped":3659,"Ġready":3660,"db":3661,"target":3662,"Ġgreater":3663,"Ġincreased":3664,"Ġgoes":3665,"Ġsatisf":3666,"Ġoccur":3667,"ĠCount":3668,"Ġvers":3669,"Ġtruth":3670,"bed":3671,"Ġ\"'":3672,"Ġupd":3673,"01":3674,"iques":3675,"Ġshared":3676,"Ġreading":3677,"Ġincome":3678,"idx":3679,"uel":3680,"nn":3681,"Ġitem":3682,"ĠEd":3683,"board":3684,"atter":3685,"ection":3686,"chan":3687,"ellow":3688,"ague":3689,"Ġscient":3690,"names":3691,"Ġsys":3692,"Ġstat":3693,"ĠIS":3694,"Ġdeliver":3695,"Ġstream":3696,"ese":3697,"Ġestablished":3698,"Ġmanage":3699,"ography":3700,"Ġdownload":3701,"style":3702,"Ġrates":3703,"Ġharm":3704,"Ġaltern":3705,"abilities":3706,"Ġspeed":3707,"Ġpatients":3708,"Ġpret":3709,"Ġteams":3710,"Ġbound":3711,"clusion":3712,"Ġfra":3713,"Ġsym":3714,"Ġbenefit":3715,"Ġri":3716,"ipl":3717,"host":3718,"Ġbeautiful":3719,"acc":3720,"Ġanyone":3721,"ĠMus":3722,"Ġmarri":3723,"rc":3724,"Ġconsult":3725,"empl":3726,"Ġdifference":3727,"Ġgiving":3728,"Ġstructure":3729,"Ġlimited":3730,"ham":3731,"iency":3732,"Ġhands":3733,"AP":3734,"Ġut":3735,"Ġcompre":3736,"sum":3737,"ĠMr":3738,"Ġgrowing":3739,"pective":3740,"Ġpartner":3741,"length":3742,"Ġrand":3743,"Ġapply":3744,"Ġdise":3745,"tes":3746,"Ġexpand":3747,"Ġfather":3748,"Ġappropri":3749,"Ġallowed":3750,"LO":3751,"Ġsaying":3752,"Ġetc":3753,"Ġdrive":3754,"'),":3755,"Ġleadership":3756,"types":3757,"Ġinvestig":3758,"Ġtele":3759,"Ġdaily":3760,"ĠRob":3761,"doc":3762,"Ġboard":3763,"Ġpaper":3764,"phas":3765,"Sh":3766,"itation":3767,"ĠSm":3768,"Ġhol":3769,"istory":3770,"ĠEnglish":3771,"Ġ2021":3772,"Ġconstant":3773,"ĠOct":3774,"Ġcommunities":3775,"Ġ2024":3776,"Ġenter":3777,"Ġefficient":3778,"itude":3779,"List":3780,"Ġnormal":3781,"Ġanc":3782,"Ġpict":3783,"Ġten":3784,"isode":3785,"obj":3786,"Ġvirt":3787,"Ġ(\"":3788,"opyright":3789,"Ġadm":3790,"Ġ!=":3791,"Ġslow":3792,"ĠJapan":3793,"Ġexerc":3794,"lock":3795,"ibly":3796,"Ġblog":3797,"Ġhor":3798,"gram":3799,"ancing":3800,"pol":3801,"################################":3802,"vey":3803,"Ġestate":3804,"Ġteac":3805,"gra":3806,"Ġnote":3807,"Ġgradu":3808,"Ġwonder":3809,"Ġdamage":3810,"ĠIsrael":3811,"room":3812,"update":3813,"gor":3814,"Ġbooks":3815,"ĠHol":3816,"hern":3817,"Ġinterview":3818,"Ġcert":3819,"ĠIN":3820,"Ġbirth":3821,"Ġbrought":3822,"const":3823,"ĠAut":3824,"Ġpen":3825,"ĠHealth":3826,"Ġimages":3827,"Ġremain":3828,"ares":3829,"Ġvia":3830,"otal":3831,"Ġeffectively":3832,"Ġprocesses":3833,"Ġnavig":3834,"istry":3835,"ĠMore":3836,"Ġeffort":3837,"lete":3838,"Ġcompliance":3839,"item":3840,"que":3841,"Ġgold":3842,"Ġmag":3843,"ĠAny":3844,"Ġbalance":3845,"ocr":3846,"aught":3847,"Ġaverage":3848,"100":3849,"Ġinf":3850,"sk":3851,"ĠLaw":3852,"useum":3853,"parse":3854,"Ġrelevant":3855,"Ġwoman":3856,"gu":3857,"Ġcelebr":3858,"Ġscript":3859,"Ġfully":3860,"Ġvaluable":3861,"Ġimag":3862,"width":3863,"Ġacad":3864,"ought":3865,"overn":3866,"status":3867,"Ġuses":3868,"While":3869,"ĠAustral":3870,"][":3871,"vest":3872,"ober":3873,"Equal":3874,"ĠDef":3875,"gl":3876,"Ġult":3877,"Ġreasons":3878,"IG":3879,"plot":3880,"values":3881,"Ġrob":3882,"frame":3883,"Ġmeeting":3884,"ĠAug":3885,"ĠBlack":3886,"Ġeyes":3887,"Ġbar":3888,"21":3889,"oyal":3890,"ĠDav":3891,"Ġrules":3892,"Ġregarding":3893,"Ġexisting":3894,"Ġscope":3895,"Ġgives":3896,"Ġminutes":3897,"Name":3898,"lines":3899,"ino":3900,"]:":3901,"Ġinsights":3902,"top":3903,"Ġstock":3904,"Ġmovement":3905,"ĠMarch":3906,"Ġallowing":3907,"pected":3908,"Ġloan":3909,"Ġlogging":3910,"eah":3911,"pass":3912,";\"|":3913,"dat":3914,"Ġsold":3915,"ĠGet":3916,"Ġserve":3917,"Ġscale":3918,"Ġfeeling":3919,"Ġsection":3920,"erve":3921,"ĠUK":3922,"23":3923,"urt":3924,"Ġpublished":3925,"Ġtypically":3926,"Ġ2019":3927,"Ġbackground":3928,"overy":3929,"Ġannoun":3930,"bum":3931,"ĠSw":3932,"dis":3933,"Ġsetting":3934,"Ġsecure":3935,"ĠCenter":3936,"Ġreality":3937,"adata":3938,"Ġobserv":3939,"ĠData":3940,"Ġplayed":3941,"jang":3942,"rapy":3943,"alls":3944,".)":3945,"Ġpopulation":3946,"Ġaccom":3947,"Ġactive":3948,"icies":3949,"aker":3950,"Ġskin":3951,"Ġactivity":3952,"ĠMany":3953,"Ġcontain":3954,"core":3955,"ĠTheir":3956,"Ġdru":3957,"Ġrandom":3958,"ĠFirst":3959,"ĠWhether":3960,"Ġworkers":3961,"ipment":3962,"Ġchallenge":3963,"Ġbeginning":3964,"Ġexperienced":3965,"Ġorigin":3966,"ried":3967,"ĠRed":3968,"Ġguide":3969,"ĠWork":3970,"All":3971,"Ġconflict":3972,"eks":3973,"erate":3974,"gorith":3975,"Ġcurrently":3976,"response":3977,"Ġplayer":3978,"pack":3979,"Ġbudget":3980,"Ġ2022":3981,"Ġstarting":3982,"Ġsn":3983,"Ġpressure":3984,"lease":3985,"Ġfirm":3986,"ira":3987,"Ġcorpor":3988,"Ġlines":3989,"ENT":3990,"Ġinteresting":3991,"PT":3992,"irection":3993,"Ġtrade":3994,"Ġgir":3995,"ĠOptional":3996,"Ġplaces":3997,"Ġmer":3998,"Ġscore":3999,"ĠJew":4000,"Ġ40":4001,"quest":4002,"ĠLet":4003,"ĠValue":4004,"iding":4005,"},":4006,"ications":4007,"cut":4008,"Ġ2023":4009,"ĠGl":4010,"Ġgraph":4011,"dist":4012,"pril":4013,"ris":4014,"token":4015,"Ġarray":4016,"Ġprotection":4017,"Ġhandle":4018,"Ġcommer":4019,"icens":4020,"Ġlandsc":4021,"Ġgain":4022,"Ġ['":4023,"80":4024,"Ġcompletely":4025,"fix":4026,"IM":4027,"ĠBritish":4028,"Ġarri":4029,"ĠSept":4030,"Ġroot":4031,"Id":4032,"Ġremains":4033,"ened":4034,"Ġhealthcare":4035,"Ġge":4036,"lin":4037,"ructure":4038,"Ġapplications":4039,"Ġemp":4040,"acity":4041,"Ġ2018":4042,"Ġconcerns":4043,"ses":4044,"Ġsho":4045,"ĠCourt":4046,"ovember":4047,"ĠRec":4048,"inct":4049,"Ġpresence":4050,"Ġmachine":4051,":#":4052,"Ġparser":4053,"Ġpassed":4054,"Ġgave":4055,"ĠPark":4056,"Ġfloat":4057,"Ġabsolut":4058,"Ġcivil":4059,"Ġhit":4060,"rig":4061,"Ġsend":4062,"Ġden":4063,"Ġreleased":4064,"Ġvoice":4065,"ĠHouse":4066,"ishing":4067,"mon":4068,"Ġspiritual":4069,"Ġwa":4070,"ĠLord":4071,"Ġtasks":4072,"Ġrisks":4073,"Ġchanged":4074,"Ġintelligence":4075,"Get":4076,"Ġpatient":4077,"lig":4078,"omen":4079,"pid":4080,"Ġapprec":4081,"{{":4082,"ĠJune":4083,"Ġsurpr":4084,"US":4085,"icip":4086,"ded":4087,"Ġhttp":4088,"bda":4089,"create":4090,"ĠHar":4091,"501":4092,"Ġcomprehens":4093,"Ġsus":4094,"verse":4095,"erial":4096,"Ġsurround":4097,"Ġpayment":4098,"Ġprofessionals":4099,"Ġcouple":4100,"Ġbecomes":4101,"Ġprimary":4102,"ias":4103,"Ġemphas":4104,"Ġtransport":4105,"Ġsubm":4106,"Ġjson":4107,"Ġresponsible":4108,"Ġdepend":4109,"Ġneighb":4110,"ĠPy":4111,"Ġsleep":4112,"Ġadvice":4113,"ĠEuropean":4114,"ashing":4115,"items":4116,"rench":4117,"oon":4118,"CH":4119,"ĠChristian":4120,"ĠCommun":4121,"Ġadvance":4122,"Ġmoving":4123,"Ġlib":4124,"Ġsav":4125,"Ġtalking":4126,"Ġstra":4127,"Ġround":4128,"Ġdegree":4129,"Ġcollection":4130,"Ġcarry":4131,"arant":4132,"ĠCON":4133,"Ġfamilies":4134,"Ġaspects":4135,"Ġdead":4136,"Ġnumpy":4137,"Ġbur":4138,"Ġhelping":4139,"Im":4140,"ban":4141,"Ġiniti":4142,"Ġsupply":4143,"iant":4144,"Ġtechniques":4145,"Not":4146,"Ġdynam":4147,"Ġcounter":4148,"ran":4149,"ĠTrans":4150,"Ġcandid":4151,"eff":4152,"iar":4153,"ĠHigh":4154,"Ġtensor":4155,"rors":4156,"Ġdark":4157,"Ġreviews":4158,"Ġtruly":4159,"iam":4160,"Ġreput":4161,"Ġactual":4162,"Ġpand":4163,"Ġpaid":4164,"Ġproced":4165,"Ġcore":4166,"ĠOctober":4167,"Ġfigure":4168,"Ġalone":4169,"Ġhealthy":4170,"Is":4171,"Val":4172,"venue":4173,"Ġthous":4174,"Ġwhose":4175,"Ġ{'":4176,"rote":4177,"Ġ('":4178,"ĠAre":4179,"ta":4180,"exp":4181,"Ġbasic":4182,"ummary":4183,"Ġformat":4184,"ĠBro":4185,"Ġflo":4186,"aled":4187,"Ġ``":4188,"Ġpros":4189,"ders":4190,"ĠUs":4191,"ĠTrust":4192,"En":4193,"Ġnamed":4194,"Ġgenerally":4195,"Ġrelease":4196,"Ġmyself":4197,"Ġtouch":4198,"cember":4199,"ĠJanuary":4200,"Ġforms":4201,"xy":4202,"Ġnation":4203,"Ġnotice":4204,"ordin":4205,"ĠCoun":4206,"ĠChar":4207,"Ġknew":4208,"Ġphil":4209,"ech":4210,"ibrary":4211,"iately":4212,"Ġchance":4213,"Ġsurv":4214,"quality":4215,"known":4216,"ifying":4217,"Ġpurchase":4218,"No":4219,"Ġang":4220,"Ġassets":4221,"Ġpiece":4222,"Ġbott":4223,"Ġrecently":4224,"mask":4225,"Ġweeks":4226,"ĠThen":4227,"ĠEl":4228,"Ġprem":4229,"Ġeasier":4230,"eries":4231,"models":4232,"Ġphone":4233,"TR":4234,"reate":4235,"Ġstudies":4236,"parent":4237,"ĠAugust":4238,"itute":4239,"Ġheard":4240,"Ġrich":4241,"Ġvision":4242,"Ġcloud":4243,"fg":4244,"rial":4245,"Ġdisplay":4246,"Ġchurch":4247,"bin":4248,"tf":4249,"ondon":4250,"atively":4251,"Ġcontinues":4252,"Ġadvert":4253,"ĠDis":4254,"Ġstandards":4255,"Ġexpertise":4256,"ools":4257,"uations":4258,"ero":4259,"porary":4260,"Ġbasis":4261,"ying":4262,"Ġadjust":4263,"Ġidentity":4264,"ĠEven":4265,"Ġhear":4266,"Ġcharg":4267,"uk":4268,"Ġopin":4269,"Ġenhancement":4270,"Ġnumerous":4271,"cription":4272,"Ġremind":4273,"Ġschools":4274,"Ġfost":4275,"Ġpresident":4276,"Ġmaster":4277,"0000":4278,"efore":4279,"ĠApril":4280,"tx":4281,"argument":4282,">>":4283,"ĠSeptember":4284,"Ġgummies":4285,"umber":4286,"Ġjo":4287,"\"),":4288,"aming":4289,"Ġarchitect":4290,"Ġagreed":4291,"itiz":4292,"Ġinterested":4293,"ĠJuly":4294,"Ġ'''":4295,"Ġplaying":4296,"Ġmechan":4297,"Ġpretty":4298,"olve":4299,"Ġtherefore":4300,"Ġdetermine":4301,"Ġfem":4302,"Ġwindow":4303,"Ġupdate":4304,"ĠCopyright":4305,"âĢĶ":4306,"Ġsources":4307,"Ġpolicies":4308,"last":4309,"ĠNovember":4310,"Ġsqu":4311,"jango":4312,"Ġexactly":4313,"Ġhistorical":4314,"ashion":4315,"Ġmode":4316,"Ġtend":4317,"Ġhous":4318,"Ġhuge":4319,"message":4320,"Ġmid":4321,"Ġcbd":4322,"Pl":4323,"https":4324,"Ġappropriate":4325,"weight":4326,"oman":4327,"Ġleader":4328,"Ġsignificantly":4329,"Ġdefinit":4330,"ara":4331,"Ġdang":4332,"zz":4333,"File":4334,"riend":4335,"'])":4336,"=[":4337,"abase":4338,"UL":4339,"Ġeconomy":4340,"ĠAng":4341,"Ġflex":4342,"vere":4343,"PE":4344,"ĠTHE":4345,"Col":4346,"ocol":4347,"[:,":4348,"Ġtransl":4349,"icing":4350,"source":4351,"hest":4352,"Ġwasn":4353,"Ġcontinued":4354,"atever":4355,"tee":4356,"Ġrule":4357,"Ġtesting":4358,"sm":4359,"33":4360,"ht":4361,"Ġanim":4362,"Ġlatest":4363,"Ġpan":4364,"Ġcircum":4365,"Ġtechnologies":4366,"estart":4367,".'":4368,"undred":4369,"Ġproperties":4370,"Ġplant":4371,"oul":4372,"EM":4373,"Ġreported":4374,"Ġequipment":4375,"chol":4376,"De":4377,"After":4378,"ĠII":4379,"ĠDirect":4380,"Ġnegative":4381,"Ġeye":4382,"Ġnumbers":4383,"img":4384,"Ġfinding":4385,"Ġbecoming":4386,"Ġcertainly":4387,"Ġturned":4388,"Ġexcellent":4389,"Ġspend":4390,"Ġimmediately":4391,"Ġwrote":4392,"Ġlayer":4393,"eria":4394,"ĠWell":4395,"Ġdiverse":4396,"Ġscen":4397,"alle":4398,"Ġscreen":4399,"Ġcommercial":4400,"Ġinterests":4401,"device":4402,"Ġ2017":4403,"iveness":4404,"Ġvisual":4405,"assertEqual":4406,"Ġassign":4407,"ĠBusiness":4408,"Ġdeveloping":4409,"Ġdataset":4410,"Ġcook":4411,"ĠAc":4412,"ancy":4413,"iforn":4414,"Ġparties":4415,"Ġseeking":4416,"reedom":4417,"Ġmaybe":4418,"Ġhelped":4419,"ersion":4420,"Ġlaws":4421,"ios":4422,"dataset":4423,"ĠLin":4424,"being":4425,"ĠBar":4426,"iples":4427,"Qu":4428,"duc":4429,"Cont":4430,"ĠAir":4431,"Ġadvanced":4432,"ube":4433,"eper":4434,"Ġhappy":4435,"eds":4436,"Ġesc":4437,"inese":4438,"Ġpassion":4439,"alt":4440,"Ġlarger":4441,"Ġcomprehensive":4442,"ĠOf":4443,"Ġuseful":4444,"fess":4445,"ords":4446,"emy":4447,"Ġregist":4448,"Ġdevices":4449,"Ġadvantage":4450,"Ġgets":4451,"Ġcharacters":4452,"codestart":4453,"Ġtransfer":4454,"codeend":4455,"enty":4456,"ĠDecember":4457,"fit":4458,"ĠUnion":4459,"Ġpark":4460,"45":4461,"Ġson":4462,"tings":4463,"Ġcomputer":4464,"dule":4465,"PO":4466,"Ġconstruction":4467,"fered":4468,"90":4469,"ctors":4470,"ĠIndian":4471,"wide":4472,"keys":4473,"Ġelement":4474,"ipping":4475,"....":4476,"ĠDem":4477,"Ġsun":4478,"Ġsession":4479,"Ġ196":4480,"ĠArgs":4481,"ĠOther":4482,"uster":4483,"ensions":4484,"isl":4485,"Ġcolumn":4486,"Ġdecided":4487,"Ġkids":4488,"Ġbrain":4489,"Ġsites":4490,"Ġvot":4491,"ĠChurch":4492,"ifornia":4493,"iers":4494,"ille":4495,"Ġproduce":4496,"race":4497,"Ġhosp":4498,"ĠMost":4499,"Ġresil":4500,"ute":4501,"Ġbelief":4502,"Ġspread":4503,"Ġ2016":4504,"ĠLondon":4505,"Ġreplace":4506,"ĠGovern":4507,"ĠAtt":4508,"nership":4509,"Ġauthent":4510,"Ġprop":4511,"pu":4512,"Ġcentral":4513,"Ġhair":4514,"orrow":4515,"Ġdra":4516,"table":4517,"ĠOver":4518,"OD":4519,"going":4520,"Ġmar":4521,"IR":4522,"UN":4523,"Ġmeasure":4524,"Ġafford":4525,"ym":4526,"ĠRem":4527,"Ġcoll":4528,"icensed":4529,"Ġcharge":4530,"ĠOff":4531,"iny":4532,"context":4533,"Ġalgorith":4534,"rief":4535,"open":4536,"Ġlabor":4537,"Ġlearned":4538,"FA":4539,"band":4540,"Set":4541,"Ġsports":4542,"Ġfunds":4543,"Ġq":4544,"Ġbattle":4545,"Ġprices":4546,"Ġcrypt":4547,"ĠInternational":4548,"uries":4549,"oe":4550,"Ġchat":4551,"Ġindic":4552,"Ġoffered":4553,"isation":4554,"coming":4555,"Ġcompared":4556,"osition":4557,"Ġsequ":4558,"Ġengage":4559,"ĠOpen":4560,"ius":4561,"grad":4562,"Ġalthough":4563,"Ġalbum":4564,"ae":4565,"Ġclub":4566,"random":4567,"Ġcreative":4568,"eta":4569,"Ġmist":4570,"ooth":4571,"Ġmodule":4572,"Ġlocated":4573,"ĠFeb":4574,"urity":4575,"amb":4576,"ĠEvery":4577,"Ġpet":4578,"Ġrestr":4579,"Ġ21":4580,"Ġdescription":4581,"Ġmount":4582,"tensor":4583,"Ġlinks":4584,"Ġinnovation":4585,"Ġinfr":4586,"apping":4587,"ĠPhil":4588,"Ġfields":4589,"VID":4590,"Ġfinally":4591,"Ġsector":4592,"Ġpush":4593,"ĠBecause":4594,"oft":4595,"gest":4596,"itness":4597,"writ":4598,";\"":4599,"That":4600,"Ġinvolves":4601,"ĠMich":4602,"ulate":4603,"Ġtail":4604,"abled":4605,"Ġurl":4606,"ĠCor":4607,"Ġfocused":4608,"ĠAdditionally":4609,"rip":4610,"Ġnorm":4611,"soft":4612,"Ġperhaps":4613,"Ġclimate":4614,"ĠConst":4615,"Fr":4616,"ously":4617,"Ġvehicle":4618,"Ġhundred":4619,"arter":4620,"ernel":4621,"python":4622,"Ġclaims":4623,"Ġengagement":4624,"ĠPal":4625,"Ġplease":4626,"These":4627,"Ġ]":4628,"Ġgenerate":4629,"Sc":4630,"Ġanti":4631,"RAN":4632,"Ġdoub":4633,"oday":4634,"Ġrock":4635,"files":4636,"Ġmobile":4637,")))":4638,"erved":4639,"Ġprefer":4640,"ĠValueError":4641,"Ġserver":4642,"apter":4643,"Ġnet":4644,"tenance":4645,"abs":4646,"Ġremove":4647,"Ġinformed":4648,"Ġshap":4649,"ils":4650,"Ġbillion":4651,"hy":4652,"Ġdiscover":4653,"Ġdtype":4654,"eration":4655,"Ġfeedback":4656,"Ġanx":4657,"Ġtemper":4658,"ruary":4659,"Ġtoward":4660,"Ġpoor":4661,"Ġlock":4662,"Ġir":4663,"Ġsolid":4664,"Ġconfidence":4665,"Ġlooked":4666,"Ġguarant":4667,"Ġmission":4668,"Ġearlier":4669,"Ġcash":4670,"rol":4671,"ificial":4672,"Ġcircumst":4673,"points":4674,"ĠCalifornia":4675,"Ġevalu":4676,"Ġspent":4677,"ĠSa":4678,"Ġunc":4679,"Ġcast":4680,"Ġmap":4681,"Ġrecords":4682,"formation":4683,"Ġspot":4684,"Ġmotiv":4685,"Ġlooks":4686,"Ġinterpre":4687,"ipeline":4688,"Ġclasses":4689,"root":4690,"lies":4691,"ĠTechn":4692,"Ġahead":4693,"sl":4694,"ĠPaul":4695,"Ġdream":4696,"Ġhighlight":4697,"Ġfresh":4698,"address":4699,"Ġbus":4700,"ĠFrench":4701,"Ġborn":4702,"ĠAssoci":4703,"Ġwait":4704,"ivery":4705,"Ġtree":4706,"Ġthus":4707,"Ġfunctions":4708,"Ġmentioned":4709,"Ġsmart":4710,"Ġcraft":4711,"Ġpolice":4712,"Ġcollege":4713,"Ġrise":4714,"ters":4715,"ifier":4716,"PS":4717,"Ġforeign":4718,"Ġinternet":4719,"Ġdedicated":4720,"ĠGeneral":4721,"Our":4722,"arian":4723,"ĠKe":4724,"Ġexperts":4725,":`":4726,"ĠOut":4727,"TH":4728,"itors":4729,"iences":4730,"Ġrank":4731,"Ġstatement":4732,"Ġhappened":4733,"aste":4734,"Ġpulumi":4735,"Ġwood":4736,"Ġcra":4737,"link":4738,"Ġlay":4739,"mean":4740,"CC":4741,"inated":4742,"Ġreturns":4743,"module":4744,"Ġlandscape":4745,"Ġserved":4746,"Ġgrant":4747,"Ġmemory":4748,"Ġwife":4749,"Ġconsequ":4750,"My":4751,"Ġsecret":4752,"Ġband":4753,"Ġamaz":4754,"filename":4755,"Ġdirection":4756,"ĠChinese":4757,"Ġrepe":4758,"ĠFound":4759,"Ġchem":4760,"PL":4761,"Ġadult":4762,"ĠInc":4763,"Ġcoverage":4764,"osure":4765,"pc":4766,"clusive":4767,"Ġtests":4768,"Ġleads":4769,"Ġmeasures":4770,"ĠUnder":4771,"Ġappoint":4772,"Ġtoken":4773,"Ġtechnical":4774,"Ġwilling":4775,"Ġobjects":4776,"Ġtrading":4777,"ributes":4778,"Ġbool":4779,"uman":4780,"aby":4781,"Ġexamples":4782,"ald":4783,"Ġgreen":4784,"Ġacademic":4785,"eval":4786,"Ġearth":4787,"Ġwid":4788,"Ġswe":4789,"Ġing":4790,"Ġreturned":4791,"Ġreligious":4792,"Ġnovel":4793,"Ġwants":4794,"Ġcomment":4795,"Ġnarr":4796,"Ġjobs":4797,"Le":4798,"Ġ2015":4799,"ĠTrump":4800,"CL":4801,"Ġresponsibility":4802,"Ġproduced":4803,"Ġcreation":4804,"det":4805,"ĠSan":4806,"oration":4807,"Ġgeneration":4808,"bug":4809,"ĠSet":4810,"stream":4811,"Ġancient":4812,"Ġcitiz":4813,"chang":4814,"Ġefficiency":4815,"astructure":4816,"Ġdoor":4817,"********":4818,"ĠDevelop":4819,"ky":4820,"Ġsexual":4821,"aughter":4822,"Ġobvious":4823,"ption":4824,"oo":4825,"pat":4826,"Ġdisease":4827,"usion":4828,"ford":4829,"Ġfarm":4830,"ups":4831,"Ġperspective":4832,"bur":4833,"Ġincorpor":4834,"Ġotherwise":4835,"Ġideal":4836,"ĠCounty":4837,"fold":4838,"uing":4839,"Ġvital":4840,"uid":4841,"Ġtrial":4842,"ĠGroup":4843,"ĠSec":4844,"Ġparameters":4845,"Ġquant":4846,"graph":4847,"Ġchanging":4848,"27":4849,"icon":4850,"::":4851,"35":4852,"ĠANY":4853,"oving":4854,"rep":4855,"comes":4856,"ĠWAR":4857,"Ġlimitations":4858,"Ġquery":4859,"Ġmoved":4860,"friend":4861,"Ġmarkets":4862,"Ġconstruct":4863,"EL":4864,"ocal":4865,"bon":4866,"Ġenvironmental":4867,"Ġpromote":4868,"~~":4869,"dep":4870,"Ġfans":4871,"ronic":4872,"ĠRepublic":4873,"ker":4874,"Ġsen":4875,"Ġdf":4876,"chain":4877,"ĠPeople":4878,"Ġclin":4879,"Ġargument":4880,"asure":4881,"Ġrapid":4882,"look":4883,"fn":4884,"Ġguidance":4885,"Ġentry":4886,"Ġfederal":4887,"Model":4888,"Do":4889,"ael":4890,"ĠDavid":4891,"ibilities":4892,"icks":4893,"Ġstraight":4894,"see":4895,"Ġsympt":4896,"ĠDist":4897,"ĠCanada":4898,"Config":4899,"lear":4900,"Ġincred":4901,"28":4902,"ĠPat":4903,"ruit":4904,"Ġwel":4905,"Ġcapacity":4906,"Ġfollowed":4907,"Ġchallenging":4908,"Ġwealth":4909,"pop":4910,"Ġdriving":4911,"Ġstuff":4912,"Ġteaching":4913,"ĠEast":4914,"Ġpray":4915,"reams":4916,"Ġcalcul":4917,"Ġapplicable":4918,"score":4919,"Ġinternal":4920,"Ġdefined":4921,"Ġcalls":4922,"ĠPri":4923,"Ġreports":4924,"scale":4925,"Ġreliable":4926,"Ġshown":4927,"Ġstrategic":4928,"MA":4929,"Ġinstitutions":4930,"ny":4931,"ĠFace":4932,"hips":4933,"Ġviews":4934,"Ġfulf":4935,"etic":4936,"pace":4937,"Ġfashion":4938,"Ġhar":4939,"iced":4940,"ĠEach":4941,"men":4942,"Ġrace":4943,"ifications":4944,"azon":4945,"ests":4946,"Ġforces":4947,"Ġlawy":4948,"PR":4949,"Ġroll":4950,"ĠCollege":4951,"orge":4952,"Ġclearly":4953,"ĠFebruary":4954,"Ġnn":4955,"Ġcaused":4956,"Ġsupported":4957,"Ġcris":4958,"Ġsample":4959,"Ġboost":4960,"AI":4961,"ĠDepartment":4962,"Ġcompetitive":4963,"Ġunit":4964,"house":4965,"wood":4966,"win":4967,"Ġvari":4968,"iday":4969,"Ġdrink":4970,"olving":4971,"Ġball":4972,"Ġec":4973,"ĠCompany":4974,"Ġdescribed":4975,"Ġder":4976,"Ġlargest":4977,"sg":4978,"title":4979,"olic":4980,"Ġresist":4981,"var":4982,"Ġaffil":4983,"Ġroof":4984,"bot":4985,"Ġfactor":4986,"rency":4987,"Ġoperation":4988,"Ġpartnership":4989,"acing":4990,"Ġconversation":4991,"close":4992,"Ġconsumers":4993,"ĠDay":4994,"Ġstorage":4995,"Ġtalent":4996,"Ġgrand":4997,"Ġmiddle":4998,"Ġtrends":4999,"Ġaren":5000,"parameters":5001,"ĠBr":5002,"Ġpod":5003,"Ġ2014":5004,"Ġbed":5005,"Ġrespond":5006,"Ġkwargs":5007,"Ġment":5008,"cell":5009,"However":5010,"cles":5011,"FT":5012,"Ġmatt":5013,"Ġchoices":5014,"Ġlicense":5015,"Ġwarm":5016,"</":5017,"Ġthoughts":5018,"Ġcircumstances":5019,"Ġbrother":5020,"arth":5021,"ĠIT":5022,"ĠGreat":5023,"Ġmask":5024,"Ġwhom":5025,"Ġemployee":5026,"26":5027,"Ġ60":5028,"orough":5029,"ĠAlthough":5030,"Ġlogger":5031,"Ġcool":5032,"ipped":5033,"Ġheight":5034,"Ġnut":5035,"Ġseeing":5036,"ponse":5037,"query":5038,"Ġdebt":5039,"Ġinvestors":5040,"inition":5041,"Ġexhib":5042,"Ġloved":5043,"Ġagreement":5044,"Ġcontr":5045,"Ġinstru":5046,"ĠBen":5047,"Ġhighest":5048,"Ġsurface":5049,"Ġmaintaining":5050,"Ġbeauty":5051,"Ind":5052,"Ġextremely":5053,"Ġmajority":5054,"ĠSen":5055,"29":5056,"Ġdut":5057,"roy":5058,"Ġnearly":5059,"70":5060,"They":5061,"Ġtraffic":5062,"ocket":5063,"Ġwhatever":5064,"ros":5065,"Int":5066,"Ġconven":5067,"Ġdirector":5068,"conv":5069,"={":5070,"Ġhop":5071,"Ġkeeping":5072,"Ġconnected":5073,"rust":5074,"Ġsettings":5075,"Ġcompetition":5076,"ĠAPI":5077,"Ġchannel":5078,"Ġjoin":5079,"Ġroles":5080,"Ġraised":5081,"Ġartists":5082,"Ġinvolve":5083,"ĠWhy":5084,"Ġregulations":5085,"Ġdetect":5086,"ĠLa":5087,"Ġtried":5088,"Ġbrands":5089,"layer":5090,"Ġcontains":5091,"Ġmill":5092,"fficient":5093,"Des":5094,"Ġindependent":5095,"Ġdepending":5096,"igr":5097,"ql":5098,"Ġpow":5099,"Ġourselves":5100,"ĠTV":5101,"itter":5102,"ashington":5103,"words":5104,"atically":5105,"mode":5106,"labels":5107,"Ġpython":5108,"coin":5109,"Par":5110,"ustr":5111,"ĠCheck":5112,"Ġsharing":5113,"Ġparams":5114,"Ġjournal":5115,"Ġphilos":5116,"Ġhappens":5117,"Ġaccounts":5118,"Ġhab":5119,"lor":5120,"dri":5121,"Ġdocuments":5122,"Ġwild":5123,"Ġencourage":5124,"App":5125,"Ġ>>>":5126,"Ġattor":5127,"aper":5128,"ĠGerman":5129,"ĠMarket":5130,"vention":5131,"OS":5132,"Ġoccas":5133,"Ġexercise":5134,"Ġdefend":5135,"Ġgas":5136,"ĠUse":5137,"Ġdeeper":5138,"icial":5139,"bal":5140,"Ġconsc":5141,"ulated":5142,"Ġexchange":5143,"IONS":5144,"la":5145,"Ġpractical":5146,"Ġfreedom":5147,"dered":5148,"ĠRel":5149,"Ġdefinitely":5150,"CON":5151,"Ġdesire":5152,"Ġdelivery":5153,"ĠCouncil":5154,"Ġyield":5155,")]":5156,"save":5157,"ĠMor":5158,"current":5159,"Ġshift":5160,"Ġinstruct":5161,"options":5162,"Ġcontribute":5163,"Ġdro":5164,"Ġmaintenance":5165,"Ġassistance":5166,"Ġsubsc":5167,"Ġwis":5168,"ĠService":5169,"From":5170,"gn":5171,"pool":5172,"Ġequal":5173,"ĠSocial":5174,"Ġpartners":5175,"Ġauthority":5176,"odies":5177,"\"],":5178,"elines":5179,"Ġ23":5180,"Ġinfrastructure":5181,"Ġvill":5182,"Ġconsumer":5183,"Ġadvoc":5184,"ounds":5185,"ĠPort":5186,"Ġfine":5187,"ampl":5188,"MS":5189,"Ġdoll":5190,"Ġfailed":5191,"project":5192,"free":5193,"html":5194,"BC":5195,"bar":5196,"Ġprocessing":5197,"antic":5198,"conds":5199,"cat":5200,"ĠEduc":5201,"func":5202,"Ġeducational":5203,"Ġcommitted":5204,"aren":5205,"Ġscene":5206,"Ġemotions":5207,"prene":5208,"ĠAlso":5209,"Ġalternative":5210,"ĠInter":5211,"Ġplt":5212,"Ġwish":5213,"Ġmicro":5214,"ĠWARRAN":5215,"cls":5216,"rab":5217,"Ġmorning":5218,"Ġmanager":5219,"column":5220,"tered":5221,"Ġpatterns":5222,"EST":5223,"Ġestim":5224,"Ġsymptoms":5225,"})":5226,"ĠOb":5227,"Ġelection":5228,"!\"":5229,"Ġlisten":5230,"48":5231,"Ġdiet":5232,"Ġtrou":5233,"amera":5234,"Ġboy":5235,"Ġfeelings":5236,"Ġsets":5237,"Ġmut":5238,"reprene":5239,"Ġbeg":5240,"Ġprovider":5241,"Ġpieces":5242,"Ġrecognize":5243,"Ġchain":5244,"Ġdrop":5245,"ĠBest":5246,"clude":5247,"Ġfamous":5248,"essions":5249,"Ġplot":5250,"rely":5251,"Ġtheory":5252,"Ġplays":5253,"Ġrat":5254,"Ġlegisl":5255,"Ġbra":5256,"Ġvary":5257,"omb":5258,"Ġtopic":5259,"ĠDuring":5260,"Ġ2013":5261,"Ġowners":5262,"Ġcompleted":5263,"amm":5264,"Ġframework":5265,"ĠWIT":5266,"Ġassum":5267,"Ġfootball":5268,"75":5269,"Ġaward":5270,"ĠLike":5271,"Field":5272,"related":5273,"ĠIns":5274,"ĠSince":5275,"ico":5276,"eless":5277,"Ġfees":5278,"Be":5279,"Ġmeant":5280,"ressed":5281,"akers":5282,"ĠHistory":5283,"Ġdepth":5284,"Ġlabels":5285,"cknow":5286,"road":5287,"icine":5288,"torch":5289,"Ġimg":5290,"Ġbehavi":5291,"poses":5292,"Ġeventually":5293,"Ġcomfortable":5294,"Ġsem":5295,"Ġagent":5296,"pha":5297,"ĠResearch":5298,"Ġaxis":5299,"service":5300,"Ġrevolution":5301,"ĠFacebook":5302,"Ġrestrict":5303,"Acc":5304,"Ġentertain":5305,"Ġsituations":5306,"ĠID":5307,"ele":5308,"ĠServices":5309,"Ġfoundation":5310,"Ġ28":5311,"Ġsummer":5312,"Ġhack":5313,"ulner":5314,"Ġresilience":5315,"Ġwat":5316,"classes":5317,"Input":5318,"Ġtherapy":5319,"Ġtips":5320,"Ġowner":5321,"hol":5322,"Another":5323,"Ġvirtual":5324,"Ġkn":5325,"msg":5326,"pute":5327,"kay":5328,"Ġfat":5329,"Ġengaging":5330,"den":5331,"content":5332,"Ġdistribution":5333,"ĠProfess":5334,"Ġclick":5335,"Ġprepared":5336,"encing":5337,"Ġcourses":5338,"hetic":5339,"ĠCong":5340,"Ġadvis":5341,"Ġrecognized":5342,"Ġhonest":5343,"Ġ22":5344,"conf":5345,"ĠSim":5346,"ipe":5347,"IND":5348,"ĠSpec":5349,"Ġcontroll":5350,"Ġtech":5351,"ĠAfrica":5352,"rees":5353,"Ġcrisis":5354,"ĠWashington":5355,"fra":5356,"IP":5357,"Ġultimately":5358,"Ġhidden":5359,"anned":5360,"Ġwitness":5361,"Ġelectric":5362,"ĠSystem":5363,"Ġensures":5364,"Ġsty":5365,"ĠTw":5366,"Ġsubstant":5367,"Now":5368,"Ġproviders":5369,"CE":5370,"HT":5371,"Ġeight":5372,"Ġcouldn":5373,"Ġsplit":5374,"Ġdespite":5375,"Ġexpectations":5376,"Ġdistance":5377,"ESS":5378,"Ġdirectory":5379,"Ġschol":5380,"Ġamazing":5381,"Ġwriter":5382,".\")":5383,"olf":5384,"AME":5385,"long":5386,"lands":5387,"Ġannounced":5388,"ĠThrough":5389,"!!":5390,"post":5391,"ĠLife":5392,"Ġspecifically":5393,"ĠBel":5394,"olved":5395,"ga":5396,"ersonal":5397,"agers":5398,"sign":5399,"ĠLear":5400,"Ġreputation":5401,"Ġraw":5402,"ĠLab":5403,"ĠBank":5404,"Ġloans":5405,"ENSE":5406,"ida":5407,"Ġ195":5408,"'):":5409,"bre":5410,"Ġedge":5411,"ounter":5412,"36":5413,"Key":5414,"rie":5415,"Ġmix":5416,"Ġfilms":5417,"ĠAfrican":5418,"ĠIts":5419,"Ġmovie":5420,"pan":5421,"Ġrent":5422,"Ġcoding":5423,"Ġprompt":5424,"Ġremark":5425,"Why":5426,"Ġ2012":5427,"Ġkept":5428,"enture":5429,"tics":5430,"Ġfunding":5431,"Ġ2010":5432,"Opt":5433,"features":5434,"ĠAccording":5435,"case":5436,"=(":5437,"ampions":5438,"Ġcancer":5439,"ĠGold":5440,"Ġsmaller":5441,");":5442,"Ġunivers":5443,"Ġcomponents":5444,"emplate":5445,"Ġcyber":5446,"Ġattribute":5447,"Ġoblig":5448,"Ġcrim":5449,"ĠEngland":5450,"ME":5451,"ĠLeg":5452,"Tensor":5453,"[-":5454,"Ġdoctor":5455,"Ġbelong":5456,"Ġdiagn":5457,"Ġseven":5458,"ĠOnce":5459,"ula":5460,"ĠRead":5461,"ĠType":5462,"expected":5463,"sample":5464,"hi":5465,"ĠPublic":5466,"debug":5467,"Ġprepar":5468,"Ġfort":5469,"Ġpages":5470,"Ġletter":5471,"ixt":5472,"Ġsac":5473,"Ġhour":5474,"Some":5475,"oder":5476,"Ġwidth":5477,"Ġpicture":5478,"Ġadministration":5479,"Ġoccup":5480,"Ġprinciples":5481,"ii":5482,"Ġserves":5483,"ĠAnt":5484,"option":5485,"Ġseparate":5486,"34":5487,"inating":5488,"Ġprivacy":5489,"Ġarguments":5490,"Ġdefense":5491,"Ġleaving":5492,"Ġdecades":5493,"Ġfilter":5494,"Ġpills":5495,"Ġinnovative":5496,"ICENSE":5497,"Ġsmooth":5498,"Ġretail":5499,"Ġteach":5500,"Ġcontinuous":5501,"Ġgather":5502,"Ġfavorite":5503,"Ġolder":5504,"Ġawareness":5505,"making":5506,"ĠMake":5507,"Ġapplied":5508,"vari":5509,"Ġselling":5510,"Ġ[\"":5511,"Ġcls":5512,"Ġrevenue":5513,"Ġdistinct":5514,"Ġinfo":5515,"ĠApache":5516,"ĠSub":5517,"ĠAustralia":5518,"fol":5519,"onom":5520,"Ġsigns":5521,"Ġincreasingly":5522,"filter":5523,"rows":5524,"Ġcompar":5525,"Ġnavigate":5526,"Ġrowspan":5527,"Ġmanaging":5528,"uit":5529,"Ġtrig":5530,"auth":5531,"Ġtransition":5532,"edding":5533,"Ġcollaboration":5534,"find":5535,"Ġfailure":5536,"Ġglob":5537,"copy":5538,"Ġmessages":5539,"Ġvictim":5540,"ĠRussia":5541,"Ġhomes":5542,"================================":5543,"nel":5544,"Ph":5545,"Ġacknow":5546,"Ġenable":5547,"Base":5548,"inate":5549,"Ġconfident":5550,"iling":5551,"osen":5552,"Ġfeet":5553,"but":5554,"Ġartist":5555,"ĠJames":5556,"Ġthousands":5557,"Ġfol":5558,"http":5559,"Ġattend":5560,"Here":5561,"static":5562,"Ġreference":5563,"Ġanxiety":5564,"Ġconnections":5565,"Ġopened":5566,"Ġpriorit":5567,"Ġwind":5568,"Ġmort":5569,"Ġmanufacture":5570,"ĠUp":5571,"iled":5572,"Ġpurposes":5573,"event":5574,"hus":5575,"iration":5576,"OL":5577,"Ġpandemic":5578,"ĠBoard":5579,"ocation":5580,"cript":5581,"ĠDan":5582,"Ġspecified":5583,"Ġagency":5584,"mes":5585,"Ġcolle":5586,"ĠInstitute":5587,"Ġdied":5588,"ship":5589,"Ġgoods":5590,"Ġstated":5591,"ports":5592,"Ġgenerated":5593,"number":5594,"itig":5595,"Ġjustice":5596,"Ġking":5597,"sche":5598,"Comm":5599,"Ġpool":5600,"norm":5601,"Ġhus":5602,"gar":5603,"Ġbiggest":5604,"Ġepisode":5605,"Ġcauses":5606,"ns":5607,"othing":5608,"Ġapart":5609,"Ġfre":5610,"position":5611,"Ġrequests":5612,"Ġproceed":5613,"Log":5614,"Ġslight":5615,"Ġcovered":5616,"Ġtrip":5617,"Ġongoing":5618,"'))":5619,"equal":5620,"Ġsustainable":5621,"oses":5622,"Ġfan":5623,"zy":5624,"std":5625,"reshold":5626,"Ġbreath":5627,"semb":5628,"Ġskill":5629,"mt":5630,"Ġdial":5631,"Ġ26":5632,"Ġoutcomes":5633,"ĠFoundation":5634,"ĠAmazon":5635,"hedul":5636,"Ġvideos":5637,"Ġdistrict":5638,"real":5639,"ifies":5640,"next":5641,"Ġaccident":5642,"imize":5643,"Ġrestaur":5644,"eed":5645,"Ġheat":5646,"etry":5647,"38":5648,"Ġexplain":5649,"Ġwall":5650,"amily":5651,"Ġoperating":5652,"Ġcombination":5653,"life":5654,"Ġpreviously":5655,"Ġvulner":5656,"ĠVersion":5657,"ystem":5658,"Ġcritic":5659,"Ġcold":5660,"cor":5661,"Ġconsidering":5662,"can":5663,"Ġburn":5664,"ĠRussian":5665,"Ġproperly":5666,"Ġspecies":5667,"dden":5668,"Ġlaunch":5669,"emporary":5670,"Trans":5671,"Ġintroduced":5672,"unately":5673,"oftware":5674,"obs":5675,"44":5676,"Ġjoy":5677,"Ġmanaged":5678,"Out":5679,"Ġknows":5680,"Ġreached":5681,"Ġamb":5682,"asts":5683,"icit":5684,"Ġmulti":5685,"Ġnor":5686,"Man":5687,"ionally":5688,"Ġstar":5689,"Ġcop":5690,"Ġpackage":5691,"Ġopinion":5692,"Ġenv":5693,"ĠSing":5694,"Ġannual":5695,"Ġblue":5696,"ĠWhite":5697,"ĠSch":5698,"FL":5699,"Ġcleaning":5700,"Ġrepair":5701,"ossible":5702,"TIES":5703,"ĠAv":5704,"space":5705,"Ġdetailed":5706,"Ġdiscussion":5707,"Ġinfect":5708,"ario":5709,"Ġdecide":5710,"rat":5711,"ĠPlan":5712,"Ġpadd":5713,"Ġcorporate":5714,"Ġeat":5715,"Ġadding":5716,"ĠPre":5717,"Ġfix":5718,"arden":5719,"Ġaccompl":5720,"PC":5721,"Ġconclusion":5722,"Ġreward":5723,"transform":5724,"Ġended":5725,"osis":5726,"Ġremote":5727,"ervation":5728,"Ġminor":5729,"Ġcitizens":5730,"Ġ2011":5731,"Ġsupporting":5732,"ĠMal":5733,"cher":5734,"command":5735,"ĠCommission":5736,"ĠJack":5737,"Ġlegacy":5738,"Ġdeploy":5739,"itoring":5740,"Ġmatters":5741,"estic":5742,"ester":5743,"Ġscientific":5744,"Ġloyal":5745,"Ġ27":5746,"Ġheavy":5747,"Ġrecovery":5748,"ĠYear":5749,"igration":5750,"Ġknowing":5751,"ĠUk":5752,"ĠGree":5753,"Ġpayments":5754,"Ġgone":5755,"Ġsudden":5756,"Ġhelpful":5757,"Ġinjury":5758,"ensity":5759,"server":5760,"Ġbrings":5761,"ether":5762,"Ġpresented":5763,"session":5764,"pty":5765,"*-":5766,"task":5767,"greg":5768,"Ġfamiliar":5769,"ĠWestern":5770,"Ġauthentic":5771,"Ġgoverning":5772,"Ġweap":5773,"Ġnegot":5774,"Ġplaced":5775,"ĠCB":5776,"Ġdrug":5777,"Ġjoint":5778,"Ġbuying":5779,"Over":5780,"ERS":5781,"ij":5782,"Ġcities":5783,"LC":5784,"ocratic":5785,"icians":5786,"ĠWARRANTIES":5787,"iated":5788,"Tra":5789,"ĠSk":5790,"95":5791,"emp":5792,"Ġdry":5793,"37":5794,"Ġdepends":5795,"Ġinvent":5796,"ĠCOVID":5797,"page":5798,"Ġenum":5799,"Ġbon":5800,"ĠTex":5801,"Ġauth":5802,"ĠDel":5803,"Ġwebsites":5804,"ĠEv":5805,"Ġspending":5806,"uclear":5807,"Ġpositions":5808,"ĠStreet":5809,"Ġpotentially":5810,"Ġweather":5811,"resource":5812,"âĢ¢":5813,"05":5814,"Ġsyn":5815,"ago":5816,"hab":5817,"urthermore":5818,"Ġschedule":5819,"ialize":5820,"mas":5821,"Ġprofile":5822,"dtype":5823,"Up":5824,"Ġviolence":5825,"ĠAdd":5826,"ĠBuild":5827,"ĠGermany":5828,"ĠBook":5829,"Ġfeels":5830,"SC":5831,"Ġimproved":5832,"local":5833,"ĠTime":5834,"Mod":5835,"ĠJer":5836,"Ġtempl":5837,"ya":5838,"Ġlose":5839,"Ġimplied":5840,"Ġasking":5841,"Ġweak":5842,"Ġmanner":5843,"rian":5844,"Ġspect":5845,"Ġtelevision":5846,"Ġfrequently":5847,"Ġconsistent":5848,"Ġthread":5849,"ĠHel":5850,"secut":5851,"Ġexpression":5852,"----------":5853,"Ġappeal":5854,"ĠParam":5855,"Ġappears":5856,"Ġentreprene":5857,"mem":5858,"raint":5859,"Pol":5860,"License":5861,"parser":5862,"Ġtick":5863,"edy":5864,"UM":5865,"icrosoft":5866,"Ġgirl":5867,"Ġopening":5868,"Ġcapabilities":5869,"Ġpd":5870,"Ġ-*-":5871,"ĠPython":5872,"ĠGood":5873,"Ġcoff":5874,"Ġchannels":5875,"layers":5876,"resents":5877,"ĠExper":5878,"uct":5879,"Ġelim":5880,"claim":5881,"Ġpodcast":5882,"Ġaccurate":5883,"ĠRich":5884,"Ġexternal":5885,"Ġconscious":5886,"equ":5887,"Ġappearance":5888,"ĠInstead":5889,"Ġenthus":5890,"ĠBra":5891,"ĠCustom":5892,"drop":5893,"tr":5894,"Ġcorrespon":5895,"ĠSat":5896,"txt":5897,"Ġmarriage":5898,"ville":5899,"axis":5900,"ĠTur":5901,"inputs":5902,"Ġdating":5903,"Time":5904,"HOUT":5905,"logger":5906,"lication":5907,"Ġrelax":5908,"orial":5909,"Ġfasc":5910,"Ġreact":5911,"unction":5912,"ĠCap":5913,"well":5914,"channels":5915,"ĠGreen":5916,"itage":5917,"Ġfuel":5918,"udd":5919,"future":5920,"ĠAssociation":5921,"predict":5922,"Response":5923,"ao":5924,"icious":5925,"Ġinputs":5926,"Ġkit":5927,"Ġconcent":5928,"ingu":5929,"ribe":5930,"ĠSEO":5931,"ĠKey":5932,"ĠCommit":5933,"licenses":5934,"entials":5935,"Ġuniversity":5936,"AA":5937,"Ġmoments":5938,"amental":5939,"Ġfacilit":5940,"Ġnotes":5941,"Ġauto":5942,"Ġsale":5943,"Class":5944,"Ġdatabase":5945,"Ġrealize":5946,"ĠSur":5947,"Ġapps":5948,"Ġ2008":5949,"network":5950,"Ġcompens":5951,"Ġpursu":5952,"bert":5953,"hash":5954,"Ġresearc":5955,"ĠFrance":5956,"Ġselection":5957,"Ġbul":5958,"Ġreducing":5959,"Ġvariable":5960,"ĠGr":5961,"Ġbill":5962,"Ġshowing":5963,"Ġfaster":5964,"Ġvast":5965,"ML":5966,"ĠRobert":5967,"anging":5968,"Ġfill":5969,"inger":5970,"Ġadvertising":5971,"Ġarticles":5972,"Ġbelieved":5973,"Ġprepare":5974,"ĠManagement":5975,"Ġphilosoph":5976,"pi":5977,"only":5978,"Ġbrief":5979,"Ġera":5980,"Ġneighbor":5981,"Ġgod":5982,"inations":5983,"RA":5984,"Ġreaction":5985,"inn":5986,"vate":5987,"tim":5988,"Che":5989,"ĠSecurity":5990,"Ġhumans":5991,"irus":5992,"irms":5993,"Ġalle":5994,"ĠGovernment":5995,"Ġstands":5996,"Ġextensive":5997,"Ġworry":5998,"Ġdynamic":5999,"Ġinstant":6000,"Ġcards":6001,"holders":6002,"ĠPost":6003,"Ġvisitors":6004,"Ġhusband":6005,"Ġindustries":6006,"store":6007,"Ġappeared":6008,"ady":6009,"ĠLicensed":6010,"Ob":6011,"ĠMary":6012,"ĠThom":6013,"ĠCreate":6014,"ĠTherefore":6015,"Ġpermissions":6016,"ildren":6017,"Ġvacc":6018,"draw":6019,"Ġnoted":6020,"results":6021,"ifest":6022,"Ġvolume":6023,"ĠCare":6024,"Ġmissing":6025,"ĠMiss":6026,"ĠMod":6027,"Ġimproving":6028,"39":6029,"Ġresidents":6030,"Ġcarefully":6031,"ĠEducation":6032,"Ġdriver":6033,"Ġlam":6034,"agger":6035,"ĠYes":6036,"Americ":6037,"Ġanimals":6038,"normal":6039,"bu":6040,"Us":6041,"csv":6042,"Ġâ":6043,"ĉĉĉ":6044,"Ġaccessible":6045,"500":6046,"Ġartificial":6047,"Ġsatisfaction":6048,"worth":6049,"urally":6050,"ĠAmericans":6051,"Ġstation":6052,"Ġintended":6053,"Ġfee":6054,"ithub":6055,"FI":6056,"Ġexpensive":6057,"ĠWITHOUT":6058,"ective":6059,"Ġmil":6060,"Ġcomponent":6061,"02":6062,"Ġrecognition":6063,"Ġignore":6064,"Ġteachers":6065,"Ġwear":6066,"Ġpal":6067,"ĠLead":6068,"Ġbottom":6069,"PA":6070,"ĠMem":6071,"merce":6072,"Ġthorough":6073,"arity":6074,"Ġunits":6075,"Ġnetworks":6076,"Ġintegrity":6077,"ĠParty":6078,"Ġgun":6079,"ĠAngel":6080,"Ġingred":6081,"Ġstruggle":6082,"epoch":6083,"Ġaid":6084,"DA":6085,"king":6086,"Ġfilled":6087,"ĠHome":6088,"uda":6089,"Ġmaximum":6090,"Ġcoordin":6091,"prefix":6092,"65":6093,"Ġcateg":6094,"Ġshot":6095,"oves":6096,"ĠMart":6097,"Ġwarn":6098,"EC":6099,"Ġlived":6100,"Ġreduced":6101,"Ġ..":6102,"Ġ},":6103,"Ġfloor":6104,"chen":6105,"Ġoverw":6106,"Ġlaun":6107,"SI":6108,"ansion":6109,"Ġkill":6110,"Ġpull":6111,"ATE":6112,"Ġoptional":6113,"lis":6114,"rive":6115,"ĠOh":6116,"ĠSam":6117,"stack":6118,"New":6119,"direct":6120,"Ġtransactions":6121,"istan":6122,"Ġsto":6123,"za":6124,"how":6125,"inner":6126,"Ġinteract":6127,"ideo":6128,"ĠSuper":6129,"Ġseemed":6130,"DF":6131,"Ġspeaking":6132,"Frame":6133,"88":6134,"ĠMet":6135,"ĠLinux":6136,"Ġmagn":6137,"cel":6138,"cons":6139,"Ġ{\"":6140,"ĠFil":6141,"ĠPay":6142,"execut":6143,"Ġtit":6144,"Ġfemale":6145,"ulations":6146,"iders":6147,"Ġreject":6148,"ĠCongress":6149,"She":6150,"ĠSom":6151,"ĠKIND":6152,"front":6153,"Ġspeech":6154,"Ġmur":6155,"urb":6156,"Ġsevere":6157,"Ġsusp":6158,"match":6159,"Request":6160,"agram":6161,"Ġintent":6162,"sys":6163,"Inst":6164,"Exception":6165,"------":6166,"rum":6167,"Ġinterpret":6168,"EX":6169,"DIT":6170,"ĠLook":6171,"ĠMuseum":6172,"Ġrul":6173,"ĠYeah":6174,"Ġminimum":6175,"Ġcrow":6176,"sey":6177,"Ġarm":6178,"TP":6179,"TO":6180,"Ġimplementation":6181,"Ġengineering":6182,"Ġawait":6183,"Ġdouble":6184,"ictionary":6185,"Ġgenu":6186,"Ġfaced":6187,"Ġconstantly":6188,"math":6189,"ĠRoman":6190,"Ġregularly":6191,"Ġexciting":6192,"Ġsenior":6193,"ĠJewish":6194,"NA":6195,"Ġpun":6196,"outhern":6197,"ĠAlex":6198,"ĠâĢĶ":6199,"Ġextract":6200,"Ġ2009":6201,"ĠDirector":6202,"security":6203,"Ġjoined":6204,"ston":6205,"Ġdecre":6206,"Ġerrors":6207,"Ġcells":6208,"ĠRo":6209,"Ġreaders":6210,"tag":6211,"ĠVis":6212,"friendly":6213,"Gener":6214,"Ġwaste":6215,"ounder":6216,"Ġshoot":6217,"ota":6218,"atin":6219,"ĠFore":6220,"Ġcreates":6221,"outs":6222,"Ste":6223,"Ġrepresents":6224,"Ġvs":6225,"replace":6226,"BA":6227,"ĠProject":6228,"ĠMex":6229,"sort":6230,"rt":6231,"ĠBAS":6232,"Ġdifferences":6233,"ĠMag":6234,"send":6235,"Ġexperiment":6236,"Ġadop":6237,"ĠAcad":6238,"Ġpra":6239,"itution":6240,"Ġchemical":6241,"ĠDec":6242,"Ġconver":6243,"Ġwest":6244,"ifts":6245,"Ġtag":6246,"Ġwaiting":6247,"ĠDet":6248,"aked":6249,"Ã¡":6250,"(__":6251,"ĠRiver":6252,"ĠProgram":6253,"Ġconsequences":6254,"ĠIslam":6255,"ĠÂ£":6256,"Ġnice":6257,"ander":6258,"ĠEarth":6259,"Ġfant":6260,"ado":6261,"Ġchoosing":6262,"Or":6263,"ĠGeorge":6264,"ĠTexas":6265,"mult":6266,"gent":6267,"ĠInvest":6268,"yl":6269,"Ġthank":6270,"ĠClass":6271,"RI":6272,"ĠJapanese":6273,"Ġrecommended":6274,"Ġteacher":6275,"under":6276,"ĠMichael":6277,"Ġfacilities":6278,"Ġdiscovered":6279,"Ġperformed":6280,"Ġrein":6281,"Read":6282,"unning":6283,"Ġforget":6284,"Ġdivid":6285,"total":6286,"Ġmath":6287,"ĠMad":6288,"first":6289,"ka":6290,"zeros":6291,"Ġath":6292,"Ġaffected":6293,"Ġpolitics":6294,"what":6295,"Ġunless":6296,"arp":6297,"Ġholds":6298,"Ġdoubt":6299,"ĠScience":6300,"apers":6301,"Ġtopics":6302,"Ġshowed":6303,"ocab":6304,"Ġdeeply":6305,"Ġ80":6306,"Ġdogs":6307,"Ġdevelopers":6308,"Ġsurrounding":6309,"apache":6310,"sa":6311,"ĠNOT":6312,"lements":6313,"ĠCall":6314,"edge":6315,"Ġship":6316,"Ġsignificance":6317,"ĠLeague":6318,"ĠProv":6319,"ĠHall":6320,"Ġcoffee":6321,"Ġdatetime":6322,"search":6323,"Ġimpress":6324,"\");":6325,"Ġyouth":6326,"Ġselected":6327,"Ġcriminal":6328,"Ġasset":6329,"unte":6330,"Ġsoul":6331,"Ġmsg":6332,"Path":6333,"gage":6334,"SD":6335,"Ġdefinition":6336,"Can":6337,"Ġupdated":6338,"Ġsea":6339,"Ġonto":6340,"ĠBet":6341,"cache":6342,"osit":6343,"Ġrot":6344,"example":6345,"onial":6346,"while":6347,"ellect":6348,"Value":6349,"Ġsuc":6350,"55":6351,"49":6352,"Ġmostly":6353,"Reg":6354,"ĠCath":6355,"47":6356,"ĠMo":6357,"Ġtrusted":6358,"Ġdomain":6359,"(-":6360,"Ġcolors":6361,"Ġspaces":6362,"Ġforg":6363,"inent":6364,"Ġvibr":6365,"cal":6366,"Ġhospital":6367,"Ġapprox":6368,"common":6369,"crete":6370,"iary":6371,"err":6372,"Ġemployment":6373,"Ġidentified":6374,"Ġsuccessfully":6375,"Ġprofit":6376,"Ġcatch":6377,"estyle":6378,"Ġtransaction":6379,"nes":6380,"Ġheader":6381,"Ġattacks":6382,"Ġexpenses":6383,"ĠUnless":6384,"Su":6385,"Ġintegration":6386,"Ġicon":6387,"ĠLou":6388,"ĠOnly":6389,"stract":6390,"Ġbaby":6391,"Ġfalse":6392,"Ġfilename":6393,"Ġdesigns":6394,"ĠCEO":6395,"scope":6396,"Ġfurn":6397,"ini":6398,"estion":6399,"Of":6400,"berg":6401,"Ġreporting":6402,"Ġattorney":6403,"Ġ29":6404,"ĠGra":6405,"Ġsan":6406,"Ġrelatively":6407,"Ġresulting":6408,"ĠDevelopment":6409,"Ġ90":6410,"Ġtransformation":6411,"Ġ2000":6412,"ĠCur":6413,"Ġcalling":6414,"Ġcomments":6415,"Ġclosely":6416,"Ġexists":6417,"ĠSoftware":6418,"which":6419,")):":6420,"except":6421,"Ġsport":6422,"Ġsurvey":6423,"Ġvehicles":6424,"Ġbringing":6425,"Ġinner":6426,"Ġdestroy":6427,"Ġholding":6428,"LICENSE":6429,"Ġhearing":6430,"Ġclosed":6431,"Ġsucceed":6432,"31":6433,"Ġstarts":6434,"Ġkeys":6435,"Ġparticipants":6436,"Ġasync":6437,"Ġplants":6438,"Ġdetermined":6439,"Ġdaughter":6440,"MO":6441,"orthern":6442,"\"):":6443,"Ġfundamental":6444,"ĠMac":6445,"iform":6446,"Ġbag":6447,"Ġcontaining":6448,"allet":6449,"ĠKore":6450,"Ġobj":6451,"Ġabsolute":6452,"oles":6453,"Ġglass":6454,"Ġexception":6455,"Ġkinds":6456,"pload":6457,"Ġlux":6458,"Ġinvestments":6459,"More":6460,"door":6461,"Ġsigned":6462,"Ġruns":6463,"author":6464,"estamp":6465,"Ġwouldn":6466,"Don":6467,"racy":6468,"Ġkilled":6469,"asy":6470,"Ġgreatest":6471,"Ġstake":6472,"Ġlots":6473,"Ġfellow":6474,"Let":6475,"SS":6476,"Ġsetup":6477,"stood":6478,"Ġguess":6479,"Ġshop":6480,"settings":6481,"Ġsuitable":6482,"NAME":6483,"Ġbond":6484,"ĠDiv":6485,"ows":6486,"miss":6487,"Ġstreet":6488,"Ġcarried":6489,"Ġcv":6490,"Ġimprovement":6491,"ĠBu":6492,"`.":6493,"Ġenterpr":6494,"mosp":6495,"ĠCommittee":6496,"Ġmock":6497,"Ġmanufacturing":6498,"Ġpersonalized":6499,"Ġremoved":6500,"Ġassessment":6501,"ĠQue":6502,"Ġbuildings":6503,"ĠBre":6504,"Ġphase":6505,"Ġchart":6506,"Ġcars":6507,"Ġ),":6508,"pg":6509,"Ġempty":6510,"Ġsole":6511,"Ġexistence":6512,"bb":6513,"metadata":6514,"Ġflat":6515,"Ġhonor":6516,"Ġcommunicate":6517,"Ġcategory":6518,"Ġcounsel":6519,"Ġlibrary":6520,"Ġgift":6521,"Ġpurs":6522,"66":6523,"Ġmuseum":6524,"Ġcycle":6525,"Ġputting":6526,"Ġimplic":6527,"forward":6528,"nam":6529,"height":6530,"Ġadministr":6531,"Ġessence":6532,"operation":6533,"Ġpreferences":6534,"Ġcreativity":6535,"Ġconvert":6536,"Ġfinished":6537,"ĠVir":6538,"Ġcombined":6539,"Ġsumm":6540,"Ġrepresentation":6541,"ste":6542,"Ġagencies":6543,"Ġhaven":6544,"bool":6545,"ĠStr":6546,"ĠBig":6547,"Ġreson":6548,"ĠEngine":6549,"Ġfixed":6550,"Ġindustrial":6551,"Ġtuple":6552,"199":6553,"inding":6554,"Ġsequence":6555,"Ġunw":6556,"lower":6557,"Ġfold":6558,"ĠImp":6559,"Ġmetal":6560,"Ġmo":6561,"Ġentirely":6562,"Ġprote":6563,"ommod":6564,"ĠToday":6565,"Ġmonitoring":6566,"Ġbatter":6567,"Ġthanks":6568,"Ġresident":6569,"Ġimmediate":6570,"Ġexploring":6571,",'":6572,"Ġengaged":6573,"inte":6574,"Ġvac":6575,"Ġdiscipl":6576,"ĠInte":6577,"ancial":6578,"arsh":6579,"Ġpair":6580,"Ġarchitecture":6581,"Ġworldwide":6582,"Ġthr":6583,"ĠUN":6584,"Ġinvesting":6585,"Ġforced":6586,"Ġchosen":6587,"ĠId":6588,"ĠAff":6589,"igen":6590,"Ġdiss":6591,"ceived":6592,"ĠNews":6593,"ailed":6594,"Ġlies":6595,"Ġupdates":6596,"ĠBible":6597,"Ġnarrative":6598,"gers":6599,"Ġdisrupt":6600,"KE":6601,"ĠSun":6602,"Ġrain":6603,"Ġbanks":6604,"github":6605,"ĠBer":6606,"ulture":6607,"II":6608,"Ġgar":6609,"bas":6610,"Ġentity":6611,"Ġdefe":6612,"Ġnuclear":6613,"eal":6614,"Ġadvantages":6615,"Ġreb":6616,"Ġarrange":6617,"(_":6618,"Ġlayers":6619,"Ġpaying":6620,"Ġsubsequ":6621,"pet":6622,"Ġzero":6623,"pulumi":6624,"Ġfinance":6625,"elta":6626,"aks":6627,"strip":6628,"Ġlistening":6629,"Ġcontrast":6630,"istor":6631,"otic":6632,"allel":6633,"Ġcamera":6634,"42":6635,"seed":6636,"ĠRev":6637,"orders":6638,"othes":6639,"ona":6640,"cks":6641,"ĠSer":6642,"show":6643,"ean":6644,"Ġdocumentation":6645,"Ġdepart":6646,"Ġdealing":6647,"embed":6648,"Rec":6649,"Ġprison":6650,"ĠReview":6651,"Ġdepartment":6652,"Ġbodies":6653,"Ġprofound":6654,"Ġmetrics":6655,"Ġoverwhel":6656,"Ġpossess":6657,"Add":6658,"ITY":6659,"Ġcry":6660,"Ġemergency":6661,"Ġappreciate":6662,"State":6663,"wik":6664,"Ġtells":6665,"DITIONS":6666,"Ġmeaningful":6667,"Ġlocations":6668,"osh":6669,"Ġtemperature":6670,"forcement":6671,"ĠFlor":6672,"cmd":6673,"Ġstructures":6674,"Ġconcerned":6675,"make":6676,"ien":6677,"oma":6678,"Ġ2007":6679,"Ġquarter":6680,"Ġ'/":6681,"Ġinsight":6682,"Ġrenew":6683,"Ġwidely":6684,"igital":6685,"ĠFranc":6686,"Ġaccepted":6687,"ĠSal":6688,"Ġtaught":6689,"ĠMer":6690,"Ġserving":6691,"ĠBit":6692,"oval":6693,"Ġnorth":6694,"src":6695,"Ġfacts":6696,"SA":6697,"ĠNetwork":6698,"Ġstanding":6699,"ĠException":6700,"uan":6701,"Ġhappening":6702,"ĠCONDITIONS":6703,"lat":6704,"Ġcrime":6705,"Aut":6706,"paren":6707,"Ġtrad":6708,"ĠBASIS":6709,"Ġque":6710,"ĠModel":6711,"Ġfacing":6712,"ĠDev":6713,"Ġterrit":6714,"ĠRight":6715,"ĠDesign":6716,"Form":6717,"Ġtrained":6718,"Ġjudge":6719,"Ġproposed":6720,"Ġimpossible":6721,"ultural":6722,"ĠGen":6723,"bose":6724,"ĠMain":6725,"true":6726,"ĠAward":6727,"Ġtyping":6728,"'].":6729,"Ġmarried":6730,"amil":6731,"Ġcontributions":6732,"description":6733,"Ġpromoting":6734,"TY":6735,"Def":6736,"Ġatmosp":6737,"Ġhyp":6738,"]))":6739,"Ġconfiguration":6740,"she":6741,"isms":6742,"Ġsin":6743,"ĠForm":6744,"ĠStart":6745,"Ġinterface":6746,"Ġord":6747,"Ġreform":6748,"ĠSmith":6749,"Ġgender":6750,"Ġhousehold":6751,"Under":6752,"lights":6753,"Ġnone":6754,"Ġinspired":6755,"Ġprimarily":6756,"Yes":6757,"Ġprev":6758,"Ġabsolutely":6759,"ingly":6760,"Ġstick":6761,"zing":6762,"Ġinteractions":6763,"Ġorganized":6764,"aid":6765,"roud":6766,"Ġsupports":6767,"ician":6768,"Ġsessions":6769,"Ġpure":6770,"cfg":6771,"Ġportfol":6772,"Ġhealing":6773,"Ġfraud":6774,"Ġenroll":6775,"Ġfollows":6776,"Your":6777,"Ġconversations":6778,"Ġfle":6779,"estival":6780,"Ġinitiatives":6781,"Ġplus":6782,"Ġfish":6783,"Ġsounds":6784,"67":6785,"parency":6786,"Ġvote":6787,"ĠJour":6788,"Ġdedication":6789,"Ġshopping":6790,"Ġshares":6791,"matrix":6792,"ĠOffice":6793,"Ġanswers":6794,"Ġextent":6795,"Ġevolution":6796,"ĠDict":6797,"otes":6798,"Ġsolve":6799,"Ġownership":6800,"Ġborrow":6801,"Ġaccommod":6802,"roc":6803,"Ġfinish":6804,"Ġ>=":6805,"Ġhousing":6806,"adian":6807,"ĠBoth":6808,"Ġsubstantial":6809,"Ġscholars":6810,"','":6811,"Ġkernel":6812,"Ġreligion":6813,"Ġrecorded":6814,"ĠCy":6815,"ushed":6816,"gt":6817,"ĠBill":6818,"Ġmassive":6819,"ĠĠĠĠĠĠĠĠĠčĊ":6820,"Ġtheme":6821,"weights":6822,"Ġaffordable":6823,"Ġleaves":6824,"ĠEconom":6825,"Many":6826,"Ġsuggests":6827,"Ġprocedures":6828,"Ġguarantee":6829,"rd":6830,"Ġanticip":6831,"Ġexcess":6832,"sv":6833,"Ġintellect":6834,"anguages":6835,"ĠArab":6836,"ĠCode":6837,"then":6838,"irement":6839,"Ġfigures":6840,"lambda":6841,"ĠTor":6842,"RL":6843,"({":6844,"grade":6845,"Ġaccuracy":6846,"American":6847,")),":6848,"van":6849,"ĠRun":6850,"gypt":6851,"Ġcorner":6852,"ria":6853,"rical":6854,"Ġdur":6855,"Ġpersonality":6856,"Ġinval":6857,"Ġformed":6858,"ava":6859,"Ġiter":6860,"Ġoutcome":6861,"ett":6862,"Ġrealized":6863,"Ġlaunched":6864,"Ġdemands":6865,"ĠMicrosoft":6866,"ourage":6867,"Pe":6868,"Ġseconds":6869,"Ġ32":6870,"Ġcloser":6871,"script":6872,"steps":6873,"ua":6874,"seq":6875,"Ġlawyer":6876,"Ġsuit":6877,"Ġreferred":6878,"han":6879,"vol":6880,"Ġagents":6881,"fortunately":6882,"Ġdestination":6883,"OC":6884,"ĠWho":6885,"Ġyes":6886,"assion":6887,"raine":6888,"ĠCentral":6889,"Ġexposure":6890,"Ġtradition":6891,"Ġsongs":6892,"anda":6893,"Ġslightly":6894,"Ġabuse":6895,"Ġjump":6896,"ala":6897,"Ġparameter":6898,"ĠPress":6899,"ĠHy":6900,"ĠPeter":6901,"Ġalgorithms":6902,"never":6903,"mm":6904,"DS":6905,"Ġbags":6906,"Ġmarg":6907,"Ġliqu":6908,"Ġpul":6909,"Result":6910,"Ġdiscrim":6911,"mail":6912,"Ġlifestyle":6913,"numpy":6914,"Ġinstrument":6915,"ĠPower":6916,"ĠPath":6917,"Ġ31":6918,"ugin":6919,"iture":6920,"Ġpublish":6921,"IV":6922,"ĠWhere":6923,"Ġexplained":6924,"\"])":6925,"Ġtact":6926,"Ġsouth":6927,"Ġcapable":6928,"location":6929,"ĠArch":6930,"section":6931,"Ġdivision":6932,"Ġcapture":6933,"Ġdb":6934,"Ġoperate":6935,"Ġnom":6936,"API":6937,"Ġanalytics":6938,"samples":6939,"Ġinvolving":6940,"Ġseed":6941,"Ġuncertain":6942,"Ġdangerous":6943,"Ġboundaries":6944,"Ġrely":6945,"cluded":6946,"Ġfirms":6947,"cohol":6948,"ĠParameters":6949,"Ġlambda":6950,"ĠWeb":6951,"Ġstores":6952,"ypes":6953,"ĠLo":6954,"aver":6955,"ĠLib":6956,"optim":6957,"spe":6958,"Ġempower":6959,"phone":6960,"fin":6961,"ĠSecond":6962,"Ġpossibly":6963,"Ġrom":6964,"depth":6965,"Ġaffiliate":6966,"ĠTake":6967,"Ġstability":6968,"ĠĠĠĠĠĠĠĠĠĠčĊ":6969,"oto":6970,"orig":6971,"roid":6972,"Ġcoach":6973,"Ġjudgment":6974,"Case":6975,"46":6976,"gery":6977,"ocracy":6978,"Ġhyd":6979,"Ġplenty":6980,"Ġbegins":6981,"Ġperman":6982,"Ġenviron":6983,"Ġfab":6984,"Ġ===":6985,"ocur":6986,"Ġrecip":6987,"Ġethical":6988,"Ġrelative":6989,"Ġcheap":6990,"header":6991,"\\\\":6992,"ittest":6993,"Ġmedicine":6994,"rich":6995,"Ġrecommendations":6996,"Ġcommission":6997,"ĠSpirit":6998,"Ġphotos":6999,"has":7000,"arrow":7001,"ĠST":7002,"Ġofficials":7003,"Ġposts":7004,"Ġdiversity":7005,"Ġsufficient":7006,"Ġstatements":7007,"Ġindeed":7008,"Ġclassic":7009,"gon":7010,"utf":7011,"Ġoutputs":7012,"(*":7013,"ivered":7014,"Ġcandidate":7015,"ĠEU":7016,"world":7017,"Ġcontemporary":7018,"Ġ70":7019,"agues":7020,"ĠMount":7021,"Ġreasonable":7022,"ĠFort":7023,"Ġ2006":7024,"Ġexecutive":7025,"ĠMatt":7026,"Ġmatrix":7027,"itting":7028,"77":7029,"Ġorders":7030,"85":7031,"Ġpossibility":7032,"Ġextended":7033,"ulty":7034,"ĠHim":7035,"ĠSociety":7036,"Ġquiet":7037,"lessly":7038,"Ġguy":7039,"Ġprotected":7040,"Ġapproaches":7041,"template":7042,"Ġmillions":7043,"fields":7044,"Ġtro":7045,"Ġroutine":7046,"Ġwonderful":7047,"ĠMinister":7048,"Ġresearchers":7049,"zen":7050,"ĠMuslim":7051,"Ġflexibility":7052,"Ġcampaigns":7053,"ĠCommunity":7054,"Ġauthorities":7055,"ĠInternet":7056,"boxes":7057,"using":7058,"alian":7059,"Ġfocusing":7060,"Dict":7061,"Ġnic":7062,"Ġ<|":7063,"Ġalt":7064,"initial":7065,"Ġshock":7066,"ĠAND":7067,"Ġpu":7068,"Ġdefine":7069,"patch":7070,"Ġhero":7071,"Ġtensorflow":7072,"bi":7073,"athe":7074,"Ġflag":7075,"Ġtrees":7076,"Ġobst":7077,"Ġanimal":7078,"ĠLog":7079,"Ġbright":7080,"agon":7081,"Ġgenerations":7082,"ĠDespite":7083,"Ġmoral":7084,"Ġwatching":7085,"uses":7086,"ĠBay":7087,"west":7088,"ĠWil":7089,"Ġunderstood":7090,"Ġphen":7091,"Ġroute":7092,"Ġbeneficial":7093,"ĠLong":7094,"Ġtailored":7095,"night":7096,"ĠĠĠĠĠĠĠĠĠĠĠčĊ":7097,"stop":7098,"Ġdollars":7099,"Ġcandidates":7100,"ĠProt":7101,"Ġbigger":7102,"Ġnative":7103,"that":7104,"ĠTim":7105,"ĠOld":7106,"Ġreceiving":7107,"Ġachieved":7108,"Ġactively":7109,"Ġconference":7110,"unting":7111,"ĠSl":7112,"oices":7113,"Ġremained":7114,"Ġbroken":7115,"channel":7116,"grid":7117,"Ġmotor":7118,"Ġclinical":7119,"Ġdie":7120,"mission":7121,"redit":7122,"Ġban":7123,"ĠEgypt":7124,"ĠEp":7125,"urd":7126,"ĠInit":7127,"CA":7128,"Ġpremium":7129,"Ġvolunte":7130,"lick":7131,"ĠIran":7132,"Ġprocedure":7133,"ĠPlease":7134,"Ġnecessarily":7135,"Ġdiscussed":7136,"03":7137,"Ġgrew":7138,"Ġanalyze":7139,"ĠTre":7140,"ĠLu":7141,"Ġrevealed":7142,"ORT":7143,"tests":7144,"Ġgained":7145,"cluding":7146,"ĠJud":7147,"Ġadds":7148,"ĠCreat":7149,"Ġrobust":7150,"Ġproof":7151,"bound":7152,"ĠOrgan":7153,"Ġlegit":7154,"ette":7155,"ĠVol":7156,"sts":7157,"ĠIr":7158,"irmed":7159,"]),":7160,"Ġregulatory":7161,"Ġbarri":7162,"ĠSupport":7163,"nic":7164,"ĠScott":7165,"Ġremaining":7166,"ĠSecret":7167,"Ġschedul":7168,"ĠDistrict":7169,"ads":7170,"Imp":7171,"ĠFlorida":7172,"Ġmal":7173,"Ġsensitive":7174,"Ġtow":7175,"04":7176,"Ġseam":7177,"Ġcommonly":7178,"Ġdictionary":7179,"Ġingredients":7180,"Ġentertainment":7181,"ĠIsland":7182,"system":7183,"Ġacts":7184,"Ġparticipate":7185,"ĠCle":7186,"Ġfriendly":7187,"iler":7188,"Ġdelay":7189,"Ġsummary":7190,"Ġplanet":7191,"ĠSpan":7192,"ĠAnother":7193,"Ġincreases":7194,"Ġmiles":7195,"Ġconducted":7196,"Ġenumerate":7197,"Ġmanagers":7198,"ĠCamp":7199,"fast":7200,"Ġautomatically":7201,"Ġexceptional":7202,"Ġmouth":7203,"Ġtargets":7204,"Ġguard":7205,"ba":7206,"gments":7207,"Ġenables":7208,").__":7209,"Ġfif":7210,"Ġregions":7211,"ĠSil":7212,"Ġlisted":7213,"Ġ'.":7214,"ĠRights":7215,"Ġenthusi":7216,"iat":7217,"Ġcarbon":7218,"td":7219,"ĠThus":7220,"Ġmand":7221,"Ġasp":7222,"Ġ500":7223,"ĠIP":7224,"ĠTeam":7225,"Ġdu":7226,"Ġhundreds":7227,"Ġaudio":7228,"amin":7229,"Ġfounded":7230,"Ġfulfill":7231,"Ġregister":7232,"Ġcompensation":7233,"best":7234,"feature":7235,"Ġlimits":7236,"ĠTom":7237,"water":7238,"Ġstim":7239,"born":7240,"Ġevaluate":7241,"Rep":7242,"Ġsupposed":7243,"Ġherself":7244,"stone":7245,"ĠImport":7246,"Ġscores":7247,"Ġlessons":7248,"ĠGlobal":7249,"headers":7250,"Fin":7251,"Ġdecor":7252,"Per":7253,"Ġsignal":7254,"Ġproud":7255,"ĠĠĠĠĠĠĠĠĠĠĠĠčĊ":7256,"Ġmatches":7257,"ĠCarol":7258,"ĠHuman":7259,"|>\"\"\"":7260,"comple":7261,"Ġeditor":7262,"Att":7263,"squ":7264,"Ġprotocol":7265,"Ġwalking":7266,"ĠWilliam":7267,"Ġevaluation":7268,"tters":7269,"Sub":7270,"PU":7271,"Ġcharges":7272,"Net":7273,"ĠCorpor":7274,"isco":7275,"Ġgirls":7276,"Ġil":7277,"Ġclim":7278,"Ġmarked":7279,"Ġusage":7280,"ĠArmy":7281,"ĠAsia":7282,"Ġmotion":7283,"icago":7284,"Ġabilities":7285,"Ġdesired":7286,"Ġapi":7287,"esh":7288,"Ġconsideration":7289,"Are":7290,"igma":7291,"enders":7292,"asp":7293,"Ġlargely":7294,"Ġ----------":7295,"ĠFund":7296,"Ġhandling":7297,"ĠChat":7298,"Ġtruck":7299,"Ġduty":7300,"atasets":7301,"Ġdir":7302,"Ġrelief":7303,"div":7304,"Ġvariables":7305,"First":7306,"FC":7307,"ĠFrank":7308,"oted":7309,"Ġstrict":7310,"Ġfeat":7311,"Ġsamples":7312,"WS":7313,"Ġnodes":7314,"Ġmeetings":7315,"Ġsuffering":7316,"Ġswitch":7317,"bytes":7318,"Ġinteraction":7319,"Ġurban":7320,"TER":7321,"ĠNor":7322,"indows":7323,"Ġarts":7324,"Ġ35":7325,"Ġdelivered":7326,"Ġgaming":7327,"Ġguys":7328,"Ġdreams":7329,"ĠHT":7330,"ĠThose":7331,"Ġdiscount":7332,"Ġserial":7333,"See":7334,"select":7335,"Ġdescribe":7336,"Ġrare":7337,"ĠSol":7338,"zone":7339,"uma":7340,"ographic":7341,"edia":7342,"Ġradio":7343,"Ġcultiv":7344,"Ġatmosphere":7345,"person":7346,"ĠAnn":7347,"ĠWomen":7348,"Ġchief":7349,"umps":7350,"ĠTwo":7351,"SP":7352,"++":7353,"Build":7354,"Ġacting":7355,"vals":7356,"inet":7357,"atural":7358,"ĠOper":7359,"Ġisol":7360,"Ġneighborhood":7361,"Ġpenal":7362,"ĠFree":7363,"08":7364,"ĠMaster":7365,"ĠSpe":7366,"track":7367,"ĠBas":7368,"Ġeating":7369,"Ġdomestic":7370,"Ġimagine":7371,"Fe":7372,"ĠVer":7373,"ULT":7374,"Ġdrugs":7375,"Ġshut":7376,"Ġisland":7377,"Serv":7378,"Ġguidelines":7379,"Ġcutting":7380,"Ġapparent":7381,"ĠReal":7382,"Ġamounts":7383,"Oper":7384,"ums":7385,"Ġresolution":7386,"iability":7387,"Ġmonitor":7388,"'''":7389,"Ġsand":7390,"06":7391,"Ġmedium":7392,"rey":7393,".')":7394,"____":7395,"Ġexpressed":7396,"Ġinvestigation":7397,"Ġfake":7398,"azine":7399,"onym":7400,"Ġelig":7401,"ĠTechnology":7402,"ĠBase":7403,"ĠAR":7404,"Ġcos":7405,"Ġwine":7406,"Ġdys":7407,"ĠSund":7408,"Ġtx":7409,"ĠBefore":7410,"Ġmusical":7411,"rid":7412,"Ġkid":7413,"ugh":7414,"Ġphr":7415,"elled":7416,"Ġliterature":7417,"Ġshowc":7418,"\").":7419,"reme":7420,"ĠConnect":7421,"Ġ<=":7422,"Ġturning":7423,"anta":7424,"Ġunable":7425,"Ġdram":7426,"Ġtelling":7427,"Ġsought":7428,"ĠVict":7429,"Ġproductivity":7430,"Ġofficer":7431,"ĠTimes":7432,"Ġpricing":7433,"ĠStar":7434,"WAR":7435,"Ġchapter":7436,"Ġtemp":7437,"Ġregional":7438,"PAT":7439,"angle":7440,"ĠApple":7441,"Ġovercome":7442,"cean":7443,"According":7444,"Ġenvironments":7445,"django":7446,"etes":7447,"Ġalongside":7448,"Ġbroader":7449,"dec":7450,"Ġathlet":7451,"ĠThomas":7452,"osite":7453,"Ġentered":7454,"Node":7455,"Ab":7456,"ras":7457,"Ġconcepts":7458,"usr":7459,"Ġluck":7460,"Ġincredible":7461,"Ġease":7462,"Ġresistance":7463,"###":7464,"Ġimplemented":7465,"req":7466,"Ġbless":7467,"press":7468,"ĠCatholic":7469,"oes":7470,"ĠBur":7471,"Ġmonthly":7472,"Ġlanguages":7473,"istant":7474,"non":7475,"Ġhasattr":7476,"Sp":7477,"ĠLLC":7478,"Ġpaths":7479,"Ġchair":7480,"Ġbeliefs":7481,"prot":7482,"ĠCert":7483,"faces":7484,"Ġfighting":7485,"86":7486,"Ġgrad":7487,"Ġfav":7488,"Ġdraft":7489,"Bl":7490,"Ġsustainability":7491,"Ġcausing":7492,"iber":7493,"Ġsaved":7494,"Ġadults":7495,"othe":7496,"exists":7497,"Ġwra":7498,"full":7499,"Ġstone":7500,"anges":7501,"Client":7502,"ĠTer":7503,"Ġsteel":7504,"DIR":7505,"Ġtechnique":7506,"Ġattributes":7507,"ĠDoes":7508,"ĉĉĉĉ":7509,"Ġexcited":7510,"Ġwriters":7511,"IA":7512,"entry":7513,"Ġlinked":7514,"Ġbias":7515,"Ġaccel":7516,"Ġ2005":7517,"Ġlosses":7518,"kl":7519,"Ġiron":7520,"Ġpictures":7521,"Ġofficers":7522,"Ġcharacteristics":7523,"Ġinjuries":7524,"Inter":7525,"Ġtight":7526,"ATION":7527,"ĠStand":7528,"String":7529,"ĠBack":7530,"icted":7531,"Ġhistoric":7532,"Ġtreated":7533,"Ġmetadata":7534,"delete":7535,"Once":7536,"Ġworse":7537,"ificate":7538,"ĠClub":7539,"ĠDE":7540,"ĠRet":7541,"07":7542,"\"))":7543,"Ġwisdom":7544,"Ġregardless":7545,"Ġdecade":7546,"Ġresponses":7547,"Ġobjectives":7548,"Ġterror":7549,"Ġstyles":7550,"Ġprospect":7551,"Ġformal":7552,"backs":7553,"Ġblocks":7554,"Ġtransportation":7555,"asket":7556,"ĠÃ":7557,"Ġpil":7558,"Ġagric":7559,"Ġthreats":7560,"Ġshipping":7561,"liament":7562,"Ġprove":7563,"eli":7564,"Ġforth":7565,"tmp":7566,"Ġfell":7567,"Ġaest":7568,"ixture":7569,"ograp":7570,"Ġissued":7571,"ODO":7572,"']['":7573,"89":7574,"Ġtypical":7575,"ĠHill":7576,"bor":7577,"ĠKeep":7578,"ĠVirgin":7579,"ĠYouT":7580,"ĠNote":7581,"Ġutf":7582,"OP":7583,"apes":7584,"istent":7585,"ĠDefault":7586,"rtype":7587,"Rem":7588,"Ġaudiences":7589,"Ġvit":7590,"UP":7591,"after":7592,"contain":7593,"Ġtransparency":7594,"ĠExecut":7595,"Ġstd":7596,"ĠAcademy":7597,"ĠYet":7598,"Ġweights":7599,"Ġtaxes":7600,"Ġcoast":7601,"Ġpersons":7602,"During":7603,"Ġsociet":7604,"ĠGrand":7605,"ĠWord":7606,"Ġincident":7607,"rer":7608,"Ġcareful":7609,"rition":7610,"prob":7611,"ĠAD":7612,"Ġembra":7613,"Ġconfirm":7614,"ĠRoad":7615,"Ġstrike":7616,"Ġpriority":7617,"ĠReport":7618,"sor":7619,"Ġparse":7620,"Ġwinning":7621,"sim":7622,"Ġthemes":7623,"umes":7624,"pathy":7625,"Ġportfolio":7626,"Ġdiscussions":7627,"ĠJose":7628,"Ġcryptocur":7629,"Ġhotel":7630,"isk":7631,"sembly":7632,"Ġheritage":7633,"Ġlogo":7634,"Ġaggress":7635,"Ġdialog":7636,"Ġapproved":7637,"email":7638,"Ġdebate":7639,"tok":7640,"ndarray":7641,"arrant":7642,"Ġworksh":7643,"Ġregistered":7644,"Ġalgorithm":7645,"ĠUkraine":7646,"jpg":7647,"Ġpowers":7648,"Ġrapidly":7649,"Module":7650,"Ġtough":7651,"/{":7652,"abling":7653,"ĠTop":7654,"Ġcomprom":7655,"Check":7656,"ita":7657,"Ġtemplate":7658,"ĠEmp":7659,"Ġkeeps":7660,"help":7661,"ĠPet":7662,"Ġcas":7663,"Ġvibrant":7664,"Ġ'__":7665,"Ġpill":7666,"Ġnurs":7667,"ĠMax":7668,"Ġspring":7669,"irds":7670,"41":7671,"Ġsides":7672,"Te":7673,"itar":7674,"Ġthrow":7675,"Ġmerely":7676,"ĠLouis":7677,"Ġdriven":7678,"Ġborder":7679,"`,":7680,"Ġstronger":7681,"Ġexceed":7682,"Am":7683,"Ġunexpected":7684,"uffer":7685,"job":7686,"Ġearned":7687,"Ġescape":7688,"aud":7689,"ano":7690,"Ġ1990":7691,"Ġarrest":7692,"ĠExt":7693,"ĠLand":7694,"GB":7695,"Ġtherap":7696,"ĠSpecial":7697,"Ġpromise":7698,"uality":7699,"Hand":7700,"ĠInstagram":7701,"Ġoriginally":7702,"Image":7703,"Ġtaste":7704,"aws":7705,"Ġaddressing":7706,"Ġmovements":7707,"async":7708,"offset":7709,"Ġembrace":7710,"Ġapproximately":7711,"ĠFinancial":7712,"omin":7713,"IO":7714,"ĠHen":7715,"Ġsynt":7716,"ART":7717,"holder":7718,"Ġsegment":7719,"Ġsitting":7720,"43":7721,"keep":7722,"Ġtracking":7723,"QL":7724,"Ġ--------------------------------":7725,"Ġexpansion":7726,"Ġflexible":7727,"sec":7728,"Ġpopularity":7729,"images":7730,"Ġwinter":7731,"Ġmanifest":7732,"ĠMass":7733,"ailability":7734,"Ġgenuine":7735,"Ġice":7736,"appe":7737,"Ġremarkable":7738,"raction":7739,"ĠAuthor":7740,"alog":7741,"iy":7742,"Ġnoise":7743,"Ġboxes":7744,"Fil":7745,"training":7746,"Ġalcohol":7747,"Ġnob":7748,"Ġpassword":7749,"Ġbow":7750,"osystem":7751,"access":7752,"Ġcollections":7753,"Ġbasically":7754,"Ġphilosophy":7755,"ĠCup":7756,"MP":7757,"ĠCBD":7758,"Ġextension":7759,"avy":7760,"ircraft":7761,"Ġillness":7762,"neys":7763,"ena":7764,"ĠConsider":7765,"Ġsky":7766,"oviet":7767,"ĠAtl":7768,"Ġstre":7769,"Ġreader":7770,"Ġstack":7771,"Ġdirected":7772,"Ġchances":7773,"Ġspons":7774,"Ġcovers":7775,"ĠHave":7776,"ipal":7777,"Ġinspiration":7778,"ĠOnline":7779,"Ġgap":7780,"Ġobjective":7781,"Ġinitially":7782,"Ġmyth":7783,"prov":7784,"Ġpipeline":7785,"Pr":7786,"Ġcompare":7787,"ĠAdv":7788,"vation":7789,"oute":7790,"Ġmel":7791,"Ġsuggested":7792,"__,":7793,"Ġcaught":7794,"ĠMedia":7795,"astern":7796,"ĠSup":7797,"Ġidx":7798,"policy":7799,"Ġsacr":7800,"aintiff":7801,"NE":7802,"ĠFederal":7803,"Ġrig":7804,"fs":7805,"|\"":7806,"ĠMiddle":7807,"ĠTH":7808,"Line":7809,"Ġwelcome":7810,"Ġturns":7811,"Ġast":7812,"ĠBitcoin":7813,"Ġprinciple":7814,"ĠCanadian":7815,"Ġpainting":7816,"comfort":7817,"Ġcombat":7818,"Ġpermission":7819,"Ġpregn":7820,"ĠOffic":7821,"ĠMusic":7822,"ighter":7823,"Ġlosing":7824,"outputs":7825,"ĠLove":7826,"Ġeffectiveness":7827,"Ġveter":7828,"imple":7829,"ĠKnow":7830,"ĠFamily":7831,"Ġends":7832,"Ġindicate":7833,"ĠName":7834,"Ġlasting":7835,"Ġunderlying":7836,"Ġtun":7837,"isodes":7838,"ĠNumber":7839,"Ġ::":7840,"fulness":7841,"Ġuniverse":7842,"Ġcopyright":7843,"Ġarmy":7844,"ĠInformation":7845,"Ġreduction":7846,"Ġextreme":7847,"Ġsuddenly":7848,"Ġunknown":7849,"diction":7850,"Ġenhancing":7851,"aml":7852,"Ġauthors":7853,"ĠWater":7854,"Ġerect":7855,"Ġnine":7856,"Ġgranted":7857,"ĠSO":7858,"ĠSuch":7859,"environ":7860,"Ġoccurred":7861,"fc":7862,"ĠMil":7863,"Ġdance":7864,"Ġphenomen":7865,")[":7866,"Ġcultures":7867,"register":7868,"Ġvillage":7869,"Ġhouses":7870,"ĠParis":7871,"Ġpassing":7872,"ĠItalian":7873,"ĠChicago":7874,"ĠKingdom":7875,"adium":7876,"ributed":7877,"account":7878,"('--":7879,"aa":7880,"objects":7881,"ĠChief":7882,"Ġloop":7883,"Ġscientists":7884,"Ġintegrated":7885,"Although":7886,"Ġembed":7887,"Ġfacility":7888,"password":7889,"Ġvictory":7890,"rot":7891,"Ġacknowled":7892,"Ġcategories":7893,"Ġoffset":7894,"Ġluxury":7895,"Ġgrid":7896,"Ġrepeated":7897,"plan":7898,"Text":7899,"Ġsavings":7900,"illa":7901,"allow":7902,"entity":7903,"inem":7904,"Ġarrived":7905,"Ġcollective":7906,"ĠSpanish":7907,"Ġintellectual":7908,"Ġsweet":7909,"Ġpursue":7910,"Ġtack":7911,"ensus":7912,"Ġconvenient":7913,"Ġgarden":7914,"Ġcompat":7915,"Ġreplaced":7916,"Ġaims":7917,"ih":7918,"ĠTO":7919,"Ġbuff":7920,"Ġevil":7921,"Ġnaturally":7922,"Ġemerging":7923,"nergy":7924,"Ġspoke":7925,"Ġliquid":7926,"Ġworkplace":7927,"Ġspark":7928,"asters":7929,"party":7930,"Ġnations":7931,"Ġgrown":7932,"Ġinqu":7933,"Ġyounger":7934,"Ġanywhere":7935,"ĠAustralian":7936,"Group":7937,"Ġaccomplish":7938,"Ġilleg":7939,"ĠYouTube":7940,"Ġremoval":7941,"ĠElect":7942,"Spec":7943,"anth":7944,"-------":7945,"ĠTwitter":7946,"cies":7947,"yp":7948,"ĠIndust":7949,"Run":7950,"temp":7951,"Ġimpressive":7952,"Ġrefers":7953,"oral":7954,"Every":7955,"ĠChampions":7956,"Ġversions":7957,"Ġkitchen":7958,"ancer":7959,"Ġupper":7960,"ĠLake":7961,"Ġoperational":7962,"ora":7963,"olec":7964,"ĠRa":7965,"Ġstret":7966,"TC":7967,"iments":7968,"inder":7969,"Ġ45":7970,"ĠItaly":7971,"ĠProduct":7972,"Ġprogramming":7973,"ĠSign":7974,"Ġhighlights":7975,"ĠGeorg":7976,"alysis":7977,"remove":7978,"Ġjur":7979,"Ġcenturies":7980,"Ġconstitut":7981,"ÃŃ":7982,"folder":7983,"ployment":7984,"Ġscal":7985,"lers":7986,"vm":7987,"Ġbath":7988,"Ġrail":7989,"Ġequity":7990,"Ġsrc":7991,"Ġda":7992,"Ġpersonally":7993,"pay":7994,"09":7995,"Ġexplo":7996,"Ġfoods":7997,"obile":7998,"disc":7999,"ĠMel":8000,"Ġfostering":8001,"Ġbuyers":8002,"Ġdesigner":8003,"Ġdemonstrate":8004,"Ġbeat":8005,"Ġtalked":8006,"sid":8007,"Ġ2004":8008,"ĠWood":8009,"ĠUSA":8010,"Ġorganic":8011,"reshape":8012,"ĠMoreover":8013,"indices":8014,"ĠThank":8015,"Ġsquare":8016,"Ġpsychological":8017,"ĠNet":8018,"wing":8019,"Return":8020,"ummy":8021,"Ġstaying":8022,"ĠHoly":8023,"ollowing":8024,"ĠLearning":8025,"ribution":8026,"Ġstable":8027,"Ġeveryday":8028,"adow":8029,"Ġinn":8030,"Ġdisable":8031,"Ġwalls":8032,"ĠLim":8033,"ĠHot":8034,"ĠRichard":8035,"SON":8036,"uri":8037,"kes":8038,"oga":8039,"Ġloyalty":8040,"|}":8041,"Ġdil":8042,"Ġscr":8043,"ĠEnd":8044,"Ġheaders":8045,"Ġresponsibilities":8046,"ĠMill":8047,"Ġoutdoor":8048,"Ġtok":8049,"Ġflight":8050,"cloud":8051,"Ġtestim":8052,"IST":8053,"Ġimplications":8054,"dot":8055,"ĠGreek":8056,"Ġcache":8057,"oded":8058,"CS":8059,"Ġinstallation":8060,"Ġdjango":8061,"VER":8062,"CONF":8063,"Ġreflects":8064,"87":8065,"Ġmagic":8066,"Ġphoto":8067,"ĠBrown":8068,"Object":8069,"Ġarms":8070,"Ĥ¬":8071,"paths":8072,"Ġcart":8073,"Ġconsent":8074,"ilarly":8075,"Ġweapons":8076,"Ġvend":8077,"exit":8078,"ected":8079,"erves":8080,"Ġbusy":8081,"Ġconsistently":8082,"docs":8083,"Ġinstalled":8084,"Ġobserved":8085,"Ġbear":8086,"Ġfocuses":8087,"Ġautomation":8088,"Ġstored":8089,"etary":8090,"FO":8091,"sq":8092,"Number":8093,"inity":8094,"Dr":8095,"rection":8096,"Ġstars":8097,"ĠRock":8098,"Ġhorse":8099,"{|":8100,"Ġlegislation":8101,"Ġskilled":8102,"Ġstead":8103,"fraid":8104,"Ġtotally":8105,"Ġlatter":8106,"Ġcalm":8107,"Ġreplica":8108,"ogether":8109,"Returns":8110,"Ġsnow":8111,"ĠLink":8112,"Ġtechnological":8113,"Ġefficiently":8114,"Ġriver":8115,"Date":8116,"driven":8117,"Ġrough":8118,":]":8119,"rome":8120,"Ġperiods":8121,"Ġran":8122,"onna":8123,"Ġ'_":8124,"Ġdeals":8125,"Ġgate":8126,"Ġecosystem":8127,"Ġcfg":8128,"Ġminute":8129,"ĠChristmas":8130,"Cons":8131,"%.":8132,"you":8133,"Ġafraid":8134,"apped":8135,"configuration":8136,"Ġepoch":8137,"Ġgrace":8138,"Ġcriteria":8139,"Ġinstitution":8140,"ĠImage":8141,"rog":8142,"ĠLos":8143,"Ġproven":8144,"Ġwedding":8145,"annot":8146,"UD":8147,"ĠNig":8148,"andon":8149,"Ġsentence":8150,"Ġinject":8151,"inds":8152,"Ġinstructions":8153,"ĠCloud":8154,"Ġsoph":8155,"Ġfourth":8156,"herent":8157,"ĠTODO":8158,"Ġstopped":8159,"kin":8160,"Ġtrigger":8161,"DB":8162,"ading":8163,"Ġmachines":8164,"Ġzip":8165,"Ġencounter":8166,"~~~~":8167,"Ġprominent":8168,"Go":8169,"Ġplanned":8170,"Ġsurgery":8171,"Ġmitig":8172,"Ġ//":8173,"NN":8174,"erning":8175,"Ġokay":8176,"Ġorganis":8177,"Ġpoll":8178,"Ġinfluenced":8179,"owered":8180,"Ġgent":8181,"scious":8182,"ani":8183,"burg":8184,"Ġtrouble":8185,"Ġcontrovers":8186,"ĠRE":8187,"Ġmainly":8188,"Ġunf":8189,"ĠSoviet":8190,"isters":8191,"ĠURL":8192,"ctr":8193,"Ġinspect":8194,"Ġ1980":8195,"ĠFOR":8196,"Ass":8197,"Ġcogn":8198,"ropy":8199,"Ġreactions":8200,"ĠJews":8201,"iffe":8202,"Ġessay":8203,"itz":8204,"Ġrid":8205,"Ġhiring":8206,"Ġgovernments":8207,"ðŁ":8208,"Ġportion":8209,"compon":8210,"aints":8211,"ĠMexico":8212,"Ġkick":8213,"Ġretirement":8214,"Ġwithdraw":8215,"PY":8216,"aved":8217,"Ġobviously":8218,"Ġ],":8219,"Ġrepresented":8220,"ĠValley":8221,"site":8222,"Ġhyper":8223,"Ġstudio":8224,"Ġexplan":8225,"ĠMrs":8226,"ALL":8227,"256":8228,"Connect":8229,"Ġtargeted":8230,"century":8231,"Ġstages":8232,"wait":8233,"Ġconsumption":8234,"Ġundert":8235,"ĠPersonal":8236,"View":8237,"Ġunion":8238,"Ġworker":8239,"mo":8240,"eting":8241,"Ġpadding":8242,"ĠBlue":8243,"ĠRef":8244,"guard":8245,"Ġpercentage":8246,"ĠRoyal":8247,"ĠCr":8248,"Ġbranch":8249,"ĠIre":8250,"Ġrender":8251,"Ġstrengthen":8252,"Ġrepresenting":8253,"Ġexport":8254,"Ġguests":8255,"Ġcolleagues":8256,"ABLE":8257,"ĠCho":8258,"Since":8259,"Ġrecall":8260,"Ġexplains":8261,"Ġqualified":8262,"QU":8263,"ĠDigital":8264,"Ġadopted":8265,"Ġhabit":8266,"ĠMont":8267,"Ġcomplicated":8268,"Part":8269,"Ġfrustr":8270,"ĠStrateg":8271,"pytest":8272,"home":8273,"oven":8274,"ĠStep":8275,"Ġfeatured":8276,"ventional":8277,"ested":8278,"Ġinstances":8279,"called":8280,"Ġven":8281,"Ġcenters":8282,"lets":8283,"Ġblockchain":8284,"Ġlon":8285,"logging":8286,"ĠPalest":8287,"Ġmountain":8288,"oking":8289,"HS":8290,"va":8291,"Ġsubjects":8292,"Ġflags":8293,"IGHT":8294,"Ġconversion":8295,"OW":8296,"Ġdistingu":8297,"]):":8298,"master":8299,"ĠDisc":8300,"achine":8301,"etch":8302,"Ġpaint":8303,"Ġwave":8304,"lay":8305,"|>#!":8306,"Ġbought":8307,"Ġrooms":8308,"Ġring":8309,"AGE":8310,"Ġaircraft":8311,"Most":8312,"pub":8313,"iden":8314,"Ġactors":8315,"Ġexclusive":8316,"ĠTensor":8317,"Ġspecialized":8318,"Ġpanel":8319,"Ġbridge":8320,"bn":8321,"connection":8322,"ĠMult":8323,"Ġtags":8324,"Ed":8325,"Ġapplying":8326,"chmark":8327,"Ġintention":8328,"Ġevening":8329,"Ġincredibly":8330,"ĠMot":8331,"Ġerr":8332,"Before":8333,"ĠLast":8334,"ĠUser":8335,"idget":8336,"Ġveget":8337,"report":8338,"Ġthick":8339,"Ġobtained":8340,"Ġdress":8341,"Ġfascinating":8342,"manager":8343,"Ġdegrees":8344,"Ġexecution":8345,"Ġlever":8346,"Load":8347,"mock":8348,"User":8349,"Ġpurchasing":8350,"Ġdomin":8351,"google":8352,"igenous":8353,"azz":8354,"ĠUsing":8355,"Ġgreatly":8356,"Ġclaimed":8357,"Ġpiv":8358,"Ġcab":8359,"ĠRad":8360,"Ġcompassion":8361,"ĠPlay":8362,"lymp":8363,"irs":8364,"support":8365,"Ġdelivering":8366,"Ġtraditions":8367,"ali":8368,"Ġmistakes":8369,"Ġdrivers":8370,"ĠSunday":8371,"Ġcrypto":8372,"ĠBudd":8373,"Ġnarrow":8374,"ĠFather":8375,"Ġestimated":8376,"Ġemployer":8377,"DAT":8378,"Ġachieving":8379,"ĠAngeles":8380,"Ġsubt":8381,"Ġassume":8382,"kind":8383,"Ġads":8384,"ĠMarketing":8385,"Ġimplementing":8386,"Ġadequ":8387,"Ġbelieves":8388,"Ġstood":8389,"Ġrising":8390,"pring":8391,"Ġnotable":8392,"Ġattr":8393,"Ġhook":8394,"lint":8395,"ourse":8396,"Ġped":8397,"ned":8398,"Ġrelation":8399,"IB":8400,"Ġenabling":8401,"Ġmanip":8402,"Ġsister":8403,"ĠDen":8404,"Ġfolks":8405,"datetime":8406,"Ġapproval":8407,"ji":8408,"ĠDu":8409,"Ġfunctional":8410,"ĠFurthermore":8411,"Ġfruit":8412,"vity":8413,"Ġcompute":8414,"Just":8415,"Ġcontracts":8416,"pectives":8417,"ĠAud":8418,"Even":8419,"Ġimpacts":8420,"Ġmortgage":8421,"Ġenjoyed":8422,"ologist":8423,"ĠJustice":8424,"ĠCost":8425,"Ġperforming":8426,"contrib":8427,"ĠSupreme":8428,"enth":8429,"Ġbutton":8430,"Ġtreatments":8431,"Info":8432,"del":8433,"Ġsurprise":8434,"lr":8435,"Ġsomebody":8436,"FAULT":8437,"ĠCast":8438,"68":8439,"Resource":8440,"Ġhardware":8441,"ican":8442,"ĠShow":8443,"lass":8444,"Ġreaching":8445,"da":8446,"columns":8447,"Ġpoly":8448,"Ġversat":8449,"Ġuns":8450,"ĠCam":8451,"Ġowned":8452,"Ġmixed":8453,"Call":8454,"Ġdysfunction":8455,"Ġcorrectly":8456,"Ġmine":8457,"Ġelectronic":8458,"erts":8459,"Ġblend":8460,"Py":8461,"Ġconcrete":8462,"power":8463,"ibl":8464,"Ġcharm":8465,"itled":8466,"ĠBrand":8467,"Ġ2003":8468,"Ġexposed":8469,"Ġenforcement":8470,"ownt":8471,"Ġrestaurant":8472,"Ġhire":8473,"Ġsettlement":8474,"Ġ\".":8475,"ĠColor":8476,"ĠJim":8477,"Ġcomplexity":8478,"Ġdrawn":8479,"Ġliability":8480,"Ġfaculty":8481,"Ġfoster":8482,"metric":8483,"Ġseat":8484,"ĠHead":8485,"onic":8486,"lik":8487,"Ġcomputing":8488,"Ġintroduction":8489,"beta":8490,"cuda":8491,"Ġprofessor":8492,"Ġadventure":8493,"aning":8494,"Ġdates":8495,"ĠIll":8496,"PRO":8497,"****************":8498,"record":8499,"uate":8500,"irtual":8501,"Ġflood":8502,"appoint":8503,"Ġbroadcast":8504,"zil":8505,"bel":8506,"Ġneither":8507,"Ġwarrant":8508,"commerce":8509,"Ġtrace":8510,"Ġsugar":8511,"Ġdiscovery":8512,"Ġdepression":8513,"team":8514,"Ġprecision":8515,"ensors":8516,"izers":8517,"Ne":8518,"Ġpossibilities":8519,"Ġsimpl":8520,"Ġperfectly":8521,"ĠCat":8522,"Ġintric":8523,"Ġcurrency":8524,"Ġoppon":8525,"Ġsoldiers":8526,"Ġparticipation":8527,"Ġsilver":8528,"hem":8529,"CK":8530,"ĠSqu":8531,"Ġcorrupt":8532,"Ġbattery":8533,"Ġbytes":8534,"Ġ):":8535,"Ġsupplement":8536,"Ġthreshold":8537,"uce":8538,"ĠVictor":8539,"Ġvisible":8540,"Me":8541,"Ġprioritize":8542,"icul":8543,"eps":8544,"Ġzone":8545,"ĠCharles":8546,"Ġfitness":8547,"Ġentrepreneurs":8548,"ector":8549,"ĠWall":8550,"ifact":8551,"ho":8552,"Ġessentially":8553,"alpha":8554,"ĠPenn":8555,"elihood":8556,"Ġalive":8557,"ĠIreland":8558,"Ġlie":8559,"ĠAbout":8560,"ui":8561,"Ġnewsp":8562,"Ġidentifying":8563,"Ġslowly":8564,"Ġexploration":8565,"Ġartistic":8566,"Ġpermanent":8567,"kins":8568,"ura":8569,"organ":8570,"Ġcampus":8571,"Ġcollected":8572,"Ġcommittee":8573,"Ġtokens":8574,"Ġobstac":8575,"Ġmemories":8576,"tuple":8577,"rank":8578,"ĠAdminist":8579,"Service":8580,"Ġhel":8581,"Ġoccurs":8582,"Create":8583,"Ġsoil":8584,"Work":8585,"Ġ1970":8586,"Ġmovies":8587,"png":8588,"Ġneuro":8589,"Ġinspire":8590,"ĠProfessional":8591,"Ġtwice":8592,"|>#!/":8593,"Well":8594,"Ġhall":8595,"mn":8596,"Ġtap":8597,"Ġintense":8598,"*\"":8599,"rm":8600,"Ġproducing":8601,"Ġconserv":8602,"Ġfollowers":8603,"Ġreserved":8604,"Ġsending":8605,"ĠJournal":8606,"Ġfaces":8607,"Ġbreed":8608,"Ġcolumns":8609,"Ġride":8610,"ĠVe":8611,"Ġunlock":8612,"Ġrecording":8613,"Ġsaf":8614,"Question":8615,"Ġabandon":8616,"Ġvictims":8617,"Ġ'--":8618,"ĠLabor":8619,"ĠTypeError":8620,"__':":8621,"formance":8622,"brid":8623,"PATH":8624,"iest":8625,"Ġegg":8626,"igan":8627,"ĠCD":8628,"ĠEnter":8629,"Ġallerg":8630,"Ġ300":8631,"hew":8632,"Ext":8633,"gcolor":8634,"oor":8635,"Ġexperiencing":8636,"Ġmemor":8637,"Ġattempts":8638,"ca":8639,"Ġarr":8640,"Ġextend":8641,"Ġstorm":8642,"profit":8643,"this":8644,"Ġresolve":8645,"ĠRD":8646,"Ġgam":8647,"Ġ2001":8648,"trained":8649,"Ġ'-":8650,"writer":8651,"Ġhumanity":8652,"Ġseriously":8653,"mit":8654,"Ġmetric":8655,"Ġcontainer":8656,"Ġbehalf":8657,"thread":8658,"Ġsad":8659,"cp":8660,"Ġheavily":8661,"yan":8662,"Ġopposite":8663,"ĠJohnson":8664,"Ġrealm":8665,"Ġdoors":8666,"Ġfindings":8667,"Ġmyst":8668,"Ġactor":8669,"stats":8670,"shot":8671,"Ġsolar":8672,"Ġminimal":8673,"Ġsight":8674,"Ġcoaching":8675,"Ġalike":8676,"Ġsorted":8677,"Ġvan":8678,"Ġ?":8679,"ĠJo":8680,"ĠMartin":8681,"Ġratio":8682,"Ġmindset":8683,"Ġvent":8684,"Ġalpha":8685,"Ent":8686,"Ġperformances":8687,"').":8688,"Ġopts":8689,"Ġdivor":8690,"Ġbrow":8691,"pie":8692,"Ġbuck":8693,"Ġletters":8694,"AGS":8695,"Ġguest":8696,"Ġshel":8697,"ola":8698,"Ġacquis":8699,"Ġnoticed":8700,"Ġprovision":8701,"LA":8702,"Ġquote":8703,"Ġfly":8704,"ĠReturn":8705,"Ġwider":8706,"ANG":8707,"96":8708,"Ġsharp":8709,"ĠPract":8710,"Ġcomparison":8711,"Ġprotein":8712,"wikitable":8713,"pm":8714,"Ġemails":8715,"THER":8716,"Ġfunctionality":8717,"Ġpytest":8718,"ĠCivil":8719,"Em":8720,"ĠFed":8721,"Ġ\"\"":8722,"Ġmoves":8723,"Ġexplicit":8724,"Ġmanual":8725,"orse":8726,"Ġenterprise":8727,"Ġthousand":8728,"Ġmerch":8729,"Ġblow":8730,"Co":8731,"tree":8732,"Ġevolving":8733,"vars":8734,"Ġvisiting":8735,"Ġeverybody":8736,"Ġcaut":8737,"Ġbreaking":8738,"Ġsectors":8739,"cpu":8740,"Ġmembership":8741,"dest":8742,"ĠMur":8743,"ĠWrit":8744,"struct":8745,"Ġrecover":8746,"ingle":8747,"78":8748,"ĠPC":8749,"Ġmir":8750,"Ġabsor":8751,"uction":8752,"ifting":8753,"Ġdiseases":8754,"Ġequally":8755,"Ġexit":8756,"Ġjew":8757,"Ġguitar":8758,"Implement":8759,"game":8760,"Ġwarning":8761,"Ġaccum":8762,"theless":8763,"Ġregistration":8764,"ĠAccount":8765,"ĠFriday":8766,"Ġbanking":8767,"Ġtemporary":8768,"Ġopinions":8769,"Ġcontributed":8770,"RC":8771,"factor":8772,"inking":8773,"Ġdivine":8774,"Start":8775,"Ġcrew":8776,"Ġdynamics":8777,"Ġvulnerable":8778,"Ġsizes":8779,"Other":8780,"Ġmail":8781,"ĠLine":8782,"ĠProcess":8783,"Ġemployers":8784,"ounded":8785,"Ġworst":8786,"ĠMedical":8787,"ĠProfessor":8788,"Parser":8789,"Ġhabits":8790,"Ġfinds":8791,"Ġcolspan":8792,"global":8793,"ĠGame":8794,"utch":8795,"Ġprefix":8796,"Ġyeah":8797,"Ġenemy":8798,"zure":8799,"Ġ1000":8800,"Ġrub":8801,"Ġultimate":8802,"Ġneut":8803,"aser":8804,"ĠTown":8805,"Ã¼":8806,"Ġdetermination":8807,"asant":8808,"Ġnearby":8809,"char":8810,"Ġgall":8811,"neg":8812,"Param":8813,"Ġordered":8814,"through":8815,"esides":8816,"Ġvirus":8817,"TestCase":8818,"cr":8819,"ja":8820,"raq":8821,"Any":8822,"ĠBritain":8823,"uls":8824,"Ġattractive":8825,"iams":8826,"ivalent":8827,"Ġchecks":8828,"Ġprivile":8829,"Ġtraveling":8830,"ye":8831,"itical":8832,"Ġrequirement":8833,"ĠVirginia":8834,"MM":8835,"posed":8836,"Ġstatistics":8837,"aven":8838,"Ġfrequency":8839,"Ġrac":8840,"Ġiconic":8841,"tical":8842,"Ġcro":8843,"Ġsou":8844,"Ġprayer":8845,"Ġhappiness":8846,"Ġadoption":8847,"References":8848,"schema":8849,"ĠArts":8850,"conscious":8851,"isted":8852,"profile":8853,"Ġdemocracy":8854,"Ġclothing":8855,"Ġreplacement":8856,"Ġ2002":8857,"Ġconcerning":8858,"Event":8859,"ĠLee":8860,"ĠRemember":8861,"ĠSar":8862,"ĠOlymp":8863,"akistan":8864,"cap":8865,"Ġdiscl":8866,"directory":8867,"flags":8868,"inv":8869,"ĠCard":8870,"Ġcaptiv":8871,"Ġscheme":8872,"ĠDou":8873,"Ġsalt":8874,"rated":8875,"Ġtone":8876,"Ġsomewhat":8877,"Ġstakeholders":8878,"ĠNon":8879,"Ã³":8880,"Ġmood":8881,"Ġdefendant":8882,"Last":8883,"bing":8884,"argv":8885,"Dis":8886,"bles":8887,"properties":8888,"Ġlaid":8889,"Ġindependence":8890,"Ġwhenever":8891,"orous":8892,"iah":8893,"Ġsick":8894,"Ġstunning":8895,"Ġ\"/":8896,"ĠTour":8897,"Ġcerem":8898,"ulating":8899,"Ġcharged":8900,"Ġjuris":8901,"Ġpharm":8902,"px":8903,"Ġcul":8904,"ĠYoung":8905,"INE":8906,"Ġalleged":8907,"derr":8908,"Ġdebut":8909,"learn":8910,"setter":8911,"ĠPolicy":8912,"tokens":8913,"ĠHaw":8914,"Ġcorresponding":8915,"ĠEst":8916,"metrics":8917,"Ġemphasis":8918,"Ġexpanded":8919,"Ġgovernance":8920,"Dec":8921,"sem":8922,"Ġcompan":8923,"hidden":8924,"Ġroots":8925,"Ġverify":8926,"VE":8927,"ĠSeries":8928,"Ġminds":8929,"Ġtoler":8930,"Ġinher":8931,"quence":8932,"Ġinflation":8933,"ĠUt":8934,"Ġsaving":8935,"acific":8936,"war":8937,"ustration":8938,"Ġpit":8939,"Ġhospit":8940,"apse":8941,"Ġod":8942,"Ġdimension":8943,"ĠFood":8944,"]['":8945,"helper":8946,"di":8947,"Ġmutual":8948,"issue":8949,"ĠJoseph":8950,"ĠSand":8951,"ĠSometimes":8952,"Ġcluster":8953,"Ġcontrolled":8954,"Inte":8955,"Ġplastic":8956,"Ġperspectives":8957,"Eng":8958,"eness":8959,"Ġencount":8960,"Ġachievements":8961,"__)":8962,"Ġentities":8963,"Ġaimed":8964,"Ġhurt":8965,"Ġnurt":8966,"Logger":8967,"PN":8968,"Ġbinary":8969,"Ġbehaviour":8970,"ĠViet":8971,"okes":8972,"Ġfairly":8973,"azure":8974,"aval":8975,"ureau":8976,"obby":8977,"Ġovers":8978,"sql":8979,"wd":8980,"Ġtestament":8981,"Ġlists":8982,"Ġconfirmed":8983,"Ġelected":8984,"Output":8985,"alm":8986,"59":8987,"creen":8988,"Ġimprovements":8989,"ĠBi":8990,"ĠForce":8991,"Ġaddressed":8992,"makers":8993,"Ġtested":8994,"Ġavailability":8995,"raints":8996,"Ġplaintiff":8997,"Ġsurve":8998,"ĠExpl":8999,"ĠJul":9000,"Ġteen":9001,"Ġdisappe":9002,"Inf":9003,"unit":9004,"handler":9005,"Ġcommunications":9006,"Ġpreparation":9007,"ĠInsurance":9008,"ĠLatin":9009,"Ġfiled":9010,"ĠJoe":9011,"Ġfabric":9012,"foot":9013,"Ġtea":9014,"inx":9015,"Ke":9016,"Ġlegend":9017,"ifferent":9018,"Step":9019,"Ġtimeout":9020,"Ġresp":9021,"Ġfactory":9022,"Ġreminder":9023,"Ġgetattr":9024,"sect":9025,"ĠPan":9026,"76":9027,"liers":9028,"Ġcmd":9029,"Ġdevelopments":9030,"Ġdecent":9031,"itan":9032,"Ġdismiss":9033,"ICE":9034,"Ġbatt":9035,"Ġnu":9036,"Ġqualities":9037,"Ġevident":9038,"ĠSon":9039,"Ġton":9040,"Ġstreets":9041,"BU":9042,"pection":9043,"Ġorganisation":9044,"ĠAS":9045,"ĠSir":9046,"Ġvisibility":9047,"ĠEff":9048,"Ġsubsequent":9049,"URL":9050,"Ġinvolvement":9051,"Dataset":9052,"ulf":9053,"Ġcredentials":9054,"Ġpresents":9055,"Ġinfluenc":9056,"Ġprotecting":9057,"Ġenhanced":9058,"Det":9059,"ĠPRO":9060,"Ġtwenty":9061,"ĠLight":9062,"79":9063,"Ġduration":9064,"Ġencouraged":9065,"duction":9066,"_{":9067,"Ġbread":9068,"Ġleverage":9069,"decode":9070,"Ġinitiative":9071,"timeout":9072,"Ġverbose":9073,"ĠScot":9074,"Ġpace":9075,"avors":9076,"Ġdelete":9077,"itarian":9078,"oston":9079,"2020":9080,"icode":9081,"inf":9082,"Ġswim":9083,"unc":9084,"Ġshell":9085,"haust":9086,"Ġfurniture":9087,"Ġ~":9088,"Ġsignature":9089,"Ġpredictions":9090,"Ġtrib":9091,"Ġinventory":9092,"Ġ64":9093,"ĠAgain":9094,"Ġincent":9095,"ĠFire":9096,"product":9097,"exper":9098,"Ġenabled":9099,"kernel":9100,"Ġtrick":9101,"Ġmeat":9102,"Ġdifficulty":9103,"Ġcelebrate":9104,"Ġutils":9105,"Ġresidential":9106,"Table":9107,"ione":9108,"ĠHam":9109,"ĠMaybe":9110,"Ġru":9111,"Ġmanufacturers":9112,"Additionally":9113,"ĠFind":9114,"DP":9115,"Ġepisodes":9116,"tags":9117,"eller":9118,"Ġaccounting":9119,"Ġbehaviors":9120,"Ġpleasure":9121,"olid":9122,"Ġheaven":9123,"Ġcontinuing":9124,"Ġscenario":9125,"Ġdoctors":9126,"omet":9127,"Ġpride":9128,"Ġopposition":9129,"ĠSecretary":9130,"Ġsearching":9131,"Ġpylint":9132,"().__":9133,"Ġequipped":9134,"flu":9135,"Who":9136,"Ġholiday":9137,"Ġvalidation":9138,"ĠThanks":9139,"Ġmedication":9140,"udes":9141,"meta":9142,"KEY":9143,"Ġsubmit":9144,"Ġrust":9145,"Ġagreements":9146,"Ġgonna":9147,"staticmethod":9148,"Ġgentle":9149,"Ġgraduate":9150,"Ġconsists":9151,"Ġuniversities":9152,"ĠWay":9153,"rooms":9154,"ĠConfig":9155,"Ġattitude":9156,"Ġmuscle":9157,"ishes":9158,"GPT":9159,"Ġstudying":9160,"ĠIraq":9161,"Ġexcellence":9162,"ocks":9163,"astype":9164,"Art":9165,"Conv":9166,"ASE":9167,"ĠUnderstanding":9168,"Ġhearts":9169,"Ġdelight":9170,"Ġwindows":9171,"Ġfault":9172,"fire":9173,"Ġillustr":9174,"Ġaddresses":9175,"ĠFuture":9176,"Ġrestrictions":9177,"month":9178,"ĠGummies":9179,"Ġdanger":9180,"igned":9181,"ĠAsk":9182,"rend":9183,"ampling":9184,"Ġphotograph":9185,"bridge":9186,"BS":9187,"ĠOrder":9188,"ĠMIT":9189,"Ġrural":9190,"Ġopposed":9191,"anged":9192,"mg":9193,"Ġfantastic":9194,"Ġarise":9195,"buck":9196,"Ġacquired":9197,"Ġengines":9198,"letter":9199,"ĠMa":9200,"Ġillegal":9201,"ĠCR":9202,"Ġshouldn":9203,"buffer":9204,"Ġconflicts":9205,"Ġappointed":9206,"ĠDog":9207,"Ġindicates":9208,"efits":9209,"igm":9210,"ĠAsian":9211,"nce":9212,"Through":9213,"}/":9214,"Ġusual":9215,"Ġhoriz":9216,"ĠDra":9217,"umin":9218,"xx":9219,"Ġacid":9220,"Ġconvey":9221,"Ġcourts":9222,"riculum":9223,")(":9224,"Ġjoining":9225,"Ġboat":9226,"Despite":9227,"ĠJeff":9228,"Ġconsciousness":9229,"ĠMat":9230,"Ġautomated":9231,"ĠCorporation":9232,"2019":9233,"Ġcha":9234,"John":9235,"Ġelections":9236,"Ġpatch":9237,"People":9238,"Ġcopies":9239,"Ġemerged":9240,"setup":9241,"ĠTem":9242,"ĠMu":9243,"Ġinteractive":9244,"kg":9245,"Ġaside":9246,"iral":9247,"Ġcann":9248,"Ġpreferred":9249,"Ġmeets":9250,"ĠOrig":9251,"Ġestablishing":9252,"git":9253,"DR":9254,"Ġautonom":9255,"ĠWithout":9256,"Ġnegoti":9257,"Ġcompetitors":9258,"ĠLocal":9259,"pin":9260,"Ġforever":9261,"Ġwearing":9262,"ĠAwards":9263,"cos":9264,"ĠHistor":9265,"ceive":9266,"Ġdecline":9267,"Ġoptimize":9268,"addr":9269,"dem":9270,"Ġdrawing":9271,"Ġproposal":9272,"zed":9273,"Ġreveal":9274,"opol":9275,"Ġcontributing":9276,"56":9277,"Ġreverse":9278,"Ġentitled":9279,"ĠExecutive":9280,"Understanding":9281,"Ġassociation":9282,"LOG":9283,"anger":9284,"aug":9285,"Ġforecast":9286,"ĠLi":9287,"ĠCarolina":9288,"Ġsupportive":9289,"Ġsees":9290,"Ġrepairs":9291,"cers":9292,"Ġmac":9293,"Ġoverwhelming":9294,"coder":9295,"=-":9296,"Ġbasket":9297,"Ġpip":9298,"Ġformation":9299,"Ġsupplies":9300,"Ġgear":9301,"loader":9302,"ĠEX":9303,"Ġsuperior":9304,"aware":9305,"ĠEmpire":9306,"58":9307,"arl":9308,"Ġ''":9309,"ĠStudies":9310,"Ġchecking":9311,"ented":9312,"ĠDi":9313,"Ġbeings":9314,"Ġdesk":9315,"rick":9316,"Ġfinancing":9317,"Ġobligations":9318,"Back":9319,"Ġencourages":9320,"Ġlawyers":9321,"Ġrating":9322,"ella":9323,"Ġdisappoint":9324,"__()":9325,"law":9326,"ĠHarr":9327,"Ġstride":9328,"ĠPoint":9329,"Ġliterally":9330,"\"{":9331,"Ġhash":9332,"Ġadj":9333,"ĠHaving":9334,"Ġvisited":9335,"ĠEnt":9336,"hook":9337,"activ":9338,"Ġstruggling":9339,"Ġpresentation":9340,"teen":9341,"Ġfounder":9342,"Look":9343,"Ġhur":9344,"Where":9345,"ĠMen":9346,"Ġregulation":9347,"diff":9348,"Ġdetection":9349,"Ġpurchased":9350,"ĠEth":9351,"Spe":9352,"Ps":9353,"dk":9354,"ĠCommon":9355,"Ġtransparent":9356,"connected":9357,"Ġargue":9358,"Ġmurder":9359,"ato":9360,"pb":9361,"agent":9362,"Ġbalanced":9363,"Ġupload":9364,"Ġretain":9365,"eeze":9366,"Ġgrass":9367,"cost":9368,"abel":9369,"domain":9370,"Ġforest":9371,"queue":9372,"Ġrewards":9373,"ĠChristians":9374,"Ġ36":9375,"Block":9376,"Ġportray":9377,"ught":9378,"ĠEnvironment":9379,"iates":9380,"Ġende":9381,"Ġoperator":9382,"Ġcater":9383,"Ġproducer":9384,"Ġcontrols":9385,"ĠHenry":9386,"################################################################":9387,"ocial":9388,"ĠDaniel":9389,"Ġresid":9390,"Ġexecute":9391,"sole":9392,"antly":9393,"ocument":9394,"ĠBrazil":9395,"ki":9396,"ĠTraining":9397,"Ġchose":9398,"dated":9399,"Ġharder":9400,"ĠBuilding":9401,"Ġspl":9402,"obox":9403,"Ġannounce":9404,"Ġskip":9405,"Ġvert":9406,"Ġvector":9407,"Ġminim":9408,"Ġshaping":9409,"yal":9410,"Ġye":9411,"Ġattended":9412,"Rel":9413,"ride":9414,"Ġresulted":9415,"ĠThough":9416,"zero":9417,"ĠNever":9418,"pipeline":9419,"ĠPass":9420,"Met":9421,"Ġsurprising":9422,"uity":9423,"INT":9424,"hex":9425,"Ġdifficulties":9426,"Ġthrive":9427,"tech":9428,"Ġtox":9429,"lywood":9430,"Ġorganisations":9431,"custom":9432,"erver":9433,"enger":9434,"rays":9435,"nap":9436,"Ġanch":9437,"limit":9438,"ĠPakistan":9439,"Ġcarri":9440,"ĠPrime":9441,"reens":9442,"Ep":9443,"overty":9444,"imental":9445,"rible":9446,"Ġplain":9447,"Ġdivided":9448,"pad":9449,"success":9450,"Ġcourage":9451,"Ġrequested":9452,"ĠWilliams":9453,"gex":9454,"groups":9455,"May":9456,"ĠBeing":9457,"public":9458,"Ġassigned":9459,"bow":9460,"Ġinclusive":9461,"ĠRest":9462,"Ġnutrition":9463,"Ġattach":9464,"Ġinterviews":9465,"ILITY":9466,"Ġconvenience":9467,"language":9468,"inator":9469,"Ġcompelling":9470,"ront":9471,"Ġwheel":9472,"ĠField":9473,"Ġintegral":9474,"Ġwalked":9475,"Ġunders":9476,"Ġencouraging":9477,"Ġchildhood":9478,"Ġoptimizer":9479,"wan":9480,"ASS":9481,"Ġemployed":9482,"ĠCross":9483,"lined":9484,"Ġutilize":9485,"Ġintu":9486,"clear":9487,"Ġrecruit":9488,"Ġ1960":9489,"ĠJones":9490,"ospel":9491,"Ġpartnerships":9492,"Ġprotest":9493,"subsc":9494,"END":9495,"Ġweekend":9496,"Ġprohib":9497,"Ġexamine":9498,"asty":9499,"Ġouts":9500,"Ġip":9501,"Ġalter":9502,"ĠTax":9503,"ACT":9504,"application":9505,"encode":9506,"ĠFile":9507,"BI":9508,"car":9509,"plt":9510,"Ġworkforce":9511,"worthy":9512,"LL":9513,"gate":9514,"Ġdescribes":9515,"Ġterritory":9516,"Ġske":9517,"Ġintervention":9518,"Ġrepresentative":9519,"Ġprosecut":9520,"cho":9521,"Ġclarity":9522,"fall":9523,"ampion":9524,"BO":9525,"Hel":9526,"Ġancest":9527,"dirname":9528,"Ġoutstanding":9529,"ateral":9530,"dims":9531,"ĠHand":9532,"Ġcarrying":9533,"cycle":9534,"ycl":9535,"Ġtranslation":9536,"urday":9537,"ĠWindows":9538,"Ġindices":9539,"serialize":9540,"sent":9541,"ĠHon":9542,"bat":9543,"Ġgolf":9544,"ĠEnergy":9545,"Ġtheater":9546,"Pre":9547,"57":9548,"Ġordinary":9549,"Ġclubs":9550,"mar":9551,"Ġmining":9552,"Ġtur":9553,"Ġgrade":9554,"Ġpeak":9555,"ova":9556,"ĠChair":9557,"ACK":9558,"Ġdive":9559,"Ġsurprised":9560,"cred":9561,"Ġaccord":9562,"arters":9563,"ordinary":9564,"aze":9565,"Ġorient":9566,"Ġcooking":9567,"Ġwrites":9568,"enda":9569,"Ġmigr":9570,"Ġcooperation":9571,"Ġappointment":9572,"Message":9573,"RS":9574,"Ġcounty":9575,"Ġdiam":9576,"Ġtrem":9577,"Ġworship":9578,"Ġmeal":9579,"']:":9580,"ĠGal":9581,"Ġheads":9582,"duate":9583,"utter":9584,"iana":9585,"vy":9586,"Ġ-------":9587,"erman":9588,"ĠProper":9589,"ĠBiden":9590,"Ġjewel":9591,"Ã¢":9592,"Ġpapers":9593,"Ġargparse":9594,"Ġblank":9595,"Ġpointed":9596,"swer":9597,"98":9598,"ĠColumb":9599,"Ġsections":9600,"ĠShould":9601,"Ġobser":9602,"Ġdownt":9603,"specific":9604,"Ġwarnings":9605,"zip":9606,"Ġresc":9607,"bias":9608,"Ġnormally":9609,"Ġpackages":9610,"FOR":9611,"Ġcaptured":9612,"pers":9613,"ĠSouthern":9614,"Ġcognitive":9615,"Ġdimensions":9616,"Ġtut":9617,"Options":9618,"Ġans":9619,"ĠAccess":9620,"ĠRepublican":9621,"ĠEr":9622,"Ġoptimal":9623,"Ġteeth":9624,"Ġtank":9625,"Ġreliability":9626,"peror":9627,"Source":9628,"ĠRom":9629,"Ġdemonstrated":9630,"ĠLanguage":9631,"ĠKen":9632,"states":9633,"ĠSpain":9634,"Ġcrowd":9635,"Ġeligible":9636,"ĠMos":9637,"Ġfewer":9638,"ashed":9639,"WARE":9640,"Ġtransformed":9641,"nowned":9642,"Ġsuffer":9643,"Ġrestaurants":9644,"raises":9645,"ĠDid":9646,"itative":9647,"Ġmissed":9648,"Ġsuffered":9649,"swith":9650,"there":9651,"dings":9652,"Ġshoes":9653,"Ġ1999":9654,"Ġ\"--":9655,"Ġpassionate":9656,"ĠDub":9657,"Ġbot":9658,"Ġexchang":9659,"Ġtrauma":9660,"LP":9661,"Ġcoal":9662,"Ġcontained":9663,"Ġmolec":9664,"high":9665,"oom":9666,"Ġages":9667,"lon":9668,"vin":9669,"Ġweakness":9670,"abi":9671,"generate":9672,"Ġposit":9673,"Ġbetting":9674,"Ġevolve":9675,"Ġbeach":9676,"ĠDivision":9677,"Ġbold":9678,"ĠIntelligence":9679,"ĠKorea":9680,"}\")":9681,"Ġconfront":9682,"engine":9683,"iner":9684,"Comp":9685,"Ġsmile":9686,"ĠIrish":9687,"Ġabsence":9688,"Ġconnecting":9689,"ethe":9690,"Ġunus":9691,"../":9692,"onto":9693,"MC":9694,"Ġexhaust":9695,"Ġvalidate":9696,"pattern":9697,"Ġmaintained":9698,"Ġreturning":9699,"Ġlady":9700,"Ġerectile":9701,"Ġlawsu":9702,"Ġpersonnel":9703,"Ġsle":9704,"Ġlights":9705,"Ġbonds":9706,"flat":9707,"rencies":9708,"ĠPut":9709,"endar":9710,"Ġscan":9711,"ilst":9712,"Ġadministrative":9713,"ĠEll":9714,"ĠConf":9715,"gb":9716,"'][":9717,"Ġhes":9718,"bour":9719,"Ġsubstance":9720,"Ġstrengths":9721,"factory":9722,"Ġexcite":9723,"Then":9724,"crib":9725,"Ġfalling":9726,"ventions":9727,"Ġscenes":9728,"Ġcontribution":9729,"Ġwellness":9730,"Ġhub":9731,"Ġ\"__":9732,"Ġsurge":9733,"Ġcalc":9734,"Ġclothes":9735,"anna":9736,"2018":9737,"Ġmeta":9738,"ĠAT":9739,"ologists":9740,"Ġinstruction":9741,"Mark":9742,"Arg":9743,"ixel":9744,"elligent":9745,"Ġperception":9746,"startswith":9747,"Ġfunc":9748,"cert":9749,"Ġsubprocess":9750,"Ġethnic":9751,"Ġprincipal":9752,"ĠEqu":9753,"ĠSection":9754,"84":9755,"inite":9756,"Top":9757,"Ġstudied":9758,"Ġinstruments":9759,"Ġfrequent":9760,"Ġreflection":9761,"Ġdipl":9762,"Ġ'%":9763,"blem":9764,"Ġequivalent":9765,"Ġencoding":9766,"Ġuniversal":9767,"Ġeast":9768,"Ġstrongly":9769,"telling":9770,"Ġpublis":9771,"Act":9772,"ells":9773,"Ġchronic":9774,"ĠHosp":9775,"nan":9776,"Ġduties":9777,"acks":9778,"urse":9779,"Ġrend":9780,"ĠBoston":9781,"ĠEastern":9782,"reset":9783,"pair":9784,"Ġanger":9785,"ĠGeorgia":9786,"enter":9787,"Ġbat":9788,"ĠJac":9789,"ĠRole":9790,"300":9791,"ĠJon":9792,"install":9793,"weet":9794,"Ġlect":9795,"Ġadopt":9796,"commun":9797,"everal":9798,"platform":9799,"IF":9800,"Ġdeclared":9801,"loads":9802,"Ġneck":9803,"Ġexpanding":9804,"Ġtalks":9805,"Ġfilters":9806,"usal":9807,"ĠRam":9808,"Ġsolely":9809,"pus":9810,"ĠBow":9811,"ometry":9812,"pread":9813,"Ġinterior":9814,"unicip":9815,"vas":9816,"Ġsubscription":9817,"Ġpreparing":9818,"ĠCharl":9819,"Ġparallel":9820,"child":9821,"Ġpenis":9822,"Ġdamages":9823,"Ġcommands":9824,"Ġdish":9825,"Ġstruggles":9826,"ZE":9827,"iry":9828,"OG":9829,"ĠFour":9830,"ependent":9831,"ogen":9832,"iking":9833,"ĠAdam":9834,"Whether":9835,"Ġinev":9836,"Ġ\"-":9837,"Mon":9838,"Ġshaped":9839,"ĠSenate":9840,"Ġly":9841,"}\"":9842,"Ġmistake":9843,"Ġstrange":9844,"Sim":9845,"Infobox":9846,"ects":9847,"rogen":9848,"ĠGrow":9849,"Ġpandas":9850,"Ġintroduce":9851,"generator":9852,"ĠHelp":9853,"ĠStudents":9854,"Ġpin":9855,"Ġuniform":9856,"Ġproport":9857,"Ġadvent":9858,"hist":9859,"Ġwire":9860,"Ġutilizing":9861,"Ġfeaturing":9862,"ĠFinally":9863,"CP":9864,"Ġimmune":9865,"building":9866,"ĠRome":9867,"sur":9868,"SU":9869,"Ġedition":9870,"Ġpitch":9871,"Ġgradually":9872,"Ġcybersecurity":9873,"idespread":9874,"aped":9875,"cluster":9876,"Ġphotography":9877,"Ġsecondary":9878,"ĠFact":9879,"ello":9880,"ĠBoy":9881,"uffle":9882,"Today":9883,"Ġctx":9884,"Ġmotivation":9885,"Ġencrypt":9886,"Ġraising":9887,"Ġparad":9888,"ĠAnaly":9889,"Ã¶":9890,"Ġmold":9891,"Ġelev":9892,"Ġunittest":9893,"Ġspin":9894,"Ġassistant":9895,"Status":9896,"ĠAllah":9897,"Ġpad":9898,"Ġcup":9899,"ju":9900,"Ġprofits":9901,"ĠChildren":9902,"ishment":9903,"Ġawarded":9904,"Ge":9905,"ummer":9906,"Ġfacilitate":9907,"urches":9908,"Ġcurious":9909,"ifted":9910,"Ġinterpretation":9911,"Ġdivers":9912,"Ġprime":9913,"Ġfro":9914,"Ġleague":9915,"erving":9916,"Ġdiab":9917,"Ġactivation":9918,"Ġcontra":9919,"69":9920,"Ġviewers":9921,"isticated":9922,"Ġeverywhere":9923,"Ġentering":9924,"Ġattached":9925,"Ġmagazine":9926,"Ġlad":9927,"RES":9928,"Ġshed":9929,"bra":9930,"Ġinvalid":9931,"Ġnewly":9932,"ĠCredit":9933,"Ġlifetime":9934,"opts":9935,"hemat":9936,"ĠEV":9937,"Ġtom":9938,"Ġtracks":9939,"Ġlicensed":9940,"framework":9941,"element":9942,"ĠAri":9943,"ĠDown":9944,"Ġsatisfied":9945,"otion":9946,"admin":9947,"olean":9948,"Ġpublication":9949,"ĠZeal":9950,"ĠDemocratic":9951,"tw":9952,"plotlib":9953,"ĠRevolution":9954,"Ġpromises":9955,"54":9956,"ĠEvent":9957,"Ġdestroyed":9958,"Ġcountless":9959,"ĠKh":9960,"XX":9961,"render":9962,"Ġdisorder":9963,"Ġgenre":9964,"itual":9965,"Ġrestore":9966,"note":9967,"ĠMah":9968,"ocated":9969,"Ġmeditation":9970,"Ġregime":9971,"Ġofferings":9972,"compute":9973,"Ġbare":9974,"Ġfranch":9975,"ultane":9976,"Ġoverlook":9977,"arios":9978,"icating":9979,"ĠMcC":9980,"Ġmechanism":9981,"ĠFilm":9982,"Ġsurvive":9983,"AY":9984,"Ġimpression":9985,"Ġtmp":9986,"including":9987,"Ġexercises":9988,"erty":9989,"ailing":9990,"ĠSea":9991,"LS":9992,"ĠSupp":9993,"Invalid":9994,"Ġengineers":9995,"53":9996,"empty":9997,"Ġconventional":9998,"made":9999,"Like":10000,"owners":10001,"Point":10002,"Ġchampions":10003,"nament":10004,"Ġcouncil":10005,"ĠChris":10006,"Ġrepeat":10007,"aylor":10008,"pons":10009,"Ġawards":10010,"Size":10011,"Ġburden":10012,"andom":10013,"52":10014,")\"":10015,"Ġannot":10016,"Ġmilk":10017,"Ġaffects":10018,"Ġrobot":10019,"ĠSpace":10020,"Ġspan":10021,"Ġmenu":10022,"Ġwidespread":10023,"Ġpeer":10024,"Ġrefuge":10025,"crets":10026,"dy":10027,"ĠTele":10028,"Ġbarriers":10029,"Ġcam":10030,"Ġlogic":10031,"Ġlaugh":10032,"ĠPot":10033,"keras":10034,"Ġpreserve":10035,"Ġ\",":10036,"ĠNorthern":10037,"oub":10038,"Ben":10039,"Ġdinner":10040,"blocks":10041,"Ġapplies":10042,"ĠJackson":10043,"Ġgenetic":10044,"orship":10045,"Äģ":10046,"Handler":10047,"ĠLibrary":10048,"xml":10049,"Ġinsert":10050,"SH":10051,"scores":10052,"=['":10053,"Ġtiny":10054,"Ġacknowledge":10055,"Ġ1998":10056,"ĠEmploy":10057,"Ġtitles":10058,"onies":10059,"Ġadvancements":10060,"Ġmathemat":10061,"Ġju":10062,"Ġflavor":10063,"Ġgoogle":10064,"Ġcurriculum":10065,"cv":10066,"classmethod":10067,"Ġphrase":10068,"Ġminimize":10069,"DataFrame":10070,"Count":10071,"erated":10072,"Ġevolved":10073,"perm":10074,"Ġdebug":10075,"ĠPop":10076,"Ġabund":10077,"anship":10078,"timestamp":10079,"iors":10080,"Ġclar":10081,"ĠExp":10082,"Ġtroops":10083,"alks":10084,"foo":10085,"ĠZealand":10086,"Ġhosting":10087,"bered":10088,"ĠContact":10089,"available":10090,"Ġstuck":10091,"Ġexcitement":10092,"ceptions":10093,"orrect":10094,"ĠTri":10095,"Ġclosing":10096,"oked":10097,"fare":10098,"ĠImpact":10099,"aph":10100,"optimizer":10101,"anted":10102,"reement":10103,"variable":10104,"ĠStan":10105,"clean":10106,"Ġniche":10107,"uated":10108,"Ġprocessed":10109,"\"].":10110,"Please":10111,"star":10112,"Ġsomewhere":10113,"Ġpars":10114,"Ġdetermining":10115,"Ġdifferently":10116,"Ġlikes":10117,"Ġrenowned":10118,"Ġfarmers":10119,"Ġfiction":10120,"Ġempathy":10121,"ĠPlus":10122,"ĠPo":10123,"isely":10124,"ĠDemocr":10125,"try":10126,"isting":10127,"ANT":10128,"Ġcasual":10129,"craft":10130,"abis":10131,"novation":10132,"convert":10133,"athered":10134,"Ġalternatives":10135,"athan":10136,"Finally":10137,"window":10138,"ateful":10139,"ourcing":10140,"ĠHind":10141,"Ġblind":10142,"umer":10143,"ĠFre":10144,"Ġversus":10145,"Ġprediction":10146,"Ġschema":10147,"ĠResource":10148,"itate":10149,"ĠAsh":10150,"ĠMike":10151,"Moreover":10152,"Ġvocab":10153,"ortion":10154,"Ġrefe":10155,"Ġtrail":10156,"Ġroyal":10157,"Ġprovisions":10158,"Ġreferences":10159,"Ġdeserial":10160,"Ġworkflow":10161,"Ġspouse":10162,"Ġbrill":10163,"Sm":10164,"CD":10165,"ĠCirc":10166,"Because":10167,"ĠCustomer":10168,"ĠObama":10169,"Ġweren":10170,"Ġproactive":10171,"execute":10172,"Ġvess":10173,"Color":10174,"Ġbills":10175,"errors":10176,"dig":10177,"summary":10178,"roller":10179,"Ġsurvival":10180,"Ġmodify":10181,"Ġpoverty":10182,"Ġprecious":10183,"TYPE":10184,"ĠBeach":10185,"Ġgrat":10186,"\",\"":10187,"bits":10188,"Ġentrepreneur":10189,"ĠCapital":10190,"Ġbike":10191,"Ġeconomics":10192,"font":10193,"tol":10194,"orient":10195,"Ġdescript":10196,"ĠMonday":10197,"Ġeleg":10198,"ORD":10199,"Ġgifts":10200,"Ġsophisticated":10201,"Ġdrama":10202,"Ġlayout":10203,"Ġ{}\".":10204,"ĠLuc":10205,"Ġcalculate":10206,"Ġcryptocurrency":10207,"Ġargued":10208,"Ġenhances":10209,"PORT":10210,"Ġangle":10211,"Ġextraordinary":10212,"ĠNY":10213,"ĠAndrew":10214,"ĠComput":10215,"Ġinherent":10216,"Ġclassroom":10217,"Ġstraightforward":10218,"sen":10219,"His":10220,"effective":10221,"Ġpreced":10222,"extend":10223,"ĠManager":10224,"Ġcovering":10225,"emed":10226,"elly":10227,"Ġdropped":10228,"ĠNext":10229,"Ġderived":10230,"agraph":10231,"irty":10232,"Ġsafely":10233,"Process":10234,"package":10235,"Custom":10236,"username":10237,"ulpt":10238,"exceptions":10239,"ĠMid":10240,"Ġminister":10241,"Ġbenefic":10242,"ĠCS":10243,"Ġbreast":10244,"handle":10245,"Ġestablishment":10246,"sleep":10247,"Ġoffices":10248,"Ġfalls":10249,"Ġradical":10250,"Ġsymbols":10251,"Furthermore":10252,"Ġpermit":10253,"Ġprecise":10254,"Ġending":10255,"apore":10256,"Ġ75":10257,"named":10258,"Found":10259,"Red":10260,"vard":10261,"\">":10262,"ysical":10263,"Ġeager":10264,"Ġcrack":10265,"Ġcertification":10266,"Ġstocks":10267,"72":10268,"safe":10269,"inction":10270,"Ġromantic":10271,"ĠFestival":10272,"VAL":10273,"repr":10274,"ader":10275,"Ġupcoming":10276,"ĠBal":10277,"Ġhass":10278,"orry":10279,"Ġhaz":10280,"icket":10281,"Ġappreciation":10282,"osa":10283,"modules":10284,"Ġathletes":10285,"Ġacquisition":10286,"ching":10287,"ppers":10288,"Ġpicked":10289,"Ġenthusiasts":10290,"ĠWhich":10291,"Implemented":10292,"Ġtrials":10293,"PD":10294,"gas":10295,"ĠProm":10296,"TF":10297,"CTION":10298,"Ġfluid":10299,"rapper":10300,"Ġdiagnosis":10301,"Ġearnings":10302,"aza":10303,"archy":10304,"abeth":10305,"roph":10306,"iano":10307,"Ġnull":10308,"methods":10309,"Ġlesson":10310,"ĠQueen":10311,"Ġbact":10312,"Ġobs":10313,"Ġanymore":10314,"ĠPacific":10315,"Ġvoices":10316,"Ġuncertainty":10317,"Ġaggreg":10318,"ennis":10319,"Ġpushing":10320,"Ġbroke":10321,"trace":10322,"Ġdiscipline":10323,"Ġble":10324,"Ġrational":10325,"mind":10326,"acher":10327,"ĠCbd":10328,"gi":10329,"Ġselecting":10330,"onymous":10331,"EE":10332,"ĠVan":10333,"Ġmedications":10334,"ĠClient":10335,"Ġtimely":10336,"Ġdivorce":10337,"abil":10338,"ocker":10339,"Ġkeywords":10340,"ĠSelf":10341,"compass":10342,"props":10343,"Ġcriticism":10344,"ABILITY":10345,"ilation":10346,"ĠThree":10347,"Init":10348,"Ġflu":10349,"FTWARE":10350,"Ġyellow":10351,"Ġdamaged":10352,"icken":10353,"ĠTreat":10354,"Ġcompr":10355,"Ġelectricity":10356,"Ġdust":10357,"Ġseamless":10358,"rowspan":10359,"dm":10360,"Ġinvited":10361,"dr":10362,"Ġmodified":10363,"Ġconsultation":10364,"ĠChatGPT":10365,"Ġarbit":10366,"ĠIntegr":10367,"Ġvalued":10368,"loom":10369,"à¤":10370,"Ġincorporate":10371,"Ġignored":10372,"hav":10373,"ctx":10374,"Policy":10375,"Ġputs":10376,"away":10377,"Ġalleg":10378,"Ġmapping":10379,"Ġaddiction":10380,"OM":10381,"ĠJe":10382,"ĠLy":10383,"('/":10384,"ĠQuest":10385,"ĠFair":10386,"strong":10387,"wa":10388,"ĠFar":10389,"ĠNations":10390,"Ġbin":10391,"Ġspecialist":10392,"Ġdesigners":10393,"Ġmoist":10394,"Ġimper":10395,"ĠIM":10396,"Ġobstacles":10397,"fail":10398,"ador":10399,"Ġelectrical":10400,"Ġgenerator":10401,"Ġproved":10402,"relu":10403,"Ġsuppliers":10404,"awn":10405,"Ġstatic":10406,"Ġsignals":10407,"hot":10408,"Ġcomposed":10409,"Ġtip":10410,"appy":10411,"getter":10412,"sequence":10413,"essages":10414,"Ġwhereas":10415,"ĠIslamic":10416,"Ġobservation":10417,"Ġbomb":10418,"Ġexplanation":10419,"Ġacquire":10420,"alo":10421,"Ġplug":10422,"Ġlic":10423,"Ġdeveloper":10424,"ĠHR":10425,"otten":10426,"Ġoptimization":10427,"Ġtang":10428,"Ġflour":10429,"Fact":10430,"Ġcreators":10431,"final":10432,"ĠJersey":10433,"_(":10434,"ĠPalestin":10435,"Ġanalyzing":10436,"Ġwaters":10437,"Ġpractition":10438,"Ġconsiderable":10439,"Ġdisag":10440,"sters":10441,"ĠGames":10442,"anche":10443,"ĠFrancisco":10444,"Ġpivotal":10445,"Ġphotograp":10446,"Ġpreventing":10447,"Ġsubmitted":10448,"Ġkne":10449,"tery":10450,"igious":10451,"Ġconsiderations":10452,"Ġinvas":10453,"Ġdelve":10454,"51":10455,"ben":10456,"Ġsafeguard":10457,"bf":10458,"leted":10459,"Ġcertificate":10460,"role":10461,"Oh":10462,"large":10463,"Ġ!!":10464,"ltimately":10465,"symbol":10466,"dt":10467,"ĠMedic":10468,"ĠRelations":10469,"Ġremem":10470,"illy":10471,"concat":10472,"too":10473,"Ġbankrupt":10474,"Ġhell":10475,"web":10476,"necess":10477,"Ġ\"_":10478,"oco":10479,"ĠPrem":10480,"ĠIsraeli":10481,"emies":10482,"ĠKenn":10483,"loop":10484,"Ġhat":10485,"threshold":10486,"ghan":10487,"Index":10488,"Ġ2025":10489,"Ġinfection":10490,"expand":10491,"ĠGall":10492,"click":10493,"Ġetern":10494,"Ġedit":10495,"gency":10496,"formed":10497,"2017":10498,"Ġadvers":10499,"Ġcryst":10500,"conn":10501,"Ġperceived":10502,"Ġkilling":10503,"distance":10504,"accur":10505,"ĠEss":10506,"Ġfolder":10507,"pts":10508,"Writ":10509,"iaries":10510,"Cur":10511,"wall":10512,"Ġlegitimate":10513,"Ġcontents":10514,"Ġcodes":10515,"Ġ\"\\":10516,"âĶ":10517,"MODE":10518,"TE":10519,"ĠGir":10520,"Item":10521,"ĠWalk":10522,"Ġgrab":10523,"ĠSwed":10524,"CR":10525,"ĠMic":10526,"ĠSaturday":10527,"rape":10528,"Ġthin":10529,"Ġfulfillment":10530,"Valid":10531,"Ġmechanisms":10532,"fill":10533,"ansas":10534,"Ġemissions":10535,"Fl":10536,"ĠModern":10537,"ĠWat":10538,"Ġbirds":10539,"Ġdeaths":10540,"Ġspr":10541,"ĠConstitution":10542,"Ġdestruction":10543,"ĠNO":10544,"oil":10545,"yard":10546,"ĠNative":10547,"stdout":10548,"Ġtension":10549,"Ġwestern":10550,"Ġow":10551,"apply":10552,"icient":10553,"oster":10554,"iac":10555,"Ġjewelry":10556,"Also":10557,"Ġinfluences":10558,"ĠWeek":10559,"\"][\"":10560,"Ġrepay":10561,"AND":10562,"riving":10563,"Ġcinem":10564,"Ġventure":10565,"Ġseasons":10566,"Ġmanufacturer":10567,"Ġdeter":10568,"Ġobtaining":10569,"Ġdesires":10570,"Ġstreaming":10571,"vania":10572,"2021":10573,"Ġcomputers":10574,"ĠAge":10575,"ati":10576,"End":10577,"DEFAULT":10578,"ĠEnh":10579,"icide":10580,"Ġtexts":10581,"Ġ1997":10582,"Ġimmigr":10583,"Ġ----------------------------------------------------------------":10584,"ovid":10585,"ĠCurrent":10586,"ĠMichigan":10587,"Ġformula":10588,"Ġdecrease":10589,"Ġ150":10590,"Ġshowcase":10591,"Ġlets":10592,"learning":10593,"validation":10594,"ĠDNA":10595,"vocab":10596,"charge":10597,"bro":10598,"Ġstructural":10599,"Ġcollaborative":10600,"Ġdental":10601,"Ġmere":10602,"ipy":10603,"Ġentr":10604,"97":10605,"Ġcareers":10606,"Ġpublicly":10607,"gpu":10608,"mic":10609,"transaction":10610,"ĠTry":10611,"ĠVen":10612,"container":10613,"Ġstrings":10614,"Ġmarks":10615,"control":10616,"Ġbuyer":10617,"Ġphysically":10618,"gal":10619,"Ġgains":10620,"cm":10621,"Ġtactics":10622,"Ġhate":10623,"aded":10624,"Ġpump":10625,"endment":10626,"Ġextends":10627,"iously":10628,"such":10629,"ĠPur":10630,"(**":10631,"Ġloaded":10632,"padd":10633,"Ġaccountability":10634,"Ġintegrate":10635,"Ġtemple":10636,"contin":10637,"Creat":10638,"__.":10639,"Ġtables":10640,"ĠOl":10641,"Ġ400":10642,"ariable":10643,"Ġcircle":10644,"Ġritual":10645,"Ġparticipating":10646,"ĠSteve":10647,"bration":10648,"Ġdrinking":10649,"Ġsimultane":10650,"Ġenorm":10651,"ouses":10652,"insert":10653,"ĠBul":10654,"Ġliberal":10655,"Ġweapon":10656,"storage":10657,"hyth":10658,"External":10659,"inals":10660,"SL":10661,"Ġtab":10662,"oured":10663,"Ġfishing":10664,"izational":10665,"Ġ1996":10666,"ĠAction":10667,"uuid":10668,"shire":10669,"Ġracial":10670,"Ġaesthetic":10671,"Ġspeaker":10672,"Ġtall":10673,"checkpoint":10674,"Ġ33":10675,"ĠPsych":10676,"mediate":10677,"parts":10678,"Head":10679,"adel":10680,"82":10681,"TA":10682,"aka":10683,"Ġgrounds":10684,"Ġexamination":10685,"Ġalert":10686,"Ġpassage":10687,"Ra":10688,"Ġdisaster":10689,"Ġproductive":10690,"Ġ'\\":10691,"Max":10692,"ĠSOFTWARE":10693,"ĠGuide":10694,"Ġsouthern":10695,"serial":10696,"ĠSav":10697,"Ġaccurately":10698,"ĠAM":10699,"ĠConference":10700,"compile":10701,"stra":10702,"ĠPen":10703,"Ref":10704,"Ġabstract":10705,"display":10706,"ĠEarly":10707,"omatic":10708,"Ġintim":10709,"Ġestimate":10710,"Ġcomplement":10711,"engers":10712,"ussian":10713,"Ġplane":10714,"ĠRegular":10715,"Ġprosper":10716,"}.":10717,"elfare":10718,"ĠFL":10719,"ĠNotImplemented":10720,"Ġdeleg":10721,"Ġoccasion":10722,"warn":10723,"%,":10724,"Ġediting":10725,"Ġaffairs":10726,"ĠEmb":10727,"arse":10728,"built":10729,"cli":10730,"Ġdispl":10731,"Ġreduces":10732,"Ġmatching":10733,"ttp":10734,"Ġweekly":10735,"Ġcomplexities":10736,"Ġcredibility":10737,"Str":10738,"ĠZh":10739,"ĠWild":10740,"olver":10741,"GET":10742,"ĠControl":10743,"Code":10744,"noon":10745,"Ġdenied":10746,"Ġfemin":10747,"Ġshapes":10748,"yes":10749,"Ġstats":10750,"Ġgolden":10751,"sqrt":10752,"ĠEns":10753,"isa":10754,"Ġstations":10755,"Ġvaccine":10756,"phinx":10757,"Ġbroker":10758,"ĠPerhaps":10759,"Ġspeaks":10760,"Ġharmful":10761,"Ġprofession":10762,"Ġdisput":10763,"una":10764,"Ġcrimes":10765,"Context":10766,"Ġembark":10767,"Ġrequiring":10768,"rpc":10769,"Ġcelebrated":10770,"ordan":10771,"Ġasc":10772,"Mult":10773,"Ġadequate":10774,"agen":10775,"Down":10776,"Ġcycl":10777,"iot":10778,"ĠOhio":10779,"Ġinspiring":10780,"__\":":10781,"Ġreveals":10782,"Ġcomplaint":10783,"Ġstorytelling":10784,"ĠPers":10785,"83":10786,"Ġposted":10787,"Ġdefining":10788,"rell":10789,"ĠAmong":10790,"counter":10791,"Ġviewed":10792,"break":10793,"ĠSuccess":10794,"speed":10795,"atom":10796,"Ġpose":10797,"ĠOfficer":10798,"ĠBob":10799,"esome":10800,"ĠNaz":10801,"Ġpackaging":10802,"interval":10803,"Ġfits":10804,"Ġloving":10805,"Ġpurchases":10806,"400":10807,"Ġperpet":10808,"ĠBon":10809,"ibraries":10810,"Ġsuggestions":10811,"Ġadvocate":10812,"ĠChall":10813,"ĠMA":10814,"ĠJun":10815,"Ġaccidents":10816,"Ġimportantly":10817,"Ġinclusion":10818,"Ġwww":10819,"Mar":10820,"Ġ_,":10821,"Lear":10822,"âĤ¬":10823,"1000":10824,"hs":10825,"Ġ[[":10826,"Ġmyster":10827,"Ġshooting":10828,"]],":10829,"Ġfest":10830,"ĠProtection":10831,"Ġboys":10832,"aping":10833,"ORS":10834,"ĠSingapore":10835,"Network":10836,"health":10837,"Ġdoctr":10838,"wered":10839,"Ġcompletion":10840,"ĠDam":10841,"ĠLittle":10842,"Ġaug":10843,"ilon":10844,"Ġbreaks":10845,"Ġincorporating":10846,"Ġpulled":10847,"ishop":10848,"ĠLI":10849,"Ġunusual":10850,"Ġsubsid":10851,"Ġcharacterized":10852,"GR":10853,"Ġexhibition":10854,"assertTrue":10855,"Ġintricate":10856,"63":10857,"LM":10858,"Ġbrothers":10859,"Ġpuzz":10860,"Ġasks":10861,"oting":10862,"accept":10863,"Ġgaining":10864,"found":10865,"angel":10866,"Ġconfusion":10867,"Ġloves":10868,"Ġought":10869,"Ġfert":10870,"inely":10871,"Ġcouples":10872,"Ġvice":10873,"Ġlinear":10874,"Ġ{{":10875,"Ġarrive":10876,"syl":10877,"ims":10878,"Ġmaximize":10879,"Ġshops":10880,"izable":10881,"Best":10882,"Ġgut":10883,"Ġflowers":10884,"Ġthereby":10885,"cf":10886,"Ġmerg":10887,"Ġnetworking":10888,"Ġeliminate":10889,"Ġbeloved":10890,"Ġscenarios":10891,"books":10892,"linear":10893,"skip":10894,"Ġgathering":10895,"Ġboss":10896,"callback":10897,"Ġrefused":10898,"Ġintrig":10899,"izabeth":10900,"ushing":10901,"Ġpushed":10902,"Ġgt":10903,"Ġcontinuously":10904,"orate":10905,"vector":10906,"Dev":10907,"Ġhide":10908,"vec":10909,"Ġintelligent":10910,"ĠUnlike":10911,"Ġdependent":10912,"ĠPub":10913,"Ġsalary":10914,"Ġenrollment":10915,"eted":10916,"TEST":10917,"Ġglobe":10918,"74":10919,"Ġnorthern":10920,"ko":10921,"ĠGuard":10922,"Ġacceptance":10923,"amber":10924,"Ġfru":10925,"Ġmotivated":10926,"\"\"'":10927,"memory":10928,"Ġcertified":10929,"ĠRay":10930,"Ġscheduled":10931,"anches":10932,"Ġvisits":10933,"Ġwallet":10934,"Ġrose":10935,"ĠChange":10936,"ĠTurn":10937,"jud":10938,"extra":10939,"Ġrows":10940,"Ġplate":10941,"Ġrarely":10942,"Ġgiant":10943,"ĠAdministration":10944,"stat":10945,"Ġrental":10946,"Ġassignment":10947,"Ġrecon":10948,"Ġmodules":10949,"Ġsculpt":10950,"Ġprecisely":10951,"ĠDar":10952,"ĠAuth":10953,"complete":10954,"ĠContin":10955,"ĠEngineering":10956,"Ġworkshops":10957,"feed":10958,"Ġrealistic":10959,"Ġencompass":10960,"Ġreputable":10961,"Ġexecuted":10962,"ĠLearn":10963,"colspan":10964,"Ġleather":10965,"parameter":10966,"ĠToronto":10967,"ĠParliament":10968,"lan":10969,"Ġappealing":10970,"ĠEs":10971,"Ġregarded":10972,"Ġdemocratic":10973,"Ġmeals":10974,"Ġconcluded":10975,"opher":10976,"Pri":10977,"iosity":10978,"Ġspectrum":10979,"children":10980,"ĠStat":10981,"Ġwise":10982,"ifice":10983,"Ġassault":10984,"compat":10985,"Ġquantity":10986,"ĠKim":10987,"esty":10988,"Ġine":10989,"Ġunity":10990,"ĠSche":10991,"Ġcapability":10992,"CM":10993,"Ġstartup":10994,"Array":10995,"81":10996,"Ġ',":10997,"esis":10998,"Token":10999,"Ġtill":11000,"Ġindicated":11001,"capt":11002,"ĠBang":11003,"ednes":11004,"Ġtraits":11005,"stein":11006,"Ġauthenticity":11007,"Ġinvested":11008,"Ġpromotion":11009,"Ġattending":11010,"ĠShort":11011,"Ġranging":11012,"Ġexpense":11013,"AF":11014,"ilty":11015,"clip":11016,"Ġremoving":11017,"Ġstrive":11018,"flag":11019,"upt":11020,"ĠSales":11021,"NS":11022,"Ġwake":11023,"Ġrespective":11024,"Ġlanding":11025,"Char":11026,"yer":11027,"encoder":11028,"Ġhighlighted":11029,"attribute":11030,"Ġcomply":11031,"Ġadditionally":11032,"stage":11033,"Mr":11034,"chron":11035,"uis":11036,"BM":11037,"Ġ1995":11038,"acter":11039,"Ġcompete":11040,"Ġocean":11041,"owers":11042,"Ġfails":11043,"ĠScotland":11044,"uty":11045,"ikes":11046,"Ġconstructed":11047,"ĠHard":11048,"ĠThink":11049,"Ġopens":11050,"Ġreflected":11051,"ĠBrook":11052,"inson":11053,"Ġleveraging":11054,"ratio":11055,"Ġbasketball":11056,"ĠPR":11057,"Ġtraders":11058,"Ġwanting":11059,"orses":11060,"ĠExperience":11061,"Ġenjoyable":11062,"ĠRen":11063,"Ġaccomp":11064,"Ġembracing":11065,"Ġtied":11066,"ĠFred":11067,"required":11068,"rieve":11069,"UTH":11070,"Ġbird":11071,"Ġassociate":11072,"sylvania":11073,"ĠNight":11074,"js":11075,"Ġcher":11076,"Ġobligation":11077,"Ac":11078,"DI":11079,"Ġanyway":11080,"Ġcombine":11081,"card":11082,"Manager":11083,"Ġelsewhere":11084,"Ġthoroughly":11085,"Ġpollut":11086,"}'":11087,"ĠComple":11088,"else":11089,"Gu":11090,"ĠPrinc":11091,"62":11092,"Ġdisorders":11093,"ping":11094,"heast":11095,"Ġquotes":11096,"Ġabroad":11097,"Ġcheat":11098,"ĠOTHER":11099,"Ġcompos":11100,"acon":11101,"Ġamongst":11102,"Ġpeers":11103,"Ġobserve":11104,"Ġbeta":11105,"Ġaccused":11106,"ashes":11107,"jo":11108,"atial":11109,"bt":11110,"ĠCoast":11111,"ĠIII":11112,"Ġsuspect":11113,"Ġaggressive":11114,"Ġloud":11115,"ĠMean":11116,"Ġcomposition":11117,"area":11118,"ĠWal":11119,"ĠLtd":11120,"Ġchurches":11121,"CI":11122,"ĠWel":11123,"Ġspots":11124,"Ġvoters":11125,"Ġkeyword":11126,"ima":11127,"Ġhopes":11128,"auto":11129,"Ġdrives":11130,"Ġgard":11131,"Ġdiscussing":11132,"Ġgym":11133,"ĠJr":11134,"EP":11135,"generated":11136,"ifiers":11137,"uten":11138,"Direct":11139,"ĠBlock":11140,"squeeze":11141,"Ġrespectively":11142,"uesday":11143,"ĠText":11144,"ĠContent":11145,"73":11146,"ĠLive":11147,"opes":11148,"Ġreflecting":11149,"Ġstructured":11150,"ĠBrad":11151,"white":11152,"Ġconcentration":11153,"Ġaccordance":11154,"Ġmerge":11155,"61":11156,"Ġexcessive":11157,"ĠStill":11158,"Ġlighting":11159,"ĠHollywood":11160,"Sche":11161,"ĠPack":11162,"Ġtar":11163,"Ġfont":11164,"ĠSearch":11165,"ĠTaylor":11166,"history":11167,"itudes":11168,"Ġimmers":11169,"expl":11170,"Ġmm":11171,"Ġlenders":11172,"awa":11173,"likely":11174,"bet":11175,"bone":11176,"Ġdollar":11177,"Ġhasn":11178,"izz":11179,"Proper":11180,"enabled":11181,"Ġinfluential":11182,"Ġnotion":11183,"acies":11184,"Ġcircuit":11185,"GER":11186,"iddleware":11187,"Ġmountains":11188,"bind":11189,"ĠUnfortunately":11190,"Ġfrustration":11191,"Ġengineer":11192,"Ġpatience":11193,"exception":11194,"ursday":11195,"ĠPolice":11196,"advant":11197,"Overall":11198,"ĠSaint":11199,"Ġexclus":11200,"olves":11201,"Ġqueue":11202,"Ġagenda":11203,"prop":11204,"pdf":11205,"Ġrepresentatives":11206,"warning":11207,"vi":11208,"Ġhighlighting":11209,"Graph":11210,"erry":11211,"Ġdeployment":11212,"getLogger":11213,"OK":11214,"times":11215,"Ġenjoying":11216,"fits":11217,"Ġsupplements":11218,"optional":11219,"Ġmemorable":11220,"arer":11221,"Ġreset":11222,"Ġbgcolor":11223,"Ġdurability":11224,"Ġprobability":11225,"Tok":11226,"aration":11227,"Ġ48":11228,"arring":11229,"Ġ42":11230,"ĠOx":11231,"Ġ1994":11232,"Cal":11233,"FILE":11234,"ustain":11235,"ĠTurkey":11236,"Ġflying":11237,"Ġexplos":11238,"Ġgenerating":11239,"Ġinvestor":11240,"hour":11241,"ĠMoon":11242,"Ġcurve":11243,"Box":11244,"Ġpartial":11245,"Ġhybrid":11246,"Ġearning":11247,"ĠHa":11248,"ppy":11249,"pick":11250,"ĠMethod":11251,"Ġships":11252,"ĠNeed":11253,"orted":11254,"extract":11255,"ĠPhilipp":11256,"Ġphenomenon":11257,"Ġutility":11258,"agine":11259,"Ġcats":11260,"Ġgathered":11261,"Ġattempted":11262,"Ġrecognizing":11263,"('\\":11264,"ĠDefense":11265,"Ġoffensive":11266,"Ġpriorities":11267,"Ġintr":11268,"Ġrejected":11269,"Ġprospects":11270,"Ġreprodu":11271,"mac":11272,"gam":11273,"iser":11274,"Ġvoting":11275,"erals":11276,"ĠVietnam":11277,"Ġtoxic":11278,"TV":11279,"include":11280,"âĦ":11281,"Level":11282,"Ġfinger":11283,"workers":11284,"Ġwatched":11285,"ĠLow":11286,"ĠJSON":11287,"Ġspoken":11288,"Ġknock":11289,"reated":11290,"ĠÐ":11291,"Answer":11292,"GO":11293,"Ġdisability":11294,"Rob":11295,"71":11296,"Ġbreach":11297,"Ġnerv":11298,"Ġenduring":11299,"Ġholy":11300,"Ġcream":11301,"Ġdatasets":11302,"fers":11303,"ĠClick":11304,"ĠKn":11305,"Ġdirectors":11306,"Ġ65":11307,":%":11308,"ĠNotImplementedError":11309,"ĠOS":11310,"inth":11311,"Ġfears":11312,"ĠBern":11313,"Ġsilent":11314,"Ġcrazy":11315,"Ġedges":11316,"Ġhosts":11317,"posal":11318,"ository":11319,"Ġunnecess":11320,"Ġdefeat":11321,"cd":11322,"Ġviolent":11323,"ĠMinistry":11324,"Ġwars":11325,"Ġelder":11326,"har":11327,"Ġinhab":11328,"Ġmainstream":11329,"Ġavoiding":11330,"anny":11331,"Ġdelicious":11332,"ĠDO":11333,"Ġparking":11334,"Ġwaves":11335,"ĠAgency":11336,"Ġlikelihood":11337,"Ġticket":11338,"proto":11339,"erge":11340,"ĠFord":11341,"rous":11342,"fp":11343,"Ġtheore":11344,"Ġpromising":11345,"ĠMedicare":11346,"%)":11347,"-----":11348,"Ġyards":11349,"Ġseats":11350,"Ġbuffer":11351,"Ġnavigating":11352,"angers":11353,"Ġafternoon":11354,"Ġrecru":11355,"ĠLew":11356,"Ġtempt":11357,"users":11358,"rule":11359,"ĠRog":11360,"Ġdiabetes":11361,"Ġ34":11362,"Ġhorm":11363,"regular":11364,"inton":11365,"bbox":11366,"ĠTuple":11367,"bury":11368,"Ġinjured":11369,"]+":11370,"Ġtackle":11371,"Ġbrowser":11372,"Ġmomentum":11373,"Ġconverted":11374,"agan":11375,"ocity":11376,"ednesday":11377,"balance":11378,"Ġ\"%":11379,"Ġpursuit":11380,"ĠVideo":11381,"Ġcolonial":11382,"ĠStory":11383,"filters":11384,"Ġfestival":11385,"ĠScript":11386,"Ġgrateful":11387,"roke":11388,"Ġnutri":11389,"Ġware":11390,"ĠChristianity":11391,"Ġdiscrimination":11392,"ĠFoot":11393,"Ġtu":11394,"ĠGar":11395,"Ġlegs":11396,"ĠHom":11397,"Ġwet":11398,"testing":11399,"Ġpredicted":11400,"Ġoral":11401,"Ġcoin":11402,"market":11403,"constant":11404,"Ġaccordingly":11405,"Ġmarketplace":11406,"Open":11407,"iro":11408,"uint":11409,"iblical":11410,"Ġ1950":11411,"ĠBad":11412,"Ġdepartments":11413,"Ġseller":11414,"Ġfur":11415,"heel":11416,"Ġjury":11417,"Ġcelebration":11418,"plus":11419,"Ġdash":11420,"Ġliterary":11421,"Ġbrown":11422,"ĠSafety":11423,"Ġoverse":11424,"Ġtor":11425,"Ġangry":11426,"Ġoperates":11427,"ĠPennsylvania":11428,"original":11429,"azy":11430,"powered":11431,"Dist":11432,"Ġglobally":11433,"ĠCompanies":11434,"riends":11435,"Ġnewspaper":11436,"mond":11437,"Ġcoins":11438,"Ġaudit":11439,"ĠHospital":11440,"inge":11441,"Ġclock":11442,"ensional":11443,"Ġpopulations":11444,"writing":11445,"ĠAdvis":11446,"Make":11447,"eras":11448,"Ġyoga":11449,"ĠTy":11450,"Ġidentification":11451,"ĠWatch":11452,"oples":11453,"Ġrelating":11454,"ĠKong":11455,"idity":11456,"arts":11457,"ĠUr":11458,"Flow":11459,"ĠBrother":11460,"quant":11461,"inois":11462,"usters":11463,"âĦ¢":11464,"ĠMind":11465,"Ġpropag":11466,"Ġlin":11467,"Ġverse":11468,"Ġworried":11469,"ĠLegal":11470,"ĠSystems":11471,"iversary":11472,"ĠRon":11473,"umph":11474,"Ġcheckpoint":11475,"Stud":11476,"Ġmatplotlib":11477,"Ġkingdom":11478,"ori":11479,"ameras":11480,"ĠSmall":11481,"Ġresume":11482,"ĠAttor":11483,"ĠBE":11484,"Ġunlike":11485,"Ġfiling":11486,"Ġhandled":11487,"days":11488,"ĠHong":11489,"Ġnursing":11490,"Ġofficially":11491,"een":11492,"Ġtransc":11493,"ĠFI":11494,"Ġruling":11495,"earing":11496,"FR":11497,"Ġoverl":11498,"ampler":11499,"Ġconservation":11500,"ĠString":11501,"Ġbuilds":11502,"Ġtheories":11503,"Instance":11504,"onts":11505,"amps":11506,".*":11507,"Ġdisplayed":11508,"'},":11509,"ĠAuto":11510,"Ġdistract":11511,"Ġmoon":11512,"Ġprinting":11513,"Ġvolat":11514,"ĠChampionship":11515,"Ġconsistency":11516,"Ġairport":11517,"ĠCase":11518,"Ġresidence":11519,"proof":11520,"Ġroads":11521,"reference":11522,"Ġproc":11523,"Ġlunch":11524,"Med":11525,"ĠPlace":11526,"Ġchecked":11527,"lected":11528,"vance":11529,"Ġtemperatures":11530,"Ġdishes":11531,"Ġpsychology":11532,"Ġarmed":11533,"ĠCapt":11534,"Ġmystery":11535,"Ġincorrect":11536,"Ġseq":11537,"Ġsomehow":11538,"was":11539,"ĠGiven":11540,"Ġthinks":11541,"ĠIndex":11542,"ĠRecords":11543,"Will":11544,"ĠImpro":11545,"era":11546,"Ġdump":11547,"Ġtast":11548,"ĠBol":11549,"Ġpregnancy":11550,"ami":11551,"Ġtum":11552,"ĠVill":11553,"bad":11554,"Ġconservative":11555,"ĠSports":11556,"Ġsettled":11557,"DO":11558,"crit":11559,"Ġimmigration":11560,"ROM":11561,"Ġachievement":11562,"Ġconstraints":11563,"variables":11564,"unn":11565,"Ġvig":11566,"ĠEconomic":11567,"ĠTurk":11568,"ĠNa":11569,"avg":11570,"ĠChoose":11571,"Sign":11572,"ĠDonald":11573,"Ġadmitted":11574,"Ġmirror":11575,"volume":11576,"Ġcostly":11577,"download":11578,"po":11579,"Ġretention":11580,"Ġmaps":11581,"zh":11582,"ĠTech":11583,"Ġfed":11584,"Ġ1992":11585,"ĠBC":11586,"vely":11587,"Ġaspir":11588,"ĠRO":11589,"Ġendless":11590,"SER":11591,"Ġproduces":11592,"Ġliked":11593,"Min":11594,"even":11595,"Ġreinfor":11596,"resources":11597,"ĠRh":11598,"Ġprevention":11599,"Ġpersu":11600,"URE":11601,"Ġsensit":11602,"Ġsensor":11603,"ĠCub":11604,"ĠCH":11605,"Ġoffense":11606,"ĠConsult":11607,"Ġoldest":11608,"Ġagricultural":11609,"ounce":11610,"(\"\\":11611,"tex":11612,"Ġcrop":11613,"Ġimmun":11614,"Ġcuts":11615,"roat":11616,"Ġadvisor":11617,"ĠKorean":11618,"Ġmonetary":11619,"Ġfranchise":11620,"Ġconsulting":11621,"deg":11622,"Ġimagination":11623,"Ġletting":11624,"ĠEmer":11625,"second":11626,"Ġfifth":11627,"Ġbunch":11628,"Ġphilanth":11629,"ĠTai":11630,"ogy":11631,"region":11632,"appro":11633,"Map":11634,"LU":11635,"acle":11636,"tools":11637,"Ġcir":11638,"Ġtear":11639,"ĠNic":11640,"ucky":11641,"ĠSimp":11642,"92":11643,"Ġwinner":11644,"Ġhang":11645,"Ġinteger":11646,"Ġsurrounded":11647,"maker":11648,"uf":11649,"ĠLoad":11650,"arest":11651,"ĠWis":11652,"ĠAfghan":11653,"ocate":11654,"Ġdramatic":11655,"Ġderiv":11656,"Ġpayload":11657,"Ġarrangements":11658,"dropout":11659,"Ġutilized":11660,"Ġlogistics":11661,"Ġguided":11662,"Fi":11663,"Ġeps":11664,"ĠKent":11665,"gle":11666,"ĠDisney":11667,"Ġapartment":11668,"Ġchemicals":11669,"Ġsacred":11670,"Ġmusicians":11671,"aire":11672,"Ġtries":11673,"ĠConstruct":11674,"Ġaccompan":11675,"Ġpermitted":11676,"Ġdeck":11677,"Ġshowcasing":11678,"Ġpoliticians":11679,"Batch":11680,"Ġenormous":11681,"Ġseeds":11682,"Ġtestimony":11683,"Ġspecialists":11684,"Ġpresidential":11685,"Ġautomatic":11686,"ulator":11687,"2016":11688,"reach":11689,"SIZE":11690,"ĠNigeria":11691,"route":11692,"backend":11693,"NO":11694,"Ġlisting":11695,"Ġdeposit":11696,"Ġbes":11697,"Ġartwork":11698,"Off":11699,"Ġrevers":11700,"Ġpoetry":11701,"ĠGolden":11702,"Ġdurable":11703,"construct":11704,"Ġpup":11705,"ĠQuestions":11706,"Ġqualify":11707,"Ġadvertise":11708,"Ġ255":11709,"Bo":11710,"Ġcounts":11711,"Ġroutes":11712,"Ġcannabis":11713,"PM":11714,"ĠColorado":11715,"Ġhosted":11716,"Ġunderstands":11717,"Ġexempt":11718,"ĠSpring":11719,"Ġfulfilling":11720,"Ġterr":11721,"ĠDie":11722,"Ġsocietal":11723,"evin":11724,"()))":11725,"Ġamid":11726,"Gl":11727,"Ġdiffer":11728,"Ġcomedy":11729,"Ġtrustworthy":11730,"istical":11731,"ĠSH":11732,"iki":11733,"suff":11734,"Ġdesper":11735,"Ġtowns":11736,"Ġbars":11737,"ĠFac":11738,"ĠHarry":11739,"utes":11740,"bell":11741,"Ġenemies":11742,"Ġsql":11743,"Ġbreathing":11744,"ĠOkay":11745,"viously":11746,"Ġraises":11747,"units":11748,"ĠOil":11749,":.":11750,"Ġinspection":11751,"ERR":11752,"Ġdesignated":11753,"ĠIndeed":11754,"Ġtiming":11755,"Ġupgrade":11756,"ĠĠĠĠĠĠĠĠĠĠĠĠĠčĊ":11757,"ĠStandard":11758,"Ġdistinctive":11759,"ila":11760,"Ġservers":11761,"Ġcaps":11762,"etheless":11763,"ĠStudent":11764,"Ġtransferred":11765,"ĠFull":11766,"Ġrestoration":11767,"2000":11768,"ĠLinked":11769,"ĠChild":11770,"Ġbrilliant":11771,"bsite":11772,"ĠInput":11773,"Ġstruck":11774,"History":11775,"ĠHTTP":11776,"ĠView":11777,"Ġbull":11778,"Ġpublishing":11779,"ĠPortug":11780,"Ġconn":11781,"Ġsolo":11782,"Ġcow":11783,"Ġfunny":11784,"Ġequality":11785,"Ġpeaceful":11786,"ĠMove":11787,"...\"":11788,"unct":11789,"Ġchampion":11790,"Ġsellers":11791,"validate":11792,"Ġarrival":11793,"Command":11794,"Ġ()":11795,"Ġlikewise":11796,"Ġcoat":11797,"Christ":11798,"TS":11799,"umbing":11800,"venues":11801,"arma":11802,"Ġcoordinates":11803,"otive":11804,"components":11805,"ĠNavy":11806,"Ġcorporations":11807,"Ġoperators":11808,"Ġorganizational":11809,"river":11810,"ĠHas":11811,"mitted":11812,"Ġgrasp":11813,"Ġaffecting":11814,"Sec":11815,"Ġmeasured":11816,"ĠPerson":11817,"Ġguilty":11818,"ints":11819,"Ġnod":11820,"Ġassumed":11821,"Ġdelta":11822,"ĠAlbert":11823,"igs":11824,"desc":11825,"Ġcalculated":11826,"Ġtissue":11827,"ouds":11828,"Ġapparently":11829,"uum":11830,"lene":11831,"PER":11832,"Ġsed":11833,"ĠDutch":11834,"ĠCA":11835,"events":11836,"Ġrecur":11837,"Remember":11838,",)":11839,"yaml":11840,"ĠAh":11841,"who":11842,"Ġindicating":11843,"graduate":11844,"Ġpursuing":11845,"Ġincidents":11846,"zona":11847,"dump":11848,"Ġprofiles":11849,"Ġnervous":11850,"Ġcalendar":11851,"Ġinstitutional":11852,"Ġactress":11853,"Ġcustomized":11854,"Ġproceedings":11855,"ela":11856,"aya":11857,"94":11858,"Ġfu":11859,"Ġrelate":11860,"messages":11861,"Ġtrainer":11862,"ĠSE":11863,"Ġgray":11864,"Ġunlikely":11865,"oT":11866,"ĠRather":11867,"ĠDC":11868,"Ġpilot":11869,"ĠSher":11870,"Ġsovere":11871,"pens":11872,"DATA":11873,"ĠSus":11874,"Ġboards":11875,"Ġconfidential":11876,"ĠPrince":11877,"present":11878,"Ġwondering":11879,"Ġfib":11880,"Ġsimultaneously":11881,"ĠPlatform":11882,"Ġrhyth":11883,"Ġexceptions":11884,"Ġethics":11885,"ĠHor":11886,"ĠSong":11887,"Ġalignment":11888,"ĠElizabeth":11889,"ĠArticle":11890,"Ġministry":11891,"itigation":11892,"Ġconsp":11893,"Ġtransmission":11894,"hard":11895,"Each":11896,"Ġmitigate":11897,"iances":11898,"Ġjurisdiction":11899,"Ġhole":11900,"Ġfing":11901,"ped":11902,"processing":11903,"arguments":11904,"Ġdeserve":11905,"rev":11906,"Ġnewsletter":11907,"ĠTitle":11908,"ĠRequ":11909,"yo":11910,"Ġ##":11911,"Ġjack":11912,"anes":11913,"commit":11914,"ĠXia":11915,"Ġfought":11916,"aine":11917,"Ġhoping":11918,"bots":11919,"Ġinnoc":11920,"Ġframes":11921,"Ġcharity":11922,"ĠThings":11923,"Ġconsolid":11924,"Ġkil":11925,"Ġ1993":11926,"consum":11927,")/":11928,"ĠWilson":11929,"Ġaccessibility":11930,"bott":11931,"Ġwins":11932,"Ġdispute":11933,"Ġflash":11934,"frames":11935,"unique":11936,"Ġbackend":11937,"rapeut":11938,"arry":11939,"video":11940,"About":11941,":-":11942,"ĠAlp":11943,"Ġfavour":11944,"ĠHarris":11945,"Ġorigins":11946,"ĠColumbia":11947,"wer":11948,"Ġrefresh":11949,"Ġplugin":11950,"Ġ[],":11951,"()[":11952,"ĠFollowing":11953,"ĠKar":11954,"Ġsigning":11955,"Ġcooper":11956,"Ġwelfare":11957,"Ġharsh":11958,"Ġmilest":11959,"Ġaccompany":11960,"Ġsheet":11961,"Ġnumer":11962,"Ġrecycl":11963,"ĠDark":11964,"Ġcuriosity":11965,"Ġtremend":11966,"Ġguides":11967,"kers":11968,"Ġvendors":11969,"Ġsteady":11970,"Ġartifact":11971,"Ġholistic":11972,"Ġcompleting":11973,"ĠBroad":11974,"ĠCarl":11975,"Ġoverview":11976,"itis":11977,"Ġbenchmark":11978,"oubted":11979,"ĠDom":11980,"ipher":11981,"ĠBa":11982,"Ġshr":11983,"Ġhun":11984,"icism":11985,"Ġkeen":11986,"Ġglad":11987,"USE":11988,"Ġtempor":11989,"ws":11990,"Ġ:,":11991,"Ġatom":11992,"ĠVice":11993,"Ġhence":11994,"Ġcaption":11995,"achelor":11996,"ĠLat":11997,"links":11998,"ĠHo":11999,"Ġelectron":12000,"adelph":12001,"Ġresponded":12002,"gical":12003,"Ġceremony":12004,"ĠChen":12005,"Ġconducting":12006,"Ġnamespace":12007,"Ġweigh":12008,"ĠChapter":12009,"Ġcreator":12010,"WE":12011,"olly":12012,"Ġties":12013,"Ġvoc":12014,"Ġdining":12015,"ĠAP":12016,"Ġseeks":12017,"Norm":12018,"liest":12019,"sync":12020,"document":12021,"Ġinstantly":12022,"Book":12023,"Ġlift":12024,"255":12025,"Ġinvaluable":12026,"mates":12027,")}":12028,"binary":12029,"ĠCrit":12030,"sets":12031,"Ġstriking":12032,"sex":12033,"Ġemotion":12034,"Ġattorneys":12035,"Ġbuilder":12036,"ĠJordan":12037,"ĠExample":12038,"obe":12039,"reduce":12040,"logits":12041,"claimed":12042,"ĠPrior":12043,"Ġacadem":12044,"NOT":12045,"ĠDeep":12046,"phones":12047,"Ġcritics":12048,"Ġadjustments":12049,"late":12050,"eous":12051,"izza":12052,"Ġspeakers":12053,"Ġsevent":12054,"feat":12055,"93":12056,"Ġpairs":12057,"ĠĠĠĠĠĠĠĠĠĠĠĠĠĠčĊ":12058,"ĠTik":12059,"Ġ1991":12060,"esterday":12061,"terior":12062,"former":12063,"SG":12064,"semble":12065,"Ġsubscrib":12066,"Mat":12067,"bled":12068,"Ġlicenses":12069,"Ġlands":12070,"Ġspir":12071,"ĠNob":12072,"elle":12073,"odge":12074,"ĠBox":12075,"unate":12076,"Ġsocieties":12077,"amount":12078,"ĠAutom":12079,"ĠCommand":12080,"gence":12081,"Ġclassical":12082,"Ġ37":12083,"Ġsecured":12084,"Ġvirtually":12085,"Ġpenalty":12086,"Var":12087,"chers":12088,"Ġdilig":12089,"ĠPM":12090,"Ġharvest":12091,"Ġpetition":12092,"achus":12093,"(\"--":12094,"Ġpromised":12095,"ĠBattle":12096,"Ġendpoint":12097,"Ġ((":12098,"Function":12099,"argo":12100,"Ġgotten":12101,"jectory":12102,"edges":12103,"Ġhits":12104,"Ġinnovations":12105,"single":12106,"Ġbucket":12107,"Ġrival":12108,"ĠRail":12109,"Ġlens":12110,"Ġcancel":12111,"Ġtat":12112,"Ġconcert":12113,"tml":12114,"Ġglory":12115,"Ġuncover":12116,"Ġfut":12117,"ropol":12118,"Ġbelonging":12119,"Ġsubtle":12120,"Ġgaps":12121,"Version":12122,"ategy":12123,"don":12124,"ĠNov":12125,"Ġracing":12126,"SO":12127,"Ġdevast":12128,"Ġwishes":12129,")).":12130,"Ġagriculture":12131,"arange":12132,"short":12133,"ĠAk":12134,"Mus":12135,"Ġdensity":12136,"Ġheal":12137,"Ġdent":12138,"Ġ38":12139,"Ġhospitals":12140,"ouri":12141,"ĠTal":12142,"ĠArg":12143,"Ġinvestigate":12144,"Ġsorts":12145,"Ġnurse":12146,"oubtedly":12147,"Ġanswered":12148,"Ġdepos":12149,"igure":12150,"Ġtargeting":12151,"PG":12152,"Ġunfold":12153,"Ġshifts":12154,"secret":12155,"Ġsnap":12156,"ĠIllinois":12157,"ĠMs":12158,"ials":12159,"rele":12160,"001":12161,"aron":12162,"ĠRose":12163,"Ġbankruptcy":12164,"etts":12165,"Ġcorruption":12166,"Const":12167,"Ġscored":12168,"eq":12169,"DC":12170,"ĠIndustry":12171,"ieve":12172,"Ġmature":12173,"rained":12174,"adelphia":12175,"Ġmanually":12176,"00000000":12177,"ĠYO":12178,"Ġaligned":12179,"develop":12180,"ĠRod":12181,"Ġmunicip":12182,"Ġbone":12183,"Ġneutral":12184,"Ġcredits":12185,"ĠTemple":12186,"inar":12187,"'}":12188,"Ġcust":12189,"('-":12190,"tan":12191,"Ġpasses":12192,"Ġodds":12193,"Ġtort":12194,"Ġtransformative":12195,"ĠSenior":12196,"running":12197,"Ġterrible":12198,"Ġqueries":12199,"green":12200,"Ġentries":12201,"Ġconvin":12202,"ĠWin":12203,"Ġclassification":12204,"ĠPu":12205,"relation":12206,"ĠMember":12207,"Ġorganize":12208,"subscription":12209,"ĠCulture":12210,"Ġusername":12211,"MT":12212,"(['":12213,"Ġroughly":12214,"Ġpione":12215,"Ut":12216,"reason":12217,"Ġinterrupt":12218,"reek":12219,"Argument":12220,"Optional":12221,"Ġunnecessary":12222,"Ġrect":12223,"Ġho":12224,"Ġbass":12225,"Ġparagraph":12226,"Ġlit":12227,"Ġinstinct":12228,"pres":12229,"ĠForeign":12230,"piece":12231,"ĠCore":12232,"ĠTuesday":12233,"ĠCra":12234,"ĠFinance":12235,"ĠDI":12236,"Ġcontest":12237,"good":12238,"Ġtomorrow":12239,"lins":12240,"burgh":12241,"bul":12242,"exc":12243,"attributes":12244,"Using":12245,"Ġmargin":12246,"ĠBush":12247,"Ġstayed":12248,"ften":12249,"screen":12250,"Vis":12251,"mented":12252,"human":12253,"Av":12254,"ĠCertification":12255,"targets":12256,"Ġshots":12257,"ĠML":12258,"Ġproposals":12259,"elve":12260,"Ġhunt":12261,"Ġinvite":12262,"orph":12263,"-%":12264,"ĠEpisode":12265,"Ġsword":12266,"Ġextensions":12267,"endpoint":12268,"stderr":12269,"ĠFox":12270,"itu":12271,"Ġtherapist":12272,"Ġbiological":12273,"Ġhadn":12274,"Ġlean":12275,"Ġreass":12276,"Ġvel":12277,"Ġstem":12278,"freq":12279,"Ġtreating":12280,"xid":12281,"Ġrefund":12282,"401":12283,"Ġseparated":12284,"Ġpp":12285,"some":12286,"Ġoxy":12287,"Ġwhilst":12288,"riate":12289,"]])":12290,"Episode":12291,"interface":12292,"Ġsear":12293,"Note":12294,"Ġbol":12295,"Pool":12296,"Ġmessaging":12297,"Ġpromotes":12298,"views":12299,"Ġwarfare":12300,"services":12301,"RIGHT":12302,"Ġcontrary":12303,"Ġcrash":12304,"Ġmuscles":12305,"ĠĠĠĠĠĠĠĠĠĠĠĠĠĠĠčĊ":12306,"they":12307,"Ġshadow":12308,"Her":12309,"cribed":12310,"Ġsocket":12311,"ĠNick":12312,"Ġoccasions":12313,"Ġlawsuit":12314,"ĠMatthew":12315,"Cho":12316,"ostic":12317,"ĠMoney":12318,"Ġprest":12319,"Ġtickets":12320,"Ġestimates":12321,"Ġcsv":12322,"walk":12323,"AE":12324,"Ġbab":12325,"Ġpreval":12326,"hend":12327,"heim":12328,"ĠMajor":12329,"ĠShop":12330,"Ġversatile":12331,"Ġdirections":12332,"ĠThursday":12333,"ĠSab":12334,"Ġvolumes":12335,"ĠIncre":12336,"ĠUkrain":12337,"Ġrug":12338,"Ġbackgrounds":12339,"Ġseemingly":12340,"Content":12341,"ĠTrade":12342,"High":12343,"Ġintensity":12344,"Ġbeer":12345,"father":12346,"Ġchains":12347,"Ġtalented":12348,"Ġrespected":12349,"ears":12350,"Ġdemonstrates":12351,"export":12352,"Ġexperiments":12353,"curities":12354,"icas":12355,"........":12356,"PUT":12357,"Ġencountered":12358,"Ġhired":12359,"Ġhier":12360,"achusetts":12361,"quarters":12362,"Ġreceives":12363,"Ġsemi":12364,"AIN":12365,"Ġprinted":12366,"owner":12367,"Ġcommod":12368,"Ġsinger":12369,"Ġdesigning":12370,"Ġbaseball":12371,"bucket":12372,"Ġgene":12373,"2015":12374,"Ġdual":12375,"/'":12376,"Ġtired":12377,"Ġrewarding":12378,"Ġmultipl":12379,"ĠAgreement":12380,"heart":12381,"Ġcameras":12382,"Ġcarries":12383,"Ġdad":12384,"Use":12385,"Address":12386,"Ġrum":12387,"apsed":12388,"category":12389,"ĠArm":12390,"ĠMother":12391,"Ġuh":12392,"Prov":12393,"ĠDue":12394,"Ġmart":12395,"swagger":12396,"Ġcompatible":12397,"tri":12398,"ĠKat":12399,"interest":12400,"econom":12401,"ĠThird":12402,"Ġvaried":12403,"Som":12404,"week":12405,"ĠTravel":12406,"examples":12407,"pn":12408,"ĠQuality":12409,"information":12410,"ĠExamples":12411,"Ġfundament":12412,"ĠMess":12413,"Ġcreatures":12414,"Pat":12415,"Ġentrance":12416,"Ġmigration":12417,"istence":12418,"ĠInterest":12419,"Ġbegun":12420,"ĠRepresent":12421,"ĠCountry":12422,"Ġsage":12423,"ĠStock":12424,"Ġchest":12425,"Ġbbox":12426,"ĠHan":12427,"iscal":12428,"upper":12429,"Ġspecify":12430,"Ġtours":12431,"andid":12432,"ouch":12433,"Ġpron":12434,"ĠAppro":12435,"âĢĻ":12436,"Ġprotocols":12437,"Ġcallback":12438,"nx":12439,"liter":12440,"ĠFarm":12441,")*":12442,"ĠWars":12443,"Ġdigest":12444,"Ġintimate":12445,"ĠBetter":12446,"rolog":12447,"ĠOptions":12448,"zens":12449,"Ġoh":12450,"128":12451,"Ġmetals":12452,"Connection":12453,"sis":12454,"Ġcollecting":12455,"Ġsingles":12456,"HD":12457,"Ġreply":12458,"Ġoccupation":12459,"Ġdefensive":12460,"Ġirrit":12461,"datasets":12462,"ontal":12463,"oca":12464,"ĠHu":12465,"Ġcoord":12466,"Ġphotographs":12467,"Ġcorrespond":12468,"Ġcontributes":12469,"none":12470,"icking":12471,"Link":12472,"Ġnose":12473,"OLD":12474,"auc":12475,"Ġpossession":12476,"unks":12477,"Ġalarm":12478,"Ġprox":12479,"ĠStephen":12480,"ĠAuthors":12481,"Ġattempting":12482,"Ġdemanding":12483,"Ġdominant":12484,"Ġscratch":12485,"ĠCOPY":12486,"Ġvenue":12487,"breaking":12488,"umni":12489,"PRE":12490,"_,":12491,"Ġfriendship":12492,"Ġtraveled":12493,"icates":12494,"osity":12495,"Ġremed":12496,"asures":12497,"Ġsecrets":12498,"ĠNE":12499,"Ġexisted":12500,"iang":12501,"Ġvotes":12502,"ĠDate":12503,"Ġ55":12504,"ĠAndroid":12505,"UB":12506,"Ġfailing":12507,"circ":12508,"uv":12509,"ĠNatural":12510,"Ġpromptly":12511,"Ġampl":12512,"Ġretreat":12513,"ĠEstate":12514,"ĠSanta":12515,"ĠWas":12516,"Ġharmony":12517,"aret":12518,")-":12519,"Ġsacrifice":12520,"Ġcatalog":12521,"ĠMembers":12522,"Ġaccompanied":12523,"2010":12524,"Dep":12525,"eling":12526,"coln":12527,"Ġhorses":12528,"Ġmild":12529,"ĠWednesday":12530,"Op":12531,"cols":12532,"Ġlucky":12533,"seen":12534,"CB":12535,"null":12536,"created":12537,"}\\":12538,"Ġdistinction":12539,"Ġresur":12540,"ulary":12541,"tool":12542,"ĠStay":12543,"Ġdupl":12544,"Ġmira":12545,"ĠArizona":12546,"Ġoperated":12547,"91":12548,"Ġdiscomfort":12549,"ĠAuthority":12550,"Widget":12551,"Ġplacing":12552,"Ġinfer":12553,"=_":12554,"ifer":12555,"Ġpickle":12556,"Action":12557,"Ġnecessity":12558,"Ġbirthday":12559,"ĠJob":12560,"ĠAlexander":12561,"Ġhealthier":12562,"Ġpets":12563,"Ġsupporters":12564,"selling":12565,"Ġtroubles":12566,"Ġsha":12567,"Ġimpr":12568,"oning":12569,"Ġconstitutional":12570,"pled":12571,"ĠLater":12572,"afe":12573,"ĠDemocrats":12574,"Ġretailers":12575,"Ġuncomfort":12576,"Ġfunctioning":12577,"Ġburning":12578,"Ġtimestamp":12579,"Ġreadily":12580,"!)":12581,"Ġadmin":12582,"Ġbid":12583,"Ġlandmark":12584,"Ġobservations":12585,"Second":12586,"Ġrevel":12587,"Ġtub":12588,"Ġcomplaints":12589,"Ġrear":12590,"ablish":12591,"SM":12592,"âĶĢ":12593,"Ġlake":12594,"ĠDavis":12595,"Ġnegotiations":12596,"Ġds":12597,"ĠĠĠĠĠĠĠĠĠĠĠĠĠĠĠĠčĊ":12598,"Ġfailures":12599,":\\":12600,"Ġguaranteed":12601,"Ġfier":12602,"Ġcontractor":12603,"Ġbottle":12604,"Ġham":12605,"orious":12606,"Ġrecipe":12607,"aska":12608,"ĠNature":12609,"Ġgross":12610,"ictions":12611,"onder":12612,"Ġproducers":12613,"ĠMuslims":12614,"natural":12615,"rug":12616,"Ġgrows":12617,"mad":12618,"Next":12619,"enable":12620,"iciency":12621,"ĠMedicine":12622,"AV":12623,"Ġrevolutionary":12624,"Ġunpre":12625,"Ġundet":12626,"Ġvacation":12627,"notes":12628,"Ġaccommodate":12629,"ĠPage":12630,"Ġprotective":12631,"GE":12632,"ĠSky":12633,"Ġ1989":12634,"Ġhomeowners":12635,"Ġlowest":12636,"Ġblame":12637,"irable":12638,"aux":12639,"Ġarrangement":12640,"ĠHarvard":12641,"Ġrestricted":12642,"brew":12643,"llib":12644,"Ġhandler":12645,"offs":12646,"usalem":12647,"Main":12648,"Ġimmense":12649,"itzer":12650,"ĠArea":12651,"================================================================":12652,"otype":12653,"Ġdt":12654,"Ġemphasizes":12655,"cludes":12656,"STR":12657,"Ġtournament":12658,"ographical":12659,"ationally":12660,"ĠBell":12661,"Ġorganizing":12662,"pk":12663,"Ġmini":12664,"two":12665,"Two":12666,"Ġcollaborate":12667,"Ġsynd":12668,"Ġdisadvant":12669,"ĠEdward":12670,"fa":12671,"Ġharness":12672,"ĠPhD":12673,"ĠCook":12674,"worker":12675,"mi":12676,"gered":12677,"ski":12678,"Ġtitled":12679,"Ġaffirm":12680,"Ġpaintings":12681,"ulent":12682,"Ġstom":12683,"quer":12684,"Ġbranches":12685,"Ġpraise":12686,"Tim":12687,"Ġshield":12688,"Ġmeticul":12689,"Ġarchitectural":12690,"ĠCru":12691,"tail":12692,"ĠOK":12693,"Ġconj":12694,"Ġaccomplished":12695,"Ġmetab":12696,"Ġlocally":12697,"represent":12698,"wallet":12699,"ĠBerlin":12700,"wart":12701,"Ġintersection":12702,"Ġshoulder":12703,"Mem":12704,"uts":12705,"God":12706,"Ġodd":12707,"Ġacceptable":12708,"ĠNat":12709,"Ġclip":12710,"Ġhung":12711,"FLAGS":12712,"Method":12713,"Ġtire":12714,"ieties":12715,"Ġdefines":12716,"Ġassessments":12717,"Ġauthorized":12718,"Ġtemplates":12719,"Ġawesome":12720,"people":12721,"Ġfreel":12722,"La":12723,"ãģ":12724,"stud":12725,"Ġsubsequently":12726,"Ġretired":12727,"Ġtexture":12728,"Ġimpacted":12729,"Ġcoaches":12730,"Ġfo":12731,"Ġsilence":12732,"dates":12733,"iology":12734,"Sw":12735,"Ġbattles":12736,"ieval":12737,"Ġunderm":12738,"Ġdrain":12739,"ĠSarah":12740,"udi":12741,"ĠAttorney":12742,"ĠUnivers":12743,"Ġreviewed":12744,"bus":12745,"Ġvariations":12746,"ulative":12747,"Ġ))":12748,"observ":12749,"ĠJenn":12750,"Ġps":12751,"ĠLimited":12752,"Ġcorporation":12753,"ĠSD":12754,"Ġadmit":12755,"avering":12756,"orical":12757,"ĠOs":12758,"Ġfinances":12759,"Ġcolon":12760,"Ġdevoted":12761,"ĠProp":12762,"Ġneglig":12763,"Ġcompromise":12764,"Ġranking":12765,"MAX":12766,"Car":12767,"Ġemotionally":12768,"Ġgratitude":12769,"Ġnobody":12770,"embedding":12771,"Ġrehab":12772,"ĠMachine":12773,"Ġhunting":12774,"Ġmechanical":12775,"cker":12776,"2022":12777,"idays":12778,"ika":12779,"Ġdefeated":12780,"Ġseparation":12781,"Ġsurfaces":12782,"Ġkm":12783,"covery":12784,"ĠSolutions":12785,"Ġlegally":12786,"ĠLinkedIn":12787,"Ġscrut":12788,"Ġexplicitly":12789,"avery":12790,"Ġenrich":12791,"isher":12792,"Ġphysics":12793,"Ġreign":12794,"fetch":12795,"Ġresolved":12796,"ĠHay":12797,"Ġelite":12798,"ĠWales":12799,"Ġhandb":12800,"Ġabandoned":12801,"quis":12802,"Layer":12803,"Take":12804,"Ġbacteria":12805,"Ġeco":12806,"Ġdeciding":12807,"ĠTable":12808,"epochs":12809,"ĠMassachusetts":12810,"Ġconvinced":12811,"season":12812,"Ġantib":12813,"Ġresonate":12814,"Ġstrain":12815,"ponent":12816,"Ident":12817,"Ġhorror":12818,"Ġdocumentary":12819,"Having":12820,"############":12821,"ĠIss":12822,"Ġtrips":12823,"ĠCL":12824,"pex":12825,"Ġshorter":12826,"Ġpm":12827,"ĠAvoid":12828,"Ġlender":12829,"Ġsummar":12830,"license":12831,"Ġbranding":12832,"Ġtends":12833,"ĠMarg":12834,"Ġadvocacy":12835,"ige":12836,"Ġeggs":12837,"ĠNFL":12838,"Ġsurely":12839,"database":12840,"ĠSquare":12841,"Gets":12842,"Ġratings":12843,"Ġsettle":12844,"ĠAssembly":12845,"cover":12846,"dumps":12847,"ĠSource":12848,"akh":12849,"Dav":12850,"yr":12851,"Ġassembly":12852,"amine":12853,"Ġtoys":12854,"Ġunem":12855,"Update":12856,"Ġevaluating":12857,"Ġprogressive":12858,"Ġimpl":12859,"Ġdistribute":12860,"Ġfosters":12861,"cores":12862,"Filter":12863,"raham":12864,"Ġweird":12865,"Ġwalks":12866,"IMIT":12867,"Sy":12868,"ĠHeart":12869,"ĠUpdate":12870,"ĠHou":12871,"cope":12872,"Ġ{}'.":12873,"otional":12874,"NING":12875,"ĠBenefits":12876,"Ġ'{":12877,"Ġbutter":12878,"minute":12879,"Ġghost":12880,"Ġgrants":12881,"Ġstartups":12882,"ĠVar":12883,"Ġroofing":12884,"Execut":12885,"Ġhref":12886,"ipt":12887,"Ġstreams":12888,"Session":12889,"ĠObject":12890,"ĠStore":12891,"Â°":12892,"Ġboot":12893,"aki":12894,"Ġexplores":12895,"Ġfluct":12896,"Ġgest":12897,"Ġneighbors":12898,"release":12899,"Ġsuite":12900,"Stream":12901,"Ġmaxim":12902,"Ġlogical":12903,"ocolate":12904,"Ġnorms":12905,"Ġdescribing":12906,"ito":12907,"ĠMountain":12908,"ĠOxford":12909,"Ġanybody":12910,"Ġcitizen":12911,"Ġsatisfy":12912,"spl":12913,"blue":12914,"period":12915,"Summary":12916,"ERSION":12917,"Ġlr":12918,"ptions":12919,"Ġvocal":12920,"ĠIde":12921,"Ġexplored":12922,"Ġvertical":12923,"lation":12924,"ĠPhot":12925,"decay":12926,"=%":12927,"Ġgods":12928,"Post":12929,"ignment":12930,"ĠAWS":12931,"Ġbits":12932,"+'":12933,"Ġembedded":12934,"Ġum":12935,"FS":12936,"ĠTok":12937,"Ġpanels":12938,"scal":12939,"LD":12940,"Ġrepet":12941,"Ġprofitable":12942,"Ġarrested":12943,"heads":12944,"Ġgro":12945,"Ġuncomfortable":12946,"ounding":12947,"ĠNode":12948,"Sets":12949,"Ġattractions":12950,"Ġrooted":12951,"Thank":12952,"Ġrecommendation":12953,"ĠPhiladelphia":12954,"gevity":12955,"Ġsolving":12956,"Ġtourism":12957,"Ġwillingness":12958,"Ġcontractors":12959,"Ġpenalties":12960,"Ġteaches":12961,"ĠBridge":12962,"Orig":12963,"Linear":12964,"iller":12965,"Ġvolunteers":12966,"Ġcraftsm":12967,"mann":12968,"aclass":12969,"________":12970,"Ġbackup":12971,"pa":12972,"'{":12973,"ĠStone":12974,"Ġpainful":12975,"Ġpeoples":12976,"Ġsustained":12977,"WI":12978,"Ġhardly":12979,"ĠAppe":12980,"lang":12981,"Ġenterprises":12982,"unittest":12983,"Ġcondem":12984,"ĠHig":12985,"Ġmeters":12986,"Ġunwavering":12987,"Ġflows":12988,"Does":12989,"ĠMeta":12990,"Â®":12991,"ĠHotel":12992,"Ġpublications":12993,"Ġincorporated":12994,"ĠBru":12995,"Ġcaptivating":12996,"ĠPrice":12997,"ĠHold":12998,"Yeah":12999,"rapeutic":13000,"ĠJerusalem":13001,"ĠIndigenous":13002,"super":13003,"Ġundoubtedly":13004,"Ġvolunteer":13005,"ambling":13006,"Ġknowledgeable":13007,"Ġguiding":13008,"occ":13009,"Ops":13010,"ammation":13011,"Ġinherit":13012,"UE":13013,"ĠBud":13014,"Ġreleases":13015,"Ġconsensus":13016,"Ġemerge":13017,"mental":13018,"efficient":13019,"Ġdimin":13020,"Ġverification":13021,"Port":13022,"DPR":13023,"Ġhtml":13024,"chat":13025,"Ġscoring":13026,"boy":13027,"Ġcollapse":13028,"will":13029,"ffff":13030,"odox":13031,"Ġrecruitment":13032,"Ġdece":13033,"Have":13034,"Ġ%(":13035,"El":13036,"wear":13037,"ĠðŁ":13038,"Ġmandatory":13039,"Ġchunk":13040,"iatric":13041,"iating":13042,"issues":13043,"price":13044,"Gen":13045,"Ġgri":13046,"Ġbust":13047,"rait":13048,"Ġbands":13049,"Vol":13050,"mapping":13051,"Ġyours":13052,"Ġgraphic":13053,"driver":13054,"Ġouter":13055,"Ġplacement":13056,"ĠSimilarly":13057,"collect":13058,"Ġwages":13059,"mk":13060,"\"]:":13061,"Ġsecuring":13062,"ĠNorm":13063,"ĠAC":13064,"Ġpleased":13065,"ĠReserved":13066,"urls":13067,"Ġrepeatedly":13068,"Ġeternal":13069,"Ġscreening":13070,"thur":13071,"live":13072,"ĠBall":13073,"ĠPerformance":13074,"prec":13075,"ignore":13076,"Ġsel":13077,"ipedia":13078,"Ġdisputes":13079,"oen":13080,"iva":13081,"Ġlibraries":13082,"Only":13083,"ĠLewis":13084,"Ġsuits":13085,"Ġworlds":13086,"Ġexchanges":13087,"Ġaligns":13088,"Ġwholes":13089,"ĠSem":13090,"ĠBuy":13091,"tab":13092,"Ġsurviv":13093,"Ġbarrier":13094,"Ġinfluencers":13095,"Ġcaution":13096,"Pay":13097,"Ġinsure":13098,"ĠPeace":13099,"Ġmile":13100,"Ġdigit":13101,"Ġjournalists":13102,"Ġfounding":13103,"Ġgal":13104,"cretion":13105,"limited":13106,"Ġswift":13107,"ĠResult":13108,"Ġpolling":13109,"123":13110,"Ġbrid":13111,"ĠGovernor":13112,"Ġsmoke":13113,"Sequence":13114,"arks":13115,"^^":13116,"Ġmarketers":13117,"Ġpracticing":13118,"attrs":13119,"Ġviolation":13120,"transpose":13121,"Ġadverse":13122,"andal":13123,"obb":13124,"ĠFinal":13125,"Ġliv":13126,"ĠStudy":13127,"Ġcolleges":13128,"Ã¨":13129,"abspath":13130,"mul":13131,"Ġ39":13132,"ĠNAS":13133,"ĠLevel":13134,"delta":13135,"Ġsupplier":13136,"ĠHub":13137,"Ġanniversary":13138,"800":13139,"ĠIV":13140,"ĠGraph":13141,"ĠGreece":13142,"ialog":13143,"ĠBased":13144,"Ġmilit":13145,"uther":13146,"ĠSC":13147,"Ġassured":13148,"mu":13149,"FFF":13150,"Ġheating":13151,"minded":13152,"ĠSQL":13153,"ĠDream":13154,"gged":13155,"dney":13156,"Ġdelays":13157,"Disc":13158,"Ġphysician":13159,"2014":13160,"Ġ128":13161,"ĠMale":13162,"layout":13163,"Ġnarratives":13164,"Ġincur":13165,"ĠMarx":13166,"clusions":13167,"Ġoccasionally":13168,"ĠLiving":13169,"pars":13170,"ivals":13171,"Ġpoem":13172,"Ġmultip":13173,"MB":13174,"COL":13175,"Ġpromoted":13176,"Ġcaring":13177,"Ġadapted":13178,"ĠTikTok":13179,"Ġalbums":13180,"][\"":13181,"Ġ44":13182,"Ġopponent":13183,"Ġshame":13184,"ĠAmb":13185,"Ġheading":13186,"Ġpleasant":13187,"Ġtalents":13188,"ĠWorking":13189,"pand":13190,"cross":13191,"ĠPrivate":13192,"roduct":13193,"ĠSmart":13194,"lesh":13195,"gic":13196,"Ġadvised":13197,"Ġinterval":13198,"Ġconfused":13199,"ajabi":13200,"Press":13201,"Ġwrest":13202,"Ġforming":13203,"ĠLeadership":13204,"Ġmodeling":13205,"Ġminority":13206,"Ġattracted":13207,"ĠEN":13208,"Ġmobility":13209,"ĠEveryone":13210,"Ġundetected":13211,"Ġborders":13212,"Ġfallen":13213,"repl":13214,"ĠON":13215,"Ġdiscounts":13216,"Ġsinging":13217,"working":13218,"ĠDat":13219,"Ġinches":13220,"ĠDun":13221,"rag":13222,"Ġmiscon":13223,"Column":13224,"Ġadvances":13225,"Ġdoctrine":13226,"iger":13227,"Ġlocals":13228,"Ġswimming":13229,"?'":13230,"Ġrecre":13231,"World":13232,"nered":13233,"Ġloading":13234,"nex":13235,"credentials":13236,"Ġglimp":13237,"Ġpicking":13238,"ĠFurther":13239,"enges":13240,"supported":13241,"Ġcited":13242,"Ġvulnerability":13243,"illance":13244,"Ġmoisture":13245,"Ġwarranty":13246,"rb":13247,"|\"'":13248,"Ġdrops":13249,"kit":13250,"Ġfruits":13251,"Ġtale":13252,"ĠÂ§":13253,"cow":13254,"Ġorg":13255,"ĠCovid":13256,"Ġintegrating":13257,")])":13258,"km":13259,"utical":13260,"Ġgraphics":13261,"Ġparticipated":13262,"Ġimproves":13263,"login":13264,"ĠOpenAPI":13265,"Ġ120":13266,"Ġranks":13267,"outer":13268,"Ġchaos":13269,"Ġpermits":13270,"eping":13271,"prior":13272,"ighth":13273,"Ġwildlife":13274,"turn":13275,"Ġcm":13276,"ĠPod":13277,"ĠEric":13278,".\",":13279,"aga":13280,"Ġexhibit":13281,"mesh":13282,"Ã¤":13283,"Ġsegments":13284,"Ġdefaults":13285,"Ġ;":13286,"Ġalien":13287,"criptor":13288,"Ġleak":13289,"idel":13290,"Ġcheats":13291,"Ġdeemed":13292,"ä¸":13293,"Ġcoron":13294,"ĠAnalysis":13295,"ĠTheater":13296,"fake":13297,"Ġwooden":13298,"initializer":13299,"Ġworkshop":13300,"erb":13301,"essee":13302,"Ġvegetables":13303,"ĠMS":13304,"culate":13305,"ockey":13306,"collection":13307,"Ġimperial":13308,"Ġpreserving":13309,"Ġvisa":13310,"Ġannually":13311,"(\\":13312,"Ġfn":13313,"ĠLincoln":13314,"Loss":13315,"Ġvib":13316,"mgmt":13317,"Ġescal":13318,"Element":13319,"Ġbonus":13320,"padding":13321,"TT":13322,"={'":13323,"ĠDeath":13324,"ĠDur":13325,"before":13326,"tar":13327,"ĠMiller":13328,"Ġraces":13329,"boards":13330,"Ġexped":13331,"Server":13332,"Ġlapt":13333,"ĠJudge":13334,"Ġhip":13335,"proxy":13336,"Ġconsisting":13337,"Ġteachings":13338,"Ġvariant":13339,"Ġsupre":13340,"ĠIdent":13341,"asm":13342,"Ġacknowledged":13343,"ĠTen":13344,"ropic":13345,"ĠPlanning":13346,"Ġchicken":13347,"150":13348,"Ġidentical":13349,"Ġtransforms":13350,"UI":13351,"Ġadvancement":13352,"ĠFall":13353,"Ġboom":13354,"Ġprivilege":13355,"ĠHope":13356,"Ġleaf":13357,"Ġquantum":13358,"ĠEnsure":13359,"]*":13360,"Ġsons":13361,"ĠâĢ¢":13362,"ĠOnt":13363,"Ð°":13364,"repo":13365,"beat":13366,"series":13367,"grams":13368,"Ġnoting":13369,"vised":13370,"Ġwhis":13371,"private":13372,"Ġvolunt":13373,"iami":13374,"Ġdisabled":13375,"Expl":13376,"[:-":13377,"black":13378,"Ġdisturb":13379,"ĠNC":13380,"Ġtheat":13381,"Ġstere":13382,"Ġdarkness":13383,"Ġoxygen":13384,"axes":13385,"ĠTestament":13386,"Ġ250":13387,"ĠInvestment":13388,"iracy":13389,"Ġrendered":13390,"Ġdot":13391,"Ġfantasy":13392,"Ġoils":13393,"Air":13394,"Ġopponents":13395,"Ġreq":13396,"verbose":13397,"Ġdign":13398,"Ġproportion":13399,"ĠTalk":13400,"ĠOwn":13401,"Ġpriest":13402,"Ġindirect":13403,"ĠAtlantic":13404,"ltra":13405,"sever":13406,"Ġcancell":13407,"ERE":13408,"lu":13409,"cam":13410,"Ġ:]":13411,"Ġtranslate":13412,"Ġinfinite":13413,"Ġconsume":13414,"Loader":13415,"Ġisolation":13416,"Ġcrown":13417,"forming":13418,"ĠFocus":13419,"Ġcompeting":13420,"Ġindicators":13421,"Ġconce":13422,"ĠAffairs":13423,"ĠDoctor":13424,"Ġsuggesting":13425,"itations":13426,"Ġriding":13427,"ĠPoland":13428,"Ġslavery":13429,"ĠEverything":13430,"Normal":13431,"VI":13432,"Ġhumor":13433,"counts":13434,"MENT":13435,"Ġstreamline":13436,"Ġheaded":13437,"Ġbutt":13438,"Ġauthentication":13439,"Ġfleet":13440,"DEF":13441,"Ġnurturing":13442,"(\"/":13443,"ĠStaff":13444,"Pass":13445,"Ġsake":13446,"Ġparks":13447,"blob":13448,"Ġracism":13449,"integr":13450,"Ġfunded":13451,"Phone":13452,"Ġphones":13453,"isan":13454,"Ġreplacing":13455,"Ġdeprec":13456,"Ġwage":13457,"ĠSeveral":13458,"Ġsacrific":13459,"ĠIndividual":13460,"ĠSummer":13461,"ĠRaj":13462,"Ġinvasion":13463,"Ġrestriction":13464,"Task":13465,"abases":13466,"Ġmad":13467,"Ġimposed":13468,"ĠWithin":13469,"assment":13470,"Ġcuis":13471,"Ġtransforming":13472,"Job":13473,"ACE":13474,"usive":13475,"Ġanticipated":13476,"Ġresilient":13477,"Ġaged":13478,"Ġharmon":13479,"Ġisolated":13480,"ĠSchol":13481,"emon":13482,"Ġstops":13483,"ubern":13484,"Ġvarying":13485,"apters":13486,"ĠLiter":13487,"Ġgenerative":13488,"Ġendorse":13489,"Ġaccessories":13490,"Ġregards":13491,"Ġworn":13492,"Ġstretch":13493,"Ġlending":13494,"Ġscreens":13495,"Ġjournalist":13496,"ĠJean":13497,"Ġ[-":13498,"ONE":13499,"hr":13500,"Ġdecay":13501,"ouble":13502,"prev":13503,"Ġaesthet":13504,"Ġfilling":13505,"Ġsupplied":13506,"Ġqualifications":13507,"Ġlun":13508,"ĠSilver":13509,"Ġupset":13510,"Ġthirty":13511,"Ġintentions":13512,"Ġearliest":13513,"big":13514,"berry":13515,"giving":13516,"Ġpounds":13517,"ĠInflu":13518,"seconds":13519,"Ġlovely":13520,"Ġpresum":13521,"ĠHTML":13522,"ois":13523,"Ġbulk":13524,"Emb":13525,"Ġinhib":13526,"\"\\":13527,"Ġproxy":13528,"Ġwatches":13529,"internal":13530,"Ġcounseling":13531,"ĠGreg":13532,"600":13533,"Ġintroducing":13534,"builder":13535,"Ġsafer":13536,"Ġadaptation":13537,"Ġargues":13538,"owed":13539,"Ġguns":13540,"ĠParent":13541,"Ġ95":13542,"ĠLady":13543,"inging":13544,"Ġwitnessed":13545,"ĠHit":13546,"Ġfool":13547,"ĠGrowth":13548,"ĠFA":13549,"ï¼":13550,"ĠOp":13551,"Ġsentiment":13552,"ĠLess":13553,"erion":13554,"theta":13555,"oker":13556,"Ġdesert":13557,"Ġfraction":13558,"ĠHung":13559,"Exper":13560,"otton":13561,"solving":13562,"Ġfeeding":13563,"Ġinterventions":13564,"Ġrice":13565,"Ġtwe":13566,"ĠTrain":13567,"Ġladies":13568,"Ġdisplays":13569,"ĠBrian":13570,"Ġviewing":13571,"watch":13572,"taking":13573,"Ġmeasurement":13574,",),":13575,"Tests":13576,"rock":13577,"Ġaspirations":13578,"Ġlyrics":13579,"Ġshortly":13580,"owned":13581,"igue":13582,"Ġhypothes":13583,"Ġparliament":13584,"Ġfetch":13585,"Ġ49":13586,"ĠRos":13587,"ĠForest":13588,"Ġintuitive":13589,"prim":13590,"ĠImm":13591,"atern":13592,"Pal":13593,"Ġruled":13594,"estim":13595,"Ġfame":13596,"ĠCastle":13597,"ĠTogether":13598,"when":13599,"ni":13600,"move":13601,"bling":13602,"Ġattacked":13603,"payload":13604,"lasting":13605,"reader":13606,"Ġgameplay":13607,"Ġprovince":13608,"Ġslot":13609,"Ġdistress":13610,"Ġmagical":13611,"Ġgeneric":13612,"ĠDaily":13613,"Ġ1988":13614,"ĠClin":13615,"Cloud":13616,"Ġstating":13617,"ĠLOG":13618,"Ġmarginal":13619,"remote":13620,"Both":13621,"may":13622,"ez":13623,"Ġresort":13624,"ĠAltern":13625,"Ġrolling":13626,"quote":13627,"depend":13628,"Ġlogs":13629,"ĠIndones":13630,"Ġpropri":13631,"via":13632,"Ġbene":13633,"ĠHun":13634,"Ġtremendous":13635,"sin":13636,"ĠRule":13637,"Ġscripts":13638,"pliance":13639,"Ġwrap":13640,"Ġpreference":13641,"ĠBooks":13642,"Ġupgrad":13643,"Ġneural":13644,"Ag":13645,"ĠOrganization":13646,"Ġsuicide":13647,"Ġforgotten":13648,"ĠRub":13649,"Ġtrim":13650,"ĠOthers":13651,"Ġdelicate":13652,"oir":13653,"places":13654,"ĠTony":13655,"mid":13656,"ĠExchange":13657,"uniform":13658,"irts":13659,"Ġappreciated":13660,"HA":13661,"ogram":13662,"Ġlisteners":13663,"ĠScient":13664,"ouring":13665,"~~~~~~~~":13666,"percent":13667,"Ġtrusts":13668,"Ġbrut":13669,"BUG":13670,"ĠSciences":13671,"deep":13672,"Ġclaiming":13673,"Ġprospective":13674,"Ġdies":13675,"ĠSud":13676,"lyn":13677,"NotFound":13678,"placement":13679,"bec":13680,"ĠPrim":13681,"Ġvoid":13682,"Ġinfections":13683,"Ġeducators":13684,"Ġloose":13685,"Ġencoder":13686,"Ġmisunder":13687,"atar":13688,"Ġaccountable":13689,"Ġnam":13690,"``.":13691,"Ġwithdrawal":13692,"mercial":13693,"Ġvet":13694,"Ġstimul":13695,"Ġstdout":13696,"ĠMexican":13697,"ounced":13698,"Ġlandscapes":13699,"Access":13700,"ĠGarden":13701,"Ġtons":13702,"Ġcontroversial":13703,"Ġknife":13704,"Ġbio":13705,"ĠRuntime":13706,"charg":13707,"Ġsorry":13708,"requently":13709,"Ġtendency":13710,"Search":13711,"Ġms":13712,"Pack":13713,"cedented":13714,"'\\":13715,"Ġinflammation":13716,"ĠRadio":13717,"ĠUkrainian":13718,"Ġcontinually":13719,"ĠBBC":13720,"Ġunicode":13721,"ĠDa":13722,"ĠCorn":13723,"oriented":13724,"ĠScottish":13725,"Ġtailor":13726,"Ġfreely":13727,"ĠMoh":13728,"2012":13729,"changed":13730,"irk":13731,"Ġchallenged":13732,"iguous":13733,"Ġelab":13734,"ĠBaby":13735,"Ġflavors":13736,"ĠCab":13737,"Ġcookies":13738,"Ġtolerance":13739,"Ġmindfulness":13740,"Ġsleeping":13741,"Ġpenet":13742,"ĠRoss":13743,"Ġhistorically":13744,"Ġlongevity":13745,"Ġmasks":13746,"Ġprecip":13747,"Num":13748,"Ġcheese":13749,"aceutical":13750,"Ġjudges":13751,"Ġexpressions":13752,"ĠPit":13753,"Ġexclusively":13754,"Ġcustoms":13755,"Ġpresenting":13756,"ĠKevin":13757,"Ġdisk":13758,"Ġshutil":13759,"Ġsne":13760,"Rest":13761,"Ġdirt":13762,"Ġ00":13763,"Ġtourist":13764,"ĠFellow":13765,"Ġorientation":13766,"Ġfate":13767,"ĠFunction":13768,"ĠOtt":13769,"ATO":13770,"Default":13771,"Ġears":13772,"Social":13773,"logs":13774,"=[\"":13775,"gregation":13776,"}'.":13777,"=\"\"":13778,"ĠHence":13779,"={}":13780,"Ġcheaper":13781,"ĠFootball":13782,"Ġpractitioners":13783,"uy":13784,"Ġdrag":13785,"returns":13786,"Ġvendor":13787,"rypto":13788,"tasks":13789,"forms":13790,"Ġtranslated":13791,"written":13792,"Ġurgent":13793,"Ġappearances":13794,"ĠFun":13795,"ĠHawai":13796,"Ġ1986":13797,"Ġtie":13798,"aneous":13799,"Ġhotels":13800,"ĠProperty":13801,"allas":13802,"ĠSeason":13803,"(?":13804,"Ġtreasure":13805,"FORM":13806,"2024":13807,"ĠCommunication":13808,"club":13809,"havior":13810,"Ġbub":13811,"NC":13812,"ĠAirport":13813,"Ġyesterday":13814,"Ġstomach":13815,"regon":13816,"Program":13817,"Ġlitigation":13818,"Ġutter":13819,"Ġcock":13820,"gov":13821,"Ġbeneath":13822,"changing":13823,"Current":13824,"ĠVictoria":13825,"ĠMuch":13826,"ĠAlways":13827,"tyle":13828,"erk":13829,"Ġembedding":13830,"ĠSix":13831,"eem":13832,"rage":13833,"Ġreserve":13834,"Ġfarming":13835,"Ġtherm":13836,"ĠNether":13837,"Ġsecurities":13838,"termin":13839,"Author":13840,"Ġmesh":13841,"Ġexecutives":13842,"Ġthrown":13843,"Ġtape":13844,"Ġastr":13845,"arding":13846,"iasm":13847,"iries":13848,"Ġprophe":13849,"ĠContract":13850,"Ġpregnant":13851,"Ġsentences":13852,"Args":13853,"ousing":13854,"Ġanchor":13855,"prep":13856,"CLUD":13857,"PP":13858,"invalid":13859,"signal":13860,"Ġaccepting":13861,"Ġwashing":13862,"ĠRyan":13863,"ĠPalestinian":13864,"Types":13865,"uminum":13866,"tic":13867,"nings":13868,"Ġremembered":13869,"ĠSite":13870,"Ġscholarship":13871,"Ġpipe":13872,"fname":13873,"Ġexperimental":13874,"ERROR":13875,"Ġops":13876,"ntil":13877,"Ġmedic":13878,"Ġranked":13879,"Ðµ":13880,"Ġresponsive":13881,"grow":13882,"Ġinstrumental":13883,"ĠCRM":13884,"mouth":13885,"vs":13886,"Ġsensitivity":13887,"ĠNum":13888,"PAR":13889,"============":13890,"([[":13891,"rons":13892,"Ġindependently":13893,"Ġbreakfast":13894,"packages":13895,"auge":13896,"Ġ41":13897,"ĠDocument":13898,"Ġworthy":13899,"Ġexamined":13900,"Ġcharging":13901,"Ġeducated":13902,"Ġenerg":13903,"ynamic":13904,"Project":13905,"avirus":13906,"Ġpacked":13907,"ĠStadium":13908,"Fore":13909,"Ġsubstances":13910,"amous":13911,"Ġdecentral":13912,"burn":13913,"Ġcompanions":13914,"kw":13915,"NUM":13916,"Ġtimeless":13917,"Ġvoted":13918,"Black":13919,"Ġtrustee":13920,"Ġexplaining":13921,"tem":13922,"Ġsurveys":13923,"Ġcataly":13924,"anchester":13925,"Ð¾":13926,"Ġsurroundings":13927,"erness":13928,"ĠJane":13929,"Ġformats":13930,"cking":13931,"member":13932,"goals":13933,"ĠTenn":13934,"figure":13935,"component":13936,"DD":13937,"Ġlease":13938,"ĠTree":13939,"entially":13940,"Query":13941,"HTTP":13942,"ĠTurkish":13943,"Ġrelaxation":13944,"ĠAfghanistan":13945,"ĠER":13946,"Ġincl":13947,"focus":13948,"reward":13949,"ĠMust":13950,"ĠBeaut":13951,"iley":13952,"Ġgospel":13953,"phy":13954,"ĠGab":13955,"Ġrighteous":13956,"ixels":13957,"erialize":13958,"Ġshout":13959,"2013":13960,"Ġassumptions":13961,"ĠFROM":13962,"thening":13963,"rett":13964,"thony":13965,"Ġreads":13966,"Example":13967,"Ġassignments":13968,"ĠSimon":13969,"%(":13970,"Ġrelying":13971,"Ġrefine":13972,"itches":13973,"ĠYu":13974,"Good":13975,"Ġsynthes":13976,"ĠDifferent":13977,"incess":13978,"FE":13979,"sky":13980,"Ġoccupied":13981,"ĠSant":13982,"Ġbacked":13983,"ĠAnton":13984,"ĠMars":13985,"Ġresponding":13986,"sequently":13987,"ĠMO":13988,"Ġtriumph":13989,"Ġtourists":13990,"ĠNevertheless":13991,"Ġconsultant":13992,"inery":13993,"Ġranges":13994,"ĠPractice":13995,"anz":13996,"}{":13997,"Ġtooth":13998,"EXT":13999,"choice":14000,"Ġlocked":14001,"Ġreferring":14002,"Ġsimulation":14003,"Script":14004,"Ġpositively":14005,"ĠNFT":14006,"Ġgang":14007,"fff":14008,"Page":14009,"Raises":14010,"Ġecho":14011,"Ġempire":14012,"zes":14013,"CONFIG":14014,"Ġsupervis":14015,"GL":14016,"Ġwrapped":14017,"Ġmu":14018,"Prot":14019,"ĠMarsh":14020,"Ġwherever":14021,"ĠNeg":14022,"Ġcomparing":14023,"ĠCareer":14024,"Ġnick":14025,"Ġseamlessly":14026,"Format":14027,"vacy":14028,"Based":14029,"eenth":14030,"colors":14031,"Ġtower":14032,"Ġattributed":14033,"ĠResponse":14034,"ĠRequest":14035,"ographics":14036,"ĠHeritage":14037,"\";":14038,"./":14039,"glob":14040,"lecting":14041,"ĠPa":14042,"Ġpunishment":14043,"UST":14044,"cursor":14045,"Ġfavourite":14046,"Ġlying":14047,"Ġdemonstrating":14048,"spect":14049,"Ġthreatened":14050,"ĠSydney":14051,"Ġcontrolling":14052,"Pres":14053,"Ġcombines":14054,"2023":14055,"Ġpayday":14056,"Ġresonates":14057,"actor":14058,"olen":14059,"Ġopenly":14060,"Ġdying":14061,"Equ":14062,"ĠBh":14063,"Ġanth":14064,"ĠIter":14065,"ĠKit":14066,"otherapy":14067,"Ġcompanion":14068,"Ġtangible":14069,"ĠMeanwhile":14070,"acent":14071,"Ġna":14072,"INFO":14073,"Ġ43":14074,"Ġsklearn":14075,"Ġfrustrated":14076,"Ġinhabit":14077,"Ġunprecedented":14078,"Ġtelephone":14079,"Ġweaknesses":14080,"oust":14081,"player":14082,"Ġdiscretion":14083,".-":14084,"Ġ###":14085,"Ġ99":14086,"gets":14087,"Ġstain":14088,"Ġallies":14089,"enate":14090,"ĠArtificial":14091,"Trust":14092,"SQL":14093,"Ġadvise":14094,"Consider":14095,"Ġfavorable":14096,"Common":14097,"ĠCyber":14098,"Ġlearners":14099,"Ġrecept":14100,"Ġvaries":14101,"System":14102,"Ġindigenous":14103,"Ġassemb":14104,"Ġshifting":14105,"pot":14106,"Mix":14107,"ington":14108,"GA":14109,"Ġsequences":14110,"Ġdiver":14111,"Ġsensors":14112,"overs":14113,"Ġ1984":14114,"Ġrecipient":14115,"ĠHouston":14116,"Ġcomplications":14117,"Ġinsect":14118,"Ġtheft":14119,"Ġempowering":14120,"Ġdrinks":14121,"Aug":14122,"}\".":14123,"pd":14124,"Ġdisabilities":14125,"eland":14126,"arded":14127,"OUT":14128,"Ġids":14129,"ĠResources":14130,"Expected":14131,"uced":14132,"Ġredirect":14133,"ĠJacob":14134,"Ġsmell":14135,"Ġintens":14136,"ĠSyria":14137,"flo":14138,"\"',":14139,"Ġ1987":14140,"Life":14141,"ĠTransport":14142,"ourced":14143,"MIN":14144,"Ġpassengers":14145,"Ġhacks":14146,"closure":14147,"Ġsync":14148,"Ġwing":14149,"ĠBureau":14150,"Ġrush":14151,"amilton":14152,"atted":14153,"ĠLind":14154,"Ġrotation":14155,"Ġseal":14156,"Ġbehavioral":14157,"Ġsatell":14158,"ĠOcean":14159,"oda":14160,"Sl":14161,"approp":14162,"ĠPict":14163,"Ġlogin":14164,"Ġflesh":14165,"isons":14166,"ĠCompet":14167,"flix":14168,"division":14169,"Ġorche":14170,"Ġcontacts":14171,"Ġpoison":14172,"Ġtherapeutic":14173,"Ġeastern":14174,"ĠOtherwise":14175,"Ġversatility":14176,"ĠGa":14177,"pur":14178,"Ġslave":14179,"filepath":14180,"Ġ1930":14181,"rary":14182,"Ġscientist":14183,"Ġbund":14184,"Ġrescue":14185,"ammat":14186,"comment":14187,"ancement":14188,"David":14189,"Mean":14190,"Ġbrick":14191,"eu":14192,"101":14193,"Ã§":14194,"isy":14195,"Ġmes":14196,"Ġdisclosure":14197,"Bas":14198,"Ġclassified":14199,"Ġapproached":14200,"ĠCONTR":14201,"attention":14202,"Ġmixture":14203,"Ġcompatibility":14204,"border":14205,"schedul":14206,"ere":14207,"zo":14208,"latest":14209,"progress":14210,"Ġstays":14211,"esc":14212,"Ġrh":14213,"condition":14214,"prise":14215,"Ġapplicants":14216,"ĠBat":14217,"Ġio":14218,"Ġconviction":14219,"have":14220,"Ġwash":14221,"runner":14222,"Configuration":14223,"ĠMarc":14224,"prom":14225,"ĠLeon":14226,"Ver":14227,"Ġcontroller":14228,"fee":14229,"Ġfoss":14230,"Params":14231,"Ġconferences":14232,"Ġ[(":14233,"intage":14234,"sha":14235,"ecess":14236,"ĠFast":14237,"Ġcombining":14238,"Long":14239,"Ġincentives":14240,"Ġtimeline":14241,"ardless":14242,"ĠBurn":14243,"chemy":14244,"raise":14245,"requency":14246,"ĠStrategy":14247,"ĠIsa":14248,"ablished":14249,"rieved":14250,"Ġspo":14251,"plugin":14252,"dam":14253,"Ġstub":14254,":\"":14255,"hedules":14256,"Ġslice":14257,
[...]
