{"!":0,"\"":1,"#":2,"$":3,"%":4,"&":5,"'":6,"(":7,")":8,"*":9,"+":10,",":11,"-":12,".":13,"/":14,"0":15,"1":16,"2":17,"3":18,"4":19,"5":20,"6":21,"7":22,"8":23,"9":24,":":25,";":26,"<":27,"=":28,">":29,"?":30,"@":31,"A":32,"B":33,"C":34,"D":35,"E":36,"F":37,"G":38,"H":39,"I":40,"J":41,"K":42,"L":43,"M":44,"N":45,"O":46,"P":47,"Q":48,"R":49,"S":50,"T":51,"U":52,"V":53,"W":54,"X":55,"Y":56,"Z":57,"[":58,"\\":59,"]":60,"^":61,"_":62,"`":63,"a":64,"b":65,"c":66,"d":67,"e":68,"f":69,"g":70,"h":71,"i":72,"j":73,"k":74,"l":75,"m":76,"n":77,"o":78,"p":79,"q":80,"r":81,"s":82,"t":83,"u":84,"v":85,"w":86,"x":87,"y":88,"z":89,"{":90,"|":91,"}":92,"~":93,"¡":94,"¢":95,"£":96,"¤":97,"¥":98,"¦":99,"§":100,"¨":101,"©":102,"ª":103,"«":104,"¬":105,"®":106,"¯":107,"°":108,"±":109,"²":110,"³":111,"´":112,"µ":113,"¶":114,"·":115,"¸":116,"¹":117,"º":118,"»":119,"¼":120,"½":121,"¾":122,"¿":123,"À":124,"Á":125,"Â":126,"Ã":127,"Ä":128,"Å":129,"Æ":130,"Ç":131,"È":132,"É":133,"Ê":134,"Ë":135,"Ì":136,"Í":137,"Î":138,"Ï":139,"Ð":140,"Ñ":141,"Ò":142,"Ó":143,"Ô":144,"Õ":145,"Ö":146,"×":147,"Ø":148,"Ù":149,"Ú":150,"Û":151,"Ü":152,"Ý":153,"Þ":154,"ß":155,"à":156,"á":157,"â":158,"ã":159,"ä":160,"å":161,"æ":162,"ç":163,"è":164,"é":165,"ê":166,"ë":167,"ì":168,"í":169,"î":170,"ï":171,"ð":172,"ñ":173,"ò":174,"ó":175,"ô":176,"õ":177,"ö":178,"÷":179,"ø":180,"ù":181,"ú":182,"û":183,"ü":184,"ý":185,"þ":186,"ÿ":187,"Ā":188,"ā":189,"Ă":190,"ă":191,"Ą":192,"ą":193,"Ć":194,"ć":195,"Ĉ":196,"ĉ":197,"Ċ":198,"ċ":199,"Č":200,"č":201,"Ď":202,"ď":203,"Đ":204,"đ":205,"Ē":206,"ē":207,"Ĕ":208,"ĕ":209,"Ė":210,"ė":211,"Ę":212,"ę":213,"Ě":214,"ě":215,"Ĝ":216,"ĝ":217,"Ğ":218,"ğ":219,"Ġ":220,"ġ":221,"Ģ":222,"ģ":223,"Ĥ":224,"ĥ":225,"Ħ":226,"ħ":227,"Ĩ":228,"ĩ":229,"Ī":230,"ī":231,"Ĭ":232,"ĭ":233,"Į":234,"į":235,"İ":236,"ı":237,"Ĳ":238,"ĳ":239,"Ĵ":240,"ĵ":241,"Ķ":242,"ķ":243,"ĸ":244,"Ĺ":245,"ĺ":246,"Ļ":247,"ļ":248,"Ľ":249,"ľ":250,"Ŀ":251,"ŀ":252,"Ł":253,"ł":254,"Ń":255,"Ġt":256,"Ġa":257,"in":258,"he":259,"re":260,"on":261,"Ġthe":262,"er":263,"Ġs":264,"at":265,"Ġo":266,"en":267,"Ġc":268,"Ġw":269,"ĠĠ":270,"it":271,"es":272,"nd":273,"or":274,"is":275,"ing":276,"ou":277,"Ġp":278,"al":279,"Ġf":280,"Ġb":281,"an":282,"čĊ":283,"Ġto":284,"ed":285,"Ġm":286,"Ġin":287,"Ġand":288,"Ġof":289,"ar":290,"Ġd":291,"ion":292,"ic":293,"le":294,"Ġth":295,"om":296,"Ġh":297,"as":298,"ent":299,"Ġre":300,"Ġe":301,"st":302,"ro":303,"ve":304,"Ġl":305,"il":306,"ct":307,"ĠĠĠĠ":308,"Ġn":309,"Ġy":310,"ly":311,"et":312,"Ġyou":313,"Ġg":314,"Ġis":315,"se":316,"ut":317,"Ġbe":318,"im":319,"ĠI":320,"ce":321,"id":322,"ot":323,"ĠT":324,"Ġthat":325,"ur":326,"Ġfor":327,"ation":328,"ow":329,"ig":330,"ra":331,"ol":332,"Ġon":333,"Ġu":334,"ch":335,"ver":336,"Ġst":337,"ay":338,"ĠA":339,"ith":340,"el":341,"ir":342,"Ġit":343,"ĠS":344,"am":345,"Ġwith":346,"ad":347,"Ġas":348,"if":349,"ĠC":350,"ers":351,"ul":352,"Ġpro":353,"Ġhe":354,"ess":355,"Ġwh":356,"Ġcon":357,"'s":358,"Ġal":359,"Ġan":360,"ment":361,"ate":362,"Ġare":363,"Ġcom":364,"ke":365,"od":366,"ge":367,"Ġex":368,"Ġwe":369,"est":370,"Ġor":371,"ĠĠĠ":372,"Ġha":373,"her":374,"ity":375,"ill":376,"Ġde":377,"ist":378,"pp":379,"ort":380,"ab":381,"ĠM":382,"us":383,"ĠThe":384,"ive":385,"ore":386,"ter":387,"ĠB":388,"ies":389,"Ġsu":390,"ect":391,"ld":392,"qu":393,"op":394,"Ġcan":395,"rom":396,"Ġv":397,"ac":398,"Ġyour":399,"ĠP":400,"ant":401,"ust":402,"ĠW":403,"res":404,"igh":405,"iv":406,"Ġne":407,"ain":408,"ial":409,"ĠH":410,"th":411,"end":412,"Ġat":413,"oc":414,"nt":415,"Ġnot":416,"em":417,"Ġwas":418,"Ġr":419,"Ġse":420,"um":421,"art":422,"Ġhave":423,"os":424,"Ġch":425,"and":426,"Ġle":427,"un":428,"Ġthis":429,"Ġ\"":430,"ĠĠĠĠĠĠĠ":431,"ĠD":432,"Ġsh":433,"ure":434,"ĠF":435,"Ġfrom":436,"Ġby":437,"ri":438,"out":439,"ight":440,"Ġwor":441,"ĠR":442,"ud":443,"Ġab":444,"Ġen":445,"Ġtheir":446,"ions":447,"pt":448,"per":449,"ĠL":450,"Ġim":451,"ome":452,"ĠE":453,"Ġ(":454,"ould":455,"pl":456,"ĠG":457,"all":458,"red":459,"Ġint":460,"pe":461,"gh":462,"rou":463,"our":464,"Ġ1":465,"ost":466,"king":467,"iz":468,"ard":469,"ĠN":470,"Ġpl":471,"ally":472,"Ġdo":473,"Ġall":474,"ide":475,"Ġj":476,"Ġad":477,"ther":478,"Ġwhe":479,"ff":480,"Ġwill":481,"age":482,"Ġthey":483,"Ġcomp":484,"ance":485,"ag":486,"act":487,"og":488,"Ġk":489,"Ġgo":490,"ine":491,"Ġus":492,"ell":493,"Ġ2":494,"ie":495,"are":496,"Ġhas":497,"Ġma":498,"ĠO":499,"Ġme":500,"ations":501,"ip":502,"cc":503,"ich":504,"able":505,"orm":506,"ans":507,"ast":508,"ous":509,"Ġtr":510,"ence":511,"Ġcont":512,"ind":513,"ĠTh":514,"Ġimp":515,"Ġres":516,"Ġbut":517,"Ġmore":518,"oo":519,"one":520,"ong":521,"ime":522,"The":523,"ult":524,"ated":525,"ice":526,"ear":527,"ib":528,"so":529,"ks":530,"Ġout":531,"ike":532,"du":533,"cl":534,"Ġman":535,"very":536,"ign":537,"ue":538,"Ġcl":539,"ere":540,"ame":541,"ical":542,"'t":543,"ĠĠĠĠĠĠĠĠ":544,"Ġso":545,"Ġabout":546,"Ġ=":547,"Ġte":548,"Ġwhich":549,"form":550,"Ġapp":551,"Ġwho":552,"ep":553,"Ġ-":554,"ĠJ":555,"Ġalso":556,"Ġun":557,"Ġhis":558,"ĠU":559,"ack":560,"Ġour":561,"Ġone":562,"Ġup":563,"ĠIn":564,"reat":565,"Ġother":566,"Ġev":567,"vel":568,"now":569,"00":570,"ile":571,"Ġlike":572,"Ġthem":573,"Ġif":574,"ire":575,"ass":576,"Ġfe":577,"ap":578,"ru":579,"ry":580,"Ġqu":581,"te":582,"Ġdis":583,"ĠIt":584,"ition":585,"Ġsp":586,"ach":587,"Ġpart":588,"ary":589,"ace":590,"Ġtime":591,"Ġar":592,"Ġpe":593,"ite":594,"au":595,"Ġoff":596,"Ġcomm":597,"Ġper":598,"ail":599,"ĠY":600,"ress":601,"erv":602,"Ġtra":603,"av":604,"Ġwhat":605,"Ġmy":606,"ors":607,"Ġthere":608,"nder":609,"Ġem":610,"ents":611,"ia":612,"ings":613,"ose":614,"ount":615,"Ġbec":616,"ase":617,"sel":618,"xt":619,"Ġsome":620,"ark":621,"ory":622,"ces":623,"Ġneed":624,"Ġknow":625,"ople":626,"ays":627,"Ġany":628,"Ġwhen":629,"Ġta":630,"ction":631,"Ġits":632,"ord":633,"ll":634,"ens":635,"ber":636,"ual":637,"Ġhow":638,"Ġind":639,"ĠThis":640,"Ġover":641,"Ġwork":642,"Ġinto":643,"Ġrec":644,"ne":645,"Ġag":646,"ific":647,"ild":648,"Ġacc":649,"Ġsc":650,"int":651,"ub":652,"Ġwere":653,"Ġpre":654,"Ġsa":655,"Ġpeople":656,"ree":657,"lp":658,"cial":659,"rough":660,"Ġbeen":661,"ments":662,"ang":663,"Ġget":664,"Ġprov":665,"Ġher":666,"Ġhad":667,"con":668,"Ġnew":669,"Ġhelp":670,"Ġro":671,"ities":672,"Ġunder":673,"Ġcons":674,"Ġ'":675,"iff":676,"ĠK":677,"Ġthese":678,"Ġyear":679,"ious":680,"Ġmay":681,"ough":682,"Ġjust":683,"ob":684,"Ġwould":685,"ĠCh":686,"ove":687,"ful":688,"Ġexper":689,"Ġpr":690,"vers":691,"ility":692,"ĠSt":693,"Ġrel":694,"Ġact":695,"ook":696,"ning":697,"Ġthan":698,"oy":699,"cess":700,"Ġ20":701,"ict":702,"ound":703,"Ġspe":704,"Ġinv":705,"wn":706,"Ġdes":707,"iness":708,"ish":709,"ause":710,"low":711,"ov":712,"pport":713,"Ġpers":714,"ience":715,"..":716,"Ġbet":717,"ates":718,"clud":719,"ating":720,".\"":721,"Ġdiff":722,"ata":723,"Ġass":724,"ck":725,"Ġthrough":726,"self":727,"Ġno":728,"pect":729,"Ġmake":730,"ise":731,"ak":732,"ert":733,"urn":734,"ject":735,"ood":736,"ĠV":737,"ater":738,"ices":739,"rit":740,"Ġimport":741,"old":742,"Ġam":743,"Ġsy":744,"irst":745,"Ġbu":746,"ef":747,"Ġinter":748,"ĠĠĠĠĠĠĠĠĠĠĠ":749,"usiness":750,"ons":751,"Ġmost":752,"elf":753,"--":754,"hip":755,"Ġserv":756,"Ġeff":757,"lic":758,"ife":759,"ms":760,"Ġrep":761,"Ġonly":762,"Ġinc":763,"Ġwell":764,"Ġsuch":765,"Ġatt":766,"ian":767,"Ġprodu":768,"Ġadd":769,"get":770,"'re":771,"Ġstr":772,"Ġinclud":773,"olog":774,"ath":775,"Ġreg":776,"ract":777,"ink":778,"ick":779,"Ġuse":780,"Ġevery":781,"of":782,"we":783,"Ġself":784,"hen":785,"Ġpos":786,"fter":787,"ple":788,"Ġra":789,"Ġcol":790,"ced":791,"Ġwhere":792,"row":793,"round":794,"hed":795,"ĠWe":796,"Ġsee":797,"Ġbusiness":798,"own":799,"uring":800,"ative":801,"ting":802,"lect":803,"Ġperson":804,"Ġke":805,"Ġdef":806,"ient":807,"ular":808,"Ġrem":809,"alth":810,"velop":811,"Ġway":812,"eth":813,"Ġmany":814,"ible":815,"Ġco":816,"Ġwant":817,"ĠHe":818,"ures":819,"Ġcould":820,"ĠAnd":821,"Ġbl":822,"ange":823,"Ġfirst":824,"ential":825,"ics":826,"arket":827,"oth":828,"ty":829,"Ġshould":830,"aw":831,"iew":832,"ten":833,"Ġshe":834,"ional":835,"Ġeven":836,"ond":837,"rib":838,"Ġstud":839,"Ġtw":840,"ys":841,"les":842,"mer":843,"ren":844,"Ġdiffere":845,"Ġret":846,"Ġins":847,"its":848,"any":849,"ily":850,"In":851,"ph":852,"ener":853,"ize":854,"Ġdec":855,"Ġright":856,"Ġfin":857,"Ġbecause":858,"ational":859,"cy":860,"Ġpo":861,"stem":862,"Ġph":863,"Ġtrans":864,"hat":865,"Ġac":866,"ower":867,"ade":868,"Ġworld":869,"Ġown":870,"Ġ3":871,"ram":872,"Ġdevelop":873,"Ġrequ":874,"ward":875,"chn":876,"Ġinst":877,"stand":878,"Ġent":879,"ĠYou":880,"Ġlead":881,"),":882,"Ġback":883,"|>":884,").":885,"fore":886,"<|":887,"gan":888,"ft":889,"ased":890,"iss":891,"ident":892,"Ġlife":893,"Ġhigh":894,"ustom":895,"ness":896,"ues":897,"Ġyears":898,"Ġcommun":899,"Ġthose":900,"uch":901,"Ġvery":902,"Ġmod":903,"Ġval":904,"Ġthen":905,"Ġmarket":906,"Ġ19":907,"ec":908,"Ġsign":909,"Ġdata":910,"ĠAs":911,"ied":912,"ives":913,"Ġset":914,"Ġpol":915,"Ġart":916,"als":917,"Ġgood":918,"Ġob":919,"Ġlong":920,"Ġsub":921,"Ġprocess":922,"Ġgu":923,"Ġhim":924,"cept":925,"Ġsaid":926,"Ġbeing":927,"ever":928,"ality":929,"Ġadv":930,"):":931,"Ġtwo":932,"Ġexp":933,"Ġstart":934,"Ġmed":935,"Ġinform":936,"arch":937,"eg":938,"Ġdisc":939,"Ġsystem":940,"Ġsupport":941,"ew":942,"Ġfind":943,"Ġsm":944,"Ġtechn":945,"led":946,"Ġcre":947,"Ġpres":948,"Ġdon":949,"Ġafter":950,"Ġtake":951,"other":952,"Ġcustom":953,"Ġprof":954,"ock":955,"Ġprovid":956,"Ġdoes":957,"text":958,"Ġgreat":959,"Ġdid":960,"Ġdifferent":961,"ble":962,"ts":963,"ized":964,"Ġsoc":965,"iet":966,"omm":967,"Ġaut":968,"Ġcare":969,"Ġhealth":970,"Ġnow":971,"ool":972,"hes":973,"Ġplay":974,"ually":975,"Ġmuch":976,"ĠUn":977,"olut":978,"ĠThey":979,"Ġlear":980,"Ġsim":981,"Ġfam":982,"Ġproduct":983,"ern":984,"erm":985,"Ġref":986,"Ġdet":987,"Ġend":988,"ense":989,",\"":990,"Ġ|":991,"Ġinf":992,"Ġnum":993,"Ġbest":994,"ps":995,"Ġunderstand":996,"und":997,"ited":998,"Ġprog":999,"Ġthink":1000,"tle":1001,"ween":1002,"ĠIf":1003,"ng":1004,"Ġimportant":1005,"Ġfl":1006,"Ġhist":1007,"Ġsur":1008,"ital":1009,"Ġagain":1010,"Ġvar":1011,"Ġloc":1012,"ork":1013,"Ġfeel":1014,"ivid":1015,"Ġwhile":1016,"Ġconf":1017,"Ġear":1018,"ien":1019,"ĠBut":1020,"Ġhand":1021,"Ġty":1022,"Ġbetween":1023,"Ġext":1024,"Ġbefore":1025,"ollow":1026,"Ġdown":1027,"Ġexperience":1028,"oftext":1029,"endoftext":1030,"Ġmade":1031,"Ġcomple":1032,"line":1033,"ering":1034,"Ġmon":1035,"Ġpub":1036,"Ġeffect":1037,"ines":1038,"Ġgener":1039,"ving":1040,"Ġsk":1041,"Ġshow":1042,"Ġed":1043,"Ġappro":1044,"Ġfact":1045,"air":1046,"ather":1047,"Ġresp":1048,"Ġboth":1049,"Ġvis":1050,"Ġused":1051,"ven":1052,"Ġteam":1053,"Ġbr":1054,"day":1055,"Ġtoo":1056,"Ġread":1057,"Ġcall":1058,"ros":1059,"Ġdesign":1060,"Ġop":1061,"Ġsom":1062,"arg":1063,"Ġcour":1064,"ages":1065,"ature":1066,"ner":1067,"iqu":1068,"ont":1069,"ex":1070,"Ġreal":1071,"com":1072,"ism":1073,"uc":1074,"ale":1075,"ric":1076,"Ġeach":1077,"Ġcar":1078,"eng":1079,"Ġmem":1080,"Ġexpl":1081,"Ġcle":1082,"Ġinvest":1083,"ology":1084,"ateg":1085,"ural":1086,"erest":1087,"Ġpur":1088,"Ġexam":1089,"ploy":1090,"Ġche":1091,"tern":1092,"Ġcount":1093,"Ġcur":1094,"Ġopt":1095,"Ġinformation":1096,"Ġresult":1097,"Ġmain":1098,"Ġallow":1099,"iving":1100,"Ġpartic":1101,"ĠHow":1102,"read":1103,"imes":1104,"Ġbel":1105,"kes":1106,"Th":1107,"ĠPro":1108,"Ġav":1109,"irect":1110,"Ġcontin":1111,"Ġens":1112,"rand":1113,"Ġorgan":1114,"Ġ4":1115,"Ġbuild":1116,"Ġaw":1117,"ining":1118,"ccess":1119,"port":1120,"Ġ5":1121,"Ġthings":1122,"up":1123,"ash":1124,"atch":1125,"Ġreally":1126,"view":1127,"ividual":1128,"Ġoften":1129,"Ġsec":1130,"ix":1131,"ists":1132,"Ġ201":1133,"ying":1134,"Ġeng":1135,"Ġgoing":1136,"erg":1137,"ivers":1138,"'ve":1139,"Ġfollow":1140,"dition":1141,"ically":1142,"Ġlook":1143,"ves":1144,"Ġreturn":1145,"Ġdep":1146,"Ġiss":1147,"iel":1148,"Ġgrow":1149,"Ġchild":1150,"Ġleg":1151,"Ġhere":1152,"ribut":1153,"Ġpower":1154,"Ġsay":1155,"ĠFor":1156,"Ġincre":1157,"ability":1158,"',":1159,"ode":1160,"Ġday":1161,"ake":1162,"ĠSo":1163,"Ġspec":1164,"Ġsame":1165,"Ġhum":1166,"Ġmust":1167,"ention":1168,"Ġaround":1169,"Ġthough":1170,"Ġindividual":1171,"Ġinterest":1172,"nect":1173,"Ġmight":1174,"ruct":1175,"Ġ#":1176,"less":1177,"Ġform":1178,"Ġtest":1179,"Ġlit":1180,"chool":1181,"ins":1182,"Ġposs":1183,"ody":1184,"Ġfound":1185,"Ġ[":1186,"ars":1187,"Ġdel":1188,"Ġdist":1189,"Ġhome":1190,"vern":1191,"ved":1192,"Ġstate":1193,"Ġquest":1194,"io":1195,"ier":1196,"arm":1197,"Ġpoint":1198,"Ġplan":1199,"Ġstill":1200,"Ġcompany":1201,"ways":1202,"ered":1203,"ave":1204,"Ġben":1205,"cing":1206,"Ġpay":1207,"der":1208,"##":1209,"ah":1210,"Ġprovide":1211,"Ġel":1212,"gg":1213,"Ġgl":1214,"ull":1215,"Ġeas":1216,"Ġmin":1217,"Ġser":1218,"nce":1219,"ason":1220,"ĠĠĠĠĠĠĠĠĠĠĠĠĠĠĠĠ":1221,"ted":1222,"ee":1223,"ince":1224,"Ġ202":1225,"Ġwithout":1226,"ertain":1227,"Ġlaw":1228,"ank":1229,"Ġplace":1230,"Ġduring":1231,"bs":1232,"ider":1233,"Ġpract":1234,"ĠRe":1235,"Ġhapp":1236,"ething":1237,"els":1238,"ross":1239,"Ġpot":1240,"sc":1241,"Ġdem":1242,"ined":1243,"Ġide":1244,"pr":1245,"ield":1246,"Ġincluding":1247,"Ġpersonal":1248,"Ġlot":1249,"Ġsuccess":1250,"Ġprot":1251,"uss":1252,"ired":1253,"Ġcreat":1254,"ĠWh":1255,"Ġcent":1256,"Ġcor":1257,"Ġtal":1258,"ared":1259,"Ġmaking":1260,"----":1261,"itive":1262,"ocus":1263,"Ġservices":1264,"Ġest":1265,"Ġsocial":1266,"ants":1267,"Ġbo":1268,"Ġprom":1269,"Ġaff":1270,"Ġkeep":1271,"meric":1272,"\",":1273,"rent":1274,"Ġstand":1275,"Ġpat":1276,"Ġcost":1277,"Ġprofess":1278,"Ġindust":1279,"Ġsomething":1280,"ision":1281,"ĠThere":1282,"the":1283,"ĠAl":1284,"Ġbetter":1285,"iron":1286,"ization":1287,"Ġchar":1288,"to":1289,"Ġwithin":1290,"'ll":1291,"iver":1292,"ĠAn":1293,"iven":1294,"Ġfun":1295,"Ġdr":1296,"Ġchall":1297,"Ġimpro":1298,"amp":1299,"Ġbenef":1300,"ouse":1301,"__":1302,"Ġhistory":1303,"Ġcome":1304,"az":1305,"Ġgra":1306,"Ġusing":1307,"Ġrese":1308,"Ġpass":1309,"Ġlist":1310,"riend":1311,"Ġbelie":1312,"Ġsit":1313,"Ġcult":1314,"ets":1315,"Ġlevel":1316,"()":1317,"tain":1318,"Ġsignific":1319,"Ġproject":1320,"Ġperform":1321,"ills":1322,"Ġopen":1323,"Ġemploy":1324,"oun":1325,"Ġca":1326,"agement":1327,"Ġproble":1328,"ately":1329,"Ġpublic":1330,"ĠGod":1331,"'m":1332,"...":1333,"Ġris":1334,"bers":1335,"thing":1336,"put":1337,"Ġalways":1338,"Ġtrust":1339,"str":1340,"Ġfinan":1341,"\"\"":1342,"ĠAmeric":1343,"Ġlast":1344,"Ġfew":1345,"ĠAd":1346,"Ġwrit":1347,"Ġfocus":1348,"oss":1349,"ases":1350,"uture":1351,"Ġ$":1352,"ĠAI":1353,"Ġrelations":1354,"Ġbeh":1355,"iety":1356,"orth":1357,"Ġtop":1358,"Ġstrateg":1359,"Ġpotential":1360,"de":1361,"Ġproper":1362,"Ġsaf":1363,"ĠAr":1364,"ooking":1365,"It":1366,"ĠThese":1367,"Ġaccess":1368,"Ġconnect":1369,"ĠTr":1370,"par":1371,"Ġdirect":1372,"conom":1373,"Ġfamily":1374,"Ġconc":1375,"Ġcap":1376,"ling":1377,"Ġneeds":1378,"viron":1379,"ients":1380,"Ġgrou":1381,"Ġess":1382,"Ġreport":1383,"Ġmat":1384,"land":1385,"Ġoper":1386,"000":1387,"Ġanother":1388,"Ġprev":1389,"ĠSh":1390,"Ġservice":1391,"ĠIs":1392,"Ġgovern":1393,"pro":1394,"Ġsmall":1395,"oad":1396,"Ġable":1397,"ished":1398,"Ġpop":1399,"This":1400,"Ġspecific":1401,"oney":1402,"Ġfil":1403,"ead":1404,"urity":1405,"Ġlet":1406,"be":1407,"Ġnumber":1408,"pportun":1409,"Ġmean":1410,"itions":1411,"Ġchang":1412,"Ġcreate":1413,"ration":1414,"Ġlove":1415,"ĠĠĠĠĠĠĠĠĠĠĠĠĠĠĠ":1416,"Ġbecome":1417,"Ġcommunity":1418,"Ġkey":1419,"Ġclass":1420,"Ġsignificant":1421,"ique":1422,"Ġfree":1423,"Ġless":1424,"Ġrun":1425,"Ġconst":1426,"Ġhuman":1427,"Ġwom":1428,"ney":1429,"Ġinvol":1430,"Ġrelationship":1431,"Ġoffer":1432,"Ġcontro":1433,"man":1434,"ĠInd":1435,"ret":1436,"Ġcase":1437,"Ġimpact":1438,"ream":1439,"ĠNew":1440,"Ġthree":1441,"Ġequ":1442,"Ġfac":1443,"Ġopportun":1444,"co":1445,"Ġfuture":1446,"We":1447,"Ġschool":1448,"Ġput":1449,"Ġlearn":1450,"Ġident":1451,"itut":1452,"Ġchange":1453,"Ġkind":1454,"Ġagainst":1455,"Ġtool":1456,"Ġ6":1457,"lu":1458,"Ġfinancial":1459,"Ġonline":1460,"ently":1461,"cond":1462,"ral":1463,"por":1464,"Ġbig":1465,"ection":1466,"Ġbre":1467,"Ġmind":1468,"Ġprofessional":1469,"Ġcr":1470,"Ġaddition":1471,"Ġexample":1472,"ior":1473,"olution":1474,"Ġaccount":1475,"ances":1476,"Ġname":1477,"Ġter":1478,"ĠThat":1479,"Ġeduc":1480,"atform":1481,"Ġbro":1482,"Ġactiv":1483,"ĠDe":1484,"hor":1485,"Ġrece":1486,"Ġenviron":1487,"arge":1488,"Ġworking":1489,"Ġothers":1490,"Ġ0":1491,"Ġwhy":1492,"rist":1493,"Ġhard":1494,"Ġmet":1495,"Ġanal":1496,"Ġdevelopment":1497,"Ġnever":1498,"Ġstudents":1499,"ination":1500,"Ġmonth":1501,"Ġes":1502,"Ġresearch":1503,"ify":1504,"ights":1505,"Ġparticular":1506,"iversity":1507,"Ġintern":1508,"ĠWhat":1509,"Ġsupp":1510,"Ġlittle":1511,"Ġmus":1512,"Ġcompan":1513,"ames":1514,"ĠEx":1515,"app":1516,"ote":1517,"aking":1518,"ken":1519,"Ġcontent":1520,"ories":1521,"ury":1522,"As":1523,"Ġsure":1524,"ified":1525,"ending":1526,"acy":1527,"Ġtyp":1528,"Ġland":1529,"oint":1530,"Ġvalue":1531,"Ġorder":1532,"Ġindustry":1533,"Ġavail":1534,"ains":1535,"Ġvarious":1536,"Ġgive":1537,"ibility":1538,"med":1539,"Ġcertain":1540,"ĠHowever":1541,"Ġeconom":1542,"Ġpost":1543,"ax":1544,"aut":1545,"Ġmeet":1546,"Ġprogram":1547,"Ġenh":1548,"ĠWith":1549,"Ġwee":1550,"Ġmeans":1551,"Ġchalleng":1552,"Ġclear":1553,"Ġwater":1554,"inal":1555,"Ġexpect":1556,"ication":1557,"Ġmoney":1558,"here":1559,"ččĊ":1560,"Ġapplic":1561,"Ġword":1562,"Ġbrand":1563,"Ġmove":1564,"ĠShe":1565,"ann":1566,"Ġjob":1567,"arent":1568,"ived":1569,"Ġplatform":1570,"ĠWhen":1571,"ogn":1572,"ript":1573,"ape":1574,"Ġview":1575,"Ġexperien":1576,"work":1577,"Ġele":1578,"Ġnext":1579,"ethod":1580,"Ġfund":1581,"ards":1582,"Ġfriend":1583,"Ġcurrent":1584,"abor":1585,"Ġconsider":1586,"ked":1587,"ware":1588,"==":1589,"Ġseem":1590,"Ġredu":1591,"urther":1592,"Ġeffective":1593,"ĠQ":1594,"Ġ10":1595,"What":1596,"Ġsince":1597,"Ġensure":1598,"Ġrole":1599,"ency":1600,"Ġrequire":1601,"Ġhead":1602,"Ġspecial":1603,"ilities":1604,"ources":1605,"ĠCom":1606,"lish":1607,"for":1608,"Ġtoday":1609,"If":1610,"aim":1611,"Ġcred":1612,"Ġwebs":1613,"ably":1614,"20":1615,"Ġcho":1616,"tt":1617,"pos":1618,"from":1619,"Ġenvironment":1620,"Ġpresent":1621,"Ġlocal":1622,"ission":1623,"ised":1624,"orn":1625,"Ġproducts":1626,"Ġold":1627,"Ġcompanies":1628,"Ġpar":1629,"ries":1630,"me":1631,"Ġrest":1632,"ator":1633,"Ġtechnology":1634,"Ġstrong":1635,"name":1636,"Ġcourse":1637,"pecial":1638,"oci":1639,"Ġinclude":1640,"icle":1641,"ource":1642,"Ġthing":1643,"over":1644,"ĠBy":1645,"Ġtre":1646,"Ġlim":1647,"val":1648,"Ġturn":1649,"ĠCl":1650,"Ġbeg":1651,"Ġ7":1652,"Ġmov":1653,"Ġrele":1654,"Ġenc":1655,"ĠSc":1656,"Ġsever":1657,"Ġbas":1658,"ĠTo":1659,"illion":1660,"Ġstep":1661,"ope":1662,"Ġbook":1663,"Ġbased":1664,"iting":1665,"ug":1666,"ĠCon":1667,"Ġavailable":1668,"Ġtreat":1669,"Ġpossible":1670,"ledge":1671,"ership":1672,"Ġlooking":1673,"Ġwar":1674,"Ġgot":1675,"ental":1676,"Ġrespons":1677,"Ġissues":1678,"ray":1679,"gether":1680,"Ġtogether":1681,"Ġchildren":1682,"orts":1683,"aging":1684,"Ġjour":1685,"wards":1686,"aterial":1687,"Ġpast":1688,"Ġquality":1689,"Ġpolit":1690,"Ġstory":1691,"mb":1692,"ember":1693,"chie":1694,"Ġlarge":1695,"Ġaud":1696,"min":1697,"ger":1698,"Ġgame":1699,"Ġdig":1700,"Ġcommit":1701,"Ġessential":1702,"Ġsl":1703,"Ġcustomers":1704,"Ġhaving":1705,"aster":1706,"izing":1707,"Ġmult":1708,"Ġbody":1709,"Ġcompet":1710,"Ġ&":1711,"idence":1712,"not":1713,"raph":1714,"jor":1715,"Ġfr":1716,"oot":1717,"Ġtimes":1718,"Ġpolic":1719,"Ġcomes":1720,"Ġcustomer":1721,"Ġnet":1722,"Ġlearning":1723,"inc":1724,"Ġcrit":1725,"ĠChrist":1726,"Ġcharact":1727,"Ġsal":1728,"Ġapproach":1729,"Ġve":1730,"ising":1731,"Ġacross":1732,"Ġdev":1733,"Ġseveral":1734,"ĠZ":1735,"atic":1736,"Ġgr":1737,"Ġgovernment":1738,"Ġmakes":1739,"Ġ200":1740,"Ġimprove":1741,"Ġknown":1742,"Ġ8":1743,"Ġfull":1744,"asing":1745,"ton":1746,"Ġactually":1747,"selves":1748,"Ġsecond":1749,"oid":1750,"Ġocc":1751,"Ġaway":1752,"Ġrecord":1753,"ians":1754,"Ġcommon":1755,"ats":1756,"ird":1757,"Ġcontrol":1758,"Ġfore":1759,"Ġunique":1760,"Ġquick":1761,"ĠComm":1762,"Ġdoing":1763,"Ġwhether":1764,"Ġunderstanding":1765,"oh":1766,"Ġphys":1767,"py":1768,"Ġmedia":1769,"Ġmom":1770,"How":1771,"Ġmaterial":1772,"ĠSe":1773,"Ġreview":1774,"ĠPl":1775,"Ġfood":1776,"Ġpain":1777,"ples":1778,"ĠGo":1779,"ĠAll":1780,"Ġmembers":1781,"atures":1782,"Ġnecess":1783,"ready":1784,"Ġindividuals":1785,"fort":1786,"Ġcountry":1787,"sw":1788,"ror":1789,"Ġachie":1790,"ina":1791,"Ġhig":1792,"Ġaddress":1793,"Ġpriv":1794,"Ġdetail":1795,"uro":1796,"Ġalong":1797,"ument":1798,"Ġmethod":1799,"use":1800,"ended":1801,"Ġtell":1802,"Ġdiscuss":1803,"ĠBe":1804,"sh":1805,"Ġsol":1806,"iod":1807,"Ġshort":1808,"path":1809,"Ġgrowth":1810,"))":1811,"Ġdays":1812,"Ġgroup":1813,"Ġdra":1814,"Ġtype":1815,"Ġmajor":1816,"Ġinflu":1817,"oring":1818,"reen":1819,"Ġrange":1820,"resent":1821,"ooks":1822,"Ġarea":1823,"ipp":1824,"Ġalready":1825,"yn":1826,"Ġ9":1827,"iate":1828,"Wh":1829,"angu":1830,"Ġnon":1831,"pecially":1832,"Ġamong":1833,"Ġlo":1834,"Ġquestion":1835,"Ġelse":1836,"Ġmodel":1837,"side":1838,"Ġmanagement":1839,"Ġsecurity":1840,"Ġwomen":1841,"Ġunt":1842,"br":1843,"19":1844,"action":1845,"Ġrisk":1846,"Ġcontribut":1847,"ĠBl":1848,"ergy":1849,"St":1850,"ĠOn":1851,"Ġreason":1852,"nov":1853,"hing":1854,"ored":1855,"Ġevent":1856,"Ġfar":1857,"Ġsoft":1858,"ours":1859,"ium":1860,"aring":1861,"ulation":1862,"Ġnat":1863,"Ġsays":1864,"cent":1865,"icult":1866,"joy":1867,"Ġtax":1868,"Ġfre":1869,"Ġsense":1870,"Ġauthor":1871,"arget":1872,"Ġoffers":1873,"ured":1874,"Ġhold":1875,"Ġelect":1876,"Ġpri":1877,"Ġsitu":1878,"Ġcomplete":1879,"ording":1880,"Ġways":1881,"Ġmarketing":1882,"Ġcalled":1883,"Ġcru":1884,"Ġwr":1885,"Ġearly":1886,"Ġdone":1887,"duct":1888,"set":1889,"Ġ+":1890,"Ġrecogn":1891,"You":1892,"Ġprotect":1893,"irit":1894,"Ġinit":1895,"obal":1896,"Ġemot":1897,"oura":1898,"Ġknowledge":1899,"Ġinteg":1900,"Ġhappen":1901,"clus":1902,"When":1903,"irc":1904,"Ġwebsite":1905,"Ġever":1906,"ĠCol":1907,"Ġshare":1908,"ER":1909,"Ġworks":1910,"Ġmar":1911,"urance":1912,"Ġmaintain":1913,"ron":1914,"Ġlive":1915,"Ġvide":1916,"rain":1917,"Ġlight":1918,"Ġsw":1919,"ext":1920,"Ġfield":1921,"ried":1922,"Ġcompl":1923,"ĠSp":1924,"('":1925,"Ġsing":1926,"Ġpa":1927,"Ġbring":1928,"ding":1929,"Ġconsum":1930,"Ġdue":1931,"by":1932,"Ġdesc":1933,"ery":1934,"Ġskills":1935,"Ġcolle":1936,"Ġtraining":1937,"ffic":1938,"ĠUS":1939,"apt":1940,"Ġclaim":1941,"Ġdidn":1942,"Ġproblem":1943,"Ġarg":1944,"ees":1945,"lement":1946,"Ġheart":1947,"ires":1948,"(\"":1949,"Ġ18":1950,"Ġsystems":1951,"Ġfollowing":1952,"Ġ\"\"\"":1953,"Ġestab":1954,"Ġexist":1955,"ither":1956,"outh":1957,"imate":1958,"Ġspace":1959,"ilar":1960,"Ġorig":1961,"Ġenjoy":1962,"Ġenergy":1963,"Ġdifficult":1964,"ĠHis":1965,"Ġespecially":1966,"augh":1967,"Ġenough":1968,"Ġability":1969,"Ġlog":1970,"Ġdeal":1971,"ĠRes":1972,"ilit":1973,"istic":1974,"Ġleft":1975,"Ġcoll":1976,"Ġbuilding":1977,"ĠAt":1978,"Ġyoung":1979,"sy":1980,"verage":1981,"mit":1982,"Ġnature":1983,"yle":1984,"Ġfurther":1985,"Ġweek":1986,"Ġtem":1987,"Ġthought":1988,"ĠCan":1989,"ĠOr":1990,"ĠAmerican":1991,"####":1992,"osed":1993,"Ġbegin":1994,"ump":1995,"Ġlegal":1996,"Ġline":1997,"Ġdeep":1998,"':":1999,"Ġant":2000,"aces":2001,"oose":2002,"Ġperiod":2003,"Ġ{":2004,"Ġperformance":2005,"Ġsomeone":2006,"Ġmusic":2007,"def":2008,"ĠTe":2009,"Ġside":2010,"Ġchallenges":2011,"idd":2012,"Ġdoesn":2013,"Ġer":2014,"ik":2015,"Ġamount":2016,"ĠEng":2017,"Ġbenefits":2018,"Ġcredit":2019,"],":2020,"Ġcomb":2021,"Ġtools":2022,"ides":2023,"Ġenhance":2024,"Ġi":2025,"Ġtry":2026,"ots":2027,"Ġstay":2028,"Ġdeterm":2029,"Ġresults":2030,"fer":2031,"Ġeasy":2032,"Ġgetting":2033,"most":2034,"Ġcity":2035,"ued":2036,"Ġmen":2037,"Ġquestions":2038,"Ġtradition":2039,"ĠPh":2040,"An":2041,"Ġ.":2042,"Ġbuy":2043,"rop":2044,"Ġgiven":2045,"ox":2046,"Ġbusinesses":2047,"Ġfour":2048,"Ġdigital":2049,"Ġonce":2050,"lished":2051,"Ġdoc":2052,"osp":2053,"10":2054,"Ġcame":2055,"Ġey":2056,"Ġpopular":2057,"let":2058,"ained":2059,"Ġmess":2060,"fect":2061,"Ġconcern":2062,"aff":2063,"ift":2064,"Ġvers":2065,"Ġeffic":2066,"Ġcomplex":2067,"Ġlikely":2068,"aps":2069,"ask":2070,"Ġlangu":2071,"\")":2072,"time":2073,"Ġcheck":2074,"ises":2075,"inking":2076,"Ġemb":2077,"Ġeducation":2078,"Ġann":2079,"ches":2080,"pre":2081,"Ġneg":2082,"ograph":2083,"Ġrepl":2084,"Ġnear":2085,"eral":2086,"Ġhouse":2087,"ĠOne":2088,"ids":2089,"ĠUniversity":2090,"Ġeverything":2091,"Ġobject":2092,"Ġbelieve":2093,"Ġwal":2094,"Ġregard":2095,"Ġassoci":2096,"Ġseen":2097,"ification":2098,"fully":2099,"ĠMan":2100,"Ġface":2101,"Ġcamp":2102,"anced":2103,"new":2104,"Ġbit":2105,"unt":2106,"Ġmot":2107,"Ġoffic":2108,"ety":2109,"Ġuntil":2110,"Ġyourself":2111,"ply":2112,"For":2113,"Ġsell":2114,"IN":2115,"There":2116,"ĠYour":2117,"Ġlow":2118,"Ġcrucial":2119,"Ġrecomm":2120,"Ġprovides":2121,"ĠInst":2122,"Ġsuper":2123,"load":2124,"Ġareas":2125,"Ġcond":2126,"urs":2127,"att":2128,"Ġfail":2129,"Ġcharacter":2130,"ilt":2131,"Ġrepresent":2132,"Ġgen":2133,"Ġoptions":2134,"isions":2135,"Ġclose":2136,"Ġfeatures":2137,"ators":2138,"ensive":2139,"Ġbeaut":2140,"though":2141,"')":2142,"Ġstruct":2143,"Ġaction":2144,"uck":2145,"Ġmeas":2146,"onse":2147,"ĠDo":2148,"Ġtaking":2149,"reng":2150,"cer":2151,"Ġvisit":2152,"Ġappear":2153,"--------":2154,"Ġusers":2155,"Ġstarted":2156,"Ġlater":2157,"ression":2158,"ĠFr":2159,"Ġleast":2160,"ecut":2161,"Ġ*":2162,"Ġdeb":2163,"ivity":2164,"Ġtarget":2165,"ged":2166,"iple":2167,"ggest":2168,"Ġnatural":2169,"ends":2170,"ane":2171,"back":2172,"go":2173,"irm":2174,"ON":2175,"Ġinnov":2176,"Ġassist":2177,"ological":2178,"Ġful":2179,"Ġdecision":2180,"ĠEuro":2181,"urch":2182,"umm":2183,"ĠUnited":2184,"Ġrather":2185,"Ġtrue":2186,"ched":2187,"olutions":2188,"Ġpurch":2189,"Ġcontinue":2190,"Ġut":2191,"ler":2192,"Ġprior":2193,"Ġpress":2194,"Ġdam":2195,"ĠAm":2196,"illed":2197,"Ġwhole":2198,"Ġidea":2199,"Ġsoftware":2200,"Ġstat":2201,"son":2202,"ush":2203,"oud":2204,"import":2205,"Ġjourney":2206,"Ġport":2207,"Ġfunction":2208,"Ġclean":2209,"alf":2210,"aching":2211,"Ġprob":2212,"cle":2213,"Ġincrease":2214,"50":2215,"Ġwin":2216,"Ġpath":2217,"Ġsuggest":2218,"Ġple":2219,"Ġair":2220,"iously":2221,"Ġdi":2222,"Ġchanges":2223,"Ġpolitical":2224,"Ġbehav":2225,"Ġyet":2226,"ĠLe":2227,"Ġhigher":2228,"Ġstudy":2229,"arr":2230,"Ġterms":2231,"ohn":2232,"To":2233,"ones":2234,"vert":2235,"aged":2236,"Ġrequired":2237,"Ġrespect":2238,"Ġculture":2239,"Ġbecom":2240,"part":2241,"Ġthemselves":2242,"Ġansw":2243,"Ġpositive":2244,"ault":2245,"ony":2246,"Ġparticip":2247,"ands":2248,"Ġparent":2249,"Ġresources":2250,"ĠWhile":2251,"Ġtook":2252,"Ġproperty":2253,"AT":2254,"Ġproviding":2255,"hold":2256,"Ġcollect":2257,"Ġ:":2258,"Ġentire":2259,"way":2260,"Ġproblems":2261,"Ġclients":2262,"rect":2263,"Ġexce":2264,"oms":2265,"rodu":2266,"vent":2267,"ley":2268,"'d":2269,"ging":2270,"ĠIm":2271,"Ġnecessary":2272,"Ġuser":2273,"Ġmatter":2274,"Ġstreng":2275,"Ġsite":2276,"ele":2277,"Ġsearch":2278,"Ġspirit":2279,"Ġevents":2280,"elt":2281,"osing":2282,"Ġsat":2283,"Ġtravel":2284,"ĠEurope":2285,"Ġcra":2286,"lex":2287,"Ġcareer":2288,"ES":2289,"Ġtext":2290,"Ġlives":2291,"emic":2292,"che":2293,"Ġcaus":2294,"Ġnews":2295,"//":2296,"eal":2297,"hers":2298,"ĠSu":2299,"Ġeveryone":2300,"Ġcal":2301,"Ġsubject":2302,"Ġallows":2303,"ĠEn":2304,"avor":2305,"Ġupon":2306,"Ġwords":2307,"iable":2308,"Ġattention":2309,"\":":2310,"ips":2311,"Ġperfect":2312,"Ġglobal":2313,"Ġposition":2314,"yond":2315,"aving":2316,"Ġcannot":2317,"empt":2318,"fact":2319,"Ġautom":2320,"ĠNo":2321,"And":2322,"Ġopportunities":2323,"Ġphot":2324,"ĠOur":2325,"Ġsound":2326,"Ġbal":2327,"uly":2328,"Ġage":2329,"Ġcoun":2330,"Ġhelps":2331,"lt":2332,"Ġaspect":2333,"ule":2334,"Ġanaly":2335,"ai":2336,"Ġmillion":2337,"Ġexpert":2338,"Ġactivities":2339,"Ġsimply":2340,"Ġsum":2341,"Ġemail":2342,"Ġla":2343,"Ġaffect":2344,"Ġmoment":2345,"Ġprint":2346,"Ġvol":2347,"orld":2348,"Ġpolicy":2349,"Ġpractice":2350,"irt":2351,"rams":2352,"Ġconvers":2353,"Ġneeded":2354,"Ġprice":2355,"Ġsimilar":2356,"Ġmonths":2357,"ĠMy":2358,"Ġloss":2359,"li":2360,"Ġfriends":2361,"Ġregul":2362,".,":2363,"pose":2364,"Ġz":2365,"icated":2366,"ned":2367,"Ġmedical":2368,"AR":2369,"Ġphysical":2370,"ĠSome":2371,"Ġsafe":2372,"Ġcy":2373,"rec":2374,"Ġavoid":2375,"Ġmodern":2376,"Ġlanguage":2377,"Ġcreating":2378,"class":2379,"Ġopportunity":2380,"\".":2381,"iol":2382,"Ġhowever":2383,"ules":2384,"Ġcirc":2385,"etimes":2386,"erence":2387,"Ġissue":2388,"Ġexc":2389,"Ġexcept":2390,"Ġimm":2391,"Ġhistor":2392,"Ġtransform":2393,"Ġengine":2394,"ott":2395,"af":2396,"Ġquickly":2397,"atives":2398,"iction":2399,"acks":2400,"une":2401,"Ġ12":2402,"ĠCo":2403,"bd":2404,"ĠPr":2405,"Ġliving":2406,"uth":2407,"Ġachieve":2408,"Ġ==":2409,"Ġaccept":2410,"data":2411,"Ġabs":2412,"['":2413,"Ġitself":2414,"Ġjo":2415,"ĠX":2416,"Ġpred":2417,"ister":2418,"Ġcomput":2419,"light":2420,"ems":2421,"Ġexperiences":2422,"ĠApp":2423,"ĠMed":2424,"Ġguid":2425,"ters":2426,"Ġdest":2427,"head":2428,"come":2429,"ĠMar":2430,"cies":2431,"Ġsimple":2432,"Ġarr":2433,"Ġfall":2434,"ellig":2435,"Ġcosts":2436,"Ġwide":2437,"But":2438,"Ġpie":2439,"Ġcou":2440,"erson":2441,"Ġarticle":2442,"Ġtalk":2443,"']":2444,"Ġencoura":2445,"ĠStates":2446,"ites":2447,"Ġfig":2448,"Ġtrying":2449,"Ġcases":2450,"Ġterm":2451,"Ġvideo":2452,"Ġcontract":2453,"Ġded":2454,"Ġfamil":2455,"Ġeither":2456,"Ġhy":2457,"Ġsingle":2458,"Ġwent":2459,"Ġgeneral":2460,"su":2461,"ĠCent":2462,"ively":2463,"Ġabove":2464,"Ġwa":2465,"Ġwriting":2466,"Ġbecame":2467,"gs":2468,"Ġask":2469,"Ġorganiz":2470,"ruction":2471,"Ġanything":2472,"Ġhon":2473,"Ġtowards":2474,"alse":2475,"ring":2476,"Ġtot":2477,"Ġconditions":2478,"Ġsolutions":2479,"Ġsafety":2480,"Ch":2481,"ison":2482,"ges":2483,"Ġthroughout":2484,"type":2485,"Ġinsurance":2486,"Ġcut":2487,"Ġreflect":2488,"Ġsex":2489,"oll":2490,"ĠTra":2491,"Ġdeath":2492,"Ġregular":2493,"Ġagree":2494,"Ġrev":2495,"Ġdom":2496,"Ġopp":2497,"Ġcreated":2498,"Ġaim":2499,"add":2500,"Ġcause":2501,"ze":2502,"vant":2503,"ysis":2504,"Ġx":2505,"Ġcontact":2506,"Ġgoals":2507,"minist":2508,"Ġalmost":2509,"Ġeconomic":2510,"Ġinsp":2511,"oph":2512,"eed":2513,"Ġtaken":2514,"erc":2515,"Ġchoose":2516,"Ġinvestment":2517,"ĠNone":2518,"reg":2519,"Ġpartn":2520,"ĠJohn":2521,"Ġexplore":2522,"Ġbehind":2523,"Ġimplement":2524,"Ġworth":2525,"Ġprim":2526,"agn":2527,"ĠAfter":2528,"ival":2529,"Ġsent":2530,"Ġcourt":2531,"So":2532,"Ġtraditional":2533,"Ġmeaning":2534,"Ġbreak":2535,"Ġprevent":2536,"Ġfive":2537,"enn":2538,"atory":2539,"Ġbi":2540,"Ġmor":2541,"Ġsales":2542,"._":2543,"cast":2544,"Ġwon":2545,"Ġrequest":2546,"Ġhope":2547,"uff":2548,"ĠRep":2549,"ĠAf":2550,"Ġground":2551,"Ġoverall":2552,"oard":2553,"nces":2554,"Ġsust":2555,"Ġleading":2556,"Ġaware":2557,"aries":2558,"dd":2559,"Ġtreatment":2560,"care":2561,"Ġlonger":2562,"ĠCar":2563,"reme":2564,"Ġprovided":2565,"Ġsect":2566,"Ġtypes":2567,"erous":2568,"Ġstrategy":2569,"Ġjud":2570,"Ġhours":2571,"rew":2572,"Ġforward":2573,"epend":2574,"Ġ199":2575,"Ġsituation":2576,"Ġsens":2577,"Ġdesigned":2578,"Ġintegr":2579,"ublic":2580,"ux":2581,"based":2582,"oved":2583,"Ġisn":2584,"Ġquite":2585,"pping":2586,"Tr":2587,"Ġbat":2588,"One":2589,"actions":2590,"rupt":2591,"ĠEm":2592,"mod":2593,"iance":2594,"Ġ15":2595,"Ġlarg":2596,"Ġconsist":2597,"Ġcapt":2598,"iring":2599,"Ġrights":2600,"ĠMr":2601,"opy":2602,"Ġemployees":2603,"Ġbeyond":2604,"Ġinvolved":2605,"test":2606,"ibr":2607,"Ġfactors":2608,"iation":2609,"Ġcomfort":2610,"Ġcollabor":2611,"AN":2612,"ening":2613,"Ġinstitut":2614,"Ġparticularly":2615,"Ġprograms":2616,"ĠCont":2617,"Ġemerg":2618,"://":2619,"oor":2620,"Ġstru":2621,"sequ":2622,"Ġchoice":2623,"Ġoptim":2624,"Ġcommunication":2625,"iles":2626,"ĠComp":2627,"Ġnational":2628,"12":2629,"Ġresponse":2630,"Ġmach":2631,"Ġtakes":2632,"Ġincreasing":2633,"Ġur":2634,"Ġconcept":2635,"Ġbad":2636,"Ġaudience":2637,"Ġlay":2638,"Ġscen":2639,"lying":2640,"Ġet":2641,"ĠAss":2642,"inary":2643,"iverse":2644,"ĠMay":2645,"play":2646,"sych":2647,"Ġrecent":2648,"ĠWest":2649,"Ġ30":2650,"ĠAct":2651,"Ġorganization":2652,"Ġill":2653,"Ġstress":2654,"Ġassess":2655,"ops":2656,"ls":2657,"Ġfit":2658,"Ġextra":2659,"icate":2660,"ager":2661,"Ġdecisions":2662,"Ġtold":2663,"OR":2664,"code":2665,"Ġroom":2666,"ww":2667,"Ġstaff":2668,"ID":2669,"Ġdeg":2670,"Ġcountries":2671,"AS":2672,"Ġstrategies":2673,"Ġrelationships":2674,"aches":2675,"Ġfeed":2676,"Ġnight":2677,"Ġfilm":2678,"hens":2679,"Ġusually":2680,"Ġprojects":2681,"=\"":2682,"ogle":2683,"Ġcoming":2684,"Ġapplication":2685,"aith":2686,"Ġviol":2687,"Ġstore":2688,"Ġinj":2689,"ma":2690,"ĠGu":2691,"itor":2692,"Ġbar":2693,"Ġremain":2694,"Ġupd":2695,"ams":2696,"Ġprivate":2697,"Ġnorm":2698,"Ġincludes":2699,"Ġnothing":2700,"Ġwanted":2701,"ament":2702,"Ġthinking":2703,"Ġasked":2704,"Ġrate":2705,"Ġpercent":2706,"====":2707,"Ġexpress":2708,"ĠPres":2709,"Ġadvant":2710,"alu":2711,"ufact":2712,"Ġflow":2713,"Ġseries":2714,"Ġdescrib":2715,"IT":2716,"Ġlevels":2717,"rast":2718,"ications":2719,"anks":2720,"Ġcritical":2721,"ĠState":2722,"Ġwond":2723,"Ġimmed":2724,"Ġsociety":2725,"unch":2726,"ground":2727,"Ġweb":2728,"ief":2729,"Ġobs":2730,"Ġreach":2731,"Ġsuccessful":2732,"ude":2733,"xim":2734,"isf":2735,"asons":2736,"Ġvalues":2737,"Ġwatch":2738,"Ġoutside":2739,"Ġhost":2740,"oice":2741,"Ġseason":2742,"Ġintrodu":2743,"roll":2744,"Ġnetwork":2745,"hood":2746,"Ġfile":2747,"Ġprobably":2748,"ils":2749,"ĠĠĠĠĠĠĠĠĠĠĠĠĠĠĠĠĠĠĠ":2750,"like":2751,"Ġprep":2752,"aign":2753,"ĠNot":2754,"pite":2755,"ĠDr":2756,"EN":2757,"term":2758,"Ġexecut":2759,"Ġthird":2760,"ĠFrom":2761,"wh":2762,"ables":2763,"het":2764,"ender":2765,"ĠSy":2766,"Ġdefin":2767,"Ġinternational":2768,"Ġste":2769,"overed":2770,"Ġproduction":2771,"Ġver":2772,"Ġevidence":2773,"Ġprinc":2774,"mber":2775,"Ġminut":2776,"rad":2777,"Ġlif":2778,"iful":2779,"ences":2780,"EO":2781,"uge":2782,"Ġsource":2783,"Ġadditional":2784,"Ġensuring":2785,"face":2786,"where":2787,"rap":2788,"key":2789,"Ġmiss":2790,"ĠServ":2791,"idered":2792,"He":2793,"pri":2794,"Ġones":2795,"rypt":2796,"Ġbroad":2797,"Ġlat":2798,"Ġmultiple":2799,"Ġheav":2800,"pped":2801,"Ġaccording":2802,"file":2803,"hel":2804,"Ġpowerful":2805,"ume":2806,"Ġbuilt":2807,"Ġpractices":2808,"esus":2809,"Ġrecommend":2810,"Ġattract":2811,"olic":2812,"Ġdemand":2813,"sec":2814,"Ġmale":2815,"uild":2816,"ev":2817,"Ġrelig":2818,"Ġmental":2819,"Ġcapital":2820,"ball":2821,"='":2822,"Ġtrend":2823,"Ġimportance":2824,"Ġdiv":2825,"aily":2826,"Ġund":2827,"Ġep":2828,"Ġarch":2829,"Ġreceive":2830,"Ġwind":2831,"?\"":2832,"elligence":2833,"ĠHer":2834,"Ġvariety":2835,"Ġassociated":2836,"ĠHere":2837,"Ġrelated":2838,"Ġsix":2839,"Ġsustain":2840,"Ġideas":2841,"ummies":2842,"hether":2843,"Ġconsidered":2844,"Ġstudent":2845,"Ġpurpose":2846,"Ġdou":2847,"Ġvalu":2848,"Ġdemon":2849,"fl":2850,"Ġmass":2851,"itable":2852,"Ġpack":2853,"Ġmention":2854,"Ġminim":2855,"Ġbegan":2856,"Ġmis":2857,"Ġfavor":2858,"Ġcultural":2859,"Ġfoot":2860,"Ġthreat":2861,"Ġinstall":2862,"Ġrequirements":2863,"Ġtri":2864,"ĠĠĠĠĠ":2865,"Ġpromot":2866,"Ġveh":2867,"Ġlower":2868,"ĠPe":2869,"Ġsize":2870,"Ġorganizations":2871,"ĠAg":2872,"ming":2873,"ster":2874,"Ġpoints":2875,"Ġgroups":2876,"Ġled":2877,"Ġexcell":2878,"Ġqual":2879,"Ġprogress":2880,"Ġmaterials":2881,"Ġexact":2882,"rown":2883,"Ġcele":2884,"na":2885,"Ġprec":2886,"Ġremember":2887,"ivil":2888,"Ġanalysis":2889,"ole":2890,"Ġblood":2891,"dom":2892,"Ġplayers":2893,"Ġdream":2894,"hib":2895,"Ġfram":2896,"ĠMe":2897,"Ġstrugg":2898,"my":2899,"icles":2900,"Ġfront":2901,"Ġdocument":2902,"Ġleave":2903,"ĠNational":2904,"Ġclient":2905,"Ġconduct":2906,"avig":2907,"11":2908,"rel":2909,"Ġago":2910,"Ġsubst":2911,"izes":2912,"ĠWorld":2913,"reet":2914,"log":2915,"ĠPart":2916,"Ġtou":2917,"30":2918,"ĠInt":2919,"Ġspeak":2920,"ows":2921,"Ġselect":2922,"Ġgoal":2923,"Ġfinal":2924,"cod":2925,"ĠCons":2926,"Ġshows":2927,"artment":2928,"Ġeasily":2929,"orpor":2930,"Ġmanufact":2931,"place":2932,"fig":2933,"ĠJesus":2934,"Ġcampaign":2935,"Ġred":2936,"Ġanswer":2937,"list":2938,"just":2939,"Ġstrength":2940,"ags":2941,"ĠAfric":2942,"Ġstyle":2943,"Ġgain":2944,"arily":2945,"Ġhalf":2946,"ession":2947,"ĠIntern":2948,"umb":2949,"**":2950,"ĠCal":2951,"Ġsolution":2952,"ĠYork":2953,"Ġdistribut":2954,"ĠDes":2955,"Ġofficial":2956,"Ġoffice":2957,"args":2958,"Ġhighly":2959,"Ġreduce":2960,"Ġanim":2961,"aced":2962,"Ġsoon":2963,"With":2964,"Ġseems":2965,"Ġsaw":2966,"Ġhom":2967,"ologies":2968,"haps":2969,"Ġoption":2970,"nal":2971,"IS":2972,"ription":2973,"Ġcolor":2974,"Ġfear":2975,"ided":2976,"Ġmember":2977,"Ġpage":2978,"leep":2979,"Ġfelt":2980,"Ġefforts":2981,"ĠAb":2982,"Ġadminist":2983,"erve":2984,"Ġmodels":2985,"Ġfast":2986,"ha":2987,"Ġcover":2988,"Ġaccur":2989,"ober":2990,"opt":2991,"Ġrequires":2992,"ties":2993,"Ġdetails":2994,"Ġcontext":2995,"wor":2996,"ĠReg":2997,"Ġ_":2998,"Ġheld":2999,"ditionally":3000,"illing":3001,"wise":3002,"Ġdirectly":3003,"icense":3004,"Ġadapt":3005,"Ġplanning":3006,"book":3007,"Ġfaith":3008,"IC":3009,"Ġcommitment":3010,"bit":3011,"Ġshall":3012,"ifying":3013,"enge":3014,"Ġestablish":3015,"Ġemotional":3016,"force":3017,"Ġrespond":3018,"Ġoffering":3019,"Ġbud":3020,"Ġfeature":3021,"Ġplatforms":3022,"Ġdoct":3023,"Ġmilit":3024,"Ġinstead":3025,"Ġrout":3026,"Ġ100":3027,"ĠFin":3028,"Ġtour":3029,"lection":3030,"Ġbase":3031,"Ġstories":3032,"Ġfight":3033,"Ġsometimes":3034,"ĠRuss":3035,"eter":3036,"Ġparty":3037,"ĠAmerica":3038,"Ġmob":3039,"Ġsuff":3040,"Ġworked":3041,"Ġoriginal":3042,"Ġcenter":3043,"Ġlab":3044,"Al":3045,"Ġtrack":3046,"Ġfair":3047,"Ġreceived":3048,"Ġord":3049,"akes":3050,"Ġimage":3051,"ecause":3052,"Ġroad":3053,"Ġhot":3054,"ĠSoc":3055,"Ġbenefit":3056,"Ġeth":3057,"Ġinfluence":3058,"Ġcard":3059,"Ex":3060,"Ġbank":3061,"standing":3062,"ĠMin":3063,"ĠWar":3064,"ĠAust":3065,"ension":3066,"ĠSouth":3067,"Ġparents":3068,"Ġconnection":3069,"Ġassert":3070,"ĠQu":3071,"uments":3072,"Ġleaders":3073,"rought":3074,"Ġwrong":3075,"Ġfire":3076,"Ġbeautiful":3077,"Ġeffects":3078,"Ġdeliver":3079,"iddle":3080,"Ġpeace":3081,"leg":3082,"Ġult":3083,"ĠAcc":3084,"Ġsatisf":3085,"ĠChina":3086,"Ġdemonstr":3087,"Ġinside":3088,"ĠFl":3089,"Ġtit":3090,"word":3091,"Ġcat":3092,"Ġbelow":3093,"Ġanyone":3094,"right":3095,"Ġreve":3096,"On":3097,"Ġcompre":3098,"Ġpsych":3099,"asc":3100,"Ġcode":3101,"isc":3102,"Ġpatients":3103,"Ġplans":3104,"Ġattempt":3105,"resh":3106,"Ġscience":3107,"Ġmanage":3108,"Ġpret":3109,"Ġconsult":3110,"Ġinitial":3111,"Ġgoes":3112,"org":3113,"Ġincome":3114,"inks":3115,"Ġoil":3116,"body":3117,"ceed":3118,"iques":3119,"ĠDep":3120,"ades":3121,"Ġready":3122,"Ġrates":3123,"itch":3124,"ached":3125,"Ġhands":3126,"ederal":3127,"Ġblack":3128,"asks":3129,"idents":3130,"Ġrad":3131,"ĠJust":3132,"equ":3133,"Ġharm":3134,"Ġhimself":3135,"ĠCour":3136,"Ġgrowing":3137,"Ġfrequ":3138,"Ġstop":3139,"Ġtotal":3140,"Ġ16":3141,"Ġtruth":3142,"Ġbur":3143,"aint":3144,"Ġgames":3145,"Ġlink":3146,"ĠSec":3147,"ĠNow":3148,"Ġdate":3149,"Ġstates":3150,"Ġblog":3151,"airs":3152,"ĠBrit":3153,"Ġcontinu":3154,"ĠGoogle":3155,"rael":3156,"more":3157,"Ġleadership":3158,"Ġbehavior":3159,"])":3160,"Ġ11":3161,"iency":3162,"Ġscient":3163,"pective":3164,"Ġincreased":3165,"Ġwhite":3166,"Ġgiving":3167,"acc":3168,"Ġcondition":3169,"Ġsil":3170,"clusion":3171,"Ġdraw":3172,"Ġefficient":3173,"Ġsymb":3174,"Ġdaily":3175,"Ġexerc":3176,"Ġextreme":3177,"Ġdrive":3178,"Ġmethods":3179,"Ġdecl":3180,"Ġsepar":3181,"aves":3182,"Ġcommunities":3183,"Ġestate":3184,"Ġvaluable":3185,"ĠPer":3186,"Ġeffectively":3187,"ĠÂ":3188,"Ġevalu":3189,"ĠArt":3190,"Ġindepend":3191,"Ġinsights":3192,"Ġnavig":3193,"eah":3194,"Ġcell":3195,"Ġpen":3196,"Ġwritten":3197,"rs":3198,"Ġdifference":3199,"aly":3200,"Ġgreater":3201,"lier":3202,"Ġpict":3203,"size":3204,"cks":3205,"icro":3206,"Ġdise":3207,"antly":3208,"elling":3209,"Ġsaying":3210,"Ġsort":3211,"Ġblock":3212,"Ġmother":3213,"Ġsmo":3214,"Ġdat":3215,"phas":3216,"tr":3217,"Ġdamage":3218,"Ġrunning":3219,"ĠGerm":3220,"Ġeffort":3221,"ancing":3222,"Ġexpected":3223,"Ġ/":3224,"Pro":3225,"Ġidentify":3226,"Ġeyes":3227,"ĠStud":3228,"Ġsteps":3229,"Ġteac":3230,"Ġlimited":3231,"Ġfeeling":3232,"ĠPar":3233,"Ġweight":3234,"Ġlost":3235,"Ġli":3236,"Ġ)":3237,"oon":3238,"ĠCO":3239,"lict":3240,"Ġcross":3241,"roup":3242,"Ġaltern":3243,"ica":3244,"Ġlack":3245,"Ġ17":3246,"While":3247,"Ġthr":3248,"ĠHealth":3249,"Ġvict":3250,"Ġreading":3251,"ctions":3252,"Ġteams":3253,"Ġparts":3254,"Ġactions":3255,"istics":3256,"Ġloan":3257,"Ġpattern":3258,"Ġpropos":3259,"Ġinvestig":3260,"Ġobtain":3261,"Ġfra":3262,"Ġenter":3263,"ibly":3264,"Ġappropri":3265,"ample":3266,"Ġimag":3267,"Ġreasons":3268,"aling":3269,"Ġsym":3270,"Ġdeveloped":3271,"Ġacqu":3272,"Ġshared":3273,"Ġrelevant":3274,"bl":3275,"Ġdog":3276,"ung":3277,"Ġbooks":3278,"Ġreality":3279,"aur":3280,"By":3281,"ously":3282,"Ġstandard":3283,"Ġbalance":3284,"ana":3285,"imin":3286,"Ġpick":3287,"Ġacad":3288,"Ġsecure":3289,"Ġbrought":3290,"abilities":3291,"Ġcelebr":3292,"Ġadded":3293,"Ġstra":3294,"Ġcorrect":3295,"At":3296,"Ġslow":3297,"Ġpaper":3298,"ĠDon":3299,"Ġinteresting":3300,"Ġskin":3301,"Ġrefer":3302,"Ġlimit":3303,"ĠIndia":3304,"Ġexperienced":3305,"Ġprocesses":3306,"Ġinterview":3307,"Ġguide":3308,"Ġmeeting":3309,"Ġ14":3310,"astic":3311,"Ġutil":3312,"ĠWill":3313,"ĠSchool":3314,"Ġwoman":3315,"Ġ50":3316,"ynam":3317,"Ġtown":3318,"Ġoccur":3319,"AC":3320,"Ġgradu":3321,"Ġhealthcare":3322,"Ġmatch":3323,"ĠPresident":3324,"Ġallowing":3325,"ĠCity":3326,"eb":3327,"Ġmessage":3328,"amed":3329,"Ġnp":3330,"iment":3331,"Ġmilitary":3332,"Ġstage":3333,"Ġchallenge":3334,"Ġanc":3335,"Ġgives":3336,"chan":3337,"Ġliter":3338,"ĠMore":3339,"rapy":3340,"Ġitems":3341,"Ġcand":3342,"room":3343,"ĠIsrael":3344,"Ġ198":3345,"Ġserve":3346,"Ġetc":3347,"Ġlandsc":3348,"Ġpartner":3349,"AL":3350,"ey":3351,"Ġcentury":3352,"enses":3353,"Ġformer":3354,"Ġstream":3355,"ĠTheir":3356,"Ġcorpor":3357,"cil":3358,"Ġoperations":3359,"Ġforce":3360,"vest":3361,"ĠGe":3362,"Ġfully":3363,"Ġrisks":3364,"ĠCanad":3365,"Ġboard":3366,"Ġsche":3367,"gy":3368,"Con":3369,"Ġversion":3370,"Ġlate":3371,"Ġinstance":3372,"ĠMany":3373,"Ġtypically":3374,"Ġapprec":3375,"Ġregarding":3376,"lation":3377,"ength":3378,"Ġsho":3379,"Ġfirm":3380,"Ġspiritual":3381,"Ġconcerns":3382,"Ġprofessionals":3383,"ĠOf":3384,"Ġwrite":3385,"Ġlocation":3386,"Ġvirt":3387,"ĠNorth":3388,"Ġcommer":3389,"ĠUs":3390,"Ġprotection":3391,"ened":3392,"15":3393,"ought":3394,"ttps":3395,"ipment":3396,"Ġdru":3397,"Ġcomprehens":3398,"Ġgold":3399,"bor":3400,"itect":3401,"Ġten":3402,"########":3403,"used":3404,"overy":3405,"Ġcompletely":3406,"off":3407,"point":3408,"Ġbudget":3409,"Ġspeed":3410,"sp":3411,"ĠLet":3412,"Ġexpand":3413,"Ġmovement":3414,"Ġemp":3415,"Ġelements":3416,"lear":3417,"Ġintelligence":3418,"Ġscore":3419,"Ġadvice":3420,"Ġactivity":3421,"Ġsurpr":3422,"lam":3423,"Ġtalking":3424,"Ġhor":3425,"irth":3426,"Ġpatient":3427,"gment":3428,"Ġrob":3429,"Ġstri":3430,"Ġfather":3431,"Ġpressure":3432,"18":3433,"ari":3434,"Ġapplications":3435,"ception":3436,"earch":3437,"erences":3438,"Ġtruly":3439,"ĠTw":3440,"Ġpayment":3441,"ĠLaw":3442,"Ġ__":3443,"Ġhelping":3444,"ĠGener":3445,"uel":3446,"Ġgir":3447,"Ġimpl":3448,"Ġminutes":3449,"Ġplaces":3450,"ĠGl":3451,"Ġhuge":3452,"Ġcloud":3453,"Ġworkers":3454,"Ġremains":3455,"Ġemphas":3456,"lig":3457,"Ġaspects":3458,"Ġhealthy":3459,"Ġ25":3460,"Ġmyself":3461,"Ġrules":3462,"arc":3463,"Ġstructure":3464,"alls":3465,"Ġcouple":3466,"encies":3467,"Ġsave":3468,"change":3469,"anc":3470,"Ġchance":3471,"Ġconv":3472,"Ġcert":3473,"Ġreput":3474,"ED":3475,"useum":3476,"Ġpresence":3477,"ĠMc":3478,"Ġaccom":3479,"Ġtechniques":3480,"cking":3481,"Ġtrade":3482,"Ġexpertise":3483,"Ġbeginning":3484,"olute":3485,"Ġincluded":3486,"Ġcompon":3487,"Ġapply":3488,"ĠLord":3489,"year":3490,"ustr":3491,"vey":3492,"Ġadvance":3493,"Ġconflict":3494,"Ġknew":3495,"ests":3496,"dict":3497,"Ġenhancement":3498,"iding":3499,"Ġ13":3500,"ĠCenter":3501,"Ġvoice":3502,"ishing":3503,"ĠChe":3504,"iar":3505,"ĠTrust":3506,"Ġgummies":3507,"Ġfost":3508,"ĠPa":3509,"imately":3510,"Ġpros":3511,"Ġremind":3512,"eration":3513,"ĠWhether":3514,"Ġhear":3515,"oly":3516,"Ġbecomes":3517,"Ġsurround":3518,"Ġresponsible":3519,"Ġestablished":3520,"Ġpurchase":3521,"Ġiniti":3522,"ky":3523,"Ġsupply":3524,"rict":3525,"Ġpaid":3526,"Ġregion":3527,"ĠSm":3528,"arant":3529,"Ġcontain":3530,"Ġmark":3531,"Ġfamilies":3532,"cont":3533,"Ġheard":3534,"Ġeasier":3535,"estart":3536,"apan":3537,"Ġproced":3538,"ocr":3539,"Ġalone":3540,"ĠUK":3541,"Ġcbd":3542,"ĠCourt":3543,"Ġappl":3544,"Ġthous":3545,"Ġvision":3546,"Ġrich":3547,"unction":3548,"itude":3549,"16":3550,"Ġtrial":3551,"ker":3552,"Ġalign":3553,"Ġsymbol":3554,"Ġassets":3555,"Ġrecently":3556,"codestart":3557,"codeend":3558,"Ġcarry":3559,"Ġ24":3560,"Ġstandards":3561,"Ġstatus":3562,"ales":3563,"ĠEven":3564,"Ġcontinues":3565,"Ġdownload":3566,"oyal":3567,"inct":3568,"Ġfix":3569,"Ġsetting":3570,"Ġphone":3571,"ĠJew":3572,"Ġcam":3573,"reed":3574,"Ġopin":3575,"Ġ2020":3576,"itation":3577,"[\"":3578,"Ġpredict":3579,"Ġcivil":3580,"Ġtable":3581,"hent":3582,"ĠEd":3583,"Ġinterested":3584,"Is":3585,"Ġmoving":3586,"ĠBlack":3587,"Ġcurrently":3588,"Ġnation":3589,"Ġpiece":3590,"Ġadvert":3591,"cul":3592,"Ġreviews":3593,"Ġsleep":3594,"Ġmachine":3595,"Ġgave":3596,"ĠBar":3597,"Ġdead":3598,"Ġmag":3599,"ipl":3600,"lim":3601,"Ġhit":3602,"Ġstarting":3603,"Ġpretty":3604,"urt":3605,"ĠVal":3606,"ran":3607,"Ġsus":3608,"ese":3609,"Ġevol":3610,"Ġprevious":3611,"Ġwasn":3612,"Ġtouch":3613,"ĠMus":3614,"active":3615,"Ġtechnologies":3616,"Ġnote":3617,"Ġdark":3618,"Ġtrad":3619,"Ġnegative":3620,"Ġsold":3621,"Ġsong":3622,"Ġcertainly":3623,"Ġtasks":3624,"Ġ2024":3625,"Ġwonder":3626,"Ġexcellent":3627,"Ġdegree":3628,"Ġsignificantly":3629,"state":3630,"ĠCommun":3631,"Ġstudies":3632,"idge":3633,"venue":3634,"ĠAre":3635,"Ġphil":3636,"aks":3637,"Ġexisting":3638,"atever":3639,"Ġdang":3640,"ĠThen":3641,"aught":3642,"ham":3643,"iately":3644,"True":3645,"Ġweeks":3646,"Ġnumerous":3647,"Ġdiverse":3648,"Ġflex":3649,"ĠKing":3650,"Ġcircum":3651,"mp":3652,"being":3653,"Ġeconomy":3654,"Ã©":3655,"25":3656,"Ġactive":3657,"Ġvia":3658,"Ġuses":3659,"Ġexactly":3660,"Ġseek":3661,"ĠChristian":3662,"Ġsection":3663,"Ġpassion":3664,"Ġchann":3665,"RE":3666,"Ġcharg":3667,"Ġcomprehensive":3668,"Ġseeking":3669,"ashion":3670,"Ġinterests":3671,"vere":3672,"Ġhappy":3673,"Ġtherefore":3674,"Ġaverage":3675,"Ad":3676,"oke":3677,"Ġdynam":3678,"Ġallowed":3679,"Ġchurch":3680,"iveness":3681,"Ġchat":3682,"ĠFirst":3683,"Ġafford":3684,"Ġ197":3685,"Ġattack":3686,"Ġgenerally":3687,".)":3688,"ĠWell":3689,"race":3690,"ography":3691,"icip":3692,"Ġresil":3693,"order":3694,"mat":3695,"col":3696,"Ġtend":3697,"Ġkids":3698,"itiz":3699,"Ġhistorical":3700,"Ġadjust":3701,"Ġpolicies":3702,"Ġsurv":3703,"Ġfinding":3704,"Ġmix":3705,"Ġschools":3706,"Ġbasic":3707,"Ġcommercial":3708,"Ġprem":3709,"omen":3710,"Ġdeveloping":3711,"Ġbox":3712,"pper":3713,"num":3714,"ĠBusiness":3715,"ares":3716,"init":3717,"Ġmaybe":3718,"iples":3719,"Ġequipment":3720,"Ġtransport":3721,"ira":3722,"ĠEnglish":3723,"Ġfigure":3724,"umn":3725,"ST":3726,"Ġ@":3727,"Ġprimary":3728,"vis":3729,"ĠAustral":3730,"Ġhol":3731,"Ġbasis":3732,"Ġbackground":3733,"nown":3734,"Ġlaws":3735,"ĠJapan":3736,"Ġang":3737,"Ġadvantage":3738,"undred":3739,"Ġserious":3740,"Ġraise":3741,"ocks":3742,"Ġspend":3743,"Ġmechan":3744,"Ġtrain":3745,"Ġpublished":3746,"acity":3747,"Ġneigh":3748,"Ġappeal":3749,"Ġappropriate":3750,"ructure":3751,"Ġcounter":3752,"mon":3753,"ĠHist":3754,"Ġhelped":3755,"ĠCount":3756,"Ġwhose":3757,"Ġadvanced":3758,"Ġden":3759,"down":3760,"Ġcopy":3761,"Ġfell":3762,"Ġhous":3763,"hern":3764,"ĠDav":3765,"Ġchanged":3766,"Ġforms":3767,"odes":3768,"AI":3769,"Ġparties":3770,"ashing":3771,"Ġdetermine":3772,"Ġ...":3773,"Ġidentity":3774,"Ġcore":3775,"itely":3776,"ĠHar":3777,"Ġinnovation":3778,"eper":3779,"Ġengage":3780,"Ġdri":3781,"ĠJan":3782,"Ġbecoming":3783,"field":3784,"Ġhair":3785,"Ġimmediately":3786,"enty":3787,"Ġsn":3788,"Ġturned":3789,"Ġbound":3790,"Ġ<":3791,"ĠAut":3792,"met":3793,"Ġbrain":3794,"Ġtim":3795,"ĠEuropean":3796,"Ġsav":3797,"Ġbelief":3798,"Ġrap":3799,"Ġsun":3800,"Ġplaying":3801,"ĠHouse":3802,"ipping":3803,"Ġcreative":3804,"ris":3805,"orch":3806,"Ġlearned":3807,"Ġpan":3808,"14":3809,"Ġprices":3810,"mission":3811,"Ġlabor":3812,"Ġplant":3813,"osure":3814,"ificial":3815,"ternal":3816,"Ġhandle":3817,"Ġfunds":3818,"Ġfulf":3819,"AM":3820,"Ġengagement":3821,"Ġcateg":3822,"That":3823,"ses":3824,"Ġmaster":3825,"ype":3826,"ok":3827,"icing":3828,"Ġinput":3829,"fess":3830,"Ġinvolves":3831,"Ġsites":3832,"Ġlatest":3833,"ĠEar":3834,"HE":3835,"Ġmist":3836,"Ġobserv":3837,"ĠčĊ":3838,"ĠEvery":3839,"Ġcomputer":3840,"Ġplayed":3841,"Ġanx":3842,"orrow":3843,"Ġ%":3844,"ĠRec":3845,"itute":3846,"Ġarchitect":3847,"Ġgam":3848,"Ġperhaps":3849,"Ġsector":3850,"Ġinformed":3851,"Ġhosp":3852,"Ġtail":3853,"inf":3854,"tings":3855,"Ġsources":3856,"Ġeye":3857,"Ġspread":3858,"tee":3859,"gor":3860,"These":3861,"'.":3862,"Ġcrypt":3863,"Ġtask":3864,"Ġlooked":3865,"ĠPre":3866,"ĠAdditionally":3867,"Ġfocused":3868,"Ġgets":3869,"ĠCoun":3870,"Ġcircumst":3871,"Ġ40":3872,"Ġvalid":3873,"istry":3874,"Ġmotiv":3875,"ĠHigh":3876,"Ġbed":3877,"ĠSte":3878,"Ġcash":3879,"ĠBecause":3880,"going":3881,"ĠDis":3882,"Our":3883,"ĠEl":3884,"Ġcandid":3885,"raw":3886,"\"]":3887,"chol":3888,"eria":3889,"Ġtele":3890,"oul":3891,"Ġfeedback":3892,"Ġpref":3893,"Ġdepend":3894,"ban":3895,"Ġoffered":3896,"Ġmobile":3897,"duc":3898,"60":3899,"Ġamaz":3900,"Ġdecided":3901,"Ġcollection":3902,"Ġdiscover":3903,"Ġclimate":3904,"ancy":3905,"17":3906,"Ġexperts":3907,"Com":3908,"Ġ2023":3909,"uries":3910,"Ġtoward":3911,"Ġfem":3912,"Ġinternet":3913,"Ġapart":3914,"rote":3915,"Ġmaxim":3916,"uary":3917,"Ġtur":3918,"Ġhundred":3919,"idential":3920,"Ġcontinued":3921,"Ġlarger":3922,"ĠSim":3923,"itness":3924,"Ġorigin":3925,"ĠMost":3926,"Ġlandscape":3927,"Ġahead":3928,"Ġlooks":3929,"Ġleader":3930,"Ġcompared":3931,"Ġfreed":3932,"Ġsmart":3933,"Ġuseful":3934,"Ġdoub":3935,"Ġguarant":3936,"wide":3937,"Ġactual":3938,"yth":3939,"Ġwilling":3940,"Ġbattle":3941,"tenance":3942,"âĢ":3943,"Ġdevices":3944,"Ġpet":3945,"requ":3946,"hest":3947,"Ġclaims":3948,"Ġhappened":3949,"Ġfresh":3950,"ĠRed":3951,"ĠAc":3952,"Ġpopulation":3953,"Ġproduce":3954,"friend":3955,"Ġshape":3956,"Ġsports":3957,"ĠMarket":3958,"Ġconstruction":3959,"ĠNet":3960,"Er":3961,"Ġos":3962,"rief":3963,"ech":3964,"miss":3965,"Ġvisual":3966,"Ġrise":3967,"Ġobv":3968,"Ġearn":3969,"porary":3970,"iny":3971,"13":3972,"dir":3973,"ino":3974,"Ġvital":3975,"Ġhighlight":3976,"Ġspot":3977,"Ġwalk":3978,"iant":3979,"mar":3980,"Ġcentral":3981,"aj":3982,"gorith":3983,"Ġconfidence":3984,"ague":3985,"efore":3986,"Ġprefer":3987,"Ġnotice":3988,"Ġconsequ":3989,"Ġmentioned":3990,"atively":3991,"ressive":3992,"Ġpoor":3993,"Ġtrading":3994,"Ġge":3995,"oday":3996,"ivery":3997,"Ġdedicated":3998,"ĠSw":3999,"Ġtransfer":4000,"Ġincred":4001,"quality":4002,"Ġ2021":4003,"Ġinfluen":4004,"Ġauthent":4005,"Ġvehicle":4006,"Ġesc":4007,"inst":4008,"config":4009,"----------------":4010,"Ġguidance":4011,"gra":4012,"Ġresponsibility":4013,"Ġtechnical":4014,"ĠPol":4015,"Ġload":4016,"Ġleads":4017,"Ġefficiency":4018,"ĠOver":4019,"Ġchallenging":4020,"Ġmeasures":4021,"oe":4022,"Ġsqu":4023,"ute":4024,"Ġmission":4025,"ĠOff":4026,"Ġscreen":4027,"After":4028,"Ġsend":4029,"orage":4030,"rest":4031,"Ġwants":4032,"Ġign":4033,"pass":4034,"ĠDirect":4035,"ront":4036,"Ġperspective":4037,"isation":4038,"board":4039,"ama":4040,"Ġideal":4041,"Ġdoor":4042,"Ġdevice":4043,"Ġbillion":4044,"Ġbreat":4045,"Ġadult":4046,"Ġacademic":4047,"Ġspent":4048,"Ġcharge":4049,"net":4050,"Ġmarkets":4051,"Ġearth":4052,"ĠMon":4053,"arter":4054,"oin":4055,"EC":4056,"Ġnormal":4057,"Ġanti":4058,"Ġing":4059,"Ġmid":4060,"Ġcompetitive":4061,"Ġoutput":4062,"rim":4063,"Ġabsolute":4064,"Ġtesting":4065,"aker":4066,"rant":4067,"Ġ2022":4068,"Ġreliable":4069,"ibilities":4070,"Ġwood":4071,"Ġimages":4072,"Ġreported":4073,"Ġplayer":4074,"Ġstrategic":4075,"Ġnumbers":4076,"Ġprop":4077,"Ġenvironmental":4078,"Ġclin":4079,"Ġsympt":4080,"irection":4081,"Ġplease":4082,"Ġ,":4083,"Ġnarr":4084,"Ġwrote":4085,"print":4086,"Ġexplain":4087,"ĠTrump":4088,"Ġswe":4089,"Ġteaching":4090,"ĠChurch":4091,"Ġlib":4092,"Ġchanging":4093,"Ġwel":4094,"inese":4095,"ĠGovern":4096,"ĠInc":4097,"Ġdriving":4098,"iences":4099,"Ġsolid":4100,"Ġcollege":4101,"Ġvot":4102,"ruit":4103,"Ġregist":4104,"date":4105,"fficient":4106,"Ġclearly":4107,"vision":4108,"rastructure":4109,"Ġearlier":4110,"Ġtraffic":4111,"Ġwealth":4112,"ĠUnder":4113,"Ġtrends":4114,"24":4115,"itors":4116,"AP":4117,".'":4118,"Ġmount":4119,"ĉĉ":4120,"Ġancient":4121,"Ġfans":4122,"Ġpand":4123,"Ġshap":4124,"Ġdisease":4125,"Ġscale":4126,"pen":4127,"Ġchem":4128,"Ġir":4129,"Ġalthough":4130,"Ġthoughts":4131,"Ġstock":4132,"Ġsexual":4133,"Ġfarm":4134,"Ġforeign":4135,"Ġboost":4136,"Ġconsumers":4137,"Ġstraight":4138,"plit":4139,"Ġincorpor":4140,"Ġroof":4141,"Ġrapid":4142,"Ġinstitutions":4143,"zz":4144,"Ġscript":4145,"Ġmeasure":4146,"Ġstuff":4147,"works":4148,"Ġlawy":4149,"Ġpromote":4150,"ffect":4151,"rench":4152,"ĠBritish":4153,"Ġbond":4154,"ĠOct":4155,"verse":4156,"ĠPark":4157,"Ġtalent":4158,"Ġfashion":4159,"Ġson":4160,"Ġinvestors":4161,"emy":4162,"Ġbus":4163,"Ġcris":4164,"aby":4165,"Ġloved":4166,"Ġcoverage":4167,"However":4168,"Ġconversation":4169,"ocal":4170,"Cl":4171,"Ġcitiz":4172,"Ġcircumstances":4173,"Ġemployee":4174,"Ġjobs":4175,"Ġconsid":4176,"Ġpartnership":4177,"known":4178,"Error":4179,"Ġlines":4180,"Ġbeauty":4181,"Ġfinally":4182,"Ġaren":4183,"mitted":4184,"Ġstatement":4185,"Ġrelease":4186,"comm":4187,"Ġthus":4188,"ait":4189,"Ġseeing":4190,"resp":4191,"Ġmer":4192,"Ġdebt":4193,"Ġpolice":4194,"idden":4195,"Ġgreen":4196,"Ġnut":4197,"ĠTrans":4198,"Ġ--":4199,"Ġfederal":4200,"ĠPeople":4201,"anging":4202,"They":4203,"Ġcool":4204,"ĠWhy":4205,"Ġmaintaining":4206,"Ġclos":4207,"Ġhar":4208,"Ġsen":4209,"Ġment":4210,"Ġourselves":4211,"ĠBro":4212,"ondon":4213,"ĠTechn":4214,"Ġbirth":4215,"Ġwhatever":4216,"ĠIndian":4217,"aled":4218,"ĠData":4219,"Ġtransp":4220,"ronic":4221,"ners":4222,"Ġreports":4223,"Ġrule":4224,"odcast":4225,"Ġbrands":4226,"Ġextremely":4227,"Ġreligious":4228,"Un":4229,"value":4230,"anking":4231,"ĠDem":4232,"ald":4233,"Ġregulations":4234,"ET":4235,"iforn":4236,"Ġgeneration":4237,"flow":4238,"anch":4239,"Ġwife":4240,"Ġdefinitely":4241,"ĠMarch":4242,"Ġdeeper":4243,"ĠFace":4244,"icial":4245,"iam":4246,"Ġencourage":4247,"Ġround":4248,"All":4249,"ios":4250,"ups":4251,"ĠIT":4252,"Ġalgorith":4253,"....":4254,"RO":4255,"model":4256,"Ġappoint":4257,"Ġsharing":4258,"Ġdoll":4259,"Ġkeeping":4260,"Ġcapacity":4261,"Ġresist":4262,"gest":4263,"Ġconsc":4264,"ero":4265,"oat":4266,"ĠPal":4267,"ption":4268,"iday":4269,"Ġattor":4270,"comes":4271,"Ġconven":4272,"arian":4273,"Ġpractical":4274,"Ġtemper":4275,"].":4276,"ĠSee":4277,"pes":4278,"40":4279,"Ġlocated":4280,"ĠAug":4281,"ĠTrue":4282,"eline":4283,"dr":4284,"band":4285,"gen":4286,"Ġexercise":4287,"Ġcontribute":4288,"ĠAssoci":4289,"ĠOther":4290,"Ġrestr":4291,"ĠAng":4292,"Ġinvolve":4293,"Ġcharacters":4294,"Ġpartners":4295,"Ġcreation":4296,"Ġdesire":4297,"Ġrecords":4298,"Ġemotions":4299,"ifornia":4300,"Ġnames":4301,"Res":4302,"ĠChinese":4303,"Ġtitle":4304,"oration":4305,"apter":4306,"Ġdisplay":4307,"Ġhappens":4308,"Ġdefault":4309,"ĠChar":4310,"see":4311,"Ġassistance":4312,"None":4313,"clusive":4314,"Ġcraft":4315,"Ġdelivery":4316,"prene":4317,"rics":4318,"Ġindic":4319,"ION":4320,"oving":4321,"ĠRem":4322,"ara":4323,"My":4324,"Ġfreedom":4325,"Ġagreement":4326,"Ġassign":4327,"Ġborn":4328,"Ġpray":4329,"Ġdefend":4330,"lease":4331,"VID":4332,"pril":4333,"Ġtried":4334,"Ġexhib":4335,"Ġnearly":4336,"aughter":4337,"Sh":4338,"Ġgrand":4339,"Ġmaintenance":4340,"Ġcaused":4341,"reprene":4342,"Ġcompliance":4343,"uration":4344,"Ġrepe":4345,"Ġfeelings":4346,"PT":4347,"Ġresilience":4348,"Ġfine":4349,"Ġchoices":4350,"Ġeducational":4351,"Ġdut":4352,"Ġhop":4353,"riage":4354,"ship":4355,"Ġgrant":4356,"Ġviews":4357,"Ġcomfortable":4358,"formation":4359,"ĠDevelop":4360,"era":4361,"Ġ2019":4362,"Ġwarm":4363,"raft":4364,"ipped":4365,"Ġdiet":4366,"Ġconfig":4367,"ĠProg":4368,"ĠDepartment":4369,"men":4370,"uman":4371,"azon":4372,"Ġaffil":4373,"Ġjournal":4374,"Ġrecognize":4375,"32":4376,"Ġinfrastructure":4377,"Ġsymptoms":4378,"Ġshown":4379,"len":4380,"Ġmill":4381,"kay":4382,"Ġwish":4383,"Ġadvoc":4384,"oman":4385,"bon":4386,"lege":4387,"Ġengaging":4388,"Ġtips":4389,"Ġdepending":4390,"ĠĠĠĠĠĠĠĠĠĠĠĠĠĠĠĠĠĠĠĠĠĠĠĠĠĠĠĠĠĠĠĠ":4391,"Ġcommitted":4392,"ube":4393,"bed":4394,"Ġweak":4395,"Ġcast":4396,"ĠSept":4397,"Ġreplace":4398,"Ġhonest":4399,"CO":4400,"ĠNe":4401,"Ġwild":4402,"ĠKe":4403,"ĠBr":4404,"with":4405,"ulate":4406,"Ġroll":4407,"Ġfees":4408,"Ġpassed":4409,"Ġmorning":4410,"icks":4411,"Do":4412,"ĠInternational":4413,"lin":4414,"Ġconsumer":4415,"unk":4416,"ĠCor":4417,"Ġtech":4418,"Ġaccounts":4419,"Ġserved":4420,"ĠAlthough":4421,"ille":4422,"Ġamazing":4423,"iced":4424,"ache":4425,"Ġtrou":4426,"Ġlisten":4427,"Ġdirection":4428,"Ar":4429,"pret":4430,"Ġsituations":4431,"box":4432,"Ġ}":4433,"Ġmajority":4434,"Ġtherapy":4435,"Ġcompetition":4436,"house":4437,"Ġphilos":4438,"usion":4439,"Ġexamples":4440,"osition":4441,"Ġmiddle":4442,"Ġball":4443,"ĠLondon":4444,"Ġowners":4445,"22":4446,"ĠMod":4447,"tra":4448,"Ġauthority":4449,"Ġwait":4450,"Ġrace":4451,"ĠPaul":4452,"Ġcouldn":4453,"Ġexpectations":4454,"etic":4455,"Ġoccas":4456,"ser":4457,"Ġinstruct":4458,"Ġloans":4459,"ĠLin":4460,"Ġcourses":4461,"Another":4462,"Ġcommand":4463,"Ġec":4464,"cknow":4465,"Why":4466,"Ġnovel":4467,"ĠJune":4468,"bur":4469,"Ġsecret":4470,"ĠPhil":4471,"rency":4472,"ĠEach":4473,"Ġfollowed":4474,"ifications":4475,"Ġcyber":4476,"ĠCalifornia":4477,"coming":4478,"Ġroles":4479,"Ġensures":4480,"odies":4481,"ĠLike":4482,"Ġproviders":4483,"Ġreb":4484,"ĠSocial":4485,"Ġrevolution":4486,"Ġfoundation":4487,"ovember":4488,"pected":4489,"Ġentertain":4490,"Ġadvis":4491,"Ġbott":4492,"ĠMich":4493,"Ġvary":4494,"Now":4495,"fe":4496,"ĠCompany":4497,"__(":4498,"Ġdocuments":4499,"Ġexchange":4500,"OT":4501,"200":4502,"Ġcrisis":4503,"No":4504,"Ġshowc":4505,"Ġfamous":4506,"lines":4507,"Ġprepared":4508,"Ġreputation":4509,"Ġalternative":4510,"Ġartists":4511,"Ġpills":4512,"ĠEduc":4513,"ĠGet":4514,"ĠFound":4515,"eters":4516,"inated":4517,"Ġrent":4518,"rely":4519,"Ġoblig":4520,"reate":4521,"Ġgas":4522,"iter":4523,"dule":4524,"Ġtast":4525,"ĠServices":4526,"Ġcalls":4527,"Ġbehavi":4528,"Ġdro":4529,"icine":4530,"ulner":4531,"Ġinnovative":4532,"Ġinternal":4533,"Ġnavigate":4534,"Ġwitness":4535,"ĠThrough":4536,"Ġmoved":4537,"des":4538,"ĠBen":4539,"Ġpatterns":4540,"Ġking":4541,"Ġinstru":4542,"Ġextensive":4543,"Ġprivacy":4544,"ĠSen":4545,"Ġmeant":4546,"Ġpow":4547,"ĠPat":4548,"Ġfat":4549,"Ġhighest":4550,"param":4551,"Ġproperties":4552,"ny":4553,"spe":4554,"Ġawareness":4555,"Ġsurface":4556,"ĠProfess":4557,"ĠCanada":4558,"Ġprinciples":4559,"Ġbrother":4560,"Ġcomment":4561,"Ġultimately":4562,"Ġfavorite":4563,"Ġforces":4564,"iers":4565,"Ġfunding":4566,"uilding":4567,"Ġlegis":4568,"Ġindependent":4569,"ĠDay":4570,"Ġboy":4571,"Ġteach":4572,"ĠFacebook":4573,"Ġconnected":4574,"Ġframew":4575,"Ġretail":4576,"asure":4577,"ek":4578,"Ġotherwise":4579,"pan":4580,"elines":4581,"ĠSan":4582,"Ġanxiety":4583,"Ġwat":4584,"making":4585,"Ġpresident":4586,"ĠAny":4587,"Ġ2018":4588,"Ġlargest":4589,"Ġspecifically":4590,"icon":4591,"Ġmanaging":4592,"Ġdoctor":4593,"Ġwis":4594,"ĠOnce":4595,"enture":4596,"Ġlength":4597,"Ġpriorit":4598,"Ġsac":4599,"ĠIns":4600,"EL":4601,"Ġwhom":4602,"Here":4603,"hetic":4604,"Im":4605,"eds":4606,"append":4607,"Ġsigns":4608,"Ġcancer":4609,"Ġpicture":4610,"Ġincreasingly":4611,"Ġsustainable":4612,"Ġselling":4613,"Ġsummer":4614,"Ġdecades":4615,"Ġbra":4616,"Ġrevenue":4617,"Ġrecognized":4618,"Ġ>":4619,"Ġsty":4620,"ING":4621,"zy":4622,"Ġkn":4623,"ĠApril":4624,"========":4625,"aren":4626,"Ġepis":4627,"Ġcollaboration":4628,"ĠOctober":4629,"Ġprepar":4630,"fit":4631,"ĠRel":4632,"Ġquant":4633,"orough":4634,"ĠEast":4635,"Ġhomes":4636,"ĠGreat":4637,"cember":4638,"ĠCollege":4639,"Ġserves":4640,"Ġdefense":4641,"ĠJanuary":4642,"Ġrestrict":4643,"Ġshift":4644,"tics":4645,"Ġnamed":4646,"cles":4647,"Ġdiagn":4648,"Ġoutcomes":4649,"ĠLear":4650,"agers":4651,"hus":4652,"Ġtheory":4653,"Ġacknow":4654,"Ġthousands":4655,"ĠGroup":4656,"poses":4657,"ĠII":4658,"format":4659,"Ġfeet":4660,"Ġelectric":4661,"Ġcontem":4662,"Ġprocessing":4663,"level":4664,"Ġjustice":4665,"uk":4666,"wood":4667,"Ġplays":4668,"Ġmort":4669,"oom":4670,"OU":4671,"Ġdespite":4672,"Ġjoy":4673,"ĠFrench":4674,"unately":4675,"Ġpandemic":4676,"Ġgoods":4677,"Ġfort":4678,"ĠAugust":4679,"ĠResearch":4680,"Ġfactor":4681,"ersonal":4682,"\"\"\"":4683,"():":4684,"Ġadministration":4685,"urd":4686,"que":4687,"inter":4688,"Ġconsidering":4689,"Ġunivers":4690,"uses":4691,"Ġresource":4692,"Ġkept":4693,"Ġbiggest":4694,"Ġknows":4695,"ĠLicense":4696,"ĠAlso":4697,"ĠRet":4698,"ĠJuly":4699,"atically":4700,"Ġhour":4701,"Ġjoin":4702,"dden":4703,"Ġagency":4704,"Ġprovider":4705,"Ġschol":4706,"Ġcleaning":4707,"Ġongoing":4708,"Ġgather":4709,"ocol":4710,"ffee":4711,"Ġvulner":4712,"Ġtrip":4713,"ĠRepublic":4714,"olf":4715,"ensor":4716,"Ġknowing":4717,"ĠSince":4718,"Ġraised":4719,"ĠIts":4720,"ford":4721,"!\"":4722,"Ġrepair":4723,"Ġhelpful":4724,"etime":4725,"Ġprompt":4726,"99":4727,"ĠAir":4728,"AD":4729,"Ġbuying":4730,"Ġproduced":4731,"Ġcorporate":4732,"tery":4733,"Be":4734,"ashington":4735,"Ġbrings":4736,"Ġpayments":4737,"essions":4738,"othing":4739,"ĠStr":4740,"Ġconclusion":4741,"Ġdisapp":4742,"Ġvictim":4743,"Qu":4744,"rig":4745,"Ġscene":4746,"Ġsubstant":4747,"ĠLife":4748,"Ġsubsc":4749,"Some":4750,"related":4751,"Ġnice":4752,"Ġ21":4753,"ĠNovember":4754,"udd":4755,"ibrary":4756,"Ġeat":4757,"Ġfamiliar":4758,"Ġmemory":4759,"Ġvill":4760,"Ġstorage":4761,"ĠDavid":4762,"Ġcold":4763,"Ġopinion":4764,"Ġclub":4765,"Ġmatters":4766,"ĠSeptember":4767,"Ġleaving":4768,"Ġtopic":4769,"Ġaccompl":4770,"free":4771,"Ġsudden":4772,"Ġloyal":4773,"Ġauthentic":4774,"Ġfol":4775,"Ġdirector":4776,"Ġrestaur":4777,"ĠLeg":4778,"Ġdecide":4779,"ĠHol":4780,"iling":4781,"Ġdistinct":4782,"ĠGeneral":4783,"orge":4784,"Ġvideos":4785,"Ġmut":4786,"Ġgone":4787,"Ġdiscussion":4788,"ĠCounty":4789,"Ġproceed":4790,"Ġdescribed":4791,"Ġmanufacture":4792,"Ġwebsites":4793,"Ġattribut":4794,"Ġpurposes":4795,"ĠCouncil":4796,"ĠAmazon":4797,"ael":4798,"Ġowner":4799,"Ġunf":4800,"ounced":4801,"ĠBoard":4802,"Ġfeels":4803,"Ġeventually":4804,"Ġrecovery":4805,"Ġaccident":4806,"ĠHistory":4807,"mark":4808,"assert":4809,"Ġcauses":4810,"no":4811,"Ġkit":4812,"Ġentreprene":4813,"Ġdetailed":4814,"Ġcounsel":4815,"alt":4816,"gr":4817,"ĠService":4818,"ĠSEO":4819,"eared":4820,"Ġslight":4821,"hol":4822,"Ġfan":4823,"Ġflu":4824,"Ġremote":4825,"Ġhus":4826,"Ġgraph":4827,"Ġelement":4828,"Ġsmaller":4829,"urthermore":4830,"fol":4831,"Ġbelong":4832,"Ġroot":4833,"eries":4834,"ĠOut":4835,"ulated":4836,"Ġsmooth":4837,"Ġasking":4838,"Ġunc":4839,"Ġcovered":4840,"ĠAfrica":4841,"Ġpodcast":4842,"ĠCong":4843,"function":4844,"Ġpieces":4845,"Ġletter":4846,"Ġvirtual":4847,"Ġvolunt":4848,"Ġmovie":4849,"iration":4850,"Ġskill":4851,"Ġtransition":4852,"Ġscientific":4853,"Ġlegacy":4854,"Ġspending":4855,"Ġeight":4856,"Ġpages":4857,"ĠAP":4858,"Ġpotentially":4859,"husi":4860,"acing":4861,"lay":4862,"Ġgard":4863,"Ġattend":4864,"Ġinjury":4865,"Ġolder":4866,"life":4867,"Ġlose":4868,"Ġwall":4869,"ĠCB":4870,"Ġconnections":4871,"ressed":4872,"Ġsupporting":4873,"Ġreleased":4874,"LE":4875,"Ġsets":4876,"Ġartificial":4877,"Ġdram":4878,"aset":4879,"ĠWork":4880,"Ġseven":4881,"ester":4882,"Ġrealize":4883,"ttp":4884,"Ġproperly":4885,"Ġenthusi":4886,"Ġoutd":4887,"lab":4888,"Ġ`":4889,"SE":4890,"Ġ60":4891,"Ġfasc":4892,"Ġid":4893,"Ġnegot":4894,"Ġhttps":4895,"Ġrelax":4896,"Ġoverw":4897,"Ġcombination":4898,"Ġmanner":4899,"Ġcapabilities":4900,"ĠTV":4901,"ionally":4902,"ĠPlan":4903,"ĠDef":4904,"Ġassum":4905,"och":4906,"ĠDecember":4907,"ĠWashington":4908,"Ġaccurate":4909,"23":4910,"roy":4911,"Ġcompar":4912,"ĠCOVID":4913,"ĠAfrican":4914,"Ġweather":4915,"www":4916,"oper":4917,"Ġrock":4918,"Ġagg":4919,"estic":4920,"Ġworry":4921,"Ġsimpl":4922,"Ġannual":4923,"ĠTest":4924,"df":4925,"Ġfunctions":4926,"ĠAccording":4927,"Ġtree":4928,"Ġdrug":4929,"itoring":4930,"Ġoperating":4931,"Ġcitizens":4932,"Ġmoments":4933,"</":4934,"Ġclasses":4935,"Ġdating":4936,"hand":4937,"Ġcompleted":4938,"Ġviolence":4939,"Ġpursu":4940,"Ġaward":4941,"Ġgenerate":4942,"Ġdry":4943,"âĢ¢":4944,"Ġimproved":4945,"uine":4946,"ĠDuring":4947,"Ġremove":4948,"ĠAN":4949,"Ġfacilit":4950,"Ġvast":4951,"ĠRussia":4952,"Ġsatisfaction":4953,"Ġamb":4954,"estion":4955,"osis":4956,"Ġheat":4957,"Ġconstruct":4958,"Ġcarefully":4959,"asts":4960,"Ġcompens":4961,"izer":4962,"Ġreducing":4963,"ervation":4964,"Ġadvertising":4965,"dat":4966,"Ġindustries":4967,"Ġnor":4968,"Ġadopt":4969,"Ġ2017":4970,"Ġconsistent":4971,"ĠMor":4972,"irms":4973,"Ġsem":4974,"rab":4975,"Ġimproving":4976,"ĠLa":4977,"inating":4978,"ĠAtt":4979,"info":4980,"Ġfrequently":4981,"ĠOb":4982,"Ġparam":4983,"onom":4984,"Ġ196":4985,"Ġvisitors":4986,"Ġfailure":4987,"Ġresearc":4988,"Ġpresented":4989,"antic":4990,"oses":4991,"Ġ2016":4992,"Ġseparate":4993,"ipe":4994,"coin":4995,"ss":4996,"ref":4997,"amental":4998,"Ġheavy":4999,"Ġsale":5000,"pet":5001,"Ġinvent":5002,"Ġthorough":5003,"ĠUp":5004,"Ġcomponents":5005,"ĠExper":5006,"Ġstands":5007,"icians":5008,"osen":5009,"Ġtorch":5010,"Ġenab":5011,"Ġintegrity":5012,"Ġunit":5013,"Ġmanaged":5014,"Ġvacc":5015,"gar":5016,"Ġgirl":5017,"ĠCommission":5018,"ĠYeah":5019,"Ġchain":5020,"Ġfields":5021,"ĠInstead":5022,"Ġcontroll":5023,"ĠBank":5024,"Ġteachers":5025,"Ġapps":5026,"iled":5027,"Ġdict":5028,"ĠInstitute":5029,"omb":5030,"merce":5031,"Ġcalcul":5032,"ml":5033,"Ġerror":5034,"uclear":5035,"Ġingred":5036,"ĠYes":5037,"Ġmanager":5038,"ossible":5039,"urally":5040,"Ġelection":5041,"Ġstruggle":5042,"ĠTherefore":5043,"ij":5044,"Ġweap":5045,"Ġexciting":5046,"Ġder":5047,"Ġap":5048,"Ġhumans":5049,"urrent":5050,"ĠFeb":5051,"Ġbill":5052,"Ġcities":5053,"Ġexpensive":5054,"Ġsettle":5055,"Ġadding":5056,"ĠSystem":5057,"tered":5058,"run":5059,"Ġwear":5060,"Ġseemed":5061,"Ġaccessible":5062,"ĠInter":5063,"Ġitem":5064,"Ġlaunch":5065,"Ġresol":5066,"Ġphilosoph":5067,"Ġlad":5068,"MS":5069,"Ġblue":5070,"ulum":5071,"acking":5072,"ounds":5073,"Ġcards":5074,"Ġconstantly":5075,"ĠDist":5076,"Ġtrig":5077,"ĠManagement":5078,"itage":5079,"Ġended":5080,"holders":5081,"Ġfuel":5082,"Ġfaster":5083,"ida":5084,"ĠGood":5085,"100":5086,"ius":5087,"Ġsession":5088,"ĠSpe":5089,"Ġreact":5090,"ht":5091,"ĠUnion":5092,"Ġband":5093,"Re":5094,"ĠUk":5095,"lock":5096,"Ġspeaking":5097,"chain":5098,"Ġmarriage":5099,"mes":5100,"ocation":5101,"Ġshowing":5102,"ĠConst":5103,"otal":5104,"Ġ->":5105,"Ġgenuine":5106,"ded":5107,"max":5108,"cons":5109,"Ġarticles":5110,"ĠUse":5111,"arser":5112,"ĠĠĠĠĠĠĠĠĠĠĠĠĠĠĠĠĠĠĠĠĠĠĠ":5113,"ores":5114,"Ġgod":5115,"Ġdial":5116,"ĠBel":5117,"Ġclar":5118,"Ġapplied":5119,"Ġreaction":5120,"Ġinterpret":5121,"Ġrat":5122,"80":5123,"Ġoccup":5124,"Ġcook":5125,"Ġreaders":5126,"Ġminor":5127,"Ġconsequences":5128,"nel":5129,"hab":5130,"ĠFalse":5131,"Ġanimals":5132,"itter":5133,"Ġchoosing":5134,"ĠCare":5135,"ĠGold":5136,"ĠPort":5137,"Ġrecognition":5138,"Ġrein":5139,"Ġresidents":5140,"Ġartist":5141,"IP":5142,"Ġlen":5143,"False":5144,"Ġcrow":5145,"friendly":5146,"bot":5147,"icit":5148,"Ġmulti":5149,"Ġaid":5150,"Ġregularly":5151,"vention":5152,"Ġwaste":5153,"ĠAmericans":5154,"Ġestim":5155,"Ġsubstantial":5156,"Ġconcent":5157,"input":5158,"Ġremark":5159,"Ġpus":5160,"Ġlic":5161,"ĠSat":5162,"icious":5163,"Ġenable":5164,"rate":5165,"Ġdeeply":5166,"rors":5167,"Ġdoubt":5168,"iated":5169,"pa":5170,"ails":5171,"Ġhusband":5172,"Ġuniversity":5173,"Ġbrief":5174,"ĠAustralia":5175,"Ġera":5176,"Ġpreviously":5177,"ĠCommit":5178,"Ġdetect":5179,"ĠRead":5180,"21":5181,"rial":5182,"hips":5183,"Ġplaced":5184,"ĠLinux":5185,"Over":5186,"alk":5187,"Ġcoffee":5188,"Ġforget":5189,"Ġgar":5190,"ĠEducation":5191,"la":5192,"amb":5193,"Ġbul":5194,"Ġdim":5195,"Ġvibr":5196,"Ġdogs":5197,"Ġinteract":5198,"ruary":5199,"Ġtests":5200,"Ġunw":5201,"eless":5202,"Ġtrusted":5203,"From":5204,"ĠMa":5205,"ĠMake":5206,"ula":5207,"ĠCustom":5208,"chen":5209,"Ġappearance":5210,"Ġopened":5211,"ĠPay":5212,"Ġexpenses":5213,"Ġcrim":5214,"ĠGen":5215,"ĠGerman":5216,"Ġalle":5217,"Ġsevere":5218,"rol":5219,"ĠLead":5220,"Ġstated":5221,"Ġsignificance":5222,"estyle":5223,"Ġfilled":5224,"([":5225,"Ġfaced":5226,"Ġappears":5227,"Ġconscious":5228,"Not":5229,"Ġreached":5230,"ĠOpen":5231,"pat":5232,"Ġneighbor":5233,"Ġpool":5234,"Ġforg":5235,"Ġlabel":5236,"Ġsoul":5237,"ĠWhite":5238,"US":5239,"Ġschedule":5240,"Ġbelieved":5241,"Ġdynamic":5242,"Ġsupported":5243,"Ġnotes":5244,"Ġclick":5245,"ĠWestern":5246,"ĠInvest":5247,"Ġfant":5248,"Ġpal":5249,"ution":5250,"Ġstar":5251,"sub":5252,"RA":5253,"Ġdistrict":5254,"Ġmicro":5255,"Ġengineering":5256,"ython":5257,"CC":5258,"Ġpersonalized":5259,"Ġemployment":5260,"ico":5261,"Ġlock":5262,"Ġopening":5263,"ĠAnt":5264,"rees":5265,"Ġprofit":5266,"Ġintroduced":5267,"ĠTur":5268,"Ġinvestments":5269,"Ġintent":5270,"Ġbaby":5271,"nes":5272,"connect":5273,"ulture":5274,"akers":5275,"ĠMet":5276,"Ġlived":5277,"Ġfloor":5278,"Ġwouldn":5279,"Ġattorney":5280,"gn":5281,"trans":5282,"Ġlinks":5283,"ifts":5284,"Ġlots":5285,"Ġchemical":5286,"Ġjoint":5287,"ĠRussian":5288,"ĠDel":5289,"ĠGovernment":5290,"Ġadop":5291,"Ġmil":5292,"Ph":5293,"Ġtopics":5294,"Ġpull":5295,"Ġpra":5296,"ĠFoundation":5297,"Ġnetworks":5298,"Ġcritic":5299,"ivate":5300,"lands":5301,"LC":5302,"Ġdepth":5303,"ellect":5304,"Ġpush":5305,"ĠCap":5306,"Ġcreativity":5307,"Ġlux":5308,"Ġdifferences":5309,"road":5310,"ym":5311,"Ġtransl":5312,"Ġspect":5313,"Ġdied":5314,"ta":5315,"Ġhearing":5316,"ĠSom":5317,"ĠSecurity":5318,"Ġessence":5319,"Ġfundamental":5320,"Ġsenior":5321,"Ġpolitics":5322,"Ġfacilities":5323,"ĠDan":5324,"Ġkinds":5325,"ĠEv":5326,"Ġcriminal":5327,"bre":5328,"Ġthank":5329,"amples":5330,"Ġvir":5331,"agram":5332,"Ġnoted":5333,"ifies":5334,"ĠPublic":5335,"Ġbringing":5336,"ĠIS":5337,"Ġath":5338,");":5339,"ĠOh":5340,"Ġexternal":5341,"Ġselection":5342,"ingu":5343,"worth":5344,"Ġteacher":5345,"Ġdeploy":5346,"Ġrecommended":5347,"Ġinvesting":5348,"OS":5349,"Ġpreferences":5350,"ĠSur":5351,"Ġparticipants":5352,"call":5353,"Ġsurrounding":5354,"Ġfiles":5355,"Ġoperation":5356,"icking":5357,"Ġgift":5358,"ĠTex":5359,"Ġreward":5360,"ĠBet":5361,"Ġenterpr":5362,"Ġdesigns":5363,"ĠGree":5364,"ĠOpt":5365,"Ġexploring":5366,"Ġwaiting":5367,"ĠMat":5368,"Ġimprovement":5369,"Ġassessment":5370,"ĠCEO":5371,"ensions":5372,"Ġshowed":5373,"Ġsto":5374,"yl":5375,"Ġagreed":5376,"Ġbag":5377,"Ġclosely":5378,"Ġaffected":5379,"Ġspeech":5380,"Ġcommunicate":5381,"Ġ22":5382,"Ġreson":5383,"Ġtransactions":5384,"Ġreporting":5385,"Ġframework":5386,"Ġroutine":5387,"ĠIN":5388,"stood":5389,"Ġhaven":5390,"what":5391,"amily":5392,"ocratic":5393,"Ġpositions":5394,"step":5395,"Des":5396,"Ġstake":5397,"Ġrand":5398,"Ġmessages":5399,"En":5400,"writ":5401,"Ġintended":5402,"Ġputting":5403,"Ġdefined":5404,"Ġreduced":5405,"uy":5406,"More":5407,"cers":5408,"Ġmagn":5409,"Ġ2015":5410,"Ġappreciate":5411,"Ġprepare":5412,"Ġsusp":5413,"ĠDirector":5414,"index":5415,"Ġtick":5416,"Ġshop":5417,"ĠAv":5418,"PS":5419,"ĠÂ£":5420,"inations":5421,"Ġentry":5422,"iber":5423,"igration":5424,"Ġmanufacturing":5425,"ĠEngland":5426,"ĠJames":5427,"ĠHel":5428,"Ġthanks":5429,"ommod":5430,"Ġpun":5431,"ulations":5432,"racy":5433,"Ġprofound":5434,"ĠJer":5435,"erved":5436,"Ġfailed":5437,"Ġpaying":5438,"Ġspecies":5439,"Ġadvantages":5440,"Ġ23":5441,"Ġagencies":5442,"hi":5443,"soft":5444,"semb":5445,"Ġglass":5446,"Ġholds":5447,"ĠAssociation":5448,"ĠStreet":5449,"Ġinsight":5450,"ĠJewish":5451,"ounder":5452,"Ġkill":5453,"user":5454,"Ġdiscovered":5455,"ancial":5456,"Ġdistance":5457,"Ġmeaningful":5458,"Ġpurs":5459,"Ġdiscipl":5460,"Ġrelatively":5461,"Ġhospital":5462,"Ġgreatest":5463,"Ġoverwhel":5464,"Ġfinance":5465,"Let":5466,"Ġdisrupt":5467,"Ġplants":5468,"host":5469,"Ġhappening":5470,"Ġlistening":5471,"ĠBible":5472,"Ġagent":5473,"Ġonto":5474,"Ġmonitoring":5475,"last":5476,"Ġexpression":5477,"mas":5478,"Ġcreates":5479,"Ġcatch":5480,"shape":5481,"ĠBest":5482,"Ġimmediate":5483,"Ġnarrative":5484,"ae":5485,"ĠToday":5486,"Ġsole":5487,"rie":5488,"cription":5489,"Ġbanks":5490,"mosp":5491,"Ġengaged":5492,"Ġelimin":5493,"resents":5494,"Ġsuitable":5495,"rite":5496,"EM":5497,"Ġglob":5498,"orial":5499,"Ġabsolutely":5500,"Ġshoot":5501,"Ġdealing":5502,"Ġinspect":5503,"Ġcontrast":5504,"cover":5505,"ĠScience":5506,"ĠFebruary":5507,"Acc":5508,"ene":5509,"ounter":5510,"how":5511,"alle":5512,"inger":5513,"Ġprofile":5514,"Sc":5515,"ĠSam":5516,"Ġrul":5517,"ĠPost":5518,"bal":5519,"IL":5520,"Ġlies":5521,"BC":5522,"ĠProgram":5523,"ums":5524,"istan":5525,"ĠCongress":5526,"Ġhealing":5527,"Ġdatab":5528,"Ġdevelopers":5529,"ĠIslam":5530,"Ġasset":5531,"inent":5532,"apers":5533,"ultural":5534,"Ġguess":5535,"Ġfacts":5536,"ĠGreen":5537,"ĠJe":5538,"Ġinitiatives":5539,"Ġconversations":5540,"Ġconcerned":5541,"Ġsin":5542,"She":5543,"ville":5544,"Ġholding":5545,"Ġequal":5546,"ords":5547,"Ġcop":5548,"Ġbottom":5549,"Ġattacks":5550,"Ġexistence":5551,"Ġsea":5552,"ĠHome":5553,"Ġidentified":5554,"Ġdedication":5555,"Ġstreet":5556,"Ġpromoting":5557,"edding":5558,"ĠOF":5559,"DP":5560,"Ġfee":5561,"wargs":5562,"roud":5563,"ĠHam":5564,"Ġshot":5565,"ystem":5566,"Ġindustrial":5567,"den":5568,"Ġemergency":5569,"Ġcomments":5570,"Ġentirely":5571,"Ġaffordable":5572,"Ġedge":5573,"Ġfacing":5574,"Ġfemale":5575,"ĠMiss":5576,"ĠSch":5577,"arency":5578,"output":5579,"Ġspaces":5580,"Ġimpossible":5581,"Ġyouth":5582,"ĠEU":5583,"ĠTHE":5584,"Ġvac":5585,"Ġunless":5586,"ears":5587,"Ġsurvey":5588,"Ġpossess":5589,"Ġreject":5590,"url":5591,"Ġrandom":5592,"Ġhidden":5593,"Ġce":5594,"Ġicon":5595,"anges":5596,"Ġfurn":5597,"Ġtaught":5598,"Ġshopping":5599,"Ġmuseum":5600,"well":5601,"Ġfraud":5602,"Ġgun":5603,"oles":5604,"ĠMary":5605,"Ġprecise":5606,"Ġdepends":5607,"Ġ<|":5608,"Ġdrop":5609,"Ġdetermined":5610,"Ġsport":5611,"Ġintegration":5612,"Ġvehicles":5613,"Ġstanding":5614,"Ġmostly":5615,"Ġtransformation":5616,"ĠSub":5617,"ĠVis":5618,"Ġarrange":5619,"Ġdivid":5620,"ĠBra":5621,"Ġdiscl":5622,"zer":5623,"Ġdecre":5624,"Ġportfol":5625,"nam":5626,"ĠEarth":5627,"Ġfill":5628,"Ġsounds":5629,"Ġwriter":5630,"ĠMuseum":5631,"Ġcry":5632,"Ġbodies":5633,"App":5634,"Ġrepresents":5635,"Ġanticip":5636,"Ġdistribution":5637,"Ġphotos":5638,"atus":5639,"Ġbags":5640,"unning":5641,"Ġborrow":5642,"Yes":5643,"Ġdepartment":5644,"ĠHim":5645,"Ġcontributions":5646,"Ġworldwide":5647,"Ġinteractions":5648,"Ġrenew":5649,"Ġfootball":5650,"ĠDevelopment":5651,"Ġprocedures":5652,"Ġguarantee":5653,"Ġatmosp":5654,"45":5655,"Your":5656,"Ġcarried":5657,"ĠGermany":5658,"ĠReview":5659,"Ġcells":5660,"gage":5661,"forcement":5662,"stream":5663,"Ġnuclear":5664,"Ġcoord":5665,"ĠSk":5666,"Ġaf":5667,"itution":5668,"cell":5669,"Ġcars":5670,"zing":5671,"Ġrealized":5672,"front":5673,"Se":5674,"under":5675,"Ġenroll":5676,"oves":5677,"Ġsched":5678,"Ġlaun":5679,"Ġargument":5680,"Ġdiss":5681,"Ġsuc":5682,"top":5683,"DA":5684,"Ġanswers":5685,"Ġreturned":5686,"Ġaccommod":5687,"Under":5688,"Ġlifestyle":5689,"Ġempower":5690,"Ġhonor":5691,"start":5692,"fortunately":5693,"Ġannounced":5694,"Ġupdate":5695,"Ġadministr":5696,"ya":5697,"Ġmassive":5698,"Ġreturns":5699,"ansion":5700,"Ġplenty":5701,"Ġjudge":5702,"ourage":5703,"ribe":5704,"ago":5705,"Ġformat":5706,"IM":5707,"ĠRight":5708,"ario":5709,"Ġpark":5710,"Ġdemands":5711,"onial":5712,"Ġcontains":5713,"ocur":5714,"Ġsuccessfully":5715,"Ġstarts":5716,"gener":5717,"Ġsan":5718,"Ġlicense":5719,"Ġarm":5720,"Ġdur":5721,"ĠCommittee":5722,"Ġindex":5723,"ĠSa":5724,"join":5725,"ĠMem":5726,"gin":5727,"ston":5728,"Ġanalytics":5729,"Ġaffiliate":5730,"ĠJud":5731,"Ġjudgment":5732,"Ġethical":5733,"ounce":5734,"Ġfirms":5735,"Ġsessions":5736,"Ġintellect":5737,"security":5738,"Ġtells":5739,"Ġshares":5740,"gl":5741,"Ġ2014":5742,"ĠTexas":5743,"win":5744,"za":5745,"lights":5746,"Ġdouble":5747,"Ġsucceed":5748,"Cont":5749,"Ġlawyer":5750,"Ġevolution":5751,"otic":5752,"Ġcheap":5753,"rian":5754,"Ġgender":5755,"Ġwonderful":5756,"Ġexcess":5757,"iary":5758,"Ġcloser":5759,"Ġpersonality":5760,"PA":5761,"umber":5762,"Ġpure":5763,"mental":5764,"ingly":5765,"Ġquot":5766,"Ġbuildings":5767,"Ġfish":5768,"Ġorganized":5769,"Ġrecommendations":5770,"Ġguy":5771,"iture":5772,"Ġmetal":5773,"Ġlayer":5774,"look":5775,"Ġrely":5776,"Ġ28":5777,"Ġflexibility":5778,"Ġsuggests":5779,"Ġhousing":5780,"array":5781,"lessly":5782,"but":5783,"Ġsequ":5784,"Ġabuse":5785,"Ġtailored":5786,"Ġappeared":5787,"oval":5788,"Ġepisode":5789,"map":5790,"Ġchannel":5791,"Ġbeneficial":5792,"Ġdangerous":5793,"Ġprote":5794,"ĠRich":5795,"Ġship":5796,"Ġsuit":5797,"Ġindeed":5798,"BA":5799,"Don":5800,"Ġdriver":5801,"isms":5802,"Ġfab":5803,"iability":5804,"Ġ27":5805,"xy":5806,"Ġextent":5807,"Ġhack":5808,"Ġwidely":5809,"lete":5810,"Ġdiversity":5811,"Ġmillions":5812,"Ġexposure":5813,"Ġ{}":5814,"ĠDesign":5815,"Ġconstant":5816,"Ġcrime":5817,"Ġ[]":5818,"Ġbird":5819,"Ġdescription":5820,"ĠWhere":5821,"Ġsettings":5822,"NA":5823,"sey":5824,"rame":5825,"rete":5826,"IA":5827,"Ġminimum":5828,"Ġsolve":5829,"Ġfalse":5830,"64":5831,"rem":5832,"ĠWho":5833,"Int":5834,"Ġtact":5835,"Ġcycle":5836,"Ġserving":5837,"Ġstability":5838,"Ġvs":5839,"ĠFore":5840,"Ġfocusing":5841,"ĠSpirit":5842,"ĠNews":5843,"Many":5844,"Ġreasonable":5845,"Ġalgorithms":5846,"inate":5847,"ĠConf":5848,"ĠMicro":5849,"Ġconclud":5850,"Ġ80":5851,"Ġmedicine":5852,"ĠTime":5853,"bing":5854,"Ġoutcome":5855,"Mod":5856,"asy":5857,"Ġpremium":5858,"Can":5859,"Ġapproaches":5860,"Ġreligion":5861,"Ġposts":5862,"Ġinspired":5863,"Ġdaughter":5864,"Ġdestroy":5865,"Ġexperiment":5866,"then":5867,"cohol":5868,"ĠCath":5869,"train":5870,"Ġwatching":5871,"Ġcapable":5872,"Ġdepart":5873,"Data":5874,"Ġactively":5875,"Ġseam":5876,"Ġretire":5877,"Ġcampaigns":5878,"Ġobjects":5879,"ĠBit":5880,"Ġscholars":5881,"Ġregulatory":5882,"Ġreform":5883,"Ġwindow":5884,"ĠMal":5885,"expected":5886,"eer":5887,"Ġliqu":5888,"ĠAcad":5889,"Ġexplained":5890,"Ġpu":5891,"Ġchosen":5892,"Ġconfident":5893,"ĠMex":5894,"ĠWeb":5895,"Ġresearchers":5896,"Get":5897,"Ġdollars":5898,"''":5899,"ĠFe":5900,"Ġchannels":5901,"ĠEconom":5902,"ĠThom":5903,"Ġuncertain":5904,"oding":5905,"bits":5906,"33":5907,"gery":5908,"Ġplus":5909,"Ġexceptional":5910,"Ġmoral":5911,"Ġforced":5912,"ync":5913,"igital":5914,"Ġjump":5915,"Ġarchitecture":5916,"Ġpossibility":5917,"Ġstructures":5918,"Ġresulting":5919,"iden":5920,"ocking":5921,"ĠJour":5922,"Ġingredients":5923,"ĠTake":5924,"Ġclassic":5925,"Ġgenerations":5926,"Ġinner":5927,"outhern":5928,"Ġprimarily":5929,"Ġjoined":5930,"Ġ**":5931,"han":5932,"ocracy":5933,"Ġreference":5934,"ĠList":5935,"Ġbigger":5936,"Ġunderstood":5937,"Ġoperate":5938,"().":5939,"Ġclinical":5940,"################":5941,"agues":5942,"Ġproud":5943,"assion":5944,"Ġ90":5945,"Ġscr":5946,"uit":5947,"ĠPlay":5948,"ĠSuper":5949,"Ġinvolving":5950,"celer":5951,"othes":5952,"Ġmode":5953,"Ġboundaries":5954,"ĠMad":5955,"Ġquiet":5956,"ĠChat":5957,"ĠRober":5958,"Ġleaves":5959,"ĠOffice":5960,"Ġlessons":5961,"ĠRob":5962,"ugg":5963,"Ġ(\"":5964,"count":5965,"ĠFrance":5966,"Ġfulfill":5967,"Ġlegit":5968,"Ġmit":5969,"Ġguys":5970,"Ġdistributed":5971,"orders":5972,"Ġnecessarily":5973,"pred":5974,"rier":5975,"inding":5976,"lor":5977,"Ġhousehold":5978,"Ġslightly":5979,"Ġupdates":5980,"Ġimper":5981,"Ġrobust":5982,"ENT":5983,"Ġcompensation":5984,"Ġfigures":5985,"90":5986,"ĠAngel":5987,"Ġdiscussed":5988,"ĠVir":5989,"ĠProv":5990,"Ġtrained":5991,"Ġvolume":5992,"Ġsufficient":5993,"Ġasp":5994,"500":5995,"uing":5996,"Ġobvious":5997,"ĠGra":5998,"Ġcombined":5999,"outs":6000,"Ġsensitive":6001,"Ġdreams":6002,"Ġargs":6003,"iations":6004,"Ġcolors":6005,"perty":6006,"while":6007,"Ġthrow":6008,"Ġgaming":6009,"do":6010,"Ġsumm":6011,"ĠInf":6012,"Ġimagine":6013,"Ġprison":6014,"ellow":6015,"ĠMart":6016,"qual":6017,"Ġanalyze":6018,"Ġfinish":6019,"Ġâ":6020,"Ġobst":6021,"ka":6022,"Ġconsideration":6023,"Ġentertainment":6024,"Ġbrow":6025,"ctor":6026,"FT":6027,"which":6028,"Ġcorner":6029,"Ġprotected":6030,"ĠBoth":6031,"np":6032,"sm":6033,"ĠSing":6034,"Ġwalking":6035,"Ġwest":6036,"ĠChild":6037,"Ġstatements":6038,"Ġyes":6039,"Ġcontemporary":6040,"ĠLat":6041,"Ġagents":6042,"ivered":6043,"UT":6044,"ffective":6045,"ĠAlex":6046,"Ġ26":6047,"Ġparticipate":6048,"Ġquarter":6049,"Ġproposed":6050,"Ġcalling":6051,"ĠJapanese":6052,"ĠProject":6053,"version":6054,"ĠCommunity":6055,"Ġbot":6056,"draw":6057,"ulty":6058,"cript":6059,"redit":6060,"Ġelev":6061,"Ġprocedure":6062,"Dr":6063,"api":6064,"Ġpossibly":6065,"Ġkid":6066,"ĠInternet":6067,"Ġabilities":6068,"Ġanimal":6069,"working":6070,"ĠBig":6071,"Ġproductivity":6072,"Ġclosed":6073,"Ġalb":6074,"inner":6075,"Ġincredible":6076,"CH":6077,"Ġguidelines":6078,"Ġlocations":6079,"Ġbegins":6080,"Ġmeetings":6081,"Ġeating":6082,"OD":6083,"Ġmanif":6084,"check":6085,"ĠEngine":6086,"Ġauthorities":6087,"Ġplanet":6088,"Ġmouth":6089,"ĠWor":6090,"Ġpricing":6091,"Ġproof":6092,"Ġhundreds":6093,"ports":6094,"Ġphen":6095,"iche":6096,"SA":6097,"raine":6098,"Ġofficials":6099,"Ġdie":6100,"Ġmanagers":6101,"ĠMichael":6102,"Ġrid":6103,"Ġmiles":6104,"Ġsuffering":6105,"Ġperman":6106,"ĠThose":6107,"Ġincreases":6108,"Ġburn":6109,"Ġfollows":6110,"ĠĠĠĠĠĠ":6111,"Ġfle":6112,"ixt":6113,"ĠSet":6114,"Ġenables":6115,"Ġhero":6116,"Ġimplementation":6117,"Ġcutting":6118,"27":6119,"https":6120,"igr":6121,"ĠRiver":6122,"Ġauth":6123,"Ġheight":6124,"Ġsustainability":6125,"Ġbright":6126,"Ġovercome":6127,"35":6128,"ĠHall":6129,"oft":6130,"ĠOnly":6131,"Ġdys":6132,"lean":6133,"ĠRev":6134,"tes":6135,"Ġbroader":6136,"bi":6137,"Ġrom":6138,"Ġluck":6139,"Ġvote":6140,"olicy":6141,"ĠFlor":6142,"Ġrelief":6143,"Ġatmosphere":6144,"rence":6145,"Ġmal":6146,"enders":6147,"Ġduty":6148,"Ġbless":6149,"Ġconference":6150,"Ġspo":6151,"Ġexcited":6152,"Ġtrees":6153,"Ġbroken":6154,"Ġaccepted":6155,"Ġease":6156,"berg":6157,"Ġownership":6158,"ander":6159,"Ġachieved":6160,"ĠFund":6161,"ĠWal":6162,"Ġshar":6163,"Ġkilled":6164,"oma":6165,"Ġgirls":6166,"Ġperce":6167,"Ġtraum":6168,"Ġwisdom":6169,"Ġtelling":6170,"Ġsuppl":6171,"ĠGeorge":6172,"Ġhyp":6173,"IG":6174,"fil":6175,"Ġfest":6176,"Ġuns":6177,"Ġgrew":6178,"CA":6179,"Ġorders":6180,"ĠSun":6181,"Ġsupposed":6182,"Ġmo":6183,"ĠRoman":6184,"Ġcarbon":6185,"ĠMag":6186,"Ġherself":6187,"plate":6188,"Ġpul":6189,"Ġwine":6190,"Ġcommission":6191,"ĠThus":6192,"process":6193,"can":6194,"Ġcharges":6195,"Ġgained":6196,"Ġstim":6197,"Ġphase":6198,"Ġdrugs":6199,"Ġelig":6200,"ĠUN":6201,"Ġamounts":6202,"that":6203,"phone":6204,"ĠPower":6205,"Ġfriendly":6206,"Ġcryptocur":6207,"Ġperformed":6208,"ona":6209,"ĠKore":6210,"ĠMac":6211,"Ġ2013":6212,"ĠBill":6213,"Ġreceiving":6214,"Ġshut":6215,"ado":6216,"Ġworse":6217,"Ġrain":6218,"Ġserver":6219,"Ġmonthly":6220,"ĠDespite":6221,"Ġsupports":6222,"Ġguard":6223,"Ġprospect":6224,"Ġdisput":6225,"Ġbeliefs":6226,"Ġtransparency":6227,"Ġcapture":6228,"igen":6229,"Ġconcepts":6230,"Ġturning":6231,"Ġterrit":6232,"rical":6233,"Ġflat":6234,"ds":6235,"Ġembra":6236,"ĠLu":6237,"Ġstation":6238,"Ġobjectives":6239,"ĠYet":6240,"Ġreferred":6241,"Ġadds":6242,"ĠDet":6243,"arsh":6244,"result":6245,"lo":6246,"Ġdiscount":6247,"Ġrecip":6248,"lis":6249,"gypt":6250,"Ġthreats":6251,"ĠAff":6252,"Ġaest":6253,"Ind":6254,"iat":6255,"Once":6256,"Ġadults":6257,"rip":6258,"ensed":6259,"Ġpictures":6260,"Ġrare":6261,"Ġvibrant":6262,"Ġchapter":6263,"Ġdelivered":6264,"ician":6265,"ĠMuslim":6266,"ao":6267,"Ġmissing":6268,"Ġtheme":6269,"Ġconducted":6270,"28":6271,"Ġforth":6272,"rition":6273,"Ġnurs":6274,"Ġtough":6275,"Ġax":6276,"ĠLou":6277,"long":6278,"Ġclim":6279,"Ġcomponent":6280,"Ġtemperature":6281,"Ġcareful":6282,"Ġtransaction":6283,"Ġembrace":6284,"gu":6285,"Ġshipping":6286,"Ġarts":6287,"sts":6288,"Ġexecutive":6289,"pathy":6290,"ĠProt":6291,"words":6292,"Ġdiscussions":6293,"ĠAnother":6294,"Ġprove":6295,"Ġtight":6296,"Ġmap":6297,"IV":6298,"ĠCam":6299,"Ġarray":6300,"Ġ2012":6301,"Ġacts":6302,"ĠMo":6303,"Ġneighborhood":6304,"Ġaudiences":6305,"UR":6306,"Ġtherap":6307,"Ġfixed":6308,"Ġvit":6309,"riers":6310,"Ġworksh":6311,"ĠĠĠĠĠĠĠĠĠ":6312,"Ġlaunched":6313,"ĠId":6314,"lick":6315,"Ġtransportation":6316,"ĠCBD":6317,"Ġurban":6318,"idth":6319,"ĠInstagram":6320,"base":6321,"respond":6322,"Ġban":6323,"Ġapparent":6324,"Ġathlet":6325,"Ġtaxes":6326,"ĠCy":6327,"Ġinjuries":6328,"Ġinteraction":6329,"Ġaddressing":6330,"Ġsociet":6331,"ĠSal":6332,"using":6333,"Ġremarkable":6334,"ĠTre":6335,"Ġyield":6336,"Ġdomestic":6337,"amin":6338,"Ġpip":6339,"ĠSmith":6340,"rum":6341,"osit":6342,"Ġmarried":6343,"ĠArab":6344,"Ġcomprom":6345,"Ġlimitations":6346,"ĠCert":6347,"Ġauto":6348,"bo":6349,"Are":6350,"Fin":6351,"ĠOrgan":6352,"Ġstores":6353,"ĠIran":6354,"orthern":6355,"Ġmaximum":6356,"Ġinvestigation":6357,"CT":6358,"ĠDoes":6359,"Ġrecon":6360,"70":6361,"Ġstronger":6362,"Ġ70":6363,"ocket":6364,"Ġtaste":6365,"Ġsought":6366,"Ġpromise":6367,"Ġenvironments":6368,"ĠST":6369,"Ġmarg":6370,"ether":6371,"26":6372,"image":6373,"Ġunlike":6374,"Ġportfolio":6375,"ĠHuman":6376,"Ġchances":6377,"Ġ2010":6378,"anda":6379,"Ġmerely":6380,"Ġruns":6381,"Ġheritage":6382,"ĠFinancial":6383,"ĠMain":6384,"())":6385,"Ġsand":6386,"Ġcandidates":6387,"gent":6388,"Ġmotor":6389,"aintiff":6390,"Ġstring":6391,"ĠBefore":6392,"Ġregardless":6393,"ns":6394,"ditional":6395,"Ġsitting":6396,"Ġisol":6397,"Ġtechnique":6398,"Ġcharacteristics":6399,"Ġlargely":6400,"Ġcommonly":6401,"ĠFort":6402,"Ġcamera":6403,"Ġdecade":6404,"ii":6405,"ĠMaster":6406,"Ġbasically":6407,"Ġlimits":6408,"Ġsubsequ":6409,"lets":6410,"ĠPri":6411,"arrow":6412,"raid":6413,"Ġtow":6414,"Ġresistance":6415,"weight":6416,"ĠDec":6417,"Ġenhancing":6418,"erate":6419,"fulness":6420,"ĠStart":6421,"uan":6422,"Ġcontinuous":6423,"Ġstick":6424,"etry":6425,"Ġrevealed":6426,"osystem":6427,"ĠApple":6428,"Ġsyn":6429,"Ġmedium":6430,"Ġmotion":6431,"neys":6432,"Ġkeeps":6433,"Ġstone":6434,"Ġrapidly":6435,"29":6436,"Ġhistoric":6437,"ĠEgypt":6438,"ensity":6439,"Ġflexible":6440,"instance":6441,"dis":6442,"MA":6443,"Ġpill":6444,"main":6445,"essage":6446,"Ġsteel":6447,"Ġrow":6448,"Ġfinished":6449,"Ġdriven":6450,"Ġwelcome":6451,"Ġliterature":6452,"Ġmonitor":6453,"Ġterror":6454,"Ġeffectiveness":6455,"ĠTor":6456,"ximately":6457,"ĠParty":6458,"Ġphr":6459,"ĠKeep":6460,"Ġ+=":6461,"ĠAp":6462,"ĠSaf":6463,"Ġhunt":6464,"ĠSund":6465,"ĠArch":6466,"Ġil":6467,"ĠMark":6468,"Ġlasting":6469,"ĠTer":6470,"ugh":6471,"Ġillustr":6472,"Ġdebate":6473,"ĠTechnology":6474,"Ġacting":6475,"Ġupdated":6476,"ĠStep":6477,"Ġpackage":6478,"Ġsavings":6479,"ĠLook":6480,"Ġextended":6481,"Ġillness":6482,"ervice":6483,"Ġsuddenly":6484,"Ġmax":6485,"Ġstyles":6486,"Ġhotel":6487,"Ġchamp":6488,"ĠGlobal":6489,"Of":6490,"ĠYouT":6491,"dim":6492,"ĠDev":6493,"Ġworkplace":6494,"Ġremoved":6495,"ĠCheck":6496,"Ġfighting":6497,"Us":6498,"Ġhandling":6499,"Ġaccuracy":6500,"Ġunable":6501,"ĠSecond":6502,"Ġdu":6503,"Ġtreated":6504,"Ġluxury":6505,"cher":6506,"Ġtypical":6507,"Ġinspiration":6508,"Ġsplit":6509,"Ġregional":6510,"dev":6511,"ĠSociety":6512,"Ġexpressed":6513,"Ġcausing":6514,"Ġfostering":6515,"Ġformal":6516,"Ġinqu":6517,"ĠHave":6518,"Ġunits":6519,"Ġalcohol":6520,"Ġiron":6521,"rich":6522,"Ġmarked":6523,"Ġcategory":6524,"Ġagric":6525,"Ġmand":6526,"uous":6527,"Ġpy":6528,"real":6529,"ĠBre":6530,"Ġemerging":6531,"Ġkitchen":6532,"Ġmovements":6533,"OL":6534,"ĠWord":6535,"asp":6536,"ĠReal":6537,"ĠThank":6538,"Ġimpressive":6539,"ĠLong":6540,"Ġthemes":6541,"Ġsigned":6542,"Ġbuyers":6543,"Ġstrike":6544,"Ġdescribe":6545,"Ġaccomplish":6546,"Ġfoods":6547,"Ġadm":6548,"Ġdestination":6549,"Ġerect":6550,"Ġdefinition":6551,"Ġcultures":6552,"Ġconvenient":6553,"ini":6554,"Ġtalked":6555,"Ġnaturally":6556,"ĠPlease":6557,"ĠOnline":6558,"Ġaims":6559,"oices":6560,"Ġsweet":6561,"atural":6562,"Ġanywhere":6563,"uality":6564,"ĠFlorida":6565,"Ġfilms":6566,"Ġcollective":6567,"Ġprinciple":6568,"Ġsky":6569,"Ġphilosophy":6570,"Ġpursue":6571,"norm":6572,"aked":6573,"ĠAsia":6574,"ĠOld":6575,"ĠCentral":6576,"Ġnone":6577,"Ġeveryday":6578,"abin":6579,"ĠDiv":6580,"Ġstaying":6581,"Ġfav":6582,"Ġframe":6583,"Ġpopularity":6584,"Ġformed":6585,"Ġveter":6586,"Ġgarden":6587,"Ġimplications":6588,"Ġrig":6589,"Ġfrustr":6590,"olit":6591,"Ġcoach":6592,"Ġtro":6593,"Ġloyalty":6594,"ĠBer":6595,"ographic":6596,"ĠSupport":6597,"Ġhighlights":6598,"ĠCreat":6599,"Ġevil":6600,"Ġpersonally":6601,"Ġresponsibilities":6602,"Ġcolumn":6603,"ĠSuch":6604,"Ġstrict":6605,"Ġwinter":6606,"Ġapproved":6607,"Ġspring":6608,"cel":6609,"ected":6610,"ĠMoreover":6611,"Ġpenal":6612,"Ġphenomen":6613,"Ġscientists":6614,"Ġunexpected":6615,"ĠMount":6616,"Ġstre":6617,"ĠPeter":6618,"Ġtracking":6619,"Ġ195":6620,"Ġsubmit":6621,"Ġequity":6622,"De":6623,"Ġdemonstrate":6624,"oes":6625,"dro":6626,"gers":6627,"arn":6628,"Ġofficer":6629,"Ġpregn":6630,"New":6631,"Ġchair":6632,"Ġuniverse":6633,"Ġnob":6634,"Ġacknowled":6635,"stone":6636,"Ġintellectual":6637,"sk":6638,"dep":6639,"According":6640,"urns":6641,"Ġcalm":6642,"Ġcovers":6643,"AG":6644,"Ġgrown":6645,"operation":6646,"Ġoutdoor":6647,",'":6648,"01":6649,"Ġskilled":6650,"object":6651,"Ġspoke":6652,"Ġafraid":6653,"Ġreflects":6654,"Ġturns":6655,"cs":6656,"Ġtestim":6657,"Ġrequests":6658,"Ġselected":6659,"Ġregions":6660,"Ġincident":6661,"Ġautomation":6662,"Ġtechnological":6663,"Ġorganic":6664,"Ġlinked":6665,"ĠSecret":6666,"Ġeditor":6667,"nic":6668,"ĠPress":6669,"****":6670,"Ġtotally":6671,"Ġbath":6672,"Ġtelevision":6673,"Ġacceler":6674,"ĠKnow":6675,"Ġisland":6676,"Ġbusy":6677,"ĠClass":6678,"Ġresponses":6679,"FA":6680,"Ġefficiently":6681,"Ġfif":6682,"ĠAdv":6683,"osite":6684,"Ġsides":6685,"Ġpsychological":6686,"Ġmyth":6687,"Ġpainting":6688,"Ġfellow":6689,"Ġremained":6690,"driven":6691,"ĠQue":6692,"First":6693,"[:":6694,"Ġcaught":6695,"ĠTwitter":6696,"Ġchief":6697,"Ġconsistently":6698,"ĠWomen":6699,"ĠSol":6700,"Ġconfirm":6701,"Ġpowers":6702,"Ġokay":6703,"Ġecosystem":6704,"Ġgent":6705,"Ġintense":6706,"Ġlisted":6707,"Ġofficers":6708,"Ġelif":6709,"SP":6710,"ĠUkraine":6711,"night":6712,"Ġnations":6713,"lib":6714,"Every":6715,"Ġcas":6716,"Ġnorth":6717,"anged":6718,"ala":6719,"ograp":6720,"Ġspons":6721,"Ġoperational":6722,"Ġhiring":6723,"Ġliquid":6724,"osh":6725,"ĠLo":6726,"zen":6727,"Pl":6728,"Ġ2011":6729,"Ġbow":6730,"cific":6731,"Ġmitig":6732,"Ġsacr":6733,"Ġapplicable":6734,"Ġtack":6735,"Ġobviously":6736,"ĠSil":6737,"Ġpublish":6738,"kers":6739,"Ġfocuses":6740,"Ġintegrated":6741,"Ġconsent":6742,"hered":6743,"ĠMinister":6744,"json":6745,"Ġchart":6746,"ĠHy":6747,"Ġdatabase":6748,"Ġdeals":6749,"Tra":6750,"Although":6751,"Ġproven":6752,"Ġsett":6753,"Ġremoval":6754,"onym":6755,"Ġpair":6756,"ĠKen":6757,"oga":6758,"Ġstead":6759,"Ġstret":6760,"Ġsoph":6761,"Ġgrace":6762,"ĠYouTube":6763,"Ġ194":6764,"Ġbear":6765,"pay":6766,"Ġads":6767,"Ġexplo":6768,"ĠBay":6769,"Ġentered":6770,"Ġlosing":6771,"Ġearned":6772,"Ġdelay":6773,"ĠMicrosoft":6774,"rust":6775,"press":6776,"Ġscope":6777,"Ġrh":6778,"Ġincredibly":6779,"Ġdrink":6780,"ria":6781,"Ġtrouble":6782,"Ġfascinating":6783,"Ġcorrespond":6784,"Ġdialog":6785,"IR":6786,"ĠStar":6787,"Ġ29":6788,"itle":6789,"ĠInformation":6790,"Ġorganis":6791,"ĠBook":6792,"Type":6793,"Ġessay":6794,"Ġautomatically":6795,"Ġwedding":6796,"ĠAnn":6797,"Ġice":6798,"Ġwriters":6799,"etary":6800,"issions":6801,"table":6802,"Ġfacility":6803,"Ġvend":6804,"Ġdesigner":6805,"cean":6806,"Ġcandidate":6807,"Ġevaluate":6808,"van":6809,"Ġcolleagues":6810,"Ġencounter":6811,"Ġstrengthen":6812,"Ġswitch":6813,"onna":6814,"Ġreplica":6815,"ĠFederal":6816,"Ġcompassion":6817,"pack":6818,"Ġinstitution":6819,"owered":6820,"erves":6821,"II":6822,"ĠFamily":6823,"Ġpriority":6824,"Ġalongside":6825,"Ġresolution":6826,"Ġcogn":6827,"Ġjur":6828,"amm":6829,"kwargs":6830,"Ġ2008":6831,"Ġfolks":6832,"Ġissued":6833,"Ġilleg":6834,"Ġlever":6835,"Ġodd":6836,"Ġdance":6837,"Ġwalls":6838,"Ġpurchasing":6839,"Ġconstitut":6840,"Ġlegislation":6841,"Ġyounger":6842,"rix":6843,"water":6844,"ada":6845,"herent":6846,"erning":6847,"Ġsurgery":6848,"Ĥ¬":6849,"Ġhouses":6850,"Ġtap":6851,"Ġmistakes":6852,"ðŁ":6853,"ĠID":6854,"!!":6855,"Ġdelivering":6856,"ĠMarketing":6857,"ua":6858,"Ġgenerated":6859,"Ġcombat":6860,"36":6861,"ĠBitcoin":6862,"ĠFranc":6863,"Ġcomplicated":6864,"Ġguests":6865,"ĠĠĠĠčĊ":6866,"Ġcoast":6867,"ĠPersonal":6868,"Ġdefine":6869,"},":6870,"Ġobjective":6871,"Ġreactions":6872,"Reg":6873,"Ġmanifest":6874,"person":6875,"nn":6876,"Ġcere":6877,"Ġexplains":6878,"othe":6879,"Ġsouth":6880,"Ã¢":6881,"Ġlibrary":6882,"grade":6883,"rog":6884,"ĠCamp":6885,"ĠIP":6886,"ĠRef":6887,"ĠForm":6888,"ĠHoly":6889,"CE":6890,"Ġsomebody":6891,"ĠFree":6892,"missions":6893,"ĠTimes":6894,"Ġmortgage":6895,"Ġsongs":6896,"Ġinn":6897,"irmed":6898,"Ġachieving":6899,"Me":6900,"ĠWind":6901,"Ġcenturies":6902,"Ġpaint":6903,"Ġtargeted":6904,"Ġarrived":6905,"Ġinstallation":6906,"Ġescape":6907,"Ġgovernments":6908,"ĠCatholic":6909,"ĠIr":6910,"forward":6911,"Ġemployer":6912,"egu":6913,"Ġdesired":6914,"Ġversat":6915,"Ġconver":6916,"34":6917,"Ġpil":6918,"Comm":6919,"Ġsample":6920,".\"\"\"":6921,"ĠBur":6922,"aining":6923,"pectives":6924,"Ġspecialized":6925,"(),":6926,"Ġdysfunction":6927,"Ġretirement":6928,"Ġadequ":6929,"Ġhabit":6930,"Ġhorse":6931,"Ġblockchain":6932,"ota":6933,"ĠWater":6934,"Ġimpacts":6935,"Ġmachines":6936,"ĠLearning":6937,"Ġtreatments":6938,"ĠSl":6939,"Ġhire":6940,"Ġfounded":6941,"grad":6942,"Test":6943,"ĠStrateg":6944,"Su":6945,"label":6946,"lers":6947,"Ġgap":6948,"Ġfoster":6949,"Ġflo":6950,"Ġrepresentation":6951,"Ġunderlying":6952,"ogether":6953,"Ġprioritize":6954,"Ġremaining":6955,"Ġliability":6956,"uster":6957,"Ġrefers":6958,"OC":6959,"Ġphoto":6960,"Ġdomain":6961,"icago":6962,"Ġsuggested":6963,"Ġintric":6964,"Ġconsumption":6965,"Ġapproximately":6966,"ĠSer":6967,"Ġwinning":6968,"Ġstable":6969,"Ġenabling":6970,"doc":6971,"ĠScott":6972,"ĠIsland":6973,"ĠMrs":6974,"Ġexpansion":6975,"Ġrot":6976,"Ġauthors":6977,"Ġentrepreneurs":6978,"Ġneighb":6979,"Ġlanguages":6980,"commerce":6981,"Col":6982,"Ġrecorded":6983,"Even":6984,"Ġ2000":6985,"Ġdefe":6986,"ĠSup":6987,"ĠConsider":6988,"Ġarrest":6989,"Ġevening":6990,"ĠTwo":6991,"ĠTem":6992,"Ġerrors":6993,"ĠGr":6994,"abs":6995,"irty":6996,"Ġwithdraw":6997,"Ġperiods":6998,"scale":6999,"Ġcos":7000,"Ġinspire":7001,"Ġbeat":7002,"Ġpersons":7003,"Ġperfectly":7004,"agon":7005,"ĠTy":7006,"Ġimplementing":7007,"Ġrooms":7008,"ĠDistrict":7009,"Ġmusical":7010,"ĠMer":7011,"Ġpossibilities":7012,"ĠMedia":7013,"Ġsurprise":7014,"Ġmagic":7015,"Ġcharm":7016,"Ġbelieves":7017,"Ġblend":7018,"asters":7019,"75":7020,"ĠExecut":7021,"Ġcriteria":7022,"Ġfake":7023,"Ab":7024,"Ġinstructions":7025,"Ġhttp":7026,"Ġprogramming":7027,"ĠVict":7028,"During":7029,"Ġrising":7030,"Ġradio":7031,"Ġindicate":7032,"Ġ500":7033,"ventional":7034,"Spe":7035,"Ġnative":7036,"Ġends":7037,"Ġstood":7038,"client":7039,"Ġnine":7040,"Ġtraditions":7041,"Ġveget":7042,"ĠAdd":7043,"exp":7044,"Ġalt":7045,"ĠLLC":7046,"ĠNig":7047,"Ġgreatly":7048,"world":7049,"ools":7050,"Ġundert":7051,"Question":7052,"Ġenjoyed":7053,"raction":7054,"ĠTom":7055,"ĠLib":7056,"ĠSpan":7057,"Ġrough":7058,"Ġdress":7059,"Ġpiv":7060,"Ġrepeated":7061,"ĠUSA":7062,"Ġexplan":7063,"|>#":7064,"Ġallerg":7065,"Ġweapons":7066,"ĠFurthermore":7067,"Ġminute":7068,"db":7069,"lements":7070,"UN":7071,"ĠFather":7072,"west":7073,"ĠLand":7074,"ighter":7075,"Ġcontracts":7076,"Ġarms":7077,"ĠMiddle":7078,"Ġintention":7079,"Ġfruit":7080,"Ġminds":7081,"Ġevaluation":7082,"Ġmel":7083,"Ġplot":7084,"Ġzero":7085,"inity":7086,"alian":7087,"Well":7088,"Read":7089,"Ġexperiencing":7090,"Ġlosses":7091,"Ġschedul":7092,"icul":7093,"Ġexists":7094,"cluding":7095,"Ġqualified":7096,"valid":7097,"ĠHill":7098,"Ġbought":7099,"edge":7100,"Ġalike":7101,"Ġ\\":7102,"ĠNor":7103,"ena":7104,"Before":7105,"azine":7106,"ĠPet":7107,"Ġdepression":7108,"Ġbreath":7109,"aints":7110,"Ġcrypto":7111,"anta":7112,"nergy":7113,"Ġusage":7114,"Ġinfluenced":7115,"ĠChief":7116,"Ġmemories":7117,"ints":7118,"inn":7119,"ĠProduct":7120,"edy":7121,"Ġregistered":7122,"Ġdivine":7123,"Ġprominent":7124,"ename":7125,"Ġapplying":7126,"Ġaudio":7127,"Ġsupplement":7128,"Ġlogo":7129,"ĠEmploy":7130,"Ġpassing":7131,"oral":7132,"Ġsubjects":7133,"Ġstages":7134,"Ġinject":7135,"Ġenforcement":7136,"Ġcomplexity":7137,"ĠCarol":7138,"Ġevolving":7139,"Ġsugar":7140,"ĠTim":7141,"Ġinterface":7142,"ĠFrank":7143,"Ġmountain":7144,"Ġyeah":7145,"claim":7146,"you":7147,"Ġadventure":7148,"Ġslowly":7149,"ĠPalest":7150,"Ġsad":7151,"ĠReport":7152,"Ġ35":7153,"Go":7154,"ĠStand":7155,"ĠSpecial":7156,"ĠWil":7157,"Ġnom":7158,"Ġempt":7159,"ĠOffic":7160,"ĠWilliam":7161,"Ġportion":7162,"Ġextract":7163,"Most":7164,"Ġstopped":7165,"ĠChristmas":7166,"Ġidentifying":7167,"ĠBo":7168,"ĠTeam":7169,"Ġcenters":7170,"anger":7171,"ĠSunday":7172,"Ġparticipation":7173,"Ġnoticed":7174,"ĠDigital":7175,"Ġhumanity":7176,"Ġseriously":7177,"Ġrestaurant":7178,"Ġeverybody":7179,"Ġnarrow":7180,"Ġessentially":7181,"ĠProfessional":7182,"Ġalbum":7183,"Ġartistic":7184,"ĠClub":7185,"wing":7186,"ste":7187,"Since":7188,"source":7189,"erent":7190,"Ġincom":7191,"Ġfollowers":7192,"consc":7193,"Ġdecor":7194,"CL":7195,"Ġapproval":7196,"ading":7197,"Ġride":7198,"roid":7199,"Ġfaculty":7200,"Man":7201,"Ġimplemented":7202,"TS":7203,"Ġtun":7204,"asm":7205,"Ġhabits":7206,"olving":7207,"igenous":7208,"Ġcategories":7209,"ĠVirgin":7210,"Ġcoaching":7211,"Ġfitness":7212,"ĠImp":7213,"Ġobstac":7214,"oven":7215,"Ġdrivers":7216,"pace":7217,"Or":7218,"ĠPract":7219,"Ġcompare":7220,"Ġdomin":7221,"Ġemployers":7222,"38":7223,"Ġenterprise":7224,"Ġfindings":7225,"Ġdoors":7226,"Ġhall":7227,"Ġreduction":7228,"Ġoccurred":7229,"Ġtrail":7230,"TH":7231,"Ġdevot":7232,"Ġexposed":7233,"FL":7234,"Ġped":7235,"fast":7236,"ĠMass":7237,"she":7238,"Ġconcrete":7239,"Just":7240,"Ġmemor":7241,"Ġraw":7242,"Ġsectors":7243,"Ġvillage":7244,"Ġblow":7245,"Ġpanel":7246,"Ġroute":7247,"List":7248,"Ġhappiness":7249,"Ġprotocol":7250,"Ġinitially":7251,"Ġstakeholders":7252,"ĠKey":7253,"ĠJose":7254,"umes":7255,"ĠBas":7256,"Ġopinions":7257,"Ġran":7258,"Ġsurve":7259,"Ġreaching":7260,"andon":7261,"Ġdetermination":7262,"Ġstunning":7263,"Ġbehalf":7264,"ĠOR":7265,"Ġsoil":7266,"Ġattractive":7267,"ĠJews":7268,"Ġmanip":7269,"Ġvictory":7270,"Ġbanking":7271,"Ġelectronic":7272,"Ġdistingu":7273,"Ġemails":7274,"Ġultimate":7275,"ava":7276,"Ġflight":7277,"loss":7278,"Ġjew":7279,"ibl":7280,"params":7281,"icted":7282,"Ġcann":7283,"Ġiconic":7284,"Ġrank":7285,"erving":7286,"method":7287,"Ġsight":7288,"vity":7289,"ĠThomas":7290,"istent":7291,"Ġbreed":7292,"rep":7293,"Ġarmy":7294,"Ġvulnerable":7295,"Ġmovies":7296,"const":7297,"Ġmindset":7298,"war":7299,"ownt":7300,"mail":7301,"ĠVol":7302,"Ġwider":7303,"secut":7304,"Ġdocumentation":7305,"Ġmur":7306,"Ġdefendant":7307,"rection":7308,"Ġexploration":7309,"ĠRobert":7310,"comp":7311,"uls":7312,"float":7313,"Ġriver":7314,"Ġ2009":7315,"ango":7316,"Ġequally":7317,"inder":7318,"Ġmyst":7319,"Ġnurt":7320,"ĠCode":7321,"profit":7322,"ĠRemember":7323,"Am":7324,"Ġintroduction":7325,"Ġcontrovers":7326,"iest":7327,"ĠAcademy":7328,"Ġneither":7329,"Ġtestament":7330,"Ġprayer":7331,"Ġbattery":7332,"ĠChicago":7333,"Ġplanned":7334,"Ġrealm":7335,"Ġpoll":7336,"Ġthick":7337,"Ġentity":7338,"aken":7339,"ĠRoad":7340,"example":7341,"Ġvisiting":7342,"Ġhardware":7343,"td":7344,"ĠTH":7345,"Ġalive":7346,"ĠLove":7347,"ĠAuthor":7348,"Ġprofessor":7349,"ologist":7350,"entures":7351,"Ġflood":7352,"elled":7353,"Ġadoption":7354,"Ġperspectives":7355,"uct":7356,"ĠFriday":7357,"Ġdiseases":7358,"Ġmainly":7359,"Cons":7360,"ĠLake":7361,"Ġshel":7362,"Ġentit":7363,"37":7364,"ĠAbout":7365,"Ġmood":7366,"ĠBack":7367,"adow":7368,"Ġstars":7369,"Ġadopted":7370,"ias":7371,"group":7372,"Ġthousand":7373,"Ġcart":7374,"ĠWood":7375,"ĠUsing":7376,"liament":7377,"law":7378,"ora":7379,"Ġmine":7380,"Ġcommittee":7381,"Ġgovernance":7382,"OW":7383,"39":7384,"bar":7385,"ifting":7386,"ĠBrand":7387,"abet":7388,"Ġwarrant":7389,"Ġreader":7390,"Id":7391,"ĠCost":7392,"Ġvictims":7393,"Ġobserved":7394,"ĠAD":7395,"Ġinflation":7396,"Ġlie":7397,"Ġven":7398,"Ġplaintiff":7399,"ĠFrancis":7400,"Ġsolar":7401,"aver":7402,"ipal":7403,"esides":7404,"Ġfunctional":7405,"bert":7406,"ĠValley":7407,"Ġdemocracy":7408,"Ġreminder":7409,"theless":7410,"ĠAtl":7411,"Ġsafegu":7412,"Ġsick":7413,"Ġbreaking":7414,"ĠCr":7415,"Ġdil":7416,"Ġdivor":7417,"Ġdynamics":7418,"Ġpermanent":7419,"Ġcomputing":7420,"Ġhurt":7421,"Ġdrawn":7422,"obs":7423,"Ġachievements":7424,"Ġrecruit":7425,"Ġcurrency":7426,"Ġ31":7427,"Ġconcerning":7428,"ĠJournal":7429,"Ġleverage":7430,"SS":7431,"ads":7432,"gon":7433,"Ġsynt":7434,"ĠMill":7435,"Ġeld":7436,"Ġton":7437,"ĠJustice":7438,"hem":7439,".__":7440,"Ġworst":7441,"Ġexclusive":7442,"utils":7443,"Ġmetrics":7444,"Ġcorrupt":7445,"Ġbatch":7446,"Ġdecent":7447,"Ġtf":7448,"Ġegg":7449,"ĠGummies":7450,"ĠSupreme":7451,"ĠInsurance":7452,"ĠSometimes":7453,"PC":7454,"ĠElect":7455,"Le":7456,"Ġpercentage":7457,"Ġgonna":7458,"tem":7459,"Ġpharm":7460,"Ġlatter":7461,"orship":7462,"Ġcampus":7463,"Ġproducing":7464,"Ġqualities":7465,"Ġemphasis":7466,"Ġsummary":7467,"Pr":7468,"Ġoriginally":7469,"Ġring":7470,"Additionally":7471,"Ġhospit":7472,"Ġstorm":7473,"Ġfairly":7474,"Ġsnow":7475,"PL":7476,"ette":7477,"ĠBudd":7478,"ĠLast":7479,"Ġclothing":7480,"tering":7481,"Ġtone":7482,"Ġincent":7483,"Ġprotecting":7484,"Ġhearts":7485,"Ġintu":7486,"omin":7487,"ĠUnderstanding":7488,"Ġexcellence":7489,"write":7490,"ĠSign":7491,"ĠCorpor":7492,"Ġpit":7493,"ĠTop":7494,"GPT":7495,"ustration":7496,"ĠConnect":7497,"ĠLim":7498,"Ġpride":7499,"ĠLouis":7500,"orous":7501,"Ġpleasure":7502,"Ġheavily":7503,"Ġtraveling":7504,"ĠYear":7505,"obile":7506,"Ġshock":7507,"Ġdelight":7508,"Ġfantastic":7509,"split":7510,"efits":7511,"Ġmerch":7512,"ĠMil":7513,"ĠCanadian":7514,"Ġfurniture":7515,"Ġseconds":7516,"ĠProfessor":7517,"sembly":7518,"Ġtea":7519,"iments":7520,"Ġast":7521,"Ġsquare":7522,"Ġheaven":7523,"Ġrecall":7524,"Ġpace":7525,"isters":7526,"Ġdevelopments":7527,"batch":7528,"kin":7529,"Ġrecover":7530,"%.":7531,"Ġfly":7532,"party":7533,"Ġrelation":7534,"Ġminimal":7535,"Ġplastic":7536,"ĠParis":7537,"Ġunion":7538,"Ġgentle":7539,"Ġ('":7540,"ĠExpl":7541,"Ġupl":7542,"Ġabsor":7543,"\"),":7544,"Ġdegrees":7545,"Ġmedication":7546,"izations":7547,"Ġrust":7548,"Ġaddressed":7549,"ĠLabor":7550,"Ġoppon":7551,"Ġcul":7552,"Ġsubs":7553,"Ġevident":7554,"Ġprivile":7555,"Ġopposite":7556,"Ġbridge":7557,"ideo":7558,"Ġacquis":7559,"ĠAdminist":7560,"Rec":7561,"Ġsomewhat":7562,"makers":7563,"Ġpresents":7564,"Ġnotable":7565,"eping":7566,"Understanding":7567,"Ġobtained":7568,"Ġwhenever":7569,"Ġimprovements":7570,"bles":7571,"ĠThanks":7572,"ĠGreek":7573,"Ġenhanced":7574,"core":7575,"Ġmembership":7576,"Ġbehaviors":7577,"Ġperforming":7578,"hemat":7579,"Ġsilver":7580,"ĠCall":7581,"roc":7582,"Ġdoctors":7583,"iy":7584,"Ġarise":7585,"ĠMaybe":7586,"Ġinitiative":7587,"Ġcelebrate":7588,"Ġaccounting":7589,"Ġ!":7590,"oto":7591,"'),":7592,"Ġmoves":7593,"Ġdispos":7594,"Up":7595,"env":7596,"Rem":7597,"Ġextend":7598,"annel":7599,"'],":7600,"Ġsurf":7601,"ivating":7602,"Ġcommunications":7603,"Ġaimed":7604,"UL":7605,"Ġlaid":7606,"ĠMedical":7607,"65":7608,"Ġcontributed":7609,"Ġpoly":7610,"Ġsupportive":7611,"Ġgranted":7612,"Ġrub":7613,"block":7614,"Ġbread":7615,"Ġcollected":7616,"edia":7617,"avors":7618,"ĠEr":7619,"ĠFood":7620,"ĠOper":7621,"ĠMel":7622,"Ġfaces":7623,"ĠBrown":7624,"Ġattitude":7625,"Ġassume":7626,"Ġsister":7627,"Ġabandon":7628,"astern":7629,"Ġfabric":7630,"Ġencourages":7631,"Ġmutual":7632,"Ġjuris":7633,"Ġdanger":7634,"SC":7635,"Ġpreparation":7636,"Ġobligations":7637,"ĠSon":7638,"Ġlegisl":7639,"backs":7640,"ĠFil":7641,"Ġautomated":7642,"Ġrepairs":7643,"Ġconsciousness":7644,"ih":7645,"Ġseat":7646,"tw":7647,"Ġrequirement":7648,"Ġfinancing":7649,"Ġaside":7650,"ML":7651,"Ġvisible":7652,"Ġdiscovery":7653,"Ġstreets":7654,"Ġresidential":7655,"Ġorganisation":7656,"Ġthrive":7657,"anth":7658,"Who":7659,"Ġoverwhelming":7660,"Ġregistration":7661,"Ġstudying":7662,"urities":7663,"urning":7664,"Ġwise":7665,"page":7666,"Ġencouraged":7667,"Ġcharged":7668,"ĠGrand":7669,"Ġrelative":7670,"Ġcurric":7671,"achel":7672,"rated":7673,"tical":7674,"Ġenemy":7675,"ĠĠĠĠĠĠĠĠĠĠĠĠĠĠĠĠĠĠĠĠĠĠĠĠ":7676,"ĠResp":7677,"Ġprotein":7678,"Ġmanufacturers":7679,"attr":7680,"ĠSpanish":7681,"string":7682,"pring":7683,"attle":7684,"Ġcompetitors":7685,"Ġstruggling":7686,"ĠCR":7687,"iah":7688,"Ġmuscle":7689,"Ġperformances":7690,"Ġvisibility":7691,"itt":7692,"Ġshaping":7693,"Ġinstant":7694,"ĠAustralian":7695,"rary":7696,"Ġforever":7697,"Ġfeat":7698,"Ġoccurs":7699,"iform":7700,"Ġarguments":7701,"Ġgraduate":7702,"Ġholiday":7703,"Ġcater":7704,"default":7705,"Ġmeat":7706,"Ġbeings":7707,"argument":7708,"Key":7709,"ĠItaly":7710,"ĠBlue":7711,"Ġroots":7712,"Ġthread":7713,"ita":7714,"Ġconserv":7715,"ĠPC":7716,"ĠItalian":7717,"Ġexceed":7718,"Ġinvolvement":7719,"]:":7720,"Ġliterally":7721,"Ġsearching":7722,"Ġcha":7723,"Ġunknown":7724,"Ġharder":7725,"ĠLeague":7726,"Ġquote":7727,"mm":7728,"open":7729,"ĠGeorg":7730,"ĠMont":7731,"Ġcompelling":7732,"names":7733,"aming":7734,"Ġavailability":7735,"ulating":7736,"Ġcontributing":7737,"Ġstrange":7738,"Ġlawyers":7739,"Ġsettlement":7740,"OP":7741,"Ġinfo":7742,"Ġcourage":7743,"unc":7744,"Ġsending":7745,"Ġfunctionality":7746,"Ġsoldiers":7747,"ourse":7748,"Ġsurprising":7749,"ett":7750,"Ġowned":7751,"Ġdifficulty":7752,"ĠAccount":7753,"Ġgall":7754,"Ġ45":7755,"AB":7756,"Ġcontinuing":7757,"Ġinterf":7758,"Ġdraft":7759,"ĠHaving":7760,"Ġye":7761,"Ġresolve":7762,"Ġextraord":7763,"ught":7764,"Through":7765,"Ġpartnerships":7766,"((":7767,"Ġtoken":7768,"Ġequipped":7769,"anguage":7770,"node":7771,"Ġnutrition":7772,"Ġsou":7773,"ĠMexico":7774,"Ġestablishing":7775,"Ġtwice":7776,"Bl":7777,"DE":7778,"Ġcertific":7779,"Ġreveal":7780,"Ġbalanced":7781,"Ġteen":7782,"ĠLink":7783,"ĠWall":7784,"Ġhur":7785,"Ġencouraging":7786,"burg":7787,"Ġtrick":7788,"Ġworkforce":7789,"Despite":7790,"Ġdisappoint":7791,"through":7792,"HS":7793,"gments":7794,"ME":7795,"rooms":7796,"Ġclarity":7797,"Ġbon":7798,"Ġinventory":7799,"Ġswim":7800,"Ġtransparent":7801,"ĠBeing":7802,"Ġwalked":7803,"Ġprovision":7804,"hist":7805,"Ġparser":7806,"Ã¡":7807,"Ġregulation":7808,"Ġutilize":7809,"liers":7810,"Ġargue":7811,"asant":7812,"Ġbehaviour":7813,"ĠWithout":7814,"Ġnu":7815,"Ġindependence":7816,"Ġmir":7817,"reens":7818,"Ġuniversities":7819,"Ġawait":7820,"Ġdismiss":7821,"ounded":7822,"return":7823,"Ġrestrictions":7824,"ented":7825,"oviet":7826,"Ġnearby":7827,"Ġdive":7828,"rible":7829,"Ġexamine":7830,"Ġcomparison":7831,"haust":7832,"95":7833,"enth":7834,"ollowing":7835,"Ġorganisations":7836,"ially":7837,"Ġspark":7838,"ĠHen":7839,"onday":7840,"ican":7841,"Te":7842,"Ġphotograph":7843,"Ġpresentation":7844,"Ġcourts":7845,"Ġfinds":7846,"Ġnoise":7847,"Ġboat":7848,"Ġdesk":7849,"Ġusual":7850,"Ġrepresented":7851,"inem":7852,"Pe":7853,"Ġcognitive":7854,"Ġletters":7855,"Ġsuperior":7856,"ĠEmp":7857,"Ġende":7858,"Where":7859,"length":7860,"Ġguest":7861,"Ġsupplies":7862,"Ġtwenty":7863,"ureau":7864,"Ġautonom":7865,"isk":7866,"Ġfiled":7867,"ĠAgain":7868,"Ġestimated":7869,"Ġsaved":7870,"Ġalleged":7871,"Ġdifficulties":7872,"44":7873,"Ġsurprised":7874,"Ġrail":7875,"Ġdates":7876,"Ġclaimed":7877,"ĠRights":7878,"rc":7879,"Ġjewel":7880,"31":7881,"Ġalert":7882,"Ġemerged":7883,"Ġfold":7884,"Ġgrass":7885,"vy":7886,"Ġmixed":7887,"Ġfault":7888,"Americ":7889,"dec":7890,"Ġrural":7891,"ĠVer":7892,"earing":7893,"Ġfourth":7894,"iating":7895,"Ġmeal":7896,"ĠHot":7897,"Ġpassionate":7898,"Ġshouldn":7899,"Val":7900,"Ġwearing":7901,"Ġerectile":7902,"rine":7903,"Ġbutton":7904,"Ġmeets":7905,"Ġactors":7906,"Ġjoining":7907,"ĠTax":7908,"Ġbetting":7909,"Ġwellness":7910,"Ġcooking":7911,"Ġwave":7912,"Ġtargets":7913,"ĠAward":7914,"Ġcontrolled":7915,"ospel":7916,"ĠSoft":7917,"Ġsees":7918,"ĠArmy":7919,"Ġillegal":7920,"swer":7921,"Ġdirected":7922,"Ġcorrectly":7923,"Ġinterviews":7924,"Ġworship":7925,"ĠExecutive":7926,"ĠCloud":7927,"Ġdecline":7928,"istant":7929,"RI":7930,"Ġru":7931,"oub":7932,"Ġborder":7933,"Ġsmile":7934,"ĠIll":7935,"rome":7936,"Ġmatches":7937,"ĠFuture":7938,"ĠChristians":7939,"bel":7940,"request":7941,"ĠFed":7942,"Ġsaving":7943,"Ġsharp":7944,"ishes":7945,"Ġreliability":7946,"Ġoutstanding":7947,"88":7948,"Ġvan":7949,"Ġgolf":7950,"Ġexcite":7951,"Ġstrengths":7952,"Ġshoes":7953,"igned":7954,"Ġtrauma":7955,"rid":7956,"Ġmanual":7957,"Ġexception":7958,"Ġgut":7959,"Ġevolve":7960,"employ":7961,"Ġinteractive":7962,"ĠAud":7963,"ĠColl":7964,"azz":7965,"html":7966,"Ġtox":7967,"Ġsuffer":7968,"Ġweakness":7969,"lined":7970,"nowned":7971,"ras":7972,"raq":7973,"ano":7974,"Equal":7975,"Ġintervention":7976,"Ġtrib":7977,"ĠCivil":7978,"Ġranking":7979,"Ġhes":7980,"ĠEp":7981,"illa":7982,"plot":7983,"Ġkick":7984,"ĠJo":7985,"section":7986,"Ġconflicts":7987,"Ġconvenience":7988,"Ġrac":7989,"brid":7990,"Last":7991,"Ġsignal":7992,"osc":7993,"ĠIre":7994,"Ġcooperation":7995,"--------------------------------":7996,"Ġbask":7997,"target":7998,"Ġ2007":7999,"ĠBiden":8000,"Ġunders":8001,"Ġdivision":8002,"ĠJack":8003,"valu":8004,"][":8005,"Ġcro":8006,"Ġentitled":8007,"Ġneut":8008,"Ġteeth":8009,"Ġencount":8010,"Ġtested":8011,"author":8012,"Ġordinary":8013,"opyright":8014,"Ġtiss":8015,"oil":8016,"Ġgate":8017,"Ġlady":8018,"Ġconversion":8019,"Ġconvin":8020,"Ġalgorithm":8021,"Ġcybersecurity":8022,"points":8023,"telling":8024,"ĠHead":8025,"emb":8026,"udes":8027,"Ġattempts":8028,"Ġregister":8029,"ĠThough":8030,"ura":8031,"amil":8032,"Ġappointment":8033,"avy":8034,"Ġaccord":8035,"Ġoptimize":8036,"item":8037,"crib":8038,"born":8039,"Ġforecast":8040,"Ġtoler":8041,"Ġintegral":8042,"Ġdrawing":8043,"Ġpenis":8044,"ĠStudies":8045,"rencies":8046,"Then":8047,"Ġchildhood":8048,"usal":8049,"itar":8050,"Ġtheater":8051,"hy":8052,"Ġlayers":8053,"Ġpointed":8054,"Ġmath":8055,"Ġweekend":8056,"dist":8057,"ĠLos":8058,"enda":8059,"ĠMean":8060,"Ġannounce":8061,"ĠEnd":8062,"ĠBal":8063,"Ġopposition":8064,"Ġpreferred":8065,"ching":8066,"Ġrestaurants":8067,"ĠPenn":8068,"Ġblind":8069,"Ġnode":8070,"Sp":8071,"eness":8072,"================":8073,"Ġclothes":8074,"itz":8075,"Ġscores":8076,"Ġlogging":8077,"ĠMot":8078,"aser":8079,"ĠCat":8080,"Ġages":8081,"ĠNever":8082,"Ġaccum":8083,"ceptions":8084,"Ġinev":8085,"ĠColor":8086,"icity":8087,"bling":8088,"umin":8089,"worthy":8090,"Inst":8091,"bin":8092,"ĠNetwork":8093,"itarian":8094,"DS":8095,"Ġ1990":8096,"ĠCard":8097,"Ġchose":8098,"ĠSar":8099,"compass":8100,"error":8101,"ĠJohnson":8102,"Ġperception":8103,"ĠVictor":8104,"umps":8105,"Ġsubstance":8106,"Ġeligible":8107,"img":8108,"Ġdemonstrated":8109,"Ġanger":8110,"itative":8111,"Ġutilizing":8112,"ĠGrow":8113,"Ġreplacement":8114,"zed":8115,"ki":8116,"Ġempty":8117,"Ġbeach":8118,"letter":8119,"ĠDen":8120,"Ġsurge":8121,"Ġdownt":8122,"Name":8123,"Per":8124,"Set":8125,"Ġtruck":8126,"Ġsetup":8127,"Ġpapers":8128,"Ġcrew":8129,"Ġdamages":8130,"={":8131,"Ġexch":8132,"Step":8133,"ĠAllah":8134,"Ġcarrying":8135,"alysis":8136,"Ġmotivation":8137,"ĠDisc":8138,"Ġcountless":8139,"ittle":8140,"Ġstruggles":8141,"05":8142,"TC":8143,"duate":8144,"uction":8145,"PR":8146,"ani":8147,"called":8148,"Ġchronic":8149,"Ġmistake":8150,"Ġmold":8151,"Ġ?":8152,"ifferent":8153,"Ġacid":8154,"ĠSoviet":8155,"stract":8156,"elligent":8157,"ĠViet":8158,"Ġopposed":8159,"ĠBuilding":8160,"urse":8161,"Ġbonds":8162,"ĠNeed":8163,"Ġprohib":8164,"48":8165,"Ġtut":8166,"ĠStudents":8167,"Ġmeditation":8168,"ĠLog":8169,"UM":8170,"Ġsle":8171,"ĠJim":8172,"Ġengines":8173,"Ġfewer":8174,"Ġinclusive":8175,"Ġpurchased":8176,"Ġconfront":8177,"Ġemployed":8178,"Ġpreparing":8179,"Ġimmune":8180,"create":8181,"Ġsolely":8182,"Ġreflection":8183,"ĠNon":8184,"jango":8185,"imp":8186,"Ġcrowd":8187,"Ġhyper":8188,"Ġtemporary":8189,"Ġprofits":8190,"Ġeverywhere":8191,"ĠAND":8192,"Ġcoding":8193,"there":8194,"Ġmissed":8195,"ĠPolicy":8196,"Ġexpanding":8197,"Today":8198,"Ġsizes":8199,"isticated":8200,"ĠIntelligence":8201,"ĠIraq":8202,"ĠArts":8203,"parse":8204,"Ġshed":8205,"md":8206,"Ġmining":8207,"Ġofferings":8208,"ĠEth":8209,"Ġupper":8210,"Ġpromises":8211,"ĠDid":8212,"aware":8213,"Ġsentence":8214,"Ġadvancements":8215,"Ġforest":8216,"Ġbold":8217,"WS":8218,"ĠBritain":8219,"eers":8220,"Ġformation":8221,"Ġunlock":8222,"Ġdish":8223,"Ġscheme":8224,"olec":8225,"Ġgrade":8226,"een":8227,"Ġpermission":8228,"urday":8229,"Ġscal":8230,"ĠMax":8231,"ulf":8232,"ĠCredit":8233,"frame":8234,"Ġrewards":8235,"akistan":8236,"ĠChair":8237,"Ġtalks":8238,"Ġimmers":8239,"kins":8240,"Ġburden":8241,"Ġexhaust":8242,"nings":8243,"Ġlawsu":8244,"Ġisinstance":8245,"Ġfacilitate":8246,"Ġreplaced":8247,"Ġintroduce":8248,"Ġabsence":8249,"Ġseed":8250,"Ġrepresentative":8251,"Ġshaped":8252,"conscious":8253,"Ġhel":8254,"igan":8255,"ĠLi":8256,"Ġparad":8257,"Ġexcitement":8258,"ĠSecretary":8259,"Ġneuro":8260,"Ġdivers":8261,"ateful":8262,"Ġsegment":8263,"Ġempathy":8264,"Ġheads":8265,"jud":8266,"Ġexercises":8267,"ĠSum":8268,"estions":8269,"ilst":8270,"Ġconvey":8271,"Ġcontribution":8272,"Ġfalling":8273,"Moreover":8274,"ĠInit":8275,"ĠCast":8276,"Ġproactive":8277,"Ġfounder":8278,"ĠIreland":8279,"apes":8280,"Ġlaugh":8281,"ircraft":8282,"ĠValue":8283,"Ġoptimal":8284,"Ġwindows":8285,"Sim":8286,"Ġniche":8287,"Ġunus":8288,"post":8289,"Ġsatisfied":8290,"det":8291,"Ġbarriers":8292,"Ġscenario":8293,"Ġlegend":8294,"Ġgrab":8295,"ensus":8296,"Ġduties":8297,"Ġimpression":8298,"Ġq":8299,"Ġtom":8300,"Ġinquir":8301,"Ġstored":8302,"uty":8303,"ola":8304,"ĠMusic":8305,"ĠRock":8306,"cling":8307,"ĠDu":8308,"Ġfeatured":8309,"aven":8310,"Ġcontrols":8311,"teen":8312,"ocial":8313,"EST":8314,"=[":8315,"Finally":8316,"Ġrecording":8317,"Ġenhances":8318,"Ġcryptocurrency":8319,"zil":8320,"0000":8321,"Ġconce":8322,"ologists":8323,"Field":8324,"ĠSir":8325,"Ġlect":8326,"Ġacknowledge":8327,"formance":8328,"Ġinfect":8329,"anship":8330,"Whether":8331,"Ġ['":8332,"ĠHelp":8333,"Ġtrigger":8334,"greg":8335,"Ġgrat":8336,"Ġsubsequent":8337,"rd":8338,"ourcing":8339,"Ġinstalled":8340,"ĠPython":8341,"ĠUlt":8342,"Ġfrequent":8343,"rets":8344,"Ġcurriculum":8345,"ĠVirginia":8346,"Gener":8347,"yan":8348,"Ġexpanded":8349,"icating":8350,"Ġeager":8351,"Ġdinner":8352,"ĠSand":8353,"Ġhomeown":8354,"Ġlights":8355,"Ġprecious":8356,"Ġweren":8357,"organ":8358,"oric":8359,"Ps":8360,"Furthermore":8361,"Ġinher":8362,"ĠExt":8363,"Ġversions":8364,"Ġneck":8365,"Ġske":8366,"ĠCON":8367,"ĠCbd":8368,"Ġjson":8369,"ĠBi":8370,"RS":8371,"ĠEnergy":8372,"Ġnormally":8373,"ĠEst":8374,"Ġphotography":8375,"range":8376,"ĠChatGPT":8377,"itate":8378,"Ġfilter":8379,"Ġrenowned":8380,"Ġengineers":8381,"Ġstraightforward":8382,"Ġouts":8383,"Ġalternatives":8384,"Ġstuck":8385,"types":8386,"Ġchecks":8387,"ĠGard":8388,"Ġstrongly":8389,"Ġgradually":8390,"Ġsys":8391,"Ġbrill":8392,"Ġclassroom":8393,"acific":8394,"ĠJoseph":8395,"Ġlikes":8396,"Ġtank":8397,"ĠJoe":8398,"ĠHaw":8399,"Ġcurious":8400,"Ġ300":8401,"Ġentrepreneur":8402,"Ġappreciation":8403,"Ġuniversal":8404,"Ġlifetime":8405,"Ġcompat":8406,"ĠEnviron":8407,"igation":8408,"ĠGDP":8409,"Ġconfirmed":8410,"Ġextraordinary":8411,"Ġbike":8412,"ĠImpact":8413,"Ġplug":8414,"Ġflag":8415,"after":8416,"Ġbenefic":8417,"ĠFinally":8418,"Ġentities":8419,"vas":8420,"Ġseamless":8421,"abis":8422,"Ġprotest":8423,"Ġagreements":8424,"idx":8425,"ĠWrit":8426,"Ġbills":8427,"Ġgifts":8428,"Ġtimely":8429,"Ġinstrument":8430,"Ġchecking":8431,"ĠLatin":8432,"Ġsophisticated":8433,"Ġeleg":8434,"Ġconnecting":8435,"Ġraising":8436,"ĠAsian":8437,"Ġinterpretation":8438,"Ġsurvive":8439,"Ġtag":8440,"ĠEqu":8441,"sect":8442,"Ġbatt":8443,"Ġsomewhere":8444,"olid":8445,"tion":8446,"ĠPlus":8447,"Ġconvert":8448,"Ġinstruments":8449,"drop":8450,"Ġpermit":8451,"ĠMartin":8452,"ĠCustomer":8453,"property":8454,"Ġenthusiasts":8455,"rey":8456,"ĠRad":8457,"Ġconsists":8458,"Ġwrites":8459,"Ġelections":8460,"ĠKingdom":8461,"Ġinherent":8462,"parent":8463,"Ġtiny":8464,"root":8465,"Ġresulted":8466,"orse":8467,"Ġmaintained":8468,"Ġconsultation":8469,"Ġbare":8470,"See":8471,"imal":8472,"Ġmedications":8473,"Ġ2006":8474,"pread":8475,"Ġearnings":8476,"Ġwarning":8477,"Ġlesson":8478,"Ġdisorder":8479,"aved":8480,"ĠUt":8481,"ĠSection":8482,"Che":8483,"Other":8484,"Ġdiam":8485,"Ġdifferently":8486,"Ġaffects":8487,"Ġdelve":8488,"ĠFind":8489,"Ġassociation":8490,"Ġaddresses":8491,"Ġabund":8492,"Ġproposal":8493,"Ġhosting":8494,"ishment":8495,"ba":8496,"Ġprovisions":8497,"conf":8498,"made":8499,"itual":8500,"Ġdescribes":8501,"Ġfarmers":8502,"Ġmilk":8503,"abled":8504,"message":8505,"Ġcertification":8506,"Ġadministrative":8507,"Ġrating":8508,"ĠProcess":8509,"ĠAR":8510,"idespread":8511,"Ġworker":8512,"Ġtu":8513,"Ġsuppliers":8514,"Ġ1980":8515,"Because":8516,"depth":8517,"ĠFire":8518,"55":8519,"Ġignore":8520,"kens":8521,"Ġconventional":8522,"ĠPut":8523,"ĠCommon":8524,"Ġdetermining":8525,"ga":8526,"ĠAnaly":8527,"Dis":8528,"Ġju":8529,"Ġaddiction":8530,"Ġentering":8531,"ĠAngeles":8532,"arks":8533,"Ġregime":8534,"eli":8535,"Ġeconomics":8536,"mented":8537,"paper":8538,"Ġmail":8539,"Ġstocks":8540,"ĠSqu":8541,"Ġpivotal":8542,"Ġsafeguard":8543,"ĠWay":8544,"Ġevolved":8545,"status":8546,"ivals":8547,"novation":8548,"Ġprecision":8549,"Ġinterior":8550,"ĠShow":8551,"Em":8552,"ĠSupp":8553,"Trans":8554,"ĠChamp":8555,"ĠJeff":8556,"Ġsafely":8557,"TT":8558,"ĠMonday":8559,"Ġviewers":8560,"Ġpushing":8561,"Ġanalyzing":8562,"Ġ]":8563,"Ġzone":8564,"ashed":8565,"Ġwheel":8566,"iaries":8567,"rimination":8568,"Ġindicates":8569,"aph":8570,"Ġexplicit":8571,"ĠHR":8572,"Ġvisited":8573,"abi":8574,"essel":8575,"Ġconsiderations":8576,"models":8577,"acter":8578,"ailed":8579,"bow":8580,"Ġbreast":8581,"Ġpaths":8582,"ĠScot":8583,"Ġcoal":8584,"Ġminimize":8585,"Ġvari":8586,"Ġversus":8587,"Ġdiscipline":8588,"Ġspecialist":8589,"Ġfulfillment":8590,"Ġcreators":8591,"ventions":8592,"ĠAccess":8593,"ĠWhich":8594,"Ġmoist":8595,"Ġspr":8596,"ĠYoung":8597,"ĠRoyal":8598,"Ġobstacles":8599,"Ġlon":8600,"Ġfactory":8601,"Ġanymore":8602,"ifier":8603,"Ġinstances":8604,"abetes":8605,"ĠChildren":8606,"Ġsurvival":8607,"Ġgenetic":8608,"Ġvalued":8609,"Ġdiagnosis":8610,"Ġincorporate":8611,"plete":8612,"ye":8613,"var":8614,"Ġsuffered":8615,"Ġmodule":8616,"Ġdesigners":8617,"urb":8618,"verty":8619,"ĠRichard":8620,"Ġstudio":8621,"Ġathletes":8622,"Ġequival":8623,"Ġbias":8624,"yal":8625,"Ġ{'":8626,"Ġselecting":8627,"Ġpoverty":8628,"token":8629,"ĠDog":8630,"Ġretain":8631,"Ġrepay":8632,"ĠMedic":8633,"Ġhaz":8634,"Ġdipl":8635,"Ġdivided":8636,"Ġbasket":8637,"lywood":8638,"ĠDra":8639,"Ġjewelry":8640,"sl":8641,"mind":8642,"ĠInteg":8643,"ĠPrime":8644,"iors":8645,"ĠPan":8646,"Ġupcoming":8647,"urches":8648,"Ġsections":8649,"aneously":8650,"Ġpractition":8651,"pie":8652,"iot":8653,"ĠObama":8654,"AA":8655,"Ġwidespread":8656,"Ġexecution":8657,"Ġflavor":8658,"Ġacquired":8659,"Ġstudied":8660,"Ġdivorce":8661,"ĠHarr":8662,"Ġdust":8663,"ateral":8664,"ĠPakistan":8665,"Ġdesires":8666,"ĠLocal":8667,"Ġinstruction":8668,"Aut":8669,"Ġradical":8670,"Ġrefuge":8671,"eting":8672,"Ġstatistics":8673,"Ġaccountability":8674,"Ġuncle":8675,"ĠCharles":8676,"ĠTraining":8677,"ĠOl":8678,"isted":8679,"omet":8680,"ĠLight":8681,"Ġcup":8682,"Ġdisp":8683,"update":8684,"effective":8685,"Ġancest":8686,"iking":8687,"Ġhoriz":8688,"Ġterritory":8689,"Ġscenes":8690,"Ġdental":8691,"Ġflour":8692,"Ġextension":8693,"Ġvoices":8694,"Ġelected":8695,"Ġshowcase":8696,"Ġracial":8697,"Ġaircraft":8698,"orry":8699,"Ġbuyer":8700,"Ġputs":8701,"ĠDub":8702,"obby":8703,"Ġlegitimate":8704,"oston":8705,"Ġethnic":8706,"ĠHosp":8707,"Ġrational":8708,"Ġuncertainty":8709,"tech":8710,"ĠEnter":8711,"ĠRE":8712,"Ġhydro":8713,"Ġpreventing":8714,"Ġcollaborative":8715,"emed":8716,"reshold":8717,"ĠEnh":8718,"Ġpeak":8719,"Ġmere":8720,"Out":8721,"Ġattended":8722,"ĠRest":8723,"ĠCompan":8724,"apse":8725,"Ġlean":8726,"rat":8727,"Ġwire":8728,"ERS":8729,"car":8730,"Ġcomplexities":8731,"ĠMu":8732,"Ġcovering":8733,"Ġconstra":8734,"Ġparameters":8735,"aper":8736,"Ġcareers":8737,"Ġpersonnel":8738,"anes":8739,"cut":8740,"ĠAPI":8741,"ĠTal":8742,"Ġmurder":8743,"Ġflaw":8744,"Ġhub":8745,"ĠMen":8746,"Ġelectricity":8747,"ĠDaniel":8748,"igious":8749,"Ġspir":8750,"ĠCarolina":8751,"ucks":8752,"Ġhate":8753,"Ġcounty":8754,"Time":8755,"Ġproport":8756,"Ġcasual":8757,"eling":8758,"ethe":8759,"Ġproductive":8760,"everal":8761,"49":8762,"ĠAM":8763,"dataset":8764,"ĠLee":8765,"Ġ2005":8766,"ĠCD":8767,"Ġcredibility":8768,"bda":8769,"ailing":8770,"ĠBu":8771,"ĠRom":8772,"disc":8773,"Ġtension":8774,"itivity":8775,"Ġbankrupt":8776,"ji":8777,"ĠCapital":8778,"service":8779,"reement":8780,"arios":8781,"66":8782,"Ġblocks":8783,"anned":8784,"Part":8785,"Ġaesthetic":8786,"kind":8787,"keys":8788,"Ġinspiring":8789,"Ġpreserve":8790,"aud":8791,"47":8792,"orical":8793,"lymp":8794,"ionship":8795,"fire":8796,"Ġmathemat":8797,"Ġtransformed":8798,"ptions":8799,"Ġenorm":8800,"kl":8801,"Ġpublication":8802,"market":8803,"Ġmechanisms":8804,"ĠPerhaps":8805,"ato":8806,"ĠTown":8807,"Ġloving":8808,"clude":8809,"ĠTO":8810,"Ġphrase":8811,"ĠImport":8812,"Ġ32":8813,"ĠSouthern":8814,"Ġoffices":8815,"utch":8816,"ĠFact":8817,"Ġaccurately":8818,"Ġdisag":8819,"Ġtang":8820,"Ġvirus":8821,"eras":8822,"Ġinfection":8823,"Oh":8824,"ĠRelations":8825,"Ġmechanism":8826,"icy":8827,"Ġstorytelling":8828,"Ġintim":8829,"Ġemissions":8830,"Ġkne":8831,"ĠPot":8832,"Net":8833,"assertEqual":8834,"Ġelectrical":8835,"ocated":8836,"Ġimportantly":8837,"Ġtactics":8838,"Ġmic":8839,"Ġphysically":8840,"ĠPalestin":8841,"ogen":8842,"icken":8843,"Ġestablishment":8844,"Ġphotograp":8845,"apping":8846,"Ġordered":8847,"Ġimmense":8848,"values":8849,"fg":8850,"Ġappointed":8851,"anna":8852,"predict":8853,"Ġdeter":8854,"Ġharmful":8855,"Ġpicked":8856,"Ġpurchases":8857,"Ġintricate":8858,"ĠIndust":8859,"Ġconsiderable":8860,"Ġfalls":8861,"Ġperceived":8862,"ctu":8863,"BS":8864,"Ġrepresenting":8865,"iner":8866,"Ġfloat":8867,"Ġ1970":8868,"ĠSelf":8869,"Ġprincipal":8870,"Ġacquire":8871,"Ġprosper":8872,"Ġapplies":8873,"Ġ!=":8874,"Ġpitch":8875,"âĤ¬":8876,"power":8877,"ĠShould":8878,"John":8879,"Ġnn":8880,"ĠCreate":8881,"orks":8882,"Ġventure":8883,"Ġhell":8884,"ĠNY":8885,"ĠGame":8886,"Ġexamination":8887,"Also":8888,"Ġble":8889,"Ġspeaks":8890,"athered":8891,"ĠMach":8892,"Ġgains":8893,"Ġdataset":8894,"awn":8895,"Art":8896,"02":8897,"Ġassistant":8898,"Ġromantic":8899,"ĠSaturday":8900,"Ġadequate":8901,"Ġkeys":8902,"Ġreputable":8903,"Ġcontained":8904,"Ġdamaged":8905,"Ġought":8906,"Ġdrinking":8907,"Ġbeloved":8908,"Ġtrem":8909,"Ġcomplaint":8910,"Ġwaters":8911,"Ġlets":8912,"Like":8913,"fare":8914,"rance":8915,"ifted":8916,"child":8917,"device":8918,"ĠDemocr":8919,"iates":8920,"inction":8921,"lication":8922,"Ġprofession":8923,"Ġthin":8924,"Ġfrequency":8925,"hire":8926,"Ġacquisition":8927,"Ġclosing":8928,"ĠSimilar":8929,"Ġspin":8930,"Ġloud":8931,"Ġcomputers":8932,"Ġpin":8933,"esome":8934,"ĠHon":8935,"ĠJul":8936,"Ġintegrate":8937,"swe":8938,"Ġinvited":8939,"Ġintrig":8940,"Ġparticipating":8941,"ribute":8942,"Any":8943,"Ġvaccine":8944,"ĠNext":8945,"Ġcaptured":8946,"ĠPR":8947,"aunt":8948,"best":8949,"Ġincorporating":8950,"Ġhat":8951,"Ġstrive":8952,"Ġloves":8953,"Ġexplanation":8954,"ĠBrazil":8955,"Ġsuggestions":8956,"ovid":8957,"ĠRo":8958,"gency":8959,"Ġaccidents":8960,"Ġdf":8961,"ANT":8962,"42":8963,"...\"":8964,"arity":8965,"arters":8966,"Ġfranch":8967,"ĠEss":8968,"adata":8969,"necess":8970,"ortion":8971,"peror":8972,"Ġleveraging":8973,"Ed":8974,"Ġvoc":8975,"first":8976,"bration":8977,"Ġadvocate":8978,"Ġmeals":8979,"Ġextends":8980,"ĠGal":8981,"Ġappealing":8982,"Ġreduces":8983,"Ġpump":8984,"Ġrental":8985,"Ġfishing":8986,"Ġattach":8987,"Ġglobe":8988,"Ġbirds":8989,"ĠManager":8990,"Ġcriticism":8991,"Ġdisaster":8992,"Ġoccasion":8993,"onymous":8994,"aid":8995,"Ġworkshops":8996,"77":8997,"rape":8998,"Ġdestruction":8999,"allel":9000,"Ġmaximize":9001,"Ġembracing":9002,"Ġmask":9003,"enger":9004,"emies":9005,"âĶ":9006,"Ġauthenticity":9007,"Ġnetworking":9008,"ĠMur":9009,"Ġprime":9010,"sters":9011,"Ġinfluences":9012,"PO":9013,"ĠTour":9014,"strong":9015,"ackson":9016,"noon":9017,"Car":9018,"Ġenjoyable":9019,"iosity":9020,"ghan":9021,"elfare":9022,"Ġritual":9023,"Ġratio":9024,"Ġtwe":9025,"ixture":9026,"ĠLearn":9027,"Ġmotivated":9028,"ĠRome":9029,"Ġwhereas":9030,"sem":9031,"Ġdeveloper":9032,"ushed":9033,"rick":9034,"umer":9035,"ĠProm":9036,"Ke":9037,"Ġproved":9038,"His":9039,"PE":9040,"build":9041,"Ġdetection":9042,"Ġguitar":9043,"Ġdece":9044,"taining":9045,"Ġgear":9046,"Ġconcert":9047,"Ġresc":9048,"Ġcryst":9049,"Ġcheat":9050,"Ġpackaging":9051,"Ġprecisely":9052,"ĠĠĠĠĠĠĠĠĠĠĠĠĠĠĠĠĠĠĠĠĠĠĠĠĠĠĠ":9053,"Ġstructural":9054,"CS":9055,"holder":9056,"Ġalleg":9057,"BI":9058,"Ġgaining":9059,"mn":9060,"ĠPsych":9061,"Ġforgot":9062,"zone":9063,"Ġenrollment":9064,"ĠDi":9065,"afe":9066,"anted":9067,"Ġattached":9068,"Ġlenders":9069,"ĠColumb":9070,"endment":9071,"Ġdecrease":9072,"Rep":9073,"Ġmyster":9074,"ĠOlymp":9075,"Ġrealistic":9076,"Ġobligation":9077,"response":9078,"Ġthoroughly":9079,"irs":9080,"Ġcontinuously":9081,"ĠGeorgia":9082,"Ġwww":9083,"Ġgathering":9084,"onto":9085,"Ġshops":9086,"Ġbroadcast":9087,"obb":9088,"Ġlabels":9089,"Ġliberal":9090,"Ġvessel":9091,"Ġbench":9092,"width":9093,"Ġorient":9094,"Ġow":9095,"Ġpublis":9096,"Ġperpet":9097,"ĠJones":9098,"Ġsubmitted":9099,"Ġtraders":9100,"Ġspouse":9101,"Ġinvested":9102,"Ret":9103,"ĠKorea":9104,"{}":9105,"Ġintelligent":9106,"Ġsecondary":9107,"bet":9108,"Ġembed":9109,"mean":9110,"ĠSoftware":9111,"ouses":9112,"iams":9113,"Ġsalary":9114,"Ġduration":9115,"ĠEs":9116,"entials":9117,"orrect":9118,"ĠClean":9119,"Ġfru":9120,"Ġrecy":9121,"orted":9122,"orses":9123,"pool":9124,"Ġbroker":9125,"ĠComput":9126,"Ġmanufacturer":9127,"Ġboxes":9128,"Ġexpense":9129,"aug":9130,"Ġleather":9131,"ĠAdam":9132,"ĠMatt":9133,"ĠRegular":9134,"ĠCur":9135,"Ġdestroyed":9136,"ĠRepublican":9137,"Ġeliminate":9138,"appy":9139,"diction":9140,"Ġwanting":9141,"ĠSenate":9142,"Ġargued":9143,"Ġpublicly":9144,"ĠDou":9145,"Ġcompr":9146,"ivation":9147,"Ġmarks":9148,"Ġinclusion":9149,"IF":9150,"OM":9151,"Ġaffairs":9152,"Ġbroke":9153,"Ġcouples":9154,"ulpt":9155,"::":9156,"this":9157,"Ġtall":9158,"Ġquery":9159,"ypes":9160,"Ġcontaining":9161,"ĠCharl":9162,"Ġacceptance":9163,"Ġsalt":9164,"ĠTreat":9165,"aping":9166,"QL":9167,"Ġflowers":9168,"Ġrequiring":9169,"thon":9170,"ĠConstitution":9171,"ĠRevolution":9172,"Ġgrounds":9173,"including":9174,"ĠKar":9175,"Ġfiction":9176,"ĠNOT":9177,"Ġthereby":9178,"Ġadditionally":9179,"aza":9180,"Ġfrustration":9181,"Ġcomply":9182,"Ġrepeat":9183,"ĠBoston":9184,"ĠBeach":9185,"ĠProtection":9186,"Ġnewly":9187,"Ġcelebrated":9188,"Ġenjoying":9189,"atching":9190,"ĠFre":9191,"Ġdemocratic":9192,"Ġfert":9193,"ĠThink":9194,"ĠAS":9195,"reated":9196,"Ġsupplements":9197,"Ġdurability":9198,"Ġtrials":9199,"Ġunity":9200,"Ġdeclared":9201,"ĠExperience":9202,"Ġfro":9203,"erty":9204,"fting":9205,"ĠFour":9206,"LP":9207,"Ġportray":9208,"normal":9209,"Ġinflam":9210,"sum":9211,"Ġencompass":9212,"aval":9213,"ĠSuccess":9214,"vation":9215,"ady":9216,"Ġweekly":9217,"âĦ":9218,"ĠContact":9219,"Ġadmit":9220,"Ġactor":9221,"Ġscenarios":9222,"dem":9223,"ifice":9224,"Ġarrive":9225,"Ġspecified":9226,"Ġmac":9227,"Ġpassage":9228,"Ġunusual":9229,"ampl":9230,"Ġdiscussing":9231,"ĠPers":9232,"pu":9233,"Ġgolden":9234,"endar":9235,"Ġpulled":9236,"Ġprospects":9237,"apore":9238,"Answer":9239,"ĠAri":9240,"Ġbranch":9241,"vol":9242,"Ġmenu":9243,"ĠIsraeli":9244,"unity":9245,"Ġcher":9246,"thew":9247,"ĠEnt":9248,"Ġmemorable":9249,"ĠCross":9250,"Ġreflecting":9251,"ednes":9252,"away":9253,"Overall":9254,"Ġcabin":9255,"month":9256,"Ġboss":9257,"Ġboys":9258,"cur":9259,"Ġtempt":9260,"Ġinvestor":9261,"wan":9262,"Ġrestore":9263,"Ġwra":9264,"Ġrecognizing":9265,"Ġenduring":9266,"ĠIslamic":9267,"ĠMedicare":9268,"ĠEastern":9269,"Ġalter":9270,"ĠUnfortunately":9271,"Ġgiant":9272,"Ġfemin":9273,"Ġsimult":9274,"Ġnavigating":9275,"Ġagenda":9276,"agine":9277,"Ġcertified":9278,"Ġhopes":9279,"Ġattending":9280,"ĠImpro":9281,"only":9282,"iana":9283,"uesday":9284,"items":9285,"Ġreveals":9286,"obj":9287,"Ġweapon":9288,"ĠEll":9289,"People":9290,"Ġhighlighted":9291,"ĠBuy":9292,"Ġposted":9293,"Ġcrazy":9294,"link":9295,"ulumi":9296,"Ġgrateful":9297,"aa":9298,"Ġcharacterized":9299,"ĠIrish":9300,"Ġvisits":9301,"ĠSales":9302,"Ġcrimes":9303,"Ġexhibition":9304,"Ġranging":9305,"Ġcolon":9306,"Ġfits":9307,"Ben":9308,"'])":9309,"Ġpuzz":9310,"Ġnumpy":9311,"ĠMult":9312,"cat":9313,"Ġ75":9314,"Ġarbit":9315,"ĠModern":9316,"ĠGuide":9317,"Ġspeaker":9318,"Ġdisorders":9319,"Ġmolec":9320,"Ġdollar":9321,"Ġexcessive":9322,"Ġaggressive":9323,"ĠJon":9324,"va":9325,"ĠType":9326,"abil":9327,"Ġpriorities":9328,"Ġinflamm":9329,"Ġaccordance":9330,"Ġawards":9331,"Ġtemple":9332,"ATION":9333,"May":9334,"Ġrarely":9335,"ĠUnlike":9336,"Ġwake":9337,"Ġspots":9338,"Ġlists":9339,"Ġdisability":9340,"aped":9341,"agraph":9342,"igrants":9343,"cr":9344,"pm":9345,"pop":9346,"Ġbreach":9347,"ĠFest":9348,"ĠPhys":9349,"Ġbreaks":9350,"Ġobserve":9351,"Ġpushed":9352,"PN":9353,"âĦ¢":9354,"Ġholy":9355,"Ġasks":9356,"mond":9357,"ESS":9358,"ĠOfficer":9359,"oster":9360,"PD":9361,"angel":9362,"Ġequivalent":9363,"Ġfears":9364,"Ġroyal":9365,"ĠEmpire":9366,"Ġmerg":9367,"eller":9368,"ĠJac":9369,"GB":9370,"Ġ2004":9371,"Ġanyway":9372,"Ġpreced":9373,"esty":9374,"Ġcream":9375,"style":9376,"Ġlicensed":9377,"ustain":9378,"Ġcapability":9379,"Ġnotion":9380,"Ġviewed":9381,"Ġpatience":9382,"Ġabroad":9383,"ĠPolit":9384,"Ġdrives":9385,"ĠDNA":9386,"fold":9387,"Ġyellow":9388,"ursday":9389,">>":9390,"ested":9391,"random":9392,"Ġreturning":9393,"Ġtraits":9394,"Ġlighting":9395,"Ġhasn":9396,"aluable":9397,"Ġyoga":9398,"Ob":9399,"alog":9400,"Ġdelicious":9401,"Ġreflected":9402,"ĠHenry":9403,"Ġamongst":9404,"ella":9405,"Ġnerv":9406,"Ġpromising":9407,"ĠRam":9408,"Ġrose":9409,"Ġhighlighting":9410,"ĠExp":9411,"Ġlik":9412,"Ġsubscription":9413,"Ġdiabetes":9414,"Ġdropped":9415,"ĠMah":9416,"TR":9417,"craft":9418,"Ġmarketplace":9419,"ĠClick":9420,"Ġkilling":9421,"ĠRequ":9422,"Ġsuspect":9423,"Ġstructured":9424,"Add":9425,"Ġstreaming":9426,"Ġ36":9427,"ĠSpain":9428,"ummy":9429,"ĠHind":9430,"vard":9431,"Ġseller":9432,"Model":9433,"Ġnutri":9434,"Ġtackle":9435,"ĠCompanies":9436,"Ms":9437,"mony":9438,"Ġavoiding":9439,"Ġdeliber":9440,"content":9441,"Ġhorm":9442,"ĠMind":9443,"Ġattributes":9444,"powered":9445,"%,":9446,"ernel":9447,"Ġworried":9448,"Ġassigned":9449,"Ġsignals":9450,"ÃŃ":9451,"ĠChris":9452,"ĠAmong":9453,"Ġpursuit":9454,"ĠSea":9455,"Mr":9456,"elly":9457,"ĠMike":9458,"Ġpeers":9459,"Ġphenomenon":9460,"Ġwatched":9461,"Ġtip":9462,"ĠStill":9463,"aded":9464,"acies":9465,"ĠKh":9466,"Ġafternoon":9467,"advant":9468,"oured":9469,"Ġminister":9470,"Ġperf":9471,"eted":9472,"Ġnursing":9473,"ĠForce":9474,"Ġocean":9475,"Ġdenied":9476,"Ġangry":9477,"ilty":9478,"owed":9479,"Ġfiling":9480,"ĠWild":9481,"Ġformula":9482,"athan":9483,"site":9484,"Ġspl":9485,"icide":9486,"Ġendless":9487,"sight":9488,"specific":9489,"Ġmountains":9490,"Ġquotes":9491,"Ġelsewhere":9492,"Ġdeposit":9493,"bridge":9494,"Ġlunch":9495,"Ġcats":9496,"ĠHand":9497,"Ġvoters":9498,"owers":9499,"ĠBeh":9500,"Ġresid":9501,"Ġtransc":9502,"Ġinvas":9503,"Ġcircle":9504,"ĠAL":9505,"Ġsequence":9506,"Ġsamples":9507,"à¤":9508,"Ġearning":9509,"\">":9510,"Ġaccompan":9511,"Ġcompete":9512,"ĠAge":9513,"acher":9514,"ĠFair":9515,"cycle":9516,"ĠChall":9517,"Ġopens":9518,"ĠAdministration":9519,"ĠCup":9520,"ĠSpace":9521,"Ġworkflow":9522,"layer":9523,"aylor":9524,"Ġcostly":9525,"Ġcollections":9526,"46":9527,"ĠName":9528,"Ġuniform":9529,"Ġshooting":9530,"ĠIdent":9531,"Ġdispl":9532,"Ġrepresentatives":9533,"Ġencrypt":9534,"Ġpion":9535,"ednesday":9536,"ĠOrder":9537,"Ġtrustworthy":9538,"Ġuncom":9539,"ĠThree":9540,"Ġshowcasing":9541,"Ġbrothers":9542,"ĠPoint":9543,"Ġsubtle":9544,"03":9545,"85":9546,"ĠFar":9547,"Tw":9548,"Ġdistract":9549,"Ġinterpre":9550,"Ġassociate":9551,"izz":9552,"umbing":9553,"iblical":9554,"Ġsomehow":9555,"wind":9556,"Ġimagination":9557,"ĠSav":9558,"Ġparking":9559,"Ġware":9560,"ĠAz":9561,"cho":9562,"ĠBuild":9563,"Ġconfusion":9564,"ĠStan":9565,"Ġlam":9566,"Ġgathered":9567,"Ġ1960":9568,"Ġtitles":9569,"Ġunnecess":9570,"Ġaspir":9571,"Ġrobot":9572,"ĠMid":9573,"osa":9574,"riptions":9575,"Ġediting":9576,"Ġmock":9577,"Ġspecialists":9578,"ĠOkay":9579,"Ġmagazine":9580,"Ġtexts":9581,"Ġletting":9582,"Ġending":9583,"Ġfulfilling":9584,"Ġdiscrimination":9585,"inite":9586,"Ġdurable":9587,"ĠPo":9588,"Ġconsulting":9589,"Ġthinks":9590,"Ġcelebration":9591,"ĠJackson":9592,"Ġoral":9593,"Ġverify":9594,"Ġchurches":9595,"Ġunderstands":9596,"Ġmonetary":9597,"Ġlogistics":9598,"Ġdepartments":9599,"formed":9600,"ushing":9601,"ĠQuestions":9602,"RC":9603,"Ġprevention":9604,"Os":9605,"ĠLegal":9606,"ali":9607,"Ġtracks":9608,"Ġtied":9609,"Ġtroops":9610,"Ġstartup":9611,"Ġbomb":9612,"Ġlogic":9613,"Ġmainstream":9614,"Ġedition":9615,"Ġmes":9616,"Ġhide":9617,"Ġtranslation":9618,"Ġsocietal":9619,"ca":9620,"Ġconfidential":9621,"ĠCopyright":9622,"roduction":9623,"Ġfeaturing":9624,"connected":9625,"ĠConsult":9626,"ĠNations":9627,"Ġsellers":9628,"Ġcrack":9629,"Ġlanding":9630,"irus":9631,"ĠSafety":9632,"ĠNumber":9633,"ĠVers":9634,"Ġdishes":9635,"onic":9636,"ĠAdvis":9637,"static":9638,"Ġmild":9639,"Ġdependent":9640,"ĠGall":9641,"Please":9642,"elihood":9643,"Ġinfluential":9644,"Ġrender":9645,"Ġperm":9646,"ja":9647,"Ġoverlook":9648,"Ġwondering":9649,"Ġliked":9650,"Ġawarded":9651,"Ġvig":9652,"itudes":9653,"xid":9654,"ĠPur":9655,"ĠEngineering":9656,"Ġoffense":9657,"ĠPacific":9658,"Ġretention":9659,"anning":9660,"Ġly":9661,"Ġachievement":9662,"ials":9663,"Ġsubsid":9664,"ennis":9665,"ĠPen":9666,"ĠNorthern":9667,"save":9668,"inar":9669,"Ġverse":9670,"Ġshell":9671,"04":9672,"ĠSingapore":9673,"Ġoffensive":9674,"etch":9675,"Ġcannabis":9676,"08":9677,"Ġwaves":9678,"common":9679,"ĠWilliams":9680,"Ġpsychology":9681,"ĠAndrew":9682,"Ġadvisor":9683,"ĠEmb":9684,"Ġbreathing":9685,"Ġviolent":9686,"iac":9687,"Ġaccordingly":9688,"Ġadverse":9689,"Ġenormous":9690,"Ġassault":9691,"Ġreinfor":9692,"Ġvice":9693,"Ġchemicals":9694,"rot":9695,"Ġregarded":9696,"Ġindicated":9697,"Ġphilanth":9698,"Ġlegs":9699,"Remember":9700,"``":9701,"Ġdeserve":9702,"itu":9703,"Ġutilized":9704,"ĠIndeed":9705,"Ġmystery":9706,"Ġnewsletter":9707,"unn":9708,"American":9709,"Par":9710,"Co":9711,"Ġinequ":9712,"ailable":9713,"Ġplate":9714,"Ġ2003":9715,"Ġrelating":9716,"Ġrespective":9717,"Ġjury":9718,"Ġlikewise":9719,"Ġportra":9720,"ĠGar":9721,"Ġeast":9722,"ĠPath":9723,"ĠWindows":9724,"ql":9725,"Ġpackages":9726,"vin":9727,"Ġvariable":9728,"Ġvolat":9729,"Ġelder":9730,"sen":9731,"Ġguided":9732,"Ġpromotion":9733,"Ġpad":9734,"Ġconservation":9735,"Ġglobally":9736,"position":9737,"Ġdesper":9738,"Ġexclus":9739,"Ġpeer":9740,"Ġsculpt":9741,"Ġtestimony":9742,"Ġmitigate":9743,"Ġoptimization":9744,"ĠChoose":9745,"Ġholistic":9746,"ĠCirc":9747,"Ġorganizational":9748,"Ġhook":9749,"Ġpregnancy":9750,"Ġfur":9751,"ĠDown":9752,"Ġgover":9753,"ĠLinked":9754,"Ġfunny":9755,"Ġdiplom":9756,"store":9757,"Ġinvaluable":9758,"charge":9759,"Ġwet":9760,"ppy":9761,"ĠLibrary":9762,"Ġpassword":9763,"Ġremoving":9764,"imental":9765,"Ġconcluded":9766,"Ġpeaceful":9767,"EX":9768,"Ġcuriosity":9769,"oubted":9770,"Ġ2001":9771,"Ġhang":9772,"[:,":9773,"ĠControl":9774,"Ġimmigration":9775,"Ġpursuing":9776,"Ġwars":9777,"sing":9778,"ĠAutom":9779,"ĠContin":9780,"Ġbunch":9781,"ĠAttor":9782,"Ġsacred":9783,"roph":9784,"such":9785,"uis":9786,"Ġterr":9787,"TO":9788,"ĠZh":9789,"duction":9790,"Ġflying":9791,"Ġcorporations":9792,"ATE":9793,"78":9794,"Ġamid":9795,"Ġinspection":9796,"ĠTry":9797,"Ġaccessibility":9798,"abeth":9799,"igm":9800,"Ġhybrid":9801,"ĠML":9802,"Ġblank":9803,"Ġwestern":9804,"Ġspectrum":9805,"Ġtremend":9806,"graph":9807,"ĠDam":9808,"iders":9809,"mic":9810,"Ġplain":9811,"ĠVen":9812,"ĠDar":9813,"Ġneglect":9814,"Ġquantity":9815,"Ġinstitutional":9816,"ĠChristianity":9817,"Ġgrasp":9818,"Ġaccused":9819,"Ġenabled":9820,"Ġglad":9821,"Ġexempt":9822,"Ġspoken":9823,"Ġreferences":9824,"Ġaudit":9825,"ĠJersey":9826,"files":9827,"Ġdramatic":9828,"Ġoverse":9829,"Ġcompletion":9830,"Ġsmell":9831,"python":9832,"Ġrelate":9833,"Ġvoting":9834,"oosing":9835,"Ġdilig":9836,"Ġvendors":9837,"swered":9838,"Ġarrangements":9839,"ĠEns":9840,"Ġnervous":9841,"cal":9842,"Ġgoverning":9843,"Ġintr":9844,"etheless":9845,"Lear":9846,"Ġattorneys":9847,"Ġethics":9848,"Ġcodes":9849,"ĠCP":9850,"Ġsilent":9851,"Ġaffecting":9852,"bour":9853,"ĠPrinc":9854,"ĠLy":9855,"ĠTik":9856,"Ġguides":9857,"Ġkeen":9858,"Ġproceedings":9859,"case":9860,"ĠNative":9861,"ĠVan":9862,"ĠRather":9863,"ĠQueen":9864,"Ġkeywords":9865,"ĠZeal":9866,"rapeut":9867,"Ġexplos":9868,"Ġrefused":9869,"ĠContent":9870,"Ġhoping":9871,"ĠMichigan":9872,"Ġtheories":9873,"Ġinstantly":9874,"Ġmoon":9875,"06":9876,"venues":9877,"Ġticket":9878,"ĠOptional":9879,"Ġcopyright":9880,"Ġkingdom":9881,"Ġcustomized":9882,"Ġadvers":9883,"Ġpersu":9884,"ĠAsh":9885,"Ġfing":9886,"Ġsymbols":9887,"Ġconsistency":9888,"ordan":9889,"fortable":9890,"Ġcinem":9891,"Ġtransformative":9892,"ĠAgency":9893,"cribed":9894,"ĠCS":9895,"ashes":9896,"isting":9897,"ĠWeek":9898,"Ġdining":9899,"oubtedly":9900,"ador":9901,"fix":9902,"Ġuncover":9903,"reation":9904,"Ġgenre":9905,"ĠSteve":9906,"bound":9907,"Ġruling":9908,"umph":9909,"Ġministry":9910,"Ġdirectors":9911,"ĠTech":9912,"Ġadjustments":9913,"Ġrequested":9914,"orient":9915,"Ġconcentration":9916,"ĠFrancisco":9917,"illy":9918,"Ġbrown":9919,"Ġcuts":9920,"Ġdistinctive":9921,"Ġdeleg":9922,"Ġcomplement":9923,"eous":9924,"Ġadvertise":9925,"Ġglory":9926,"MP":9927,"ĠNigeria":9928,"Requ":9929,"http":9930,"Ġbes":9931,"ĠLab":9932,"ello":9933,"ĠDefense":9934,"gress":9935,"Ġupload":9936,"ĠDemocratic":9937,"oming":9938,"encing":9939,"Ġinnovations":9940,"Ġvent":9941,"Ġbid":9942,"ĠOrig":9943,"Ġharsh":9944,"irl":9945,"Ġcomposition":9946,"archy":9947,")))":9948,"uming":9949,"ITH":9950,"fits":9951,"Ġcolonial":9952,"Ġassignment":9953,"ĠSS":9954,"Ġloop":9955,"mask":9956,"Ġpup":9957,"Ġunlikely":9958,"ivated":9959,"ĠCertification":9960,"Ġbull":9961,"large":9962,"Ġidentification":9963,"DR":9964,"]]":9965,"Ġliterary":9966,"Ġroads":9967,"Ġclubs":9968,"Ġinnoc":9969,"ĠMic":9970,"Ġgotten":9971,"context":9972,"ĠEmer":9973,"err":9974,"ĠEconomic":9975,"Ġsteady":9976,"Ġsurrounded":9977,"arly":9978,"Ġbuck":9979,"unate":9980,"Ġtomorrow":9981,"ĠFriend":9982,"Ġwelfare":9983,"Ġapartment":9984,"rous":9985,"elcome":9986,"icket":9987,"Ġcombine":9988,"Ġpython":9989,"ĠEarly":9990,"plates":9991,"Ġinstinct":9992,"Ġestimate":9993,"ĠOil":9994,"ĠNaz":9995,"pany":9996,"ĠStudent":9997,"Ġconservative":9998,"ĠScript":9999,"Ġhadn":10000,"Ġseeks":10001,"Ġdiscom":10002,"Ġinjured":10003,"ĠBoy":10004,"Ġadmitted":10005,"Ġconducting":10006,"Ġlikelihood":10007,"Ġreverse":10008,"Ġanswered":10009,"Ġrestoration":10010,"NE":10011,"Ġmilest":10012,"ĠToronto":10013,"Ġemotion":10014,"Ġheal":10015,"esterday":10016,"Ġshapes":10017,"Ġterrible":10018,"oples":10019,"Ġagricultural":10020,"ĠPop":10021,"Ġtherapist":10022,"Ġtemperatures":10023,"Ġwid":10024,"ĠOhio":10025,"Ġunfold":10026,"Ġsignature":10027,"viously":10028,"Ġcertificate":10029,"Ġstriking":10030,"ĠBow":10031,"ĠZealand":10032,"ĠXia":10033,"unicip":10034,"Ġacadem":10035,"File":10036,"Ġweigh":10037,"graduate":10038,"ĠSmall":10039,"Ġenemies":10040,"Ġexport":10041,"health":10042,"ĠModel":10043,"ĠDonald":10044,"izza":10045,"angers":10046,"aul":10047,"ĠDream":10048,"ĠMs":10049,"struct":10050,"urrently":10051,"Ġversatile":10052,"Ġcoat":10053,"Ġboards":10054,"Ġnurse":10055,"ansas":10056,"ĠNote":10057,"FC":10058,"Ġsorts":10059,"Ġrewarding":10060,"rm":10061,"Ġengineer":10062,"ĠStat":10063,"Ġ150":10064,"ĠThings":10065,"Ġcow":10066,"About":10067,"Ġrefund":10068,"erge":10069,"Ġpopulations":10070,"Ġurl":10071,"Ġoverl":10072,"Ġoperates":10073,"ictions":10074,"Ġvirtually":10075,"omy":10076,"Ġseasons":10077,"ĠChange":10078,"amber":10079,"phones":10080,"sim":10081,"Ġms":10082,"Sub":10083,"Ġbuilds":10084,"ĠSn":10085,"Ġoverview":10086,"Ġasc":10087,"})":10088,"KE":10089,"ĠLittle":10090,"Ġfestival":10091,"ĠConference":10092,"module":10093,"gical":10094,"ui":10095,"Ġdiffer":10096,"Ġtissue":10097,"ĠMS":10098,"ĠTuesday":10099,"Ġhass":10100,"ĠBa":10101,"Ġgaps":10102,"RL":10103,"pha":10104,"Ġapparently":10105,"Ġwishes":10106,"aration":10107,"98":10108,"aze":10109,"iances":10110,"ĠMess":10111,"vance":10112,"Ġpoetry":10113,"Ġcharity":10114,"Ġdad":10115,"Ġjurisdiction":10116,"Ġodds":10117,"isa":10118,"Ġguilty":10119,"ĠTurkey":10120,"Ġdrama":10121,"rer":10122,"Ġampl":10123,"ogy":10124,"sche":10125,"Ġobtaining":10126,"Ġdevast":10127,"ĠPM":10128,"Ġdefect":10129,"izable":10130,"project":10131,"vania":10132,"Ġorganize":10133,"Ġirre":10134,"ependent":10135,"07":10136,"Ġtheore":10137,"Ġtum":10138,"Ġmirror":10139,"ropri":10140,"96":10141,"Ġequality":10142,"Ġcompleting":10143,"ĠĠĠĠĠĠĠĠčĊ":10144,"bots":10145,"Ġpromotes":10146,"Ġtired":10147,"Ġcooper":10148,"Ġsocieties":10149,"\"],":10150,"FF":10151,"Ġlift":10152,"ĠHollywood":10153,"Ġbankruptcy":10154,"Ġtalented":10155,"Each":10156,"Ġhandb":10157,"Ġsovere":10158,"esis":10159,"Ġpetition":10160,"Ġfundament":10161,"color":10162,"Ġbab":10163,"ressing":10164,"Ġtreating":10165,"ĠSeries":10166,"Ġprofiles":10167,"direct":10168,"Ġresidence":10169,"Ġprinting":10170,"Ġtargeting":10171,"Ġconsolid":10172,"Ġmuscles":10173,"Ġpromised":10174,"ĠVietnam":10175,"Ġstruck":10176,"Ġpilot":10177,"Ġbackgrounds":10178,"loc":10179,"Ġbuff":10180,"erals":10181,"title":10182,"Ġfinger":10183,"Ġhospitals":10184,"Ġdesigning":10185,"iano":10186,"Ġhealthier":10187,"fall":10188,"Ġ2002":10189,"ĠHom":10190,"Ġincidents":10191,"marks":10192,"Ġproc":10193,"inth":10194,"da":10195,"Ġcontrary":10196,"OG":10197,"nodes":10198,"ĠAction":10199,"ipt":10200,"ppers":10201,"Ġleague":10202,"Ġinhab":10203,"CON":10204,"acon":10205,"Ġprocessed":10206,"Ġuh":10207,"inton":10208,"alo":10209,"Ġintimate":10210,"ĠPrem":10211,"Ġreass":10212,"Ġinvite":10213,"Ġgenerating":10214,"ĠNov":10215,"Ġsouthern":10216,"jo":10217,"Ġdiscomfort":10218,"Ġplane":10219,"Ġresident":10220,"elta":10221,"ĠThursday":10222,"Ġsettled":10223,"itting":10224,"even":10225,"Ġlucky":10226,"ĠStay":10227,"reach":10228,"Ġimg":10229,"otive":10230,"Ġirrit":10231,"Ġtiming":10232,"Ġharvest":10233,"Ġsimultaneously":10234,"Ġdispute":10235,"adium":10236,"bu":10237,"Ġrespected":10238,"Ġhole":10239,"Ġnod":10240,"sign":10241,"Ġpromptly":10242,"oof":10243,"ĠBang":10244,"opher":10245,"Ġhomeowners":10246,"ĠShop":10247,"ĠArticle":10248,"Ġfluid":10249,"Ġsubscrib":10250,"Ġenv":10251,"ĠSystems":10252,"proof":10253,"Ġstack":10254,"Ġ48":10255,"ĠTravel":10256,"rimin":10257,"Ġcontributes":10258,"terior":10259,"Ġpets":10260,"acteria":10261,"Resp":10262,"Ġcommod":10263,"email":10264,"Ġqualify":10265,"Ġbars":10266,"izabeth":10267,"erman":10268,"Ġseemingly":10269,"Ġcouncil":10270,"Ġjack":10271,"Ġdemonstrates":10272,"Ġrhyth":10273,"Ġconqu":10274,"Ġarmed":10275,"ĠÃ":10276,"ĠMinistry":10277,"Ġinvestigate":10278,"sell":10279,"ĠPhilipp":10280,"\").":10281,"Start":10282,"icism":10283,"igma":10284,"Ġshifts":10285,"oT":10286,"adel":10287,"Ġscheduled":10288,"Ġmessaging":10289,"ĠMoon":10290,"Fi":10291,"Ġseeds":10292,"arer":10293,"Ġpublishing":10294,"Ġloose":10295,"ĠUser":10296,"Def":10297,"ĠRen":10298,"Ġcust":10299,"Ġundet":10300,"ĠInterest":10301,"Ġunnecessary":10302,"Ġpoliticians":10303,"Ġremed":10304,"Ġties":10305,"ĠReturns":10306,"ping":10307,"HT":10308,"Ġpose":10309,"aire":10310,"conv":10311,"Ġmeticul":10312,"Ġnecessity":10313,"Ġattribute":10314,"ĠHard":10315,"Ġawesome":10316,"ĠPass":10317,"Ġconsp":10318,"Ġretailers":10319,"qa":10320,"Ġcoins":10321,"Ġsecured":10322,"Ġcreatures":10323,"Tok":10324,"Ġrevel":10325,"ĠFinance":10326,"ĠQuality":10327,"Ġdepos":10328,"Ġharmony":10329,"Ġbeer":10330,"they":10331,"Ġtickets":10332,"Ġorigins":10333,"close":10334,"Ġagriculture":10335,"Ġvert":10336,"ĠBul":10337,"Ġbooking":10338,"Ġ[\"":10339,"avering":10340,"ĠRa":10341,"Ġcollaborate":10342,"ensing":10343,"09":10344,"Ġcontractor":10345,"bul":10346,"home":10347,"Ġdemanding":10348,"Ġemphasizes":10349,"Ġhorses":10350,"ĠFac":10351,"ifact":10352,"ĠChapter":10353,"torch":10354,"ĠHospital":10355,"Ġtroubles":10356,"agger":10357,"Ġ65":10358,"Äģ":10359,"ĠCoast":10360,"ĠLinkedIn":10361,"achelor":10362,"Ġpreval":10363,"Ġmira":10364,"ĠIndustry":10365,"ĠAT":10366,"ĠLow":10367,"hend":10368,"Ġfreel":10369,"ĠBetter":10370,"Ġvacation":10371,"Ġassessments":10372,"Ġresonate":10373,"Ġgratitude":10374,"Ġmature":10375,"Ġmetals":10376,"Ġsacrifice":10377,"Ġspeakers":10378,"mith":10379,"building":10380,"Ġkil":10381,"ĠAfghan":10382,"auth":10383,"pin":10384,"syl":10385,"Ġprest":10386,"Ġlender":10387,"econom":10388,"Ġcorruption":10389,"ĠEstate":10390,"rained":10391,"ĠWorks":10392,"Log":10393,"mates":10394,"Ġresponded":10395,"Ġarrival":10396,"Ġfunctioning":10397,"Ġreadily":10398,"Ġbelonging":10399,"erry":10400,"roke":10401,"Ġfosters":10402,"ĠWednesday":10403,"query":10404,"CD":10405,"una":10406,"Ġairport":10407,"istical":10408,"Ġderived":10409,"Ġdent":10410,"uda":10411,"Ġblame":10412,"Ġabstract":10413,"inson":10414,"Ġfib":10415,"Ġtables":10416,"Ġresume":10417,"Ġaffirm":10418,"76":10419,"agan":10420,"ĠCorporation":10421,"Ġfinances":10422,"Ġprotective":10423,"pled":10424,"bn":10425,"Ġorganizing":10426,"Ġstartups":10427,"Ġemotionally":10428,"Ġroofing":10429,"Ġvaried":10430,"ati":10431,"Ġintuitive":10432,"Ġbol":10433,"Ġeco":10434,"Ġsurely":10435,"ĠBenefits":10436,"Ġrejected":10437,"Config":10438,"Ġwarfare":10439,"Ġhung":10440,"Ġwhilst":10441,"Ġhandled":10442,"ART":10443,"stop":10444,"ishop":10445,"Ġfu":10446,"Ġnobody":10447,"ĠBob":10448,"breaking":10449,"ĠScotland":10450,"Ġtrace":10451,"plex":10452,"rolog":10453,"ALL":10454,"ĠMoney":10455,"Ġfier":10456,"Ġcomplaints":10457,"Ġdisadvant":10458,"ĠFestival":10459,"isp":10460,"star":10461,"Ġstayed":10462,"Ġchest":10463,"iki":10464,"Ġproduces":10465,"Ġbiological":10466,"Ġimpacted":10467,"Ġfavour":10468,"Ġhence":10469,"asty":10470,"Ġ),":10471,"ĠAgreement":10472,"Â®":10473,"wear":10474,"Ġharness":10475,"ĠSenior":10476,"Ġfriendship":10477,"Ġutility":10478,"Ġfranchise":10479,"lower":10480,"Ġoccasions":10481,"ĠCH":10482,"ĠSearch":10483,"ĠPlatform":10484,"Ġunwavering":10485,"ĠWis":10486,"Ġbottle":10487,"Ġnewspaper":10488,"has":10489,"Ġdefensive":10490,"Ġoh":10491,"OUT":10492,"anny":10493,"ĠPolice":10494,"ĠSpring":10495,"Ġneglig":10496,"Ġlawsuit":10497,"ĠGuard":10498,"Ġdeck":10499,"Ġscrut":10500,"ĠVice":10501,"rows":10502,"Ġbasketball":10503,"ieve":10504,"writing":10505,"ĠBrother":10506,"Ġ2025":10507,"Ġcaptivating":10508,"BM":10509,"AME":10510,"teries":10511,"Ġcarries":10512,"event":10513,"Ġneutral":10514,"Ġtort":10515,"Yeah":10516,"Ġgrows":10517,"Ġcalendar":10518,"Ġdirectory":10519,"Ġphotographs":10520,"pc":10521,"Ġtours":10522,"Ġmeasured":10523,"Ġlens":10524,"Ġcollecting":10525,"Ġexecute":10526,"iversary":10527,"Ġrehab":10528,"Ġanybody":10529,"Ġknowledgeable":10530,"Ġunderm":10531,"Ġbrilliant":10532,"sylvania":10533,"elve":10534,"ĠTaylor":10535,"ĠPhD":10536,"itis":10537,"Ġham":10538,"ĠGames":10539,"Form":10540,"Ġundoubtedly":10541,"Ġnorthern":10542,"Ġcontrad":10543,"Ġparagraph":10544,"Ġcompromise":10545,")(":10546,"ĠDoc":10547,"Stud":10548,"ĠEvent":10549,"CP":10550,"Ġbone":10551,"olly":10552,"Ġstom":10553,"ĠDE":10554,"Ġuncomfortable":10555,"Ġenrich":10556,"Having":10557,"Ġpig":10558,"Ã¼":10559,"Ġfought":10560,"Ġburning":10561,"chers":10562,"ĠLive":10563,"gevity":10564,"Ġvariables":10565,"Ġdefeat":10566,"Pre":10567,"ĠCra":10568,"!)":10569,"300":10570,"irable":10571,"Ġyours":10572,"Ġbranding":10573,"ĠDivision":10574,"Ġresur":10575,"Ġwillingness":10576,"Ġadvocacy":10577,"Ġtoxic":10578,"Ġsword":10579,"Ġunpre":10580,"AY":10581,"Ġprotocols":10582,"arma":10583,"ĠCulture":10584,"Ġoldest":10585,"Ġaccomplished":10586,"Ġguiding":10587,"ĠSolutions":10588,"Ġcredits":10589,"ĠKim":10590,"Ġelectron":10591,"Ġcontractors":10592,"Ġpd":10593,"Ġautomatic":10594,"ĠIncre":10595,"Ġmarketers":10596,"Ġcalc":10597,"Ġtire":10598,"odge":10599,"Ġlands":10600,"Ġinfluencers":10601,"Ġservers":10602,"Ġembark":10603,"Ġpainful":10604,"Ġdeciding":10605,"Ġcontainer":10606,"Rel":10607,"Ġtoys":10608,"ĠStory":10609,"Ġrevolutionary":10610,"Ġconstructed":10611,"Ġcorporation":10612,"41":10613,"plement":10614,"find":10615,"isher":10616,"bell":10617,"ĠCase":10618,"ĠNature":10619,"ropy":10620,"Ġexit":10621,"Ġhardly":10622,"Ġfut":10623,"Ġinsert":10624,"Ġaligns":10625,"Ġretreat":10626,"Thank":10627,"uten":10628,"Ġprofitable":10629,"ĠEV":10630,"ĠColorado":10631,"ajabi":10632,"Ġteaches":10633,"Ġdeaths":10634,"Ġaccommodate":10635,"Ġexplores":10636,"Custom":10637,"ĠLanguage":10638,"Ġasync":10639,"stra":10640,"Ġdiamond":10641,"ĠPub":10642,"ĠAh":10643,"Ġbrowser":10644,"Ġsed":10645,"Ġplacing":10646,"Ġshadow":10647,"Ġfluctu":10648,"Class":10649,"help":10650,"Ġchains":10651,"retion":10652,"Ġrefere":10653,"ĠHarry":10654,"Ġgray":10655,"ĠðŁ":10656,"ĠBrad":10657,"Ġrooted":10658,"aus":10659,"Ġdisplayed":10660,"rell":10661,"ĠParliament":10662,"Ġdistinction":10663,"Ġfed":10664,"ĠLtd":10665,"product":10666,"ĠWhe":10667,"43":10668,"Ġshots":10669,"rapeutic":10670,"Mar":10671,"âĶĢ":10672,"Ġpleased":10673,"Ġbegun":10674,"sis":10675,"Ġreviewed":10676,"Ġrum":10677,"Ġeternal":10678,"ĠCub":10679,"Ġenterprises":10680,"Ġpredictions":10681,"Ġrecruitment":10682,"Ġaer":10683,"Ġsear":10684,"Ġdevoted":10685,"Ġthreshold":10686,"IES":10687,"ĠNorm":10688,"Ġtends":10689,"Ġ400":10690,"Ġemerge":10691,"Ġshoulder":10692,"Ġwholes":10693,"ĠPrior":10694,"Ġdimensions":10695,"Ġundetected":10696,"Ġaligned":10697,"who":10698,"ĠLew":10699,"Ġgrid":10700,"ĠĠĠĠĠĠĠĠĠĠĠĠĠĠĠĠĠĠĠĠĠĠĠĠĠĠĠĠĠĠĠ":10701,"CR":10702,"Ġcameras":10703,"86":10704,"Ġrecru":10705,"Ġdebut":10706,"Ġum":10707,"orious":10708,"Ġdesignated":10709,"Ġpossession":10710,"ĠWebs":10711,"Ġsilence":10712,"dy":10713,"rior":10714,"Ġpraise":10715,"ĠHu":10716,"ĠHas":10717,"ĠMcC":10718,"Ġgym":10719,"Som":10720,"Ġbirthday":10721,"Ġlegally":10722,"po":10723,"ĠMother":10724,"ĠAvoid":10725,"stein":10726,"iatric":10727,"Ġbust":10728,"ĠWatch":10729,"heast":10730,"ĠNob":10731,"Ġcaring":10732,"Ġpracticing":10733,"Ġtrips":10734,"ĠOm":10735,"eals":10736,"ĠMembers":10737,"ĠHarris":10738,"angle":10739,"engers":10740,"Ġdrain":10741,"Ġepisodes":10742,"heart":10743,"minded":10744,"Ġcopies":10745,"yer":10746,"Ġlayout":10747,"Ġwalks":10748,"ĠFarm":10749,"Ġcheats":10750,"Ġtransmission":10751,"ĠBase":10752,"Ġassured":10753,"97":10754,"ĠEveryone":10755,"ĠProp":10756,"Ġdirections":10757,"ĠOx":10758,"Ġalarm":10759,"uity":10760,"Ġshame":10761,"Her":10762,"ĠWas":10763,"Ġpipeline":10764,"Ġharmon":10765,"Ġparallel":10766,"Ġconstitutional":10767,"irtual":10768,"ĠSwed":10769,"Have":10770,"Ġroughly":10771,"ĠKn":10772,"Ġsuits":10773,"elle":10774,"DF":10775,"ĠCovid":10776,"ĠJun":10777,"Ġgods":10778,"Ġinsure":10779,"ĠFord":10780,"Ġconfiguration":10781,"Ġraises":10782,"Ġweird":10783,"Ġnarratives":10784,"Ġarchitectural":10785,"Ġcurve":10786,"nament":10787,"Ġcreator":10788,"search":10789,"Ġ{\"":10790,"Ġstations":10791,"orig":10792,"Ġbacteria":10793,"ECT":10794,"Ġvolunteer":10795,"Ġtor":10796,"ĠRh":10797,"interest":10798,"Ġantib":10799,"Ġwages":10800,"ĠChen":10801,"ĠSche":10802,"lon":10803,"Ġsecuring":10804,"Ġgrants":10805,"aneous":10806,"Ġtalents":10807,"Ġelite":10808,"Ġnegotiations":10809,"iscal":10810,"Ġdesert":10811,"Ġtar":10812,"ĠConc":10813,"Ġsigning":10814,"enter":10815,"Ġsupplier":10816,"Hel":10817,"Ġdominant":10818,"Ġracing":10819,"Ġmusicians":10820,"column":10821,"make":10822,"Ġdiscounts":10823,"asures":10824,"Ġoxy":10825,"ĠES":10826,"ĠVill":10827,"Ġsolving":10828,"copy":10829,"Ġceremony":10830,"ĠHong":10831,"Ġanch":10832,"roat":10833,"Ġworlds":10834,"Ġtowns":10835,"Ġconvinced":10836,"ĠDC":10837,"ĠYOU":10838,"Ġintegrating":10839,"Ġflash":10840,"ĠMedicine":10841,"ĠSky":10842,"Ġhosts":10843,"tensor":10844,"cluded":10845,"ieties":10846,"yard":10847,"Ġexplored":10848,"Ġarrangement":10849,"Ġattractions":10850,"Ġgro":10851,"Ġrecipe":10852,"ĠET":10853,"ĠPlace":10854,"ĠVar":10855,"Ġnurturing":10856,"Ġsheet":10857,"Ġexchanges":10858,"Ġfails":10859,"Ġtransferred":10860,"Ġvolunteers":10861,"Will":10862,"Ġnorms":10863,"ĠAndroid":10864,"ĠAttorney":10865,"\\\\":10866,"Ġcaution":10867,"oning":10868,"math":10869,"ĠTai":10870,"Ġdimin":10871,"Ġ},":10872,"Check":10873,"ĠFull":10874,"annels":10875,"Ġsupporters":10876,"ĠLeadership":10877,"ĠNatural":10878,"ĠPennsylvania":10879,"Ġtill":10880,"Ġsurfaces":10881,"ĠTrade":10882,"urring":10883,"Ġdash":10884,"Ġreceives":10885,"Ġhunting":10886,"Ġstrain":10887,"Ġfailing":10888,"ĠBush":10889,"Hist":10890,"Ġmoisture":10891,"Ġgest":10892,"ĠDemocrats":10893,"Ġpenalties":10894,"Ġtemplate":10895,"ĠSports":10896,"Ġdefining":10897,"Ġmiscon":10898,"utter":10899,"ĠÂ§":10900,"HA":10901,"ĠHeart":10902,"Ġattempted":10903,"Ġscreening":10904,"Ġmetab":10905,"iser":10906,"wa":10907,"game":10908,"Ġpicking":10909,"Ġsecrets":10910,"ocolate":10911,"Ġrecommendation":10912,"Ġtab":10913,"TER":10914,"Ġbutter":10915,"Ġadvancement":10916,"ĠCN":10917,"Ġunemploy":10918,"Ġpropag":10919,"Ġspectac":10920,"Ġguaranteed":10921,"Ġprogressive":10922,"ĠIndigenous":10923,"Ġentrance":10924,"Ġestimates":10925,"break":10926,"Table":10927,"anches":10928,"Ġclock":10929,"Ġdisputes":10930,"ilation":10931,"Ġcitizen":10932,"Ġstreamline":10933,"Ġships":10934,"ounding":10935,"Christ":10936,"Ġoils":10937,"ĠTikTok":10938,"Ġ55":10939,"Ġinterrupt":10940,"Ġsustained":10941,"Ġfo":10942,"God":10943,"ults":10944,"ocate":10945,"evin":10946,"eering":10947,"Ġplt":10948,"Ġvariations":10949,"Ġwins":10950,"ĠTurk":10951,"ĠVideo":10952,"Ġtourism":10953,"Ġacceptable":10954,"Ġworkshop":10955,"tf":10956,"Ġflags":10957,"idity":10958,"Ġlapt":10959,"Ġdigest":10960,"Ġmomentum":10961,"Ġmobility":10962,"Ġimproves":10963,"Ġundersc":10964,"ĠField":10965,"was":10966,"pex":10967,"secution":10968,"Ġeggs":10969,"Take":10970,"oors":10971,"ationally":10972,"Ġexisted":10973,"ĠUr":10974,"lesh":10975,"ĠAuthority":10976,"ĠJordan":10977,")]":10978,"Ġpermits":10979,"Ġbool":10980,"Ġwildlife":10981,"Ġdeployment":10982,"zona":10983,"Ġaccompanied":10984,"hop":10985,"Ġattempting":10986,"Eng":10987,"icked":10988,"idays":10989,"Ġlovely":10990,"ablish":10991,"Ġsatisfy":10992,"ĠRog":10993,"Ġserial":10994,"Ġpanels":10995,"Ġcomposed":10996,"Ġlibr":10997,"ĠRon":10998,"Ġdarkness":10999,"ĠSher":11000,"ĠRay":11001,"iology":11002,"Ġresilient":11003,"GE":11004,"Ġfruits":11005,"Ġvib":11006,"gic":11007,"Ġdesp":11008,"Ġlogger":11009,"Ġaxis":11010,"Ġswift":11011,"Ġvegetables":11012,"ĠMuslims":11013,"Ġofficially":11014,"ĠJr":11015,"Ġpermitted":11016,"Ġseats":11017,"Ġlake":11018,"inois":11019,"bury":11020,"ĠCF":11021,"ĠAsk":11022,"Ġchaos":11023,"Ġrival":11024,"Ġcounseling":11025,"ĠDeb":11026,"Ġupgrade":11027,"Ġseparation":11028,"Ġmile":11029,"Ġmechanical":11030,"Ġ'''":11031,"Ġmart":11032,"Ġlending":11033,"Ġcoc":11034,"Ġchampion":11035,"Ġadvances":11036,"Ġgraphic":11037,"Ġevaluating":11038,"books":11039,"Ġscar":11040,"har":11041,"Ġpaintings":11042,"Ġvulnerability":11043,"ĠSus":11044,"Inf":11045,"Ġimplied":11046,"ĠBern":11047,"Ġauthorized":11048,"ĠKong":11049,"solving":11050,"ĠIde":11051,"Ġsevent":11052,"ĠTemple":11053,"Ġ38":11054,"olitical":11055,"Ġintensity":11056,"ĠBon":11057,"Ġinputs":11058,"alities":11059,"Ops":11060,"number":11061,"Ġignored":11062,"ĠDisney":11063,"ĠGiven":11064,"Ġadvised":11065,"ĠFOR":11066,"ĠInflu":11067,"Ġheating":11068,"ĠWorking":11069,"blem":11070,"filename":11071,"Ġdelays":11072,"Ġgenerative":11073,"vo":11074,"Inter":11075,"=(":11076,"apped":11077,"Att":11078,"natural":11079,"Ġoperators":11080,"ifer":11081,"Ġaspirations":11082,"ĠFred":11083,"Ġpresidential":11084,"ĠHarvard":11085,"Gu":11086,"Ġteachings":11087,"Ġnose":11088,"Ġknock":11089,"Ġ33":11090,"Ġshield":11091,"enges":11092,"Ġdign":11093,"ĠSimilarly":11094,"Ġhired":11095,"Ġqualifications":11096,"wart":11097,"Ġpreserving":11098,"Ġchecked":11099,"Ġ1999":11100,"empl":11101,"utical":11102,"Ġinches":11103,"Ġaesthet":11104,"Ġdrops":11105,"Ġphysician":11106,"Ġhosted":11107,"hour":11108,"usalem":11109,"Ġstem":11110,"Ġsmoke":11111,"Ne":11112,"Ġsafer":11113,"oln":11114,"raham":11115,"txt":11116,"EP":11117,"ĠLine":11118,"ĠInvestment":11119,"aron":11120,"ĠFocus":11121,"Ġaccessories":11122,"Ġchicken":11123,"Ġvisa":11124,"Ġghost":11125,"Using":11126,"Ġtale":11127,"Ġmindfulness":11128,"Ġalignment":11129,"parser":11130,"Ġtexture":11131,"Ġrend":11132,"Ġtries":11133,"Ġwinner":11134,"ĠRose":11135,"obe":11136,"ĠCA":11137,"Ġfallen":11138,"istence":11139,"ĠPhot":11140,"Ġprivilege":11141,"Ġescal":11142,"lyn":11143,"Ġdoctrine":11144,"lasting":11145,"Ġaccountable":11146,"clusions":11147,"ĠBol":11148,"Ġtrusts":11149,"ĠGrowth":11150,"Ġclassical":11151,"ĠMatthew":11152,"Ġladies":11153,"Ġsake":11154,"river":11155,"mode":11156,"ĠBat":11157,"ĠPlanning":11158,"agen":11159,"lass":11160,"Ġdelicate":11161,"fin":11162,"Ġcir":11163,"ĠKent":11164,"Ġperse":11165,"Ġbarrier":11166,"Ġtremendous":11167,"Ġgri":11168,"Ġinterventions":11169,"mediate":11170,"Ġtransforming":11171,"Ġrepet":11172,"Ġtokens":11173,"father":11174,"Ġanticipated":11175,"Ġconfused":11176,"eath":11177,"cor":11178,"Ġtailor":11179,"liest":11180,"sized":11181,"Ġfailures":11182,"ped":11183,"Ġcoaches":11184,"Best":11185,"Ġintentions":11186,"ername":11187,"Ġwatches":11188,"Back":11189,"imer":11190,"ĠRole":11191,"ĠMember":11192,"zens":11193,"ami":11194,"Ġfool":11195,"ĠDue":11196,"embered":11197,"ĠMethod":11198,"Ġsolo":11199,"Ġobservation":11200,"giving":11201,"Ġroutes":11202,"ĠClear":11203,"illance":11204,"olis":11205,"Ġorg":11206,"Ġviolation":11207,"Ġ1000":11208,"Ġrestricted":11209,"Ã³":11210,"Ġprospective":11211,"Ġeducators":11212,"ĠHa":11213,"Ġhits":11214,"Ġcondem":11215,"Ġwage":11216,"Ġracism":11217,"HO":11218,"Ġappreciated":11219,"Ġdtype":11220,"################################":11221,"argo":11222,"Ġlongevity":11223,"ĠEverything":11224,"ĠDark":11225,"requently":11226,"Ġregards":11227,"Ref":11228,"ĠAlp":11229,"unct":11230,"ĠUkrain":11231,"Ġexecuted":11232,"Ġswimming":11233,"asets":11234,"ĠTestament":11235,"iler":11236,"wall":11237,"neg":11238,"ĠStudy":11239,"usive":11240,"Ġforgotten":11241,"Ġsorry":11242,"amine":11243,"Ġdual":11244,"brew":11245,"Ġexhibit":11246,"Ġphones":11247,"Ġtempor":11248,"ĠAC":11249,"ĠMove":11250,"Ġstatut":11251,"%)":11252,"Ġaggreg":11253,"egin":11254,"ĠLuc":11255,"Ġmisunder":11256,"MC":11257,"ĠBad":11258,"Ġsupre":11259,"otes":11260,"Ġbrid":11261,"ĠCapt":11262,"yes":11263,"ĠAppro":11264,"iang":11265,"Ġhumor":11266,"Ġwitnessed":11267,"Ġlandscapes":11268,"ko":11269,"local":11270,"Ġpounds":11271,"csv":11272,"alm":11273,"Ġlisting":11274,"Ġsacrific":11275,"igure":11276,"century":11277,"ima":11278,"********":11279,"reating":11280,"Ġproducer":11281,"Ġbaseball":11282,"Act":11283,"information":11284,"smanship":11285,"Ġsummar":11286,"ĠSarah":11287,"enced":11288,"Ġjournalists":11289,"roduct":11290,"Ġnoqa":11291,"assment":11292,"Ġrevers":11293,"Ġinflammation":11294,"Ġfifth":11295,"Ġpublications":11296,"ĠElizabeth":11297,"Ġpeoples":11298,"stack":11299,"Ġcontinually":11300,"ĠLiving":11301,"Ġriding":11302,"ummary":11303,"Ġencountered":11304,"lat":11305,"Ġurgent":11306,"ela":11307,"Ġreserved":11308,"Ġtear":11309,"ĠNight":11310,"Ġcompos":11311,"show":11312,"Ġtimeless":11313,"std":11314,"labels":11315,"ĠDie":11316,"Ġcolleges":11317,"piece":11318,"Ġisolation":11319,"Ġyesterday":11320,"Ġindicators":11321,"cedented":11322,"ĠMarx":11323,"Ġrepeatedly":11324,"Ġque":11325,"ĠImm":11326,"HD":11327,"Top":11328,"Ġmagical":11329,"Ġ37":11330,"Ġresponsive":11331,"Ġcoron":11332,"gate":11333,"Ġsla":11334,"Ġsurviv":11335,"oca":11336,"Ġdirt":11337,"ographical":11338,"Ġwashing":11339,"ä¸":11340,"rug":11341,"TA":11342,"ĠKat":11343,"abb":11344,"Ġprinted":11345,"Ġcontest":11346,"Ġlitigation":11347,"Ġgig":11348,"Ġexperiments":11349,"Ġaug":11350,"Ġpron":11351,"Ġshorter":11352,"Ġvolumes":11353,"Ġalien":11354,"Ġupset":11355,"address":11356,"ĠJerusalem":11357,"Ġbattles":11358,"maker":11359,"Ġcoin":11360,"Ġpayday":11361,"Ġwooden":11362,"nered":11363,"ĠANY":11364,"Ġacknowledged":11365,"Ġears":11366,"ĠClin":11367,"Ġintroducing":11368,"Ġmigration":11369,"Ġcheaper":11370,"Ġmad":11371,"foot":11372,"reedom":11373,"Ġresonates":11374,"Ġvenue":11375,"Ġsynd":11376,"awa":11377,"ĠMale":11378,"ĠNFT":11379,"gram":11380,"execut":11381,"Ġallev":11382,"changing":11383,"Ġrighteous":11384,"Ġseamlessly":11385,"Ġmodeling":11386,"Ġnoting":11387,"SI":11388,"ostic":11389,"Ġdecentral":11390,"?'":11391,"Ġknife":11392,"inet":11393,"mem":11394,"Ġfilling":11395,"next":11396,"Ġinfections":11397,"Ġpenalty":11398,"Ġsuggesting":11399,"Ġbattlefield":11400,"Ġrespectively":11401,"ĠDeep":11402,"ĠNat":11403,"Ġattracted":11404,"Expl":11405,"Ġcalculated":11406,"Ġtrustee":11407,"Ġconsume":11408,"Ġleak":11409,"current":11410,"Ġdeemed":11411,"Ġpractitioners":11412,"ĠPrice":11413,"Ġconstraints":11414,"Ġworthy":11415,"ĠThird":11416,"Ġsecurities":11417,"ori":11418,"Ġbrut":11419,"ĠKorean":11420,"Ġflavors":11421,"Ġimpr":11422,"ĠWITH":11423,"Ġphysics":11424,"uns":11425,"enny":11426,"Ġstretch":11427,"Ġparks":11428,"Ġsne":11429,"ITY":11430,"Ġslavery":11431,"Ġbreakfast":11432,"Trust":11433,"Ġpropri":11434,"Ġtangible":11435,"ĠGolden":11436,"aine":11437,"ĠLevel":11438,"covery":11439,"Ġtendency":11440,"ĠAnth":11441,"Ġspell":11442,"Char":11443,"ĠView":11444,"Ġlocks":11445,"Ġsurroundings":11446,"Ġprophe":11447,"dra":11448,"ĠOK":11449,"Ġdimension":11450,"Ġcrash":11451,"Ġannually":11452,"Ġempowering":11453,"Ġstomach":11454,"Ġimposed":11455,"Base":11456,"urred":11457,"Sec":11458,"Ġborders":11459,"bas":11460,"ĠBlock":11461,"Ġfame":11462,"56":11463,"Ġsleeping":11464,"Ġassumed":11465,"Ġpoem":11466,"Make":11467,"Phone":11468,"ĠIndividual":11469,"ĠColumbia":11470,"ĠRO":11471,"Ġrelaxation":11472,"Ġweaknesses":11473,"Ġcv":11474,"steps":11475,"Ġtensor":11476,"Ġbonus":11477,"Ġverb":11478,"Ġwherever":11479,"ĠHor":11480,"Ġfunded":11481,"Ġfreely":11482,"ĠWilson":11483,"Ġprosecut":11484,"ĠPerson":11485,"Ġpresenting":11486,"limited":11487,"ĠArizona":11488,"Ġproducers":11489,"Ġtransf":11490,"EA":11491,"Ġhotels":11492,"Med":11493,"Ġfeeding":11494,"State":11495,"Ġsurveys":11496,"ĠSaint":11497,"ĠVe":11498,"agg":11499,"ropic":11500,"ĠHotel":11501,"Ġgospel":11502,"Ġhacks":11503,"Ġconj":11504,"ï¼":11505,"Ġadvise":11506,"tx":11507,"Ġmedic":11508,"thod":11509,"Ġviewing":11510,"UD":11511,"ila":11512,"Ġlisteners":11513,"Ġverification":11514,"classes":11515,"incoln":11516,"Ġtreasure":11517,"Ġlearners":11518,"Ġplacement":11519,"ĠSmart":11520,"Ġcollapse":11521,"Ġlowest":11522,"sample":11523,"Ġshout":11524,"Ġminority":11525,"ĠCompl":11526,"aceutical":11527,"Ġversatility":11528,"Ġoccasionally":11529,"ĠWAR":11530,"quis":11531,"ĠFollowing":11532,"thening":11533,"Ġthirty":11534,"Ġtraveled":11535,"Ġforming":11536,"voc":11537,"filter":11538,"Ġresort":11539,"ĠIII":11540,"Ġopponents":11541,"uminum":11542,"Ġhun":11543,"ĠPu":11544,"otional":11545,"gets":11546,"isan":11547,"Ġdiscretion":11548,"Ġfrustrated":11549,"ĠOwn":11550,"ĠEnhance":11551,"Ġflows":11552,"Ġhorror":11553,"adelph":11554,"ĠSchol":11555,"akh":11556,"ĠTri":11557,"Ġcuis":11558,"Ġimperial":11559,"ĠPeace":11560,"forming":11561,"Ġrelying":11562,"entry":11563,"Ġhier":11564,"Ġcustoms":11565,"ĠPractice":11566,"Ġpasses":11567,"Ġresponding":11568,"uts":11569,"ĠArtificial":11570,"human":11571,"reek":11572,"ĠMountain":11573,"Ġbranches":11574,"Ġsubstances":11575,"Ġrice":11576,"ĠÐ":11577,"Ġabandoned":11578,"Ġ1950":11579,"ader":11580,"89":11581,"oded":11582,"Ġqueries":11583,"Ġoxygen":11584,"options":11585,"ieval":11586,"inery":11587,"Ġdemonstrating":11588,"Ġcontents":11589,"ĠCRM":11590,"Ġunprecedented":11591,"Ġcompeting":11592,"Ġ1998":11593,"____":11594,"ĠWithin":11595,"icas":11596,"Ġswing":11597,"Ġwellbeing":11598,"Does":11599,"ĠOthers":11600,"command":11601,"Ġvoid":11602,"Ġseasoned":11603,"Ġbeneath":11604,"Ġstain":11605,"Ġremembered":11606,"Ġlocally":11607,"ĠHence":11608,"Ġsentiment":11609,"Case":11610,"ĠTogether":11611,"zh":11612,"||":11613,"Ġmurd":11614,"Ġfounding":11615,"ĠParent":11616,"Ġtourist":11617,"Ġpositively":11618,"Ġvarying":11619,"ĠCommunication":11620,"eem":11621,"Ġincorporated":11622,"Ġwithdrawal":11623,"ĠIllinois":11624,"ĠTheater":11625,"Ġtherapeutic":11626,"ĠCrit":11627,"Ġtriumph":11628,"Ġgraphics":11629,"igue":11630,"Ġcheese":11631,"cap":11632,"ĠHope":11633,"Ġtooth":11634,"Ġdisclosure":11635,"Ġcaut":11636,"mart":11637,"Ġgameplay":11638,"'))":11639,"aste":11640,"bug":11641,"Ġindirect":11642,"Ġplumbing":11643,"Ġconsultant":11644,"Ġpenet":11645,"Ġconsensus":11646,"Ġincentives":11647,"Ġlogical":11648,"Ġangle":11649,"ĠCyber":11650,"Ġstreams":11651,"ĠBud":11652,"gged":11653,"Ġforefront":11654,"Ġfarming":11655,"Ġwash":11656,"ĠSanta":11657,"Ġdisabilities":11658,"Ġworn":11659,"Ġlun":11660,"Ġrab":11661,"Ġproportion":11662,"Ġstimul":11663,"Ġflesh":11664,"ĠStock":11665,"Ġpond":11666,"Ġanticipate":11667,"ĠHig":11668,"Ġexamined":11669,"iciency":11670,"Ġwallet":11671,"Ġapplicants":11672,"ĠJudge":11673,"Ġheaded":11674,"Ġmarginal":11675,"otherapy":11676,"Ġwidth":11677,"ĠDutch":11678,"Ġinfinite":11679,"Ġpriest":11680,"Ġchallenged":11681,"aret":11682,"Ġbathroom":11683,"FI":11684,"67":11685,"Both":11686,"Ġoverwhelmed":11687,"ĠBased":11688,"Ġsmoothly":11689,"ĠForeign":11690,"Ġfrustrating":11691,"irts":11692,"Ġtourists":11693,"efficient":11694,"omic":11695,"Next":11696,"ĠNeg":11697,"ĠAnalysis":11698,"Ġfavourite":11699,"ĠCa":11700,"Ġaccepting":11701,"Ġexecutives":11702,"Ġbub":11703,"Ġcounterpart":11704,"ĠHan":11705,"Ġexplaining":11706,"ĠMachine":11707,"Ġargues":11708,"ĠSure":11709,"Ġtheft":11710,"Ġdrinks":11711,"ĠCru":11712,"Ġsinging":11713,"Ġheading":11714,"Ġscholarship":11715,"achus":11716,"Ġtyping":11717,"IST":11718,"iracy":11719,"++":11720,"Ġproposals":11721,"inars":11722,"Ġcharging":11723,"ardless":11724,"ĠDO":11725,"Ġstere":11726,"Ġinherit":11727,"High":11728,"Ġcock":11729,"Ġbehavioral":11730,"Ġfilters":11731,"Ġpresum":11732,"Ġshifting":11733,"erb":11734,"Ġinevitable":11735,"adelphia":11736,"Ġreminded":11737,"owing":11738,"Ġpregnant":11739,"ĠGP":11740,"Ġmini":11741,"ĠCond":11742,"Ġassembly":11743,"ĠWW":11744,"iliate":11745,"Ġreply":11746,"Ġgrief":11747,"ĠBC":11748,"ega":11749,"Ġpleasant":11750,"Ġcookies":11751,"ĠKu":11752,"Ġopenly":11753,"oriented":11754,"task":11755,"Press":11756,"etts":11757,"ĠPack":11758,"ĠLimited":11759,"Ġratings":11760,"Ġwhis":11761,"Ġrush":11762,"Fe":11763,"ĠRod":11764,"public":11765,"cost":11766,"Ġhip":11767,"ithub":11768,"Ġfantasy":11769,"writer":11770,"Ġmeters":11771,"IO":11772,"Ġsteal":11773,"Ġinhib":11774,"sex":11775,"Ġintersection":11776,"Ġelabor":11777,"otton":11778,"layers":11779,"fn":11780,"rend":11781,"mo":11782,"ĠRand":11783,"IONS":11784,"prot":11785,"olved":11786,"Ġenthusiasm":11787,"zes":11788,"ĠWould":11789,"Ġcompanion":11790,"Ġeducate":11791,"Ġopponent":11792,"Ġresolved":11793,"Ġincl":11794,"Ġlying":11795,"Ġcombines":11796,"Ġcritics":11797,"amous":11798,"MM":11799,"channels":11800,"Ġamen":11801,"ousing":11802,"Ġenerg":11803,"Ġkindness":11804,"Ġhistorically":11805,"Ġrear":11806,"true":11807,"Ġwarranty":11808,"urable":11809,"high":11810,"Ġpreference":11811,"Ġcomplications":11812,"orant":11813,"ĠMuch":11814,"ĠArea":11815,"ĠâĢ¢":11816,"send":11817,"aka":11818,"ĠLic":11819,"*-":11820,"Ġmodified":11821,"Ġcommands":11822,"Ġtons":11823,"ĠNAS":11824,"intage":11825,"avirus":11826,"Ġanniversary":11827,"ĠGDPR":11828,"Ġisolated":11829,"mercial":11830,"ĠAk":11831,"ucky":11832,"ĠNic":11833,"aska":11834,"Ġrolling":11835,"Ġsupervis":11836,"ĠPalestinian":11837,"Ġcataly":11838,"Ġdying":11839,"Ġconferences":11840,"Ġfate":11841,"ribution":11842,"render":11843,"ĠLind":11844,"ouring":11845,"ustrial":11846,"will":11847,"ĠNick":11848,"Ġvendor":11849,"udi":11850,"Ġdebts":11851,"Ġcraftsmanship":11852,"iva":11853,"Second":11854,"Ġnurses":11855,"Ġreign":11856,"Ġskept":11857,"don":11858,"mbol":11859,"Ġcryptocurrencies":11860,"Ġscreens":11861,"Ġexped":11862,"good":11863,"ĠPrince":11864,"rowing":11865,"ĠContract":11866,"Ġaging":11867,"ĠApache":11868,"Ġbutt":11869,"Ag":11870,"Ġstays":11871,"rative":11872,"View":11873,"Ġcultivate":11874,"Ġsalvation":11875,"ĠTen":11876,"rying":11877,"Ġcapitalism":11878,"ĠNevertheless":11879,"Ġmentor":11880,"owned":11881,"features":11882,"Ġpatch":11883,"Â°":11884,"ĠPy":11885,"seen":11886,"Ġadopting":11887,"Ġlease":11888,"Ġmunicip":11889,"Ġembarr":11890,"gered":11891,"Ġnutrients":11892,"Ġgal":11893,"bro":11894,"ĠEric":11895,"ĠHou":11896,"Ġunto":11897,"track":11898,"Ġemphasize":11899,"appropri":11900,"Ġfavorable":11901,"atin":11902,"Ġlandl":11903,"Ġassumptions":11904,"Ġjournalism":11905,"DB":11906,"Ġdisagree":11907,"Ġexempl":11908,"Looking":11909,"ĠFurther":11910,"istance":11911,"equal":11912,"Ġaffection":11913,"ĠDI":11914,"Ġmaps":11915,"Ġgenuinely":11916,"Ġartwork":11917,"Ġbio":11918,"ramew":11919,"fs":11920,"second":11921,"itations":11922,"attered":11923,"ĠStephen":11924,"Ġupgrad":11925,"Ġembedded":11926,"Ġtears":11927,"Ġaged":11928,"Ġadmission":11929,"ĠShort":11930,"Ġprosperity":11931,"Being":11932,"ĠAlways":11933,"Ġrefine":11934,"IND":11935,"Ġrenewable":11936,"achusetts":11937,"Ġ34":11938,"Social":11939,"Ġreminds":11940,"posed":11941,"58":11942,"Ġrelevance":11943,"transform":11944,"ĠHold":11945,"Ġconviction":11946,"offs":11947,"ector":11948,"looking":11949,"Ġjudges":11950,"div":11951,"ouch":11952,"ĠBell":11953,"59":11954,"Inc":11955,"Ġhref":11956,"Ġsensitivity":11957,"Ġincorrect":11958,"Ġsons":11959,"aunting":11960,"Ġcharitable":11961,"ourced":11962,"Ġdigit":11963,"minute":11964,"Ġdramatically":11965,"inator":11966,"Ġdrag":11967,"Ġpunishment":11968,"ĠSquare":11969,"Ġmaj":11970,"Ġtelephone":11971,"57":11972,"Ġbeneficiaries":11973,"ĠDaily":11974,"Ġsemi":11975,"Ġneighbors":11976,"Ġcrown":11977,"Ġprescription":11978,"Ġfiscal":11979,"Ġinstrumental":11980,"ĠPortug":11981,"Ġbacked":11982,"msg":11983,"Ġstops":11984,"Ġreleases":11985,"ĠFox":11986,"Ġexclusively":11987,"attoo":11988,"Ġseparated":11989,"ĠGrant":11990,"Ġframeworks":11991,"mad":11992,"Ġretrie":11993,"ĠNa":11994,"ivities":11995,"burgh":11996,"Ġassignments":11997,"Ġcorrel":11998,"rage":11999,"Dav":12000,"~~":12001,"ĠStrategy":12002,"Ġgross":12003,"Ġmysterious":12004,"exper":12005,"Ġcited":12006,"urious":12007,"CB":12008,"Ġthy":12009,"ivacy":12010,"ĠDavis":12011,"Ġtong":12012,"Ġenlight":12013,"ĠBeyond":12014,"Ġattitudes":12015,"Ġsau":12016,"uther":12017,"spec":12018,"ĠDifferent":12019,"Ġbureau":12020,"chester":12021,"andal":12022,"master":12023,"Ġaccommodation":12024,"ĠMA":12025,"Ġlicenses":12026,"Ġcrafted":12027,"ĠWars":12028,"Ġbarely":12029,"async":12030,"Ġambit":12031,"âĶĢâĶĢ":12032,"Ġcontroversial":12033,"Ġarrested":12034,"Ġexpressing":12035,"ĠAssess":12036,"Ġ//":12037,"Ġcs":12038,"[-":12039,"vable":12040,"Ġcontrolling":12041,"idel":12042,"ĠKajabi":12043,"Ġadj":12044,"ĠStandard":12045,"sole":12046,"ĠInnovation":12047,"Ġclaiming":12048,"shot":12049,"Ġinsect":12050,"epoch":12051,"68":12052,"ĠIss":12053,"Ġcredentials":12054,"Ġangel":12055,"Ġscan":12056,"Ġexpend":12057,"Ġvisually":12058,"Ġtravelers":12059,"400":12060,"Ġaccompany":12061,"Ġallies":12062,"Ġdocumentary":12063,"ĠUnless":12064,"Ġconsequence":12065,"ĠPain":12066,"Ġvotes":12067,"Red":12068,"Ġbreakdown":12069,"expl":12070,"ĠMaking":12071,"Ġimpress":12072,"Ġeconomies":12073,"Ġadvisors":12074,"Ġpocket":12075,"ĠImage":12076,"bris":12077,"Ġstones":12078,"Ġindependently":12079,"Ġdisplays":12080,"ATO":12081,"entially":12082,"Ġvaries":12083,"Ġattain":12084,"onials":12085,"Ġvocal":12086,"ĠMajor":12087,"Ġbell":12088,"aya":12089,"uros":12090,"Ġlecture":12091,"Ġ42":12092,"util":12093,"ĠLincoln":12094,"Ġadaptability":12095,"ĠSeveral":12096,"Ġquantum":12097,"oen":12098,"axis":12099,"Ġstatic":12100,"Ġmargin":12101,"ĠOS":12102,"ĠOften":12103,"Ġassessing":12104,"oids":12105,"gence":12106,"apters":12107,"Ã¶":12108,"ĠDoctor":12109,"Ġbulk":12110,"ean":12111,"Ġpassive":12112,"Ġempire":12113,"Ġguarantees":12114,"ĠCarl":12115,"Ġ-*-":12116,"Ġranks":12117,"Ġabundance":12118,"arry":12119,"Ġmindful":12120,"ascular":12121,"Ġretired":12122,"Ġpizza":12123,"plus":12124,"wal":12125,"Two":12126,"Ġdose":12127,"VE":12128,"ĠResources":12129,"ĠTurn":12130,".-":12131,"Path":12132,"Ġsurveillance":12133,"bled":12134,"Ġoperator":12135,"Ġneeding":12136,"Ġcombining":12137,"Ġsuicide":12138,"ĠAmb":12139,"','":12140,"uum":12141,"ĠRisk":12142,"Ġfingers":12143,"Which":12144,"Ġbrick":12145,"ĠScient":12146,"Ġcomparing":12147,"ĠOs":12148,"Ġadvocates":12149,"berry":12150,"Ġcontacts":12151,"rock":12152,"Ġparams":12153,"impse":12154,"ĠBroad":12155,"func":12156,"quarters":12157,"ĠPerformance":12158,"Ġfinancially":12159,"Ġnonprofit":12160,"Ġreasonably":12161,"ĠCompet":12162,"Ġparticipated":12163,"adequ":12164,"Ġpension":12165,"Ġjunk":12166,"Ġcommitments":12167,"pres":12168,"roups":12169,"ictionary":12170,"ĠAffairs":12171,"Ġthreatened":12172,"Pal":12173,"ĠNFL":12174,"Ġgreet":12175,"cls":12176,"Ġhonestly":12177,"Ġpacked":12178,"Ġtimeline":12179,"Ġapproached":12180,"Ġeducated":12181,"ilitary":12182,"Ġdozen":12183,"Ġimmersive":12184,"ĠFoot":12185,"ĠCareer":12186,"ĠGreece":12187,"Ġcorresponding":12188,"Ġlin":12189,"ĠSustain":12190,"eto":12191,"Value":12192,"Ġcatalog":12193,"pson":12194,"Ġreferring":12195,"uce":12196,"ĠShare":12197,"EE":12198,"cient":12199,"Ġattracting":12200,"Ġseal":12201,"ĠExchange":12202,"Ġappell":12203,"Ġuncon":12204,"description":12205,"Ġmatching":12206,"aters":12207,"ĠRepublicans":12208,"Ġrigorous":12209,"Ġpays":12210,"Ass":12211,"Ġhiking":12212,"Note":12213,"economic":12214,"Ġstatute":12215,"ika":12216,"Ġhandy":12217,"Ġpollution":12218,"system":12219,"Ġthriving":12220,"Ġgambling":12221,"Ġenlarge":12222,"ORD":12223,"Ġoperated":12224,"Ġrobots":12225,".\")":12226,"Ġiter":12227,"Ġembod":12228,"places":12229,"GA":12230,"Ġhopefully":12231,"ĠJob":12232,"Ġperceive":12233,"Ġcalculate":12234,"Ġautomate":12235,"oir":12236,"Ġjournalist":12237,"auc":12238,"ĠUSD":12239,"Ġovert":12240,"Ġendorse":12241,"eenth":12242,"ĠStaff":12243,"optim":12244,")),":12245,"Ġdump":12246,"lett":12247,"Ġtub":12248,"ĠAltern":12249,"Ġoutlined":12250,"Ġposting":12251,"PP":12252,"Ġinquiry":12253,"Ġdraws":12254,"Ġculinary":12255,"Ġannoy":12256,"ĠPrivate":12257,"develop":12258,"Ġtemplates":12259,"Ġassurance":12260,"ĠGarden":12261,"hr":12262,"Ġcommunicating":12263,"Ġmeta":12264,"Ġregulated":12265,"Ġmuseums":12266,"focus":12267,"Ġviolations":12268,"ĠVery":12269,"olen":12270,"Ġindigenous":12271,"Ġscientist":12272,"ĠUnivers":12273,"ĠOp":12274,"Ġsel":12275,"Ġassociations":12276,"Ġcomprehend":12277,"Ġnights":12278,"Ġaiming":12279,"Ġlocals":12280,"Ġfaithful":12281,"Ġrelaxed":12282,"selling":12283,"Ġdisciples":12284,"ĠDeath":12285,"Ġlocked":12286,"Ġanxious":12287,"ĠCL":12288,"ho":12289,"Ġanalyzed":12290,"ĠLewis":12291,"Ġdeny":12292,"keep":12293,"ICE":12294,"Ġspirits":12295,"Ġfoundations":12296,"Ġfootprint":12297,"ĠPage":12298,"inance":12299,"Ġpoison":12300,"Ġexterior":12301,"Ġric":12302,"Ġhoney":12303,"Ġlegislative":12304,"ĠPhiladelphia":12305,"screen":12306,"Ġsmoking":12307,"Ġbones":12308,"Ġpressures":12309,"Ġdatetime":12310,"Ġholes":12311,"isure":12312,"ĠMassachusetts":12313,"profile":12314,"Ġcivilization":12315,"accur":12316,"atable":12317,"itzer":12318,"ĠHay":12319,"Ġreplacing":12320,"ilton":12321,"ĠMD":12322,"Ġ1997":12323,"Image":12324,"Ġunfor":12325,"uana":12326,"Ġtouched":12327,"Ġcelebrating":12328,"ĠPra":12329,"Ġstepped":12330,"ĠĠĠĠĠĠĠĠĠĠĠĠĠ":12331,"ĠOxford":12332,"ĠBerlin":12333,"erver":12334,"cam":12335,"ĠRepresent":12336,"Ġunfortunately":12337,"Ġjudicial":12338,"Ġreasoning":12339,"Ġthrown":12340,"Ġmechanics":12341,"Date":12342,"Ġbiblical":12343,"Ġtheoretical":12344,"Ac":12345,"ĠYu":12346,"sur":12347,"Ġunpredict":12348,"ologically":12349,"Ġscratch":12350,"rett":12351,"ĠHeritage":12352,"53":12353,"92":12354,"Ġlovers":12355,"Ġflower":12356,"commun":12357,"Ġraces":12358,"Ġhassle":12359,"Ġcertifications":12360,"Ġannouncement":12361,"upid":12362,"arding":12363,"ĠFall":12364,"Ġclinic":12365,"rank":12366,"Ġlegendary":12367,"Ġbands":12368,"Ġvalidation":12369,"keeping":12370,"ĠNavy":12371,"ĠAfghanistan":12372,"Ġcircuit":12373,"vals":12374,"Ġastr":12375,"Request":12376,"ĠFA":12377,"ntil":12378,"ĠEconomics":12379,"Ġexamining":12380,"ĠGovernor":12381,"ĠBox":12382,"ulent":12383,"Str":12384,"Ġjun":12385,"factory":12386,"access":12387,"pi":12388,"Ġchocolate":12389,"Ġ1996":12390,"Ġsuite":12391,"ĠBaby":12392,"isers":12393,"Ġwelcoming":12394,"Building":12395,"Ġallegations":12396,"ĠEnc":12397,"Ġthoughtful":12398,"ighth":12399,"Ġ``":12400,"Ġgre":12401,"ĠAlexander":12402,"Ġtie":12403,"Ġruled":12404,"pers":12405,"ĠAbraham":12406,"Ġpulumi":12407,"Ġreserve":12408,"Ġprolong":12409,"ĠAwards":12410,"ĠHawai":12411,"ĠURL":12412,"ĠBru":12413,"ĠStore":12414,"results":12415,"Ġambitious":12416,"Ġshortly":12417,"Ġfer":12418,"Ġdb":12419,"logger":12420,"Ġreforms":12421,"Ġinfluencer":12422,"Ġuphold":12423,"Ġdangers":12424,"Ġcharming":12425,"ĠRecogn":12426,"Ġreaches":12427,"Ġeligibility":12428,"essee":12429,"ĠLess":12430,"ĠPast":12431,"Ġoptional":12432,"Ġfoss":12433,"ĠSyria":12434,"Ġautomotive":12435,"Ġviable":12436,"Ġrevol":12437,"hack":12438,"Ġdies":12439,"session":12440,"gien":12441,"Ġhumble":12442,"Response":12443,"ĠRule":12444,"Ġimmigrants":12445,"Ġwitnesses":12446,"boy":12447,"Ge":12448,"Ġutter":12449,"ington":12450,"AND":12451,"ĠMarg":12452,"aws":12453,"Ġdelivers":12454,"Ġderiv":12455,"ĠIsa":12456,"Ġemphasized":12457,"ĠMeanwhile":12458,"week":12459,"ĠGive":12460,"Ġfundra":12461,"ĠAWS":12462,"Ġrescue":12463,"Ġadapted":12464,"Ġattributed":12465,"leading":12466,"Ġsciences":12467,"Ġidentical":12468,"Ġdispar":12469,"ramework":12470,"Ġhanging":12471,"Ġgau":12472,"ulative":12473,"Ġoffset":12474,"Ġcomedy":12475,"Ġpromoted":12476,"igrant":12477,"ĠOrganization":12478,"ĠSU":12479,"Ġindicating":12480,"Ġovernight":12481,"ĠKit":12482,"Fl":12483,"Ġrefres":12484,"server":12485,"Ġcope":12486,"Ġanth":12487,"Ġgardens":12488,"Ġimpressed":12489,"Ġreplied":12490,"Ġexpressions":12491,"Ġnodes":12492,"Ġlifes":12493,"Ġobservations":12494,"Ġbass":12495,"Ġglimpse":12496,"environ":12497,"Ġaimbot":12498,"ilitation":12499,"Ġscrew":12500,"vement":12501,"contin":12502,"itably":12503,"di":12504,"Ġartifact":12505,"Ġsteam":12506,"Ġblogs":12507,"bec":12508,"Ġsins":12509,"Ġchemistry":12510,"Ġguilt":12511,"Ġgenerous":12512,"ensional":12513,"ĠSite":12514,"Use":12515,"Those":12516,"osity":12517,"Ġconsisting":12518,"Ġadvent":12519,"RP":12520,"Ġboasts":12521,"Mon":12522,"represent":12523,"........":12524,"Ġassemb":12525,"Ġprofessionalism":12526,"94":12527,"Ġprobability":12528,"dney":12529,"uple":12530,"ĠMiller":12531,"Ġearliest":12532,"Ġimplies":12533,"Ġcapturing":12534,"ĠUkrainian":12535,"Ġreviewing":12536,"Ġsubscribers":12537,"Ġpatri":12538,"Ġyard":12539,"Ġenum":12540,"ĠMarc":12541,"izers":12542,"ĠBooks":12543,"Ġtrades":12544,"ĠIV":12545,"ĠSciences":12546,"Ġdebris":12547,"Ġpreservation":12548,"Pay":12549,"Ġconclusions":12550,"Ġoverseas":12551,"Ġdistress":12552,"Ġchatbots":12553,"Ġbite":12554,"controll":12555,"Ġinhabit":12556,"Ġrefuse":12557,"Ġtoile":12558,"left":12559,"Ġmodify":12560,"Ġtherm":12561,"Ġbrush":12562,"imum":12563,"Ġunfair":12564,"Ġmandatory":12565,"ĠCollabor":12566,"Ġho":12567,"Exper":12568,"Ġmoderate":12569,"tim":12570,"ĠPRO":12571,"Met":12572,"Ġ95":12573,"Ġcaps":12574,"Ġwealthy":12575,"ĠAsked":12576,"ĠEffect":12577,"ĠClinton":12578,"Their":12579,"Ġattraction":12580,"non":12581,"Ġvine":12582,"iplinary":12583,"ĠVersion":12584,"Ġfleet":12585,"ĠOnt":12586,"Ġdealt":12587,"Ġcharacteristic":12588,"Ġbreakthrough":12589,"Ġstressed":12590,"ĠMars":12591,"87":12592,"ĠHit":12593,"replace":12594,"Ġcoordination":12595,"ĠOverall":12596,"opath":12597,"Ġfinest":12598,"Ġactivists":12599,"found":12600,"abul":12601,"Ġenjoys":12602,"Ġshine":12603,"Ġbasics":12604,"risk":12605,"Ġrainbow":12606,"ĠDom":12607,"Ġvaccines":12608,"Ġdistant":12609,"Ġproteins":12610,"ĠEnvironmental":12611,"Dec":12612,"Ġpatent":12613,"iative":12614,"Ġreceipt":12615,"mann":12616,"Ġapplicant":12617,"Ġlawn":12618,"Ġdiscovering":12619,"ĠCollect":12620,"Ġ64":12621,"Ġdescriptions":12622,"iov":12623,"score":12624,"ĠMexican":12625,"ĠDubai":12626,"ĠRun":12627,"ĠUltimately":12628,"Ġcancell":12629,"Ġinvasion":12630,"elong":12631,"Ġscream":12632,"ĠSilver":12633,"pically":12634,"ĠStone":12635,"imm":12636,"ĠNHS":12637,"ĠRub":12638,"Ġprejud":12639,"ĠBureau":12640,"Ġforums":12641,"Ġcable":12642,"Ġdrew":12643,"Ġdozens":12644,"Ġenact":12645,"Ġtraject":12646,"Ġtraged":12647,"Ġholidays":12648,"Ġfierce":12649,"ructive":12650,"Ġpredicted":12651,"Ġadaptation":12652,"Ġtaxpay":12653,"Ġboot":12654,"Ġdaunting":12655,"Ġbabies":12656,"Tensor":12657,"Ġintend":12658,"mother":12659,"SD":12660,"ĠPit":12661,"cfg":12662,"Ġcounts":12663,"Ġguns":12664,"ĠArm":12665,"ĠBall":12666,"isons":12667,"ĠForest":12668,"Ġdisposal":12669,"Source":12670,"ĠCancer":12671,"mult":12672,"note":12673,"ĠProperty":12674,"Ġgene":12675,"52":12676,"ĠNE":12677,"boards":12678,"Ġoutline":12679,"ĠAssembly":12680,"Ġtape":12681,"Ġoptimizing":12682,"Ġmatrix":12683,"Ġrelies":12684,"Ġcrop":12685,"Mat":12686,"closure":12687,"never":12688,"Ġsuited":12689,"Ġhitting":12690,"ĠLater":12691,"rating":12692,"iger":12693,"Ġ1995":12694,"Ġprone":12695,"String":12696,"total":12697,"Ġoverlooked":12698,"oder":12699,"support":12700,"ĠBesides":12701,"({":12702,"Ġautonomy":12703,"Ġmixture":12704,"bra":12705,"Det":12706,"channel":12707,"ĠIoT":12708,"iami":12709,"bsolute":12710,"93":12711,"eland":12712,"ĠBridge":12713,"Ġdistinguish":12714,"Ġdear":12715,"Ġecho":12716,"ĠReviews":12717,"ĠUsers":12718,"Ġje":12719,"avior":12720,"Ġcrystal":12721,"some":12722,"Ġkernel":12723,"Ġconclude":12724,"Ġdiver":12725,"Ġundergo":12726,"Ġnegotiate":12727,"flix":12728,"Ġexplicitly":12729,"Ġbelievers":12730,"ĠDun":12731,"Ġadhere":12732,"ĠSem":12733,"ĠWebsite":12734,"Ġcuisine":12735,"Frame":12736,"Ġcompatible":12737,"Ġtens":12738,"Ġ::":12739,"Good":12740,"Ġartic":12741,"Ġremedy":12742,"ĠRus":12743,"ĠAtlantic":12744,"yr":12745,"ĠSP":12746,"Ġpm":12747,"Ġlibraries":12748,"Ġerr":12749,"ĠĠĠĠĠĠĠĠĠĠĠĠ":12750,"Ġallergies":12751,"regon":12752,"Ġgang":12753,"'):":12754,"Ġrecept":12755,"Ġparliament":12756,"ĠCultural":12757,"Ġcycles":12758,"Ġprestigious":12759,"Ġtender":12760,"Ġtitled":12761,"Ġvulnerabilities":12762,"Ġsensors":12763,"Ġveterans":12764,"Ġcure":12765,"Ġindu":12766,"Ġsteep":12767,"Ġdescribing":12768,"Ġabortion":12769,"Ġlip":12770,"have":12771,"ĠIce":12772,"Ġneural":12773,"Ġsmiled":12774,"ĠCook":12775,"held":12776,"ĠReserve":12777,"LA":12778,"Ġcamps":12779,"Ġyards":12780,"ovenant":12781,"ĠFun":12782,"boarding":12783,"Ġwrest":12784,"Ġliable":12785,"Ġrecipient":12786,"Ġappet":12787,"Ġlau":12788,"etics":12789,"ĠHub":12790,"Ġincons":12791,"54":12792,"ĠSix":12793,"Ġsubsequently":12794,"chat":12795,"generated":12796,"Ġleaf":12797,"ĠCorn":12798,"Ġvertical":12799,"arest":12800,"ĠArchitect":12801,"Ġcatast":12802,"Ġpainted":12803,"ipher":12804,"Ġedit":12805,"pher":12806,"Ġfacial":12807,"Ġattacked":12808,"Ġanalysts":12809,"Ġregret":12810,"Ġcoinc":12811,"ĠEdward":12812,"prise":12813,"Based":12814,"501":12815,"Ġinviting":12816,"ois":12817,"Ġgarage":12818,"Ġdignity":12819,"Ġintake":12820,"Ste":12821,"Ġtags":12822,"semble":12823,"ĠCastle":12824,"amination":12825,"Ġenforce":12826,"Ġprotests":12827,"ĠFollow":12828,"ships":12829,"oda":12830,"Ġdelete":12831,"adays":12832,"Ġschedules":12833,"Ġmatt":12834,"Ġphrases":12835,"Ġblessed":12836,"seed":12837,"ĠAustin":12838,"Ġjustify":12839,"Ġtolerance":12840,"istically":12841,"Ġcake":12842,"2020":12843,"Ġemphasizing":12844,"VER":12845,"Ġouter":12846,"Ġmetric":12847,"vi":12848,"ĠWales":12849,"erk":12850,"Ġkeyword":12851,"Ġhed":12852,"Ġgrad":12853,"ĠTele":12854,"Ġunre":12855,"Ġadventures":12856,"ĠSex":12857,"Ġundergraduate":12858,"Ġburied":12859,"allas":12860,"Ġmeasuring":12861,"oute":12862,"Ġfatigue":12863,"Ġrespondents":12864,"Ġgay":12865,"Ġcomparable":12866,"Ġexperimental":12867,"Ġrevealing":12868,"Ġclassified":12869,"Text":12870,"mouth":12871,"Ġtwelve":12872,"Ġpassengers":12873,"arms":12874,"ĠAssistant":12875,"Ġfeas":12876,"Ġfence":12877,"Ġdivide":12878,"ĠiPhone":12879,"Ġscoring":12880,"Ġimperative":12881,"Ġdiscourse":12882,"ĠMeta":12883,"Ġcongreg":12884,"Ġtranslate":12885,"tail":12886,"PM":12887,"Exception":12888,"Ġcoup":12889,"Ġfestivals":12890,"ĠCould":12891,"ĠSO":12892,"Ġfirmly":12893,"Ġnoble":12894,"Ġvivid":12895,"Ġinstallment":12896,"Ġelegant":12897,"ĠTit":12898,"acious":12899,"Ġrecipes":12900,"Ġelevate":12901,"Ġoutlook":12902,"Ġembraced":12903,"Ġspreading":12904,"verance":12905,"Ġapex":12906,"AE":12907,"tic":12908,"Ġaccred":12909,"Ult":12910,"char":12911,"Ġdowntown":12912,"RANT":12913,"ĠAlliance":12914,"Ġslave":12915,"Ġpersistent":12916,"egree":12917,"ĠCountry":12918,"unit":12919,"anting":12920,"thur":12921,"bone":12922,"ĠBetween":12923,"Ġburst":12924,"Ġscrutiny":12925,"ĠTurkish":12926,"nedy":12927,"Ġwithstand":12928,"ĠEnsure":12929,"Ġforum":12930,"Ġrect":12931,"aga":12932,"ĠDepending":12933,"Ġconnects":12934,"Ġstrikes":12935,"Ġmothers":12936,"ĠEnhancement":12937,"ĠTrib":12938,"itches":12939,"ĠMobile":12940,"Ġcolumns":12941,"ĠHebrew":12942,"ĠIRA":12943,"oked":12944,"ĠKevin":12945,"ĠBrian":12946,"Ġautonomous":12947,"Ġgem":12948,"Vis":12949,"ĠRyan":12950,"amins":12951,"ĠLady":12952,"Ġunemployment":12953,"ws":12954,"Ġelderly":12955,"ATH":12956,"Ġvoted":12957,"ĠValueError":12958,"Ġmultif":12959,"Ġpressing":12960,"Ġbatteries":12961,"Ġtrails":12962,"Ġunited":12963,"sequently":12964,"Ġsouls":12965,"lining":12966,"ĠJane":12967,"metic":12968,"Health":12969,"Ġregulate":12970,"Ġendeavors":12971,"Ġhandful":12972,"papers":12973,"Ġintriguing":12974,"ĠBeaut":12975,"ĠIndones":12976,"paced":12977,"Ġfortress":12978,"addle":12979,"upt":12980,"Ġoccupation":12981,"Hand":12982,"hard":12983,"Ġmeanings":12984,"Ġperfection":12985,"live":12986,"Ġreim":12987,"Ġstruggled":12988,"Ġliver":12989,"xx":12990,"ORT":12991,"Ġtune":12992,"Ġwarehouse":12993,"Ġpowder":12994,"Ġsatell":12995,"Ġlegends":12996,"Ġhypothes":12997,"Ġbackup":12998,"Ġconvince":12999,"Ġboom":13000,"ĠHindu":13001,"Ġstating":13002,"Ġpartly":13003,"Gl":13004,"Call":13005,"ĠMom":13006,"Ġlaunching":13007,"ĠAnalytics":13008,"Ġessays":13009,"ĠJosh":13010,"success":13011,"Ġpermissions":13012,"Ġpanic":13013,"Ġconverted":13014,"Ġsynthes":13015,"mg":13016,"ĠRos":13017,"Ġspan":13018,"Ġoccupied":13019,"ignment":13020,"ĠNATO":13021,"Ġcontexts":13022,"Ġparamount":13023,"Ġpartial":13024,"Ġdrove":13025,"Ġdefendants":13026,"thodox":13027,"uru":13028,"Ġbuzz":13029,"Ġphilosophical":13030,"Ġster":13031,"Ġcollaborations":13032,"ĠBody":13033,"ĠHouston":13034,"Ġsymbolic":13035,"Ġobsc":13036,"ĠAlong":13037,"Ġshower":13038,"Ġdocumented":13039,"Ġ..":13040,"Ġbeaches":13041,"Ġ1994":13042,"ĠCore":13043,"Pres":13044,"Ġ120":13045,"91":13046,"Ġromance":13047,"ĠNear":13048,"Ġtranslated":13049,"Ġtransfers":13050,"full":13051,"oting":13052,"Ġamenities":13053,"Ġschemes":13054,"aS":13055,"ĠAuto":13056,"Throughout":13057,"Ġvet":13058,"fields":13059,"Ġkwargs":13060,"vised":13061,"ova":13062,"Ġdeployed":13063,"ĠMental":13064,"Ġsits":13065,"ĠGreg":13066,"Ġoutlets":13067,"oust":13068,"ĠIRS":13069,"amic":13070,"Ġbitter":13071,"Ġinvestigations":13072,"Ġconnectivity":13073,"Ġorche":13074,"aphor":13075,"Ġaltogether":13076,"Ġinternationally":13077,"Ġtrim":13078,"ĠWriting":13079,"Ġdepict":13080,"LM":13081,"51":13082,"embed":13083,"ĠArgs":13084,"owship":13085,"Ġdisappear":13086,"eu":13087,"Ġcorn":13088,"matic":13089,"ĠFive":13090,"Did":13091,"ĠBattle":13092,"Ġstrengthening":13093,"Ġinadequ":13094,"Fact":13095,"Ġscheduling":13096,"Ġmaintains":13097,"Ġdeadline":13098,"Connect":13099,"Ġhanded":13100,"Ġtreats":13101,"Ġsanctions":13102,"Ġhesitate":13103,"Invest":13104,"Ġprofitability":13105,"Commerce":13106,"Ġprol":13107,"ĠFilm":13108,"otype":13109,"Ġsynthetic":13110,"Ġoversight":13111,"Ġpp":13112,"('--":13113,"Ġcave":13114,"Ġpulling":13115,"Ġstressful":13116,"aba":13117,"Ġmattress":13118,"Ġdiscrimin":13119,"Ġresearcher":13120,"Ġhouseholds":13121,"iley":13122,"User":13123,"tag":13124,"days":13125,"sys":13126,"ĠSpot":13127,"ĠON":13128,"Ġgraduated":13129,"ĠDur":13130,"arded":13131,"Life":13132,"Ġprevents":13133,"asury":13134,"parameters":13135,"Ġprovince":13136,"ĠBrook":13137,"Ent":13138,"Ġprediction":13139,"ĠBarb":13140,"Ġhonesty":13141,"Sign":13142,"Ġaesthetics":13143,"github":13144,"Ġkiss":13145,"ĠSaudi":13146,"Ġaluminum":13147,"Ġprescribed":13148,"iller":13149,"Ġsisters":13150,"eding":13151,"Ġoutputs":13152,"Ġcontroversy":13153,"pub":13154,"income":13155,"Ġallergic":13156,"ĠNation":13157,"ĠBh":13158,"ĠTruth":13159,"Ġdisruption":13160,"Ġmercy":13161,"Ġencouragement":13162,"Ġpipe":13163,"personal":13164,"Ġbetray":13165,"Ġskip":13166,"Ġdietary":13167,"Ġfired":13168,"ijuana":13169,"ĠRegist":13170,"uced":13171,"ĠTaking":13172,"ancers":13173,"ben":13174,"Ġjail":13175,"Ġresearching":13176,"orph":13177,"Ġparticles":13178,"charg":13179,"ĠCash":13180,"ĠVictoria":13181,"ENSE":13182,"issance":13183,"ĠFreedom":13184,"Ġsegments":13185,"ĠSource":13186,"ĠPoland":13187,"icular":13188,"ĠMoh":13189,"Ġhazard":13190,"Ġcompounds":13191,"Ġappointments":13192,"Ġcoping":13193,"Ġindul":13194,"Ġlyrics":13195,"Ġfraction":13196,"(-":13197,"onents":13198,"Ġshr":13199,"Ġtutorial":13200,"Ġdefines":13201,"ĠSydney":13202,"800":13203,"Thanks":13204,"Ġstabil":13205,"Ġmethodology":13206,"Main":13207,"Ġdisciplines":13208,"overs":13209,"Ġwarmth":13210,"Ġapproaching":13211,"ĠAmendment":13212,"ĠÂ«":13213,"ĠLiter":13214,"Ġmakers":13215,"Ġbalancing":13216,"ĠCrypt":13217,"Dep":13218,"Ġthesis":13219,"ĠSelect":13220,"Ġexcel":13221,"Ġoutreach":13222,"Ġhal":13223,"ĠTable":13224,"Ġcig":13225,"Gen":13226,"Ġmidst":13227,"ĠTenn":13228,"Ġlimiting":13229,"Ġmigr":13230,"Ġreck":13231,"ĠHo":13232,"ogs":13233,"ĠFast":13234,"Ġcompassionate":13235,"card":13236,"Ġnewest":13237,"Ġliberty":13238,"ĠAdvanced":13239,"Ġcommerce":13240,"Input":13241,"ĠCold":13242,"ĠWARRANT":13243,"Ġradiation":13244,"gt":13245,"fficiency":13246,"OK":13247,"Ġindoor":13248,"Ġemperor":13249,"Ġencryption":13250,"Ġdevastating":13251,"Ġna":13252,"Ġcompound":13253,"Ġbelieving":13254,"Ġforgiveness":13255,"Ġcircles":13256,"Ġvitamin":13257,"fish":13258,"ãģ":13259,"Ġprotects":13260,"ĠTony":13261,"Ġlocate":13262,"isive":13263,"Ġcoupled":13264,"\");":13265,"Ġpointing":13266,"Ġvolatility":13267,"Ġwing":13268,"Speaker":13269,"feed":13270,"stage":13271,"Ġunions":13272,"Ġpromotions":13273,"nesota":13274,"MB":13275,"aceted":13276,"Ġsimplicity":13277,"ĠĠĠĠĠĠĠĠĠĠ":13278,"Ġarranged":13279,"ĠJacob":13280,"ĠVisit":13281,"Ġprogrammes":13282,"thereum":13283,"ĠOregon":13284,"pol":13285,"ĠTransport":13286,"QU":13287,"Ġmedieval":13288,"space":13289,"Ġedges":13290,"NAME":13291,"ĠMonth":13292,"Ġhill":13293,"Ġleaks":13294,"rane":13295,"gettable":13296,"Ġward":13297,"DI":13298,"ĠNothing":13299,"esh":13300,"Ġlaboratory":13301,"Ġlacking":13302,"Ġconstitute":13303,"ĉĉĉ":13304,"Ġsurgical":13305,"Ġcooling":13306,"Ġancestors":13307,"ĠExpert":13308,"eft":13309,"Ġdiagnosed":13310,"ĠGh":13311,"Ġfrag":13312,"people":13313,"ĠTherapy":13314,"Ġsoccer":13315,"ige":13316,"Ġsingles":13317,"irk":13318,"Ġstepping":13319,"Ġnamely":13320,"Ġtattoo":13321,"Ġaspiring":13322,"ĠJenn":13323,"pad":13324,"opes":13325,"MT":13326,"Ġsubmission":13327,"Ġexpecting":13328,"ĠSong":13329,"ĠOcean":13330,"inte":13331,"'].":13332,"alg":13333,"Ġshelter":13334,"umbers":13335,"Ġgram":13336,"uri":13337,"ĠIndex":13338,"Ġcohes":13339,"Ġphysicians":13340,"esc":13341,"Ġdecreased":13342,"ĠJoin":13343,"iffs":13344,"Ġchapters":13345,"Ġvirtue":13346,"Ġstolen":13347,"Ġpositioning":13348,"ĠSC":13349,"Ġrankings":13350,"grid":13351,"Ġphotographer":13352,"Ġmeasurement":13353,"Ġimpactful":13354,"ancer":13355,"Ġpassions":13356,"\"])":13357,"XX":13358,"Ġwarned":13359,"ĠDa":13360,"ĠRespons":13361,"select":13362,"Ġillum":13363,"rons":13364,"Ġtower":13365,"ockets":13366,"otypes":13367,"ervices":13368,"Ġinfer":13369,"ĠDead":13370,"79":13371,"ĠMiami":13372,"eps":13373,"winning":13374,"Ġshowcases":13375,"Ġtournament":13376,"ĠScottish":13377,"Ġnit":13378,"Ġsuppose":13379,"Ġislands":13380,"Ġconsiders":13381,"Ġformats":13382,"Ġbriefly":13383,"Ġepic":13384,"ĠFL":13385,"rospect":13386,"Ġinquiries":13387,"Ġmissions":13388,"Business":13389,"Ġbuilder":13390,"Ġoccurring":13391,"Ġdeparture":13392,"Ġcategor":13393,"Ġsecular":13394,"(__":13395,"Ġspecialize":13396,"Ġnevertheless":13397,"Ġorientation":13398,"ĠText":13399,"Personal":13400,"Ġenfor":13401,"perties":13402,"Ġspray":13403,"ĠRail":13404,"Ġhoped":13405,"hash":13406,"Beyond":13407,"ĠGospel":13408,"Ġshareholders":13409,"Ġexceptions":13410,"ibles":13411,"Ġepid":13412,"omed":13413,"ĠSimon":13414,"incess":13415,"Ġpoet":13416,"think":13417,"Ġmodest":13418,"Ġwondered":13419,"ĠClimate":13420,"ĠRaj":13421,"Ġhind":13422,"hot":13423,"debug":13424,"Ġvessels":13425,"Ġsatisfying":13426,"David":13427,"72":13428,"Ġ250":13429,"Ġfinishing":13430,"Ġprayers":13431,"ĠDat":13432,"Ġprovin":13433,"ju":13434,"Ġelevated":13435,"Ġbears":13436,"Ġrepayment":13437,"aha":13438,"Ġgovernor":13439,"Ġranges":13440,"Ġcarrier":13441,"ĠChairman":13442,"Ġinequality":13443,"Ġpodcasts":13444,"ĠTa":13445,"ugged":13446,"Ġdjango":13447,"appropriate":13448,"mers":13449,"Ġclever":13450,"Ġrecoil":13451,"future":13452,"Ġchatbot":13453,"Ġdistricts":13454,"Ġash":13455,"Ġsimpler":13456,"Ġdominated":13457,"ĠOntario":13458,"ĠSac":13459,"Ġliquidity":13460,"Ġhandbags":13461,"ĠHunt":13462,"Ġzones":13463,"Create":13464,"links":13465,"Ġgently":13466,"Ġtraditionally":13467,"Ġloaded":13468,"aki":13469,"Ġforb":13470,"Ġgrain":13471,"ĠMorgan":13472,"Ġrestored":13473,"Ġblessing":13474,"ĠExcell":13475,"ĠTR":13476,"Though":13477,"ĠThroughout":13478,"lastname":13479,"Yet":13480,"MO":13481,"cloud":13482,"Ġgraduates":13483,"Ġidentities":13484,"orp":13485,"Ġseverity":13486,"Ġsenses":13487,"Ġfiber":13488,"Ġoneself":13489,"Ġdeserves":13490,"NS":13491,"aple":13492,"Ġleisure":13493,"\"))":13494,"Ġcareg":13495,"Ġenlargement":13496,"inge":13497,"ilateral":13498,"Ġmobil":13499,"Ġrings":13500,"when":13501,"ĠCertain":13502,"Ġindication":13503,"Ġknee":13504,"Ġsooner":13505,"ĠKennedy":13506,"Sometimes":13507,"alid":13508,"ito":13509,"elect":13510,"Ġnavigation":13511,"Ġhospitality":13512,"ĠMoses":13513,"ĠTaiwan":13514,"amiliar":13515,"ĠOpenAI":13516,"strip":13517,"Ġshifted":13518,"Ġceiling":13519,"Consider":13520,"Dat":13521,"Ġcompetent":13522,"Ġshoulders":13523,"isible":13524,"Ġactress":13525,"ĠLooking":13526,"ĠHealthcare":13527,"Ġacute":13528,"Ġ~":13529,"Ġ99":13530,"ĠVPN":13531,"Ġpurely":13532,"ĠBuff":13533,"Ġdragon":13534,"2019":13535,"Ġprize":13536,"Ġacted":13537,"Ġdatabases":13538,"Ġconcentrate":13539,"oscow":13540,"Ġscam":13541,"rose":13542,"Ġhygien":13543,"ĠComputer":13544,"Ġpharmaceutical":13545,"dam":13546,"Ġcopper":13547,"owa":13548,"Ġ1992":13549,"Ġrhet":13550,"aughters":13551,"Ġvalidate":13552,"Tech":13553,"Ġunderground":13554,"Ġpayroll":13555,"Ġconsuming":13556,"ACT":13557,"Ġgrades":13558,"ĠNetflix":13559,"Ġresemb":13560,"bes":13561,"Ġforests":13562,"Ġsanct":13563,"GO":13564,"Ġingredient":13565,"Ġconsumed":13566,"Ġpredictive":13567,"ĠOpportun":13568,"consin":13569,"Ġacquiring":13570,"ĠException":13571,"Ġlaptop":13572,"Ġfunnel":13573,"ĠPope":13574,"Ġperseverance":13575,"settings":13576,"Ġseniors":13577,"Ġreluct":13578,"Ġscripts":13579,"mate":13580,"ASS":13581,"iminals":13582,"Ġappropriately":13583,"Ġdensity":13584,"Ġmathematics":13585,"Choosing":13586,"ĠGPT":13587,"focused":13588,"pot":13589,"Ġavoided":13590,"iege":13591,"ĠSeason":13592,"Ġdism":13593,"Ġsecretary":13594,"Ðµ":13595,"Ġdestinations":13596,"ĠOptions":13597,"Ġaccelerate":13598,"ĠAqu":13599,"Ġrocks":13600,"Ġdescend":13601,"Ġcommentary":13602,"Bel":13603,"Ġ],":13604,"falls":13605,"Ġtrusting":13606,"Ġblocked":13607,"Ġincon":13608,"ĠNiger":13609,"El":13610,"ĠTalk":13611,"Ġbedroom":13612,"Ġinfluencing":13613,"Ġhaunt":13614,"Ġviral":13615,"Pat":13616,"nity":13617,"ĠDiff":13618,"Ġarom":13619,"Ġdisabled":13620,"chron":13621,"Ġspeeds":13622,"Ġintimid":13623,"Ġanswering":13624,"ĠSchools":13625,"uscript":13626,"Ġheroes":13627,"Ġ39":13628,"Ġinnocent":13629,"Ġbypass":13630,"Ġvariation":13631,"ĠAy":13632,"Ġmentally":13633,"Ġtestimonials":13634,"63":13635,"Ġdistur":13636,"ockey":13637,"ĠSummer":13638,"ilot":13639,"Ġtriggers":13640,"Ġanalytical":13641,"oned":13642,"atter":13643,"acent":13644,"]),":13645,"iator":13646,"ugs":13647,"Ġclosest":13648,"DC":13649,"ĠProducts":13650,"png":13651,"Ġdevelops":13652,"ĠFaith":13653,"ĠGaza":13654,"ĠMalays":13655,"Ġpremises":13656,"IB":13657,"ĠOak":13658,"Ġclimb":13659,"Ġbelt":13660,"olitan":13661,"itutional":13662,"cker":13663,"ĠBirth":13664,"ĠLam":13665,"Ġinformative":13666,"ols":13667,"agle":13668,"Ġdistinguished":13669,"Ġbreaches":13670,"mock":13671,"ĠEver":13672,"ographics":13673,"ĠJason":13674,"ĠUm":13675,"Ġvintage":13676,"Ġcustody":13677,"Ġdos":13678,"69":13679,"anqu":13680,"shore":13681,"airy":13682,"ĠLeon":13683,"ĠEX":13684,"Client":13685,"del":13686,"Ġattendance":13687,"Ġquit":13688,"iants":13689,"ĠMarsh":13690,"ivic":13691,"Ġindivid":13692,"idency":13693,"Ġexpectation":13694,"Ġcarpet":13695,"Ġpreserved":13696,"ĠRoss":13697,"Ġdare":13698,"ahu":13699,"Ġlaser":13700,"Profess":13701,"Norm":13702,"Ġunforgettable":13703,"Benefits":13704,"Ġbarg":13705,"children":13706,"Ġcluster":13707,"ifiable":13708,"Ġminerals":13709,"bat":13710,"Ġsnap":13711,"Ġweights":13712,"Ġsupervision":13713,"Ġdupl":13714,"Ġarchae":13715,"Therefore":13716,"Ġtransit":13717,"chnology":13718,"emption":13719,"Ġencounters":13720,"atar":13721,"ĠCT":13722,"Ġreinforce":13723,"Ġvillages":13724,"ims":13725,"Ġrelent":13726,"ICENSE":13727,"uma":13728,"Ġemergence":13729,"ido":13730,"Ġminimizing":13731,"otion":13732,"Ġdeclined":13733,"herence":13734,"Post":13735,"Ġbom":13736,"ĠWik":13737,"Ġintuition":13738,"Ġvacuum":13739,"atisf":13740,"Ġgrip":13741,"loads":13742,"Ġstylish":13743,"onder":13744,"numpy":13745,"Ġrelates":13746,"ĠReading":13747,"Ġfortune":13748,"Ġvisitor":13749,"ĠMand":13750,"Ġfolk":13751,"about":13752,"Ġbudgets":13753,"Ġreads":13754,"MR":13755,"mt":13756,"ĠLuke":13757,"ĠEve":13758,"ĠVillage":13759,"ĠPutin":13760,"ĠLoan":13761,"inates":13762,"erget":13763,"ĠMichel":13764,"phy":13765,"ĠSay":13766,"Ġbeautifully":13767,"ĠDrive":13768,"Ġrenewed":13769,"tees":13770,"know":13771,"Ġrituals":13772,"ĠScripture":13773,"Mean":13774,"Ġdense":13775,"Ġbelongs":13776,"xide":13777,"Ġsituated":13778,"Ġseasonal":13779,"Ġmarking":13780,"Ġpersonalities":13781,"Ġreconcil":13782,"Ġsubstantially":13783,"ĠMIT":13784,"Ġprioritizing":13785,"Ġtechnicians":13786,"network":13787,"Ġmarine":13788,"Ġrelied":13789,"ĠKa":13790,"essed":13791,"ĠHad":13792,"Ġpipes":13793,"Ġdistribute":13794,"wer":13795,"ĠParticip":13796,"ĠMaryland":13797,"Ġveteran":13798,"ĠKansas":13799,"Ġstrictly":13800,"ĠMinnesota":13801,"Keep":13802,"Ġpowered":13803,"Ġenerget":13804,"Ġgrit":13805,"IE":13806,"ĠTips":13807,"Ġmetaphor":13808,"ĠPolitical":13809,"enc":13810,"ĠFinal":13811,"Ġideology":13812,"nership":13813,"account":13814,"ĠIron":13815,"levant":13816,"Ġzip":13817,"umni":13818,"ĠExplore":13819,"pytest":13820,"Following":13821,"Ġrelatives":13822,"Ġempowerment":13823,"Ġsentences":13824,"Ġrefugees":13825,"ĠSri":13826,"ignt":13827,"Ġstopping":13828,"Ġrealities":13829,"Ġprevalent":13830,"Ġgeneric":13831,"Ġtricks":13832,"Ġslot":13833,"Ġnovels":13834,"ĠJean":13835,"Ġnull":13836,"ĠOtt":13837,"Ġbinding":13838,"Ġaids":13839,"Ġtranscript":13840,"claimed":13841,"Ġeastern":13842,"ĠTan":13843,"ĠMort":13844,"Ġfright":13845,"Ġalleviate":13846,"Ġcontempl":13847,"itated":13848,"template":13849,"ĠTree":13850,"Frequently":13851,"Ġmodules":13852,"Ġventures":13853,"Ġadmin":13854,"Ġfounders":13855,"Ġforemost":13856,"Ġassessed":13857,"Ġauthentication":13858,"Ġnegligence":13859,"âĸ":13860,"Ġintentional":13861,"ĠDiego":13862,"Ġfairness":13863,"isy":13864,"ollar":13865,"Ġinjust":13866,"door":13867,"Ġnore":13868,"asting":13869,"inging":13870,"ĠCustomers":13871,"Ġdonations":13872,"ĠSym":13873,"Ġtennis":13874,"Ġdecentralized":13875,"Ġgrounded":13876,"ositive":13877,"Ġunh":13878,"achers":13879,"ablished":13880,"accept":13881,"Ġappearances":13882,"Ġpink":13883,"Ġbiology":13884,"iencies":13885,"\"):":13886,"84":13887,"Ġdeadlines":13888,"Off":13889,"tan":13890,"ĠWin":13891,"Ġsampl":13892,"ĠAtlanta":13893,"61":13894,"ĠCambridge":13895,"Ġobed":13896,"ĠFDA":13897,"Ġ44":13898,"bean":13899,"ependence":13900,"Ġbin":13901,"third":13902,"Ġrealizing":13903,"62":13904,"ĠPrivacy":13905,"API":13906,"VAC":13907,"Ġdisclose":13908,"Ġmakeup":13909,"Ð°":13910,"ometry":13911,"Ġadvancing":13912,"Ġsocio":13913,"Ġbrokers":13914,"Ġreprodu":13915,"dings":13916,"Ġreserves":13917,"seless":13918,"Ġgallery":13919,"abase":13920,"ĠWy":13921,"ĠWorth":13922,"FS":13923,"ouri":13924,"ĠSkills":13925,"atial":13926,"ĠTru":13927,"adows":13928,"Ġneighborhoods":13929,"Ġcrops":13930,"ĠSEC":13931,"Ġjazz":13932,"ferrer":13933,"Ġego":13934,"ĠHung":13935,"ĠDean":13936,"ĠAli":13937,"Ġlinear":13938,"Ġcautious":13939,"speed":13940,"Ġsimilarly":13941,"ometric":13942,"ĠBry":13943,"Ġtrajectory":13944,"ĠSeattle":13945,"Ġimagined":13946,"ĠNether":13947,"ĠFile":13948,"Ġtent":13949,"ĠKy":13950,"Ġresh":13951,"azing":13952,"Ġstd":13953,"Ġlips":13954,"Ġdancing":13955,"Ġliteracy":13956,"riminal":13957,"ĠAdvent":13958,"Ġsmartphone":13959,"ĠYan":13960,"Bet":13961,"Ġsystemic":13962,"Ġstance":13963,"ĠCome":13964,"FO":13965,"Ġdeduct":13966,"ĠForum":13967,"Ġroutines":13968,"Ġambition":13969,"ASE":13970,"Ġbother":13971,"Ġpupils":13972,"Ġlifelong":13973,"Ġsaves":13974,"Ġsof":13975,"ĠEdge":13976,"ĠAnton":13977,"ĠFront":13978,"Ġspectacular":13979,"Ġpositioned":13980,"Ġsupplied":13981,"Integ":13982,"ĠSpr":13983,"dess":13984,")):":13985,"Ġrhythm":13986,"Ġtoll":13987,"ysical":13988,"Ultimately":13989,"lan":13990,"Writ":13991,"hu":13992,"cache":13993,"Ġhemp":13994,"Ġcinema":13995,"Ġ1993":13996,"src":13997,"ĠImagine":13998,"Ġgroom":13999,"Ġdepr":14000,"Ġarises":14001,"ĠTell":14002,"Ġmagnific":14003,"ĠHart":14004,"Ġverified":14005,"Ġreception":14006,"ĠExpress":14007,"Ġmim":14008,"Ġassumption":14009,"estamp":14010,"Ġkm":14011,"Ġteamwork":14012,"Ġcentered":14013,"Ġpuzzle":14014,"ĠHat":14015,"icates":14016,"Ġtoy":14017,"Ġequitable":14018,"ĠChem":14019,"aired":14020,"Ġsinger":14021,"Opt":14022,"ĠMoscow":14023,"comed":14024,"pur":14025,"Ġnost":14026,"learning":14027,"Ġfundamentally":14028,"prehens":14029,"oria":14030,"ĠMcK":14031,"uke":14032,"appro":14033,"Ġcoastal":14034,"Ġchron":14035,"ĠLicensed":14036,"Ġcloth":14037,"ĠHun":14038,"Ġwholesale":14039,"Ġimpart":14040,"Ġtribes":14041,"Ġaccomplishments":14042,"Ġgenes":14043,
[...]
